/**
  ******************************************************************************
  * @file    network_data.c
  * @author  AST Embedded Analytics Research Platform
  * @date    2026-03-27T10:58:24+0530
  * @brief   AI Tool Automatic Code Generator for Embedded NN computing
  ******************************************************************************
  * Copyright (c) 2026 STMicroelectronics.
  * All rights reserved.
  *
  * This software is licensed under terms that can be found in the LICENSE file
  * in the root directory of this software component.
  * If no LICENSE file comes with this software, it is provided AS-IS.
  ******************************************************************************
  */

#include "network_data.h"
STAI_ALIGNED(8)
const uint64_t g_network_weights_array[112517] = {
  0x3dc6111e3e9a50caU, 0xbd8edb4fbe4efef6U, 0xbe8a98e4be66539aU, 0xbe819198be6a2312U,
  0xbd3b3ced3e5dc804U, 0x3e125a6d3e2455ceU, 0x3e0ef474bd946cd7U, 0xbed70e313ea2c2d8U,
  0x3d017963be8d1b35U, 0xbe37ac8cbd432814U, 0x3d8f27fe3b6f437cU, 0xbd5e83633d625ea7U,
  0x3e367ceb3dac44f6U, 0x3db870823e4842b0U, 0xbd4447413e445ccdU, 0x3e0c65ddbd3a6dc5U,
  0xbe3bba00bd29a997U, 0x3e2e23a63db02a08U, 0xbd1cdea73d38c20bU, 0xbdce6df53d11d6fbU,
  0x3e2c3c133e14f8f2U, 0x3df4a8e5bdf70ec0U, 0x3e02cb8d3d99a1f1U, 0xbee58095bdb0d15fU,
  0x3d9e4ddd3e983c5bU, 0x3d70dea9be633ddeU, 0xbd73b4153e5be4daU, 0xbe167063bece9be3U,
  0xbe0daf963e81a907U, 0x3e834e593d75def3U, 0x3cef90193c8ddbceU, 0xbe580bfb3d522d5dU,
  0x3c854dfebdd1b52bU, 0x3d2010993e5fbddcU, 0xbc75d5fcbd9ad135U, 0x3e1bce1d3bbe8a66U,
  0xbe73cc91be6bced6U, 0xbc345fd7bd6a75d9U, 0x3c441df1bd097043U, 0x3e70132f3e549561U,
  0xbe3f102f3d0dfbaeU, 0xbe358cd1be83259dU, 0xbd176498bd1d9b5cU, 0x3e6d143f3e1ffc73U,
  0x3d7017f93e7eef5eU, 0x3e3656e53e4666c6U, 0xbddb90df3dcc7471U, 0x3df2ab253cdcd0c6U,
  0xbe274009bdf24c8cU, 0xbe5d9d9dbe08d151U, 0x3dae0ab9be3830f4U, 0x3e113aa5be56cb6aU,
  0xbd08cc0c3d06187eU, 0x3e217b4d3d915e12U, 0xbdfd163e3d25c9f1U, 0x3de66afb3d827f59U,
  0x3dee7a433e32f384U, 0xbd44a093bd68659bU, 0xbe7a39ff3e02a8b2U, 0x3cbaf2de3d8c5946U,
  0x3d1d0d31bdaeaaefU, 0x3e0db6bb3e00333aU, 0xbc8f46bf3d1b3f13U, 0x3de1b9e1be8755ccU,
  0xbe7536493e1a3507U, 0x3e6a5eaebd5d9753U, 0x3daa3369be367dfeU, 0x3df165123d2dae68U,
  0x3e9989a83c61c524U, 0xbdb3fb9dbd796a5eU, 0xbe4878813e28e71aU, 0xbd3bb1e1be7a30d7U,
  0x3d83208a3cb9460cU, 0xbdbe74563e0b0e1bU, 0x3d44a34ebd259cb1U, 0xbd63941dbcd8fbe8U,
  0x3df0483f3e05d78dU, 0xbcd080dc3c3c2a7cU, 0x3dcacaa63e21cb64U, 0x3e50dfeb3dde5889U,
  0xbe0ed6853c1f694dU, 0x3e5622c53e6cd3a2U, 0x3e6b792d3e1d4484U, 0xbe90d272bcb44049U,
  0xbea453513de90ad1U, 0xbe15ad21be999b64U, 0x3e287d50bda0c87aU, 0x3e8762e13d93b5e6U,
  0x3ce373033dbfcd0aU, 0xbe801ddd3dd50ccbU, 0x3d9723edbced6bc4U, 0x3dd61a8b3e23383bU,
  0x3d7537033e453247U, 0xbe6b71d8bd764722U, 0x3e0fd48cbe736ab8U, 0x3e1768df3e514ccbU,
  0x3dbf4bcc3d0c060fU, 0xbbca6fd83e228cbdU, 0xbdecfe30bde58fd8U, 0xbe1d6e2fbe808108U,
  0x3ddf013ebe0b15dcU, 0x3e132111bcbf4266U, 0x3daf4e1b3e7005f1U, 0xbdbe8ecfbc27b00aU,
  0x3e06d9433e2739d0U, 0x3db5553e3e120e17U, 0x3dc2137d3de13376U, 0x3e1677fb3e2c93baU,
  0x3e21e9103e3c41d4U, 0xbc8548f13e29d534U, 0x3d89e8a83e08efcbU, 0x3e1c0063bd8f1682U,
  0xbd8bda1c3e244212U, 0xbe16eda83e365ba0U, 0x3dfab40a3dede408U, 0x3e526e78be7cbf57U,
  0xbddf8be43e646417U, 0x3e00dbc8bb2fc663U, 0x3d78876e3d49bc94U, 0xbdb3e64b3e0a223cU,
  0x3d735df53e1cb0ffU, 0xbe73d199bb44522aU, 0x3e3a0303bd69de63U, 0xbde1a04dbe0d1968U,
  0xbdc5a90c3e71ea7cU, 0x3d9e03f33dbd53fdU, 0x3e8430893d8b1a4eU, 0xbe2174bb3a0212cdU,
  0x3d1120933e4db231U, 0xbe2f4151bea27fbaU, 0xbc8807a33e130b4eU, 0x3de1e4aa3cd6de16U,
  0xbda787393e3dfd60U, 0x3e097c253dae50bdU, 0xbe644e2fbda9630aU, 0x3d9b301cbdac8c82U,
  0xbc88f913be6720b6U, 0x3e137a2e3cc23ba1U, 0x3e98fdcb3cdef9e7U, 0xbd1fc8c13d5d162eU,
  0xbb7d8bc53d801856U, 0x3db29ae23e0fd56fU, 0x3b0403033e24c46dU, 0x3c1293e13d98ba9aU,
  0xbbea2fff3daffa45U, 0xbd9aecc0bae6769dU, 0x3ccb45c8bca58662U, 0xbc1a196abc679ad6U,
  0xbb19980f3d418ae8U, 0x3d3a4340bae454d3U, 0xbd820745bd3f4689U, 0x3cc559ed3ca0d528U,
  0xbcdf38dcbd1df598U, 0xbd3e142bbba56989U, 0x3bcb899ebb2ab4f9U, 0xbd14d1c5bb4956deU,
  0x3b337520bcc236b5U, 0xbcd78736bd745972U, 0xbbedf5efbcba7e1dU, 0xbd01ef09bb383c12U,
  0xbe3638d4be1b1025U, 0xbcbac3613d3ae9d0U, 0x3de271393b0955b7U, 0x3dc111c9bd8709e7U,
  0x3e16a16c3e489d2dU, 0x3d65cee6bd7dd10eU, 0xbd8102eabd8bc2caU, 0xbd48a2eebe24236dU,
  0x3c957826bdc0cb32U, 0xbdcb0462be028b4bU, 0xbdf5121fbe98568eU, 0xbc94ff9d3e06e646U,
  0x3da5247a3ce53d4aU, 0xbc87f22b3d94cfa8U, 0x3c464d4f3c62f8cdU, 0xbcbc2d3b3d848594U,
  0xbe6b2c18be470a7eU, 0xbdd20aa0bca20e5eU, 0x3c1a7b98be19894bU, 0x3dfebf08bde251a3U,
  0x3d0d7e853da57eb7U, 0x3d0f142fbddda3d8U, 0x3c9a9b24bd1c3742U, 0xbe06aacebdfb55a1U,
  0xbc4e015bbd994f8cU, 0xbe0af2be3b50ba89U, 0xbdc83c8cbdf50738U, 0xbdd20aac3dd71ae4U,
  0x3d97784bbe0198c2U, 0xbd46dc8ebd823bc1U, 0x3b2101d0bdaaf4a8U, 0xbdc9606b3c068775U,
  0x3d4204d6bbb0d982U, 0xb9f08fb83ca9f7b5U, 0xbe4e7d58bd7e5525U, 0xbd97ae18bd64fc3fU,
  0xbd94d688bca57406U, 0xbc42beb1bdb78597U, 0x3c779528bd989213U, 0xbc76c329bccae98eU,
  0xbe017685bc2a457cU, 0xbdbd7ec1bd9cbc61U, 0xbcbc69c9bd633357U, 0xbdb9e2553cbc56f1U,
  0xbdcb8837bd689a73U, 0x3cde1d6dbda0ed9eU, 0x3cb364163dea3886U, 0xbd00a55ebdcd41b6U,
  0xbde49c0ebe79349fU, 0xb94979d23d36e07aU, 0x3dc784783d7248d9U, 0x3d975f2c3d056caeU,
  0x3d3175283c720d2bU, 0xbd303f91bd39857fU, 0x3d6c37943cb0abc8U, 0xbe66cebf3c03adf6U,
  0x3a4f0d0fbb45f898U, 0x3c9beeb4ba133aa9U, 0xbd4f9a34be0f3f62U, 0x3daedf6fbd0afc07U,
  0x3cfbda6a3cd18889U, 0x3de46bb93e117f2bU, 0x3dc6e083bc5b7befU, 0x3d11686d3d25630bU,
  0xbe5f42cdbded65f6U, 0x3c163d86bcff3a8aU, 0x3dad7d7d3a33db2cU, 0xbe15ba8ebdbff135U,
  0xbddbd6993c44db15U, 0xbb8590c6bdc17756U, 0xbd51c59fbdade2a2U, 0xbe6d19e33cad5808U,
  0xbd54eec1bdc4d3e0U, 0xbe002a613dd8ff1eU, 0x3cf42432be581a0eU, 0x3d2eee19bd3701daU,
  0x3ce4bbcd3d1c9878U, 0xbd097d2bbd928c1aU, 0x3c175506be85a413U, 0x3a7485dfbc66c604U,
  0x3e2959983c53a745U, 0xbd15c296bc617771U, 0xbdd37bd83dc3159cU, 0x3c913d593de7b29dU,
  0xbd0a56e4bc44869dU, 0x3e0e0ae5bdbcd497U, 0x3db373a9bccaa204U, 0xbd3c61af3da32aedU,
  0xbdf0ab663c4be2e3U, 0x3b4a5750bdc8add0U, 0xbbf42ccbbe229b55U, 0x3d53f6e5bd3e3dd2U,
  0xbd67aabb3d2ab0a4U, 0x3e12802cbde76910U, 0xbddbdb02bd76b2daU, 0xbd44a39d3d7fc583U,
  0xbe7182273c2e3b1dU, 0x3dbc3515bcf89381U, 0x3da0b96c3e06eb36U, 0x3cce9a2e3d94d55dU,
  0xbdefe0c5be098191U, 0x3da31be7bd1f5929U, 0x3de377483d99b443U, 0xbdfe0287bcc3926aU,
  0x3e077653bd0a9ad4U, 0x3d25ffcf3dd2149fU, 0x3dcaed5e3d1177b0U, 0x3cf2c105bdc0de73U,
  0x3e1a1abf3d4a7f95U, 0x3d53f5153e248ad9U, 0x3e00f246bd8bea52U, 0x3e015dcb3d80f785U,
  0xbe1e61d4bd82e266U, 0xbdf3aabbbd4f3241U, 0x3e1759e1bdd556dbU, 0xbdcbcc5abd2252bfU,
  0xbdce31cabd60587dU, 0xbc9ca067bb22fdb0U, 0xbce0a4a43d43f254U, 0xbe0f0f4bbddf3fb8U,
  0xbcf852c8bd689f6dU, 0xbd6b19503d62c569U, 0xbd8b6055bd041b32U, 0x3d3ae248bdbf0e85U,
  0xbc07a6a9bd8f93a8U, 0xbd2ec9f63ddf24d9U, 0xbcc49039be468afeU, 0x3cab214abcd7e869U,
  0x3d33e2bcbdab9348U, 0x3d8d9cf4bd136b72U, 0xbe0437813dae72cfU, 0x3d87b8f73c1cd6d5U,
  0xbd907112bc98444fU, 0x3d1bcc56bdb5d037U, 0x3ce6a5053d495a7fU, 0x3d07a0a03e43060aU,
  0xbbdc27fd3d9470edU, 0xbdcfe1b4be3df8ceU, 0xbd927a28be3c6164U, 0x3d246e5dbdf11925U,
  0xbda8cbf53cd93e5eU, 0x3e04ccb0bd1cffb9U, 0xbd9c8b60bd49085cU, 0xbb978c163d0df5d3U,
  0xbdcda4363cb961bdU, 0xbd70dec73db4fffdU, 0xbe7906d03e03e20eU, 0x3df07aff3e5a6aeaU,
  0x3e133f7c3d2c416eU, 0x3e62e962bd989d4fU, 0x3e200ebf3c0661edU, 0xbc48f2f73e44850fU,
  0xbda08fe33da6ccbcU, 0x3e055a4abdbcf05aU, 0xbd6e92b2bddb45b1U, 0xbd4e9cadbd69b9caU,
  0xbce583b5bcc2a820U, 0x3e2648ee3d50a551U, 0xbdd5f7da3b60ff12U, 0xbd3317ec3cad5bd8U,
  0xbd230fbabca87460U, 0xbca5fa963d9955bdU, 0xbb2d1e1d3de4ee58U, 0x3ced7db13d5c5213U,
  0xbd58ea46bdb016f0U, 0x3dd440853da1635bU, 0x3e196624bc427581U, 0xbdfe71e93e27b832U,
  0x3e08005d3d8b34d8U, 0x3de228463d9a184aU, 0x3d6d86de3e084ecaU, 0x3e03094b3d7e8b54U,
  0x3e26ae0cbcf74155U, 0x3e0c7ab43de3f3f8U, 0x3e252ed4bae72e7eU, 0x3df8c7873df9470bU,
  0xbd3707c53de4ecdbU, 0xbd8e3f38bde0b017U, 0x3d34b8febe08800dU, 0xbd6837e7bdd088afU,
  0xbe84114abe8bb3c2U, 0x3d0436e2bca49be6U, 0xbd53c6bcbdbcdafbU, 0x3bb449c73b66791dU,
  0x3da6696db8ab0907U, 0xbde79f4f3dd00dadU, 0xbd93db3fbd9a3fe2U, 0xbd99bcfabde86859U,
  0xbcbcb392bdbaf90bU, 0x3dc5704e3aac3bc3U, 0x3cceaef5bd295f01U, 0x3bb20eaabdb59e0dU,
  0xbd10cc1ebb2b00ddU, 0xbdc67fee3c11e9f8U, 0xbe0483873d4381afU, 0x3dba2c943e8e64e9U,
  0x3d1bc5a93da027a0U, 0x3e616c023bb9c5acU, 0x3dd6344b3da06500U, 0xbdb1f9463e3243e2U,
  0xbc495acd3db19220U, 0x3e1488463dd4d0edU, 0x3cf09f943d44648eU, 0x3de5326a3cc43c67U,
  0x3d47c80abd0e2ba9U, 0x3e816af43d1d7d16U, 0x3dc4b5d3be43d196U, 0x3c594e633d6f787bU,
  0xbe0509a73e48aad2U, 0xbab9556dbe33dcadU, 0x3deb2734be410d2bU, 0xbe35f14dbdc5c727U,
  0xbdcd2d03be5f44b0U, 0xbd81c6303d58d6feU, 0xbd21e789bda4c286U, 0xbd6fa8b7bdd4a9aeU,
  0x3b112c89bda9cacfU, 0x3ce8e2d83dbf675cU, 0x3d7158723dde9cb4U, 0x3d8b3fd9be170b65U,
  0x3d916ac7bd2361b5U, 0xbd9bee3c3dfb82a9U, 0x3d95ada2be57afc9U, 0x3dc42f5bbdc95356U,
  0x3e1dc9883d881fb7U, 0xbd848988bca5ff87U, 0x3c88f9283db1a850U, 0xbd94c92c3dfda7f3U,
  0x3cb8fd1dbe0cd453U, 0x3dd9d308bdea0adaU, 0xbd258ec6bc8952fdU, 0x3db4f4ff3e35fa8bU,
  0xbe013e0bbcd62ebaU, 0xbd5b800abd3bfa3cU, 0xbdeb3364be2b1cabU, 0xbd944648be0b6556U,
  0xbe422701bda8e55cU, 0x3e1daf21bdbfa812U, 0xbe296c91bd62eeb1U, 0xbe150c663d3227e2U,
  0xbd4d8d103e04e783U, 0xbd60693ebd893e6bU, 0x3d9abf08bcfdf3b3U, 0x3d43e5443d46072dU,
  0xbaabeebcbde3b286U, 0xbd259de43d944007U, 0x3cc093693d0cbbd5U, 0xbda839debcf9c138U,
  0x3cffb6e4bdc5bc2dU, 0xbb1f43593e0126dcU, 0x3dabaad83d83610bU, 0x3db983e3bdf2174dU,
  0x3e01ad96bd815122U, 0x3d8cfe853dedce20U, 0x3dc672d1bddae49dU, 0xbc11e8cfbdd598dbU,
  0xbe4f1b973db0a3d6U, 0x3c0626363ca78d31U, 0xbcd7ff54bdedd292U, 0xbc444bd1bcaf443aU,
  0x3d0433d9bd9be577U, 0xbdacaddebd719a85U, 0xbb5da9903c06a0f4U, 0xbcf7771cbdb74f4eU,
  0x3d89e7f0bda90d12U, 0xbde77bf83d014333U, 0xbdb58b40be42f1aeU, 0x3b7b4253be00a2ebU,
  0xbd8bc826bd306ce8U, 0xbda6a36bbde16fbbU, 0xbda401d3be41d028U, 0xbdbba098bd89b0e3U,
  0x3db910a6be2b3fd0U, 0xbd88d56c3c653081U, 0xbdc7ae283d5578c3U, 0xbc4e01353e12c630U,
  0xbc2dc3833d4c5e03U, 0x3ad76819bda24175U, 0xbbaab879bd5b80a9U, 0xbc90ed643e1c8070U,
  0xbd626bf8bc4f4b79U, 0x3d7eb794be14b40cU, 0xbd9030d03ccfdb74U, 0x3d108e853d5585d9U,
  0x3cb24fba3aac2442U, 0x3ddc2cd6bcfff9edU, 0xbdebd6b8bd03e7ccU, 0x3d4ed4893da21e0fU,
  0x3e05de6dbd6eb199U, 0xbcfdabc4bd556fe7U, 0x3d26dba43da90f2cU, 0x3db6c180bdbcfedfU,
  0xbdef24b7be07d0adU, 0xbdbb15543c67d8e6U, 0xbd5b577e3ab7dc67U, 0x3d9e9ac9bd5a0522U,
  0x3c7734473cda03a2U, 0x3cc33073bcd91f17U, 0x3d2c0b3cbdf38d45U, 0xbd3bc778bc85fdc9U,
  0x3d48dedbbcf77f25U, 0xbdd4f781bd443aabU, 0xbdf3634d3d8ea84cU, 0x3ca6c5e13d3d715fU,
  0xbc7ac5323d0b461aU, 0x3dbd9d71bc9561cbU, 0x3d23f97bbd126bfdU, 0x3d5e56ccbd3c082eU,
  0x3daee08d3cbd1a2dU, 0x3cdf99a6bd8dd7c2U, 0x3b7267553dbd5027U, 0x3d08ebb0bd3c9d11U,
  0xbd84528f3d8648d4U, 0x3d9783a1bde5d0a6U, 0xbc4e0fae3d0e9241U, 0x3dbbc42f3e01f3b7U,
  0x3d849b93bcf75641U, 0xbcc2a6e93c83e45cU, 0x3cf779183cc8bb32U, 0xbcdb8a263d5a9e19U,
  0xbd39a861bdb493d4U, 0x3d77da873db348acU, 0xbd73ed823d73effeU, 0x3df315d4b950f4efU,
  0x3e26cadd3e02bb2eU, 0x3e054b7dbdd5c3e1U, 0x3cf39ebd3d4dea8dU, 0xbdf286b4bd32ddf5U,
  0x3dd629953ddeb936U, 0x3d8b4712bdaded8fU, 0x3d2707d73c04c570U, 0x3dec6b193e09ad57U,
  0xbae1bac93dd60765U, 0xbca736e83b923900U, 0x3d3cdbc9bda3ed6aU, 0xba06cce93d5c3e4eU,
  0x3e8c2d47bce1d585U, 0xbd2e9e2fbdddba6cU, 0xbdba1ca93d8a5e28U, 0xbe192eebbdbcd664U,
  0xbe899a91be69ba1dU, 0xbdcb5ab23d060395U, 0xbe32b6e8bba270e8U, 0x3dc12c353d741afaU,
  0xbde8e5eb3d9b74a2U, 0xbd25cea83c4096cdU, 0x3d873768bd511f2cU, 0xbdff8769be9187d9U,
  0xbe3cdc1e3d334f16U, 0x3c05e738be0cc2d1U, 0xbd3aaca93d3c6037U, 0xbd1ac0b8be33ffcdU,
  0x3de522bebd807e82U, 0x3c84115fbd111cbdU, 0xbdbcef703d08a500U, 0xbdb76cc53d425398U,
  0xbdd9db8dbdcd6a18U, 0x3c8368293dc0ea75U, 0xbda31d033dea68c5U, 0x3e0d36063dc01e1cU,
  0x3d8f2bce3c5880cfU, 0x3d914d673d1d48dcU, 0x3de2f0c53e52ea9bU, 0x3d59c4fd3cccda70U,
  0xbdd7cfb33b9d7531U, 0xbc7150843c671097U, 0x3d3067503dc91dd5U, 0x3d7579e6bd250a47U,
  0x3dd744393dd3495aU, 0xbd5a3026bdac1d54U, 0xbdb51932bcff4d46U, 0xbd505be53cd3e623U,
  0xbdba43c7bc0879b7U, 0xbd0b1f443dfc1cf8U, 0x3da8b4113df25885U, 0x3dedcc403d1a371eU,
  0x3da2a5ddbc4aac82U, 0x3d59f6ff3e33b263U, 0x3d55615c3e69251eU, 0xbb8ecd703c7c17a3U,
  0xbdaacea83cfdf243U, 0x3b37aed8bd1fb621U, 0x3de670aa3df0e52eU, 0x3dda4389bcedfd35U,
  0x3df9e1a1bda792c5U, 0xbe11c5103b994812U, 0xbda204dabd9f8bc7U, 0x3c82d8bdbdb9deccU,
  0x3d1e8ce83db87aa5U, 0x3b2efdc1bcf8e893U, 0x3d56a29abe32b696U, 0x3d690f1c3d9f06deU,
  0xbe39a1cdbd58edb5U, 0xbe5e7af8bd802446U, 0xbd887298be12f43dU, 0xbd85f8e33e15ed9dU,
  0xbdd59114be063ffaU, 0xbd7ec0fbbdecfb42U, 0xbdf9c6cebe0dbfdeU, 0xbe4cde42bd859eafU,
  0x3cae637e3d0db4e8U, 0xbde1cf383c502b30U, 0xbc9804d7be12856aU, 0xbd5d6914be0064a1U,
  0x3e05b3b13dc23a04U, 0xbd89068bbcacc981U, 0xbd130f31bd0c7685U, 0x3dc84bd2bc7a2896U,
  0xbe0f8188bdcfba3fU, 0xbe3629d6bd462956U, 0x3d170a40bcc72dc3U, 0xbdb1dec73dbcb1a4U,
  0xbd66d7c1bd22bc1fU, 0xbe2b8915bd323298U, 0xbe1ec79f3c65970bU, 0xbe10920fbdc79ec7U,
  0xbe77ad9b3e753412U, 0xbd6ed7273d53bc76U, 0xbe4a1feebdf62733U, 0xbcfcfbdabde2899eU,
  0x3e2003cf3e607c4aU, 0x3bfe9015bd9c07b3U, 0x3b9cd22ebd83aebaU, 0x3d101010bdd7ed11U,
  0xbe4477c1b9a0264bU, 0xbe33ed363d37822aU, 0xbe125b683c4cd609U, 0xbe2bfc363e092423U,
  0xbd925c82bce6142eU, 0xbe0b7416be30b873U, 0xbd89646b3ab0ff92U, 0xbd0a4cf7bdcc3d02U,
  0x3d6ad7073cee5c10U, 0x3c86e566bd440d04U, 0x3d809af43d54def8U, 0x3d9f46be3db0300fU,
  0x3d99b9923dcdfec3U, 0x3c5d289a3cb4d435U, 0xbd454d7a3d506b3cU, 0xbbb7e39d3cd651b0U,
  0x3d3cafff3c63d316U, 0x3d8180ffbda7c7ffU, 0xbdb30ad1bd43515eU, 0x3d8155f93db31d3cU,
  0x3d509f48bcc4629bU, 0x3b22dbaf3d3844dfU, 0xbd8e2b173db9b54aU, 0xbcc136f4bda0e50fU,
  0x3dbf8b38be127294U, 0xbd222a1c3bfb01ccU, 0x3c3b9d18bd4df430U, 0x3c3cb675bd8324bdU,
  0x3d0473d83bbd2abaU, 0xbd5d1ea83cab8a3fU, 0x3d45e053bcdbc471U, 0xbe220929bda70432U,
  0x3c871a5ebb1e669aU, 0xba847527bd066c0cU, 0xbdbf4b5fbe108ee3U, 0x3cdc442c3de5a74eU,
  0x3cfd66823cca7306U, 0x3d22da7cbc696721U, 0xbd83b493bdbb3609U, 0xbd7b3767bc64597fU,
  0xbd07c1d2bdc1fa80U, 0xbe09f5e23d09e9e4U, 0x3e09dd5abe216e33U, 0xbcc674ee3d297207U,
  0x3c6414743e1940fcU, 0xbcd65d3ebe217fb4U, 0xbcb39b00bcad114fU, 0xbdfe6592bdc6d335U,
  0xbd123bf1be144118U, 0xbd2544f63d9ab199U, 0xbe175457bdadef63U, 0xbd7bf8b23d34b0efU,
  0x3e132819bd61f811U, 0xbd39f4eabd851c14U, 0xbda2bef2bd553ea5U, 0xbe1378ba3d8a0e83U,
  0xbd474084be23b390U, 0x3d7f2d0b3bedcfebU, 0xbdce4d08bcef4a14U, 0x3d6e3a22bc830adcU,
  0xbdadc3cebe4de7bfU, 0xbdb2fc3b3b99a0f0U, 0xbd7140c23d81e7acU, 0xbcf03ae73cafaf7eU,
  0xbac0a06abd6d3784U, 0x3d27ed92be0ca90cU, 0x3d61ccd0be144e06U, 0x3d831e413be631a5U,
  0xbcfded2f3d25d4b1U, 0x3bd72b323d3819acU, 0x3c8bfbaabc058262U, 0x3d820751bb9cadf6U,
  0x3df064d9be77c93dU, 0x3da214a63d4a9886U, 0x3d1de448bd61cedfU, 0x3d05ece0bde7568aU,
  0xbc509f0abcca287eU, 0xbd276316bc19b1fdU, 0x3d16b870bac317a8U, 0xbc9e1d9fbd8e6492U,
  0xbd31448b3c1802d1U, 0xbd712424bda6cb60U, 0xbba08a5fbd271c9fU, 0x3db0bd96bd094ad0U,
  0x3cfedd303da86b4eU, 0x3d5f6c413ce3f98cU, 0x3d7169893d2c313bU, 0x3cd6b6fabd98df5dU,
  0xbe27dbdd3c20647eU, 0xbd47ae6e3d39864cU, 0x3d9f7e8dbcaf7d90U, 0xbc2b459abda86e02U,
  0xbd650de43d5bf79bU, 0xbd5b3f99bde53574U, 0x3b92065bbd02af2aU, 0xbe1004c7be2f6f8eU,
  0x3da6d82dbd259a36U, 0x3d562ed0bdcce356U, 0xbd85f99fbe26d824U, 0xbd9d96b539f54987U,
  0x3d571ea43bf74fffU, 0x3d11bc743d09e90bU, 0x3a1cb3913a1eee78U, 0xbd8423a13b36fe8aU,
  0xbd405984bdac7908U, 0x3d7438eebceb1f20U, 0xbe85b9073d4a5d6cU, 0xbdd175d8bd4d683aU,
  0xbd823cb6bd43b41dU, 0x3cd5cb8ebd1926aaU, 0x3c86d220bd22f15bU, 0xbd37684f3c3ecb3fU,
  0xbda7d92bbcb20fd8U, 0xbdb5877bbe08fd50U, 0xbcb4cc75bc1cc962U, 0x3b40ce75bdabe7acU,
  0xbd3886c3bd5abecaU, 0x3cd5105bbdcf4c4fU, 0x3d58eb69bc8a6eebU, 0xbd101b213c1b12a8U,
  0x3dc61599bea05348U, 0xbc666eff3ce9a410U, 0x3c8b6db43d747a3dU, 0x3d39be52bd71ad38U,
  0xbc26f0f1bd85a936U, 0xbc7eb160bd533053U, 0xbd92d6ac3d42b065U, 0x3d99eb503da6256fU,
  0xbd6605123caef91eU, 0x3d8f48c5bd425b7eU, 0xbb732b373da70bdbU, 0x3b81dd443bbee30eU,
  0xbd9af1ea3d81d5b5U, 0x3d9e630cbc63ffacU, 0x3ccd49ba3d8d0de3U, 0x3dbf56b93dcff573U,
  0x3e162debbe36cd28U, 0x3c29ea1cb993285bU, 0xbd9b7e683dcba99eU, 0x3dd8bf26bd05923eU,
  0xbc84773b3af3dc11U, 0xbd7e181dbd5dcae0U, 0xbd46658f3dbd35f9U, 0xbd4b90bdbda8e37cU,
  0x3b681c703d0899bcU, 0x3c5d11fc3c84fcafU, 0xbccf44ecbceca059U, 0x3dc43217b8010453U,
  0x3d892022bd081b2cU, 0xbdad2c283d94351fU, 0x3d48f65f3da0de5aU, 0xbcece7c43d70594eU,
  0xbd9e649e3d3d76dfU, 0xbc9df9babd9448e1U, 0xbb8d1e21bde4de69U, 0x3d34b0acbaca7720U,
  0xbd844881bc8aa801U, 0x3cba59123d4d3a8dU, 0xbd730cd9bd1b48e1U, 0x3ce798a13d2587deU,
  0x3c9287a03d85fedfU, 0xbd21872cbd27ce08U, 0x3c6a4b5abbd928bfU, 0xbceb447bbde063b6U,
  0x3cddbfaabd7780b8U, 0xbb30fc4f3d52e946U, 0x3d6670f1bd1d100eU, 0x3d19257fbcdb920aU,
  0xbd72a34bbe12f2abU, 0xbd29585bbdba3117U, 0xbd50866abd116047U, 0x3a264364bd8a7d65U,
  0xbdbea0ffbe0e3b33U, 0xbd1ebf1ebd939f07U, 0xbbf46470bb4d92deU, 0xbaa863d5bd33262dU,
  0xbdd9b9b4bd1e8a19U, 0xbd45d4edbe148bdaU, 0xbdf04e2abe20b097U, 0x3cef1776bdb6dd87U,
  0xbe0c3fb2bcbc7e67U, 0xbdc5cbb2bdc033adU, 0xbdfff78ebd8c00beU, 0xbd8c7d54bd66cf86U,
  0xbcc4180bbd2261c7U, 0xbc59f0603ce6fa3cU, 0xbdd74c563daffc32U, 0xbca5297cbc27132fU,
  0xbca795afbdead8a1U, 0xbd8e25dfbd921705U, 0x3d53d128bd254080U, 0x3d8926803a83e30aU,
  0x3cc03c6fbd290093U, 0x3d496010bde3e3dcU, 0x3d812d31be0646a2U, 0x3d9bef00bdc22543U,
  0xbdc4c5583dda3a9aU, 0x3dfe14563d8f4821U, 0xbd72350abd2a7e18U, 0x3c779359bd8385cfU,
  0xbcdebef73cfb823eU, 0xbdcb51f2bdb611c6U, 0xbd4bb69ebda696efU, 0xbaf58f3fbd5eae49U,
  0x3d17b81cbd84a2e1U, 0xbdb04cccbd2569c3U, 0xbdcd89d6bb18c77bU, 0xbdd7731c3ab951feU,
  0xbd8a23d2bd34767cU, 0xbde0fe36bdacfbeaU, 0x3a74adb2be026f0dU, 0x38c561333d5df440U,
  0xbd0788e5bdd04a24U, 0x3d017fbb3d2d7f51U, 0xbda6d5143b1ee0baU, 0x3ce3de62bccdf9adU,
  0xbdf850ee3d3fc09aU, 0xbd86c9fd3d5e23c5U, 0xbd6838623d5ce67aU, 0xbd99295b399ec6d6U,
  0xbda33d8bbe08d05eU, 0xbc1d9955bdfac010U, 0x3cc34a1c3d24c7d7U, 0xbd85bdcabdd3b4b7U,
  0xbdf63bfebd8cfcd1U, 0xbcc784cfbc219af3U, 0x3c8cb119bde43a69U, 0xbd017c3abb059de8U,
  0xb984db74bba1925dU, 0x3c9d34793d18213aU, 0xb99b13493c4e2cb2U, 0xbd4fc0783d343f22U,
  0xbd24fca0bd7ba61fU, 0x3da720ff3d64c548U, 0xbe3f6bbd3d8168bcU, 0x3bc8933d3d48f023U,
  0xbcc5466fbe0ab404U, 0x3b81496abca507d0U, 0x3d992b6bbc1126b0U, 0xbd5f55453dc4b40bU,
  0xbd9df2bf3d8f3c54U, 0x3ce234abbe2086cdU, 0xbd62ac22bd66b58eU, 0x3cbc7f14bd711e75U,
  0xbce7ae8cbd4df767U, 0x3c8071383c652c84U, 0x3c874aca3d517d09U, 0x3daa924d3d1708cfU,
  0x3d9b88e43d88c7afU, 0xbd1955d7bc7cebddU, 0x3d6a2dc9bcc4a7eeU, 0x3d8c4a3ebd5486d3U,
  0x3d5b133f3d435ac7U, 0x3db0a890bd972eebU, 0xbca26cd2bcea753aU, 0x3cb329a8bd67e4e2U,
  0xbd99c1603c9a0e68U, 0xbdd5ac5abd382c46U, 0xbd9250d13c77a660U, 0x3bcfbc723cf1b0abU,
  0x3d452330bd7714d8U, 0x3d6b4a28bdba47cdU, 0xbc4618b63e024e0dU, 0x3d396c07bbeafd92U,
  0xbe50ec463d0eb273U, 0xbd4dfe623d742028U, 0xbcdab8a63dab2cc8U, 0xbd64898b3d9a5739U,
  0x3d5b70ee3de84a44U, 0xbda077d0bc16da98U, 0x3da7c6893dbce834U, 0xbbf28edf3d0f2fabU,
  0x3d0a8d143cde2025U, 0x3dda1a9bbcbc7e9fU, 0x3cf69b2fbd89cc50U, 0xbd230faabb9cf7ccU,
  0x3d601f053c8df6a6U, 0x3b8eed34bcf72b2eU, 0xbc351022bd1dd3d6U, 0x3db4c2783de1c472U,
  0xbd7085a8bced3414U, 0xbcebb8063c8c8199U, 0xbde1d3493be58ff9U, 0x3d2e611b3e1d3d21U,
  0xbc571ca3be13dd8aU, 0x3d7051d8bcda8f97U, 0x3dd7f0e5bd1808c8U, 0xbe0f46dfbd09aca5U,
  0xbc15e7783d7b1bb6U, 0xbc50dbeb3c0cc621U, 0x3d2886ffbd50b3f8U, 0x3db2e13ebd0429e1U,
  0xbbf760cc3d80d22cU, 0x3dd977a93d93517eU, 0x3c8c79ffbc4add08U, 0x3dde09ebbdbd9a6aU,
  0xbe714a16bd968014U, 0x3da00de4bd896e51U, 0xbd2becc63ce72f35U, 0x3c1803eebc0f3595U,
  0xbc84ad0dbdbe91d3U, 0xbe00f4293cded6f8U, 0x3d1db2aebd415035U, 0xbe052a973c21a08aU,
  0x3c334441bb8afefeU, 0x3dd8b7d93cbb6b78U, 0xbc873d13bdeb6937U, 0x3d85fa073d3ee61bU,
  0xbd3d9c38bd8b774dU, 0xbd613dc23d94dc17U, 0x3d22d91dbe0cdb2dU, 0x3db297263c922a30U,
  0xbdfa59243b17a3dbU, 0xbd8e045b3d241c6eU, 0xbcda6f113dab5c41U, 0x3c4889123d507683U,
  0x3c4f7f643bea2b22U, 0xbcca373e3cfbf072U, 0x3dbb17fd3cc46d50U, 0xbe1620fabd676906U,
  0x3d9671b0bd7ab292U, 0x3d66972e3de9ed54U, 0xbc8e17d83de49862U, 0x3cd0dccd3dc3bd12U,
  0x3d3c2c98bd8a379dU, 0x3d88167bbc804f9eU, 0xbb333f05be35c62fU, 0x3d9ca9bcbd68296aU,
  0xbe0337623df6bcc5U, 0xba0644fa3ceb1047U, 0x3de35845bdd3bafbU, 0xbd503fa83d653d15U,
  0x3d8f2d07b80783a2U, 0x3d5cad77bdd8e433U, 0x3d54eb0cbdf14e7bU, 0xbd96aeffbc45d91fU,
  0xbd32d3c2bd8cab55U, 0x3bdd107a3dce14b8U, 0x3cf8fb38bc6a417bU, 0xbdd8ef25bd3519a8U,
  0x3d48263dbd526811U, 0xbc9467683c289f9dU, 0xbd564e8fbd0a3163U, 0x3ca2e38d3c78e896U,
  0x3cd59986be32db72U, 0x3bd13f6ebd199c95U, 0x3d79e4e5bd8eb270U, 0x3c01f189bd963143U,
  0xbe04140fbe020894U, 0xbe55b6edbda72c85U, 0xbddfb8a33d9a454eU, 0xbd6b377dbddffd2fU,
  0x3d6600f73d6fa0d4U, 0xbda9b9cf3b795fc9U, 0x3d3681b2bdc5ac3cU, 0x3d0a97e7bd3dd994U,
  0xbd7c09fabc95e7cfU, 0xbd2d80083d93d9e4U, 0xbdbd796abd0fbdeeU, 0x3db4f775bc4e5722U,
  0x3c1d64a5be773340U, 0x3d906502bb13de62U, 0x3d4374483d3e3b08U, 0xbd817d91bdedd69cU,
  0xbc369fa6bbdad4f6U, 0xbe0cff96bdc11776U, 0xbc8974c93d6a01f8U, 0xbdc9c268bdad6bfaU,
  0x3d86a60ebd3b8ce2U, 0x3d8f7cf33ba86b54U, 0xbd1e169abe05b889U, 0x3d51ee453d682f3aU,
  0x3bf556293d268978U, 0xbdca389a3dac0352U, 0x3ce0fe633d4c139cU, 0x3d13942bbd05ee1dU,
  0xbda329ffbc0b67e2U, 0xbd74ded8ba93c905U, 0x3bd84b94bd893644U, 0xbd1d30c9bccea497U,
  0x3d3bf93f3d7de035U, 0xbe0e7d44baaa5adcU, 0xbd00eb843d4b48c0U, 0xbe608787be16dd4fU,
  0xbc147dacbba770bfU, 0xbdaa7cb9bd257ca9U, 0xbd8e530dbddeb349U, 0xbc7cfd193d9b7163U,
  0xbd119a1bbbc97207U, 0xbc8afa423d86e28eU, 0x3c4302363c643d73U, 0xbda5d483ba339c24U,
  0x3de9d556be8cd1f1U, 0x3df5d143bcf75e2fU, 0xbde1f1d7bd535e59U, 0xbd868da73bc81abeU,
  0xbe33a6ecbd9785fdU, 0xbe671861bc2e3836U, 0xbd4353bb3d9c1849U, 0x3da66d86bddb1fcaU,
  0xbbd3a781bd00d1ceU, 0x3b34a0abbdb7641aU, 0x3d27c1c93bcc9117U, 0x3d145ec2bd77047cU,
  0xbd3876323d003f36U, 0xbdfd9e903d545224U, 0xbcb457113e208ad0U, 0x3d3b5d72bcbaa973U,
  0x3d9ac871be4f5c81U, 0x3da38149bd4c985dU, 0x3dd114783d6ad460U, 0x3d502364bdfb3075U,
  0xbd824e46bd23112dU, 0xbe6251883d390886U, 0xbcc64a2d3dcc8e74U, 0xbc650a9fbb0849eaU,
  0x3d40df7c3d86ec6dU, 0x3d76f782bd750d47U, 0xbd36af623dc3d48fU, 0x3bd9d5333b101661U,
  0xbd87ec53bd1b5ba0U, 0xbe0f34db3d8e8d3fU, 0x3c9a9c49bbb8d847U, 0x3d90c4503d39f62dU,
  0x3df47767be0954cbU, 0x3ccc9e133df906bbU, 0x3d7c72953dc3a746U, 0x3db7ddfa3bf05288U,
  0x3d8e73533dbc0e60U, 0xbe28c905bcc23bb8U, 0x3daa908e3d3c0bcdU, 0xbcf11fc9be054a3cU,
  0x3db9374c3b74811eU, 0x3d2033eabddf4a0cU, 0x3d057ce6bd47130cU, 0x3d9a612a3dfa141bU,
  0x3c1fe6653c008886U, 0xbbc5d0f3bd56fd23U, 0xbcc4b3153c999475U, 0x39e1d7d13dedf535U,
  0x3d5f0b76be63df09U, 0x3db5c7473d7a51beU, 0x3daee6d3bd1f0993U, 0xbd2162fdbb3483fcU,
  0xbdc2c577be2f11ecU, 0xbdcc1ebebc3d686eU, 0xbc4883b8bc857ab5U, 0xbb92cca83e0c7deaU,
  0xbb8b1dcebd502677U, 0x3c3a4b7cbc1bd3cbU, 0x3d4a5705baed10c5U, 0xbd384d50bd5a2342U,
  0x3defd15e3c16165dU, 0x3dbdd5133d6ba899U, 0x3d684d303d606e14U, 0x3dbe7db6bd4768acU,
  0xbdbe4e13be3f4751U, 0x3cdf87a5bde98264U, 0x3dc5c3273c3a3110U, 0xbdc1e9fcbba8ea60U,
  0xbd94907abd9820b3U, 0xbdf5b8e4bd8f49cfU, 0x3c415764bdd6fb8fU, 0x3ca9eb163da40607U,
  0x3d6efde63ca26d1fU, 0x3dc11d123c42a8efU, 0xbd398b093d52a93aU, 0xbc5360243cf71b5fU,
  0xbd523d533d11a471U, 0x3cd2d43b3dac998eU, 0x3b9e02eebddaffdfU, 0xbd8e8677bdb07069U,
  0x3cb265d8bd598f57U, 0xbcbaf9563cf59512U, 0x3d9b5973bd4f1376U, 0x3cda508c3e0f71cdU,
  0xbd6f5a2fbda76943U, 0x3dbcde91bdaef2fbU, 0x3d8ce8333cc2758fU, 0xbd84e1393dac8c91U,
  0xbda8b08bbd7bf142U, 0xbcf8bb9d3d322894U, 0xbd485c293b84203fU, 0xbdff71eb3d2591c0U,
  0x3ba42e29bd1f77eaU, 0x3e0c4c0c3d3e3301U, 0xbdc196acbd379641U, 0xbdc6e938bbebd3b8U,
  0x3db25dfabe926566U, 0x3df73480bd399047U, 0x3d52946e3dbb5df4U, 0x3d892910bcc4ab92U,
  0xbe19e157be0b6338U, 0xbe33b8f6bd6c9b5bU, 0xbbc1b9babd3b64a4U, 0x3e005ccb3d6f4255U,
  0x3c9c85d9bcf9f710U, 0xbd6c96cabdf22afbU, 0x3dc64a35bb1f2f17U, 0x3d40b2a6be05ac46U,
  0x3d21be33bd2e2b67U, 0xbd525af6bd198e1fU, 0xbd851a8a3db647cbU, 0x3d8f30f1bb61afedU,
  0x3df7c790bebed3e3U, 0xbd47641d3dbca41aU, 0x3d6bbf25bd86bbb0U, 0x3dc73962be1c61e9U,
  0x3d1c10b93db6432dU, 0xbe43114b3ccda93dU, 0xbd2358f13db0196fU, 0x3d323645bdf524d5U,
  0xbd926b733d24c73aU, 0xbb81fdf43cf99e4aU, 0xbca838eb3c5cf663U, 0xbcb8dc033db7f92fU,
  0x3d7bcdcebd690b92U, 0xbd3f8b3fb9c9579aU, 0xbcdb3f703dd76026U, 0xbcf83549bd4a12d6U,
  0x3e1e0b74bdefdff2U, 0x3d0c87d23d58abb0U, 0x3ce70e10bd4f0ff6U, 0x3da70b343da6743eU,
  0x3d8bdcc93c638546U, 0xbcd189b8bdc4f884U, 0x3e04f78abd904449U, 0xbb835394bc260253U,
  0xbb0e09f9bd5c8facU, 0x3dc532423d59c6faU, 0xbb57d7ca3ce89228U, 0x3b9d85503c054904U,
  0x3d1ddd05bd544042U, 0x3c5ed5553d58c432U, 0x3c768167bd7e9accU, 0x3d0618de3d92b9b1U,
  0x3dbc0827bdc0dacbU, 0x3cbcd066bd9c4311U, 0xbcb06678bc9b601cU, 0xbd886044bd9eea41U,
  0xbdbd8d19bd9086c6U, 0xbe38d5203da6d2f4U, 0xbcd2a8403d85e6c0U, 0x3cb7173f3caaf5a2U,
  0x3d8e13323d90fb66U, 0x3ae195fabb989781U, 0xbb1e2b0c3da93fffU, 0xbb932584be188e89U,
  0x3c307b70bd0c48e2U, 0xbce78fff3ca7ccfbU, 0x3db797623d8329fbU, 0xbda727523d05be2cU,
  0x3e127a49bd3142a3U, 0x3ce98dcc3c726706U, 0x3d09ade7bd81d19aU, 0xbd9e1fd3bdedda3aU,
  0x3c9203373d027e3dU, 0xbdedb0df3de986f0U, 0xbc60bf803dbf2dbcU, 0x3df18868bda66cd9U,
  0x3d0eac223dbc71a2U, 0x3d59420b3cddf926U, 0x3b7906fd3e1543ecU, 0xbdb402b03b7f9d5fU,
  0xbd0ba9a73c8870e2U, 0xbda7b689bd8f6095U, 0xbd8884ea3e38912bU, 0x3d8edf2abdda430eU,
  0xbaab702b3d658a76U, 0x3ca7a50c3d838fd1U, 0x3b105a32bdac38f6U, 0x3d3f0070bd957764U,
  0x3b4da2a4bb9a4450U, 0xbd908208bcbe7373U, 0xbda66661bd66689eU, 0x3dcf1d9bbdfb35a6U,
  0xbd87e9173c3a6982U, 0xbd0b213f3c72042dU, 0x3db4f19e3d823820U, 0x3d82454a3e0ac3c6U,
  0xbda678463d10c4a9U, 0xbcc46e47bc39d129U, 0x3cb9d69a3b9e4883U, 0xbb3704ac3cd54084U,
  0xbdcb44083e073d9eU, 0xbd859d51bd44006fU, 0xbb053de9bd9b8b4aU, 0xbbac479fbdbd7b4eU,
  0x3d19484a3d734ad9U, 0x3b210028bd341b00U, 0xbd63a4b0bda07157U, 0xbbbc471f3bd85546U,
  0xbd75bc0abd1cf911U, 0xbdee0cc53ca683cdU, 0xbe14b930bd6d66e4U, 0xbe1253b63b449c0aU,
  0xbd1a7468be024765U, 0x3da33e6cbc64df5fU, 0xbd2ab511bafd0dcaU, 0xbd90a49f3c1cc2b9U,
  0x3d9c83b93db23befU, 0xbcae69fa3d5cdb2eU, 0xbe269f883dd4b8fdU, 0xbd4b46b33e52f717U,
  0x3cdc5ad33e02fa6eU, 0x3e29c338bd9d9946U, 0x3e07559f3ca920caU, 0x3d40ba203e0810efU,
  0x3c90d9d03acdef3cU, 0x3ce265b2bc1f7b62U, 0xbd3a23553db889b4U, 0x3daffcbf3d74f44eU,
  0xbcd09627bd256b0bU, 0x3e3c02993d4a6cb5U, 0x3d2ec28e3cf1eeb8U, 0xbcc392163d993357U,
  0xbde0c18dbd37f6cbU, 0xbda812b7bd84169aU, 0x3d07265bbc21abe2U, 0x3db4ba7e3e569b65U,
  0x3d32832a3c83d10eU, 0x3cf012aa3d8a8b73U, 0x3cf1729d3db6cef8U, 0xbda7cfbc3dab565eU,
  0x3ba74f33bd39ba57U, 0x3d4d1c4c3dd8cf3eU, 0x3d919bec3e060047U, 0x3c98d26e3c7fe020U,
  0x3da4fb273c2c5529U, 0x3e1b96a43d80da0aU, 0x3e0f49fe3ce4ca18U, 0x3d53a90c3da62f4bU,
  0xbe3dc3cc3d31d0bcU, 0xbd53cfe53daf48ceU, 0xbe0b0f533d935c23U, 0x3da654aa3e41dc6bU,
  0x3e4c3a743e3f6752U, 0x3e0d906dbd0982eeU, 0x3e29a9cfbc8c788cU, 0xbe433dfe3d623947U,
  0xbd3f68f5bda925e2U, 0x3e1402bb3d1658d8U, 0xbbf2bf883e21524fU, 0x3c4b38a93dbc8be9U,
  0xbca5c0eb3c93d346U, 0x3e1f9fb53d54710dU, 0x3d32905bbe2fc725U, 0xbcce9c81bcd9cb89U,
  0xbd83bc683e140b31U, 0x3cb895ac3c9c415fU, 0x3b03ebbc3c854fbaU, 0x3e0afc183dec8248U,
  0x3b7c1bf53debf5dcU, 0x3d6cb4993dcae100U, 0x3e3c317f3d35a984U, 0xbd43945a3d959ce2U,
  0xbcf505fb3dbb19d0U, 0x3e18e2063da0b134U, 0xbc988bea3e131428U, 0x3d0d64273e0d4c05U,
  0x3de07f6dbca7aa20U, 0x3e043a77bac3531eU, 0x3dc472f1bb2e7da2U, 0x3de41a67bda6c658U,
  0xbe609cb23e7ad169U, 0x3d483d11bdafa72aU, 0x3dbd914abe4f7695U, 0xbde74f50bc9f50c3U,
  0xbe2fb070be1094f9U, 0xbdb549353daca960U, 0xbdc486babe12c306U, 0xbde8cfcabdccea84U,
  0x3d28eac8bd86bdbaU, 0xbc6a02613de9b9a4U, 0xbd11592d3dbdbec1U, 0x3ca16de8bd55d3b3U,
  0xbd84b939bdec051aU, 0xbdf5fdd6bdc70ca0U, 0x3dad745d3d6604b3U, 0xbdf84fc0bd89a634U,
  0xbd9139933e241bafU, 0x3d39b72cbcb1ec71U, 0xbd930c9dbdfcef6bU, 0xbd22ec33bd680be0U,
  0x3dad22c2bd788284U, 0xbc8425433a87d1c2U, 0xbd8f4176bacdce47U, 0xbc0fb545be2720a5U,
  0x3d9b26bebddee9d1U, 0x3d7a41c53d5e6356U, 0x3dc5b1833e41f686U, 0xbd8ac6c83dd6a567U,
  0x3c0ee457bdd10f50U, 0xbd055a9cbd366403U, 0x3d1562ebbdbc6b60U, 0xbd63c637bd921ed6U,
  0xbe81b1df3d6404cdU, 0xbdc83088bd458b62U, 0x3d0fbd6ebe0c0358U, 0x3dcccd00bcf27c65U,
  0x3dd7d7143c4da1c2U, 0xbe3c8bc23c8f48f5U, 0xbd5cfe5fbce5b80bU, 0xbe3a6e31be2c79eaU,
  0xbd1a1bf0bc377153U, 0xbe092ded3d40aae9U, 0xbdbfd751bda276d0U, 0xbe051a8d3ceea108U,
  0xbd79870cbbc85fedU, 0xbdd306c3bd425124U, 0x3cf37f643b852564U, 0xbcf739b13d8742c3U,
  0xbd9f678dbd2fedf9U, 0x3c473e803d88b588U, 0x3c4f7fd33ca3e346U, 0x3c0e6cb7bbddf79dU,
  0x3e30804b3d693924U, 0xbda218d1be49f6ceU, 0x3d8cc092bc3255a4U, 0xbde55d76bd9e1455U,
  0xbe019f46bdf094f0U, 0xbdace374bdfaf1bbU, 0xbe0b4ae2be373b21U, 0xbd83dae93e431f4dU,
  0xba211d59bd0096feU, 0xbd140269bdb4cac9U, 0xbb01ff55bdcbf859U, 0x3b06bf1b3c9dcb1fU,
  0xbe3a31a83bcd2146U, 0xbe68cd1a3d2491c9U, 0xbb2d3e3bbe80f00bU, 0x3db69d3dbe49a01aU,
  0x3e33c5463e8219c3U, 0x3d757bdabe1fec56U, 0xbda41addbdec1a06U, 0x3d199455be315e49U,
  0xbe32e7aabd13ba4fU, 0xbe4cdd4fbd783ca5U, 0xbe4821fbbdaa6274U, 0xbd813e453def3cadU,
  0xbdc4c189be22fdb5U, 0xbd05ac6bbd4f92ccU, 0xbd866c55bdf67550U, 0xbe0211d63d31b957U,
  0x3e0eb992be1f4bddU, 0xbd98e88fbda6d961U, 0xbdcb9ca8bda2053bU, 0xbd518f64bd95cad5U,
  0x3cebf77fbc69ab69U, 0xbe16ee523d5a9798U, 0xbdbaffffbe3d4656U, 0x3d38df183d18d83cU,
  0xbddad084bd92a00bU, 0xbe087e7dbdb6915bU, 0xbe1dcd58be0cbb59U, 0xbe1f07dc3dcda51cU,
  0xbdc7ff0cbd7a0fc2U, 0xbc64929dbdfbb37fU, 0xbe236cab3d18299aU, 0xbd738b31be11d03fU,
  0x3e0fb8dfbd15aadbU, 0x3c52ba893c325241U, 0xbdf07fb93d16d0eeU, 0x3c28d16c3bf90776U,
  0xbdc8d8a7bdc89838U, 0x3d2115893dc678a1U, 0xbe184e62bcfa1dfcU, 0x3cddcf4fbc278137U,
  0x3abfa114bd2012c1U, 0xbd8e95f6bd0b2cffU, 0xbd2e5771bccd4408U, 0xbdefc795be3d81b1U,
  0xbd6bb0e83d08256eU, 0xbcb2113bbdbba350U, 0xbcfbd11f3e000599U, 0xbdfa340abdb5bbffU,
  0xbd7e49603d658047U, 0x3da6bf3b3d352182U, 0x3d6e489f3db57602U, 0x3dac66643b88d79eU,
  0x3d8333953e4dedcfU, 0x3e04daddbd5aff0dU, 0xbd90d6443d25ebe6U, 0xbdb142e6bd844be5U,
  0xbd29876e3d826010U, 0x3db86010be45c6c5U, 0xbd980490bd0834d8U, 0xbd1e341f3dcccdf3U,
  0xbd79ef013cfbce34U, 0x3b429d4f3d5e018bU, 0x3c525b2a3de23142U, 0xbb2893383dfd759aU,
  0x3cd93d23be292fddU, 0x3bfe4e51bd2b1351U, 0x3ddfea82bdb8cbc3U, 0x3d135388be811b75U,
  0x3dcb9c293e3465c0U, 0xbd878c4cbcfaf80aU, 0x3cb46004bd8af7c7U, 0x3b5609a4be009ee3U,
  0x3cb032c0bd753bd2U, 0x3d55715cbd2e30b7U, 0xbe143800be25ccfbU, 0x3d417b363dd82e30U,
  0x3dc8cf863bc91fd5U, 0xbe1ea7143dc0079cU, 0xbc91d0a53d57c0b4U, 0x3c1454a4bac45104U,
  0x3e28849bbdceb92aU, 0xbd520500bd3ca3bfU, 0xbd920274bcd90394U, 0xbe0806dfbe0d8943U,
  0xbd98f7babd7b9bb8U, 0xbcd7b43cbda44c8bU, 0xbda0ae8ebe09fc17U, 0x3e0274d53cce2e6cU,
  0xbe2726bc39faa2acU, 0xbd81ca1fbddfaf9cU, 0xbd544de5bde25322U, 0xbe17b798bd97917aU,
  0x3c3c35c1be1f139fU, 0x3d30835dbde256bbU, 0x3c81d55b3b93ccecU, 0xbd63391abe596e27U,
  0x3e83199f3deedd05U, 0xbc3225f63da100f5U, 0x3d82efaa3d948378U, 0x3dbda3f33c9edb0fU,
  0xbd91cfedbc880a1dU, 0x3dfa5c223db960edU, 0x3cbe247a3d4169efU, 0x3d766b603e0887e1U,
  0x3beb81dc3e01c856U, 0xbd2a2fbcbd0c361eU, 0x3dc6c730bcf777bfU, 0x3d1380cdbd59e210U,
  0x3db57c463dbc6e8fU, 0x3df6e0fe3bf92520U, 0x3d0590963dc6dac0U, 0x3dfe99103da4ccf1U,
  0x3e8eb4b0bd347c48U, 0x3e1ddb193e132df3U, 0x3e44a0363e028e88U, 0x3d4d731d3c7e60eaU,
  0x3d437edf3dffe0f4U, 0x3cbb5bc53d1ff353U, 0x3d7984fc3dce849eU, 0xbd8be1d63e48801aU,
  0x3deace843deaa3c7U, 0x3c574d31bcbd39edU, 0xbd17a7cebe172d90U, 0x3d729e123ddd1e31U,
  0x3e2909753d825713U, 0x3bed06973d2fd924U, 0x3d7a70b03dad9ae6U, 0x3dbc8f8b3d2045c2U,
  0x3d379399bd1d38e8U, 0xbd05adad3db1be77U, 0x3e35f7403bd1d8e6U, 0xbd0b092ebdae12abU,
  0x3d24e6b43d04d673U, 0xbd137cadbde909c8U, 0xbc38d295bd3553afU, 0x3d16f7403da97c59U,
  0xbd62e50dbcf7da36U, 0xbc2ddb2ebd743d08U, 0xbdee1e3cbe8a2e2fU, 0xbd45cede3d9fff47U,
  0x3dfb827cbdb6d979U, 0x3d81d1dfbb52579bU, 0xbd991c02be01e056U, 0xbd95c565bc49ab8dU,
  0x3e6ba7cbbd77e3aaU, 0x3d84bfb3bcffc683U, 0xbc4bc3403dc0c116U, 0xbd7eae40b9bb4b27U,
  0xbe3eecafbc7c7540U, 0x3d8251ccbd5aba52U, 0x397f11743d362ba4U, 0x3e3db9973e526ae9U,
  0xbdbfc3023d2f9d31U, 0xbdd1d4d5bcebd654U, 0xbd738b87bdbf8f76U, 0xbdb86cb3be39de6eU,
  0xbd5af6c1bd628eebU, 0x3dd517c2bd8b10a8U, 0xbd7dc52039de5ac4U, 0xbbed90b3be1df917U,
  0x3e46eb2c3cd92e8aU, 0x3de545f83e0793d0U, 0x3dad0b723e06506bU, 0xbcb335ee3c4e8f12U,
  0xbd35fc40bc813522U, 0x3d47bebb3d5310ccU, 0x3e0195af3da6761cU, 0x3d6bc2493e451bb0U,
  0x3d38b261bcf6e76dU, 0xbc4604ecbd7c846bU, 0xbcfe54a03dd44f62U, 0xbcb5420abd695142U,
  0x3dcbdace3dc4cfbaU, 0x3dd59a35bc7d00ecU, 0x3da0b34e3df619caU, 0x3dca5a743dbb40fcU,
  0x3dc022a4bc51e643U, 0x3d86ab7b3e287e37U, 0x3e5ac2023d9e7cb3U, 0x3e23edf1bd0c18fdU,
  0x3e9532af3e054f31U, 0xbc4d72443da482c4U, 0x3dc2cfe63e1f22e1U, 0x3bf55ce2bd884e02U,
  0x3b3b6f7c3bc89926U, 0x3d3bfe2dbce012b1U, 0xbd75531dbdd45a6cU, 0x3c91cc603e37d682U,
  0x3d5521953dec6309U, 0xbda295483d4fe86aU, 0x3d627f3c3bd1e94bU, 0x3dfe921c3db4dd96U,
  0xbd934917bd1b91a4U, 0xbdf798bfbe2dd5c0U, 0xbdebc89dbe580e88U, 0xbe582c4c3bdfae8fU,
  0xbe3b0317be074cb7U, 0x3d1643d4bc2890e5U, 0xbddd7adfbe2fb87fU, 0x3dd75a9bbcac7354U,
  0xbe6c99e5bdbb21baU, 0xbe347b1dbe08d668U, 0xbe21b14fbdfd9321U, 0xbdb5b3cabe59e79cU,
  0xbe705204be48a658U, 0x3cb5a0c0be5c44d2U, 0xbe1751c9bd59e9b3U, 0xbe6b1edcbe634e38U,
  0x3e834343bde9c726U, 0xbcf56aabbdaaf418U, 0xbe181178bdcbc941U, 0xbd3909353d669ca3U,
  0xbe3887bdbd1577b8U, 0x3b3bebe03e49ce8eU, 0x3d8849e3bd2509ebU, 0x3e2e93ea3dc0dcb5U,
  0xbdedce0bbc4016acU, 0xbdb50a0ebd914905U, 0x3db218343e1c3f8aU, 0xbd4f5a3abe1f444cU,
  0xbe689efb3db5c05fU, 0x3dba8fa3bd8a3e67U, 0x3d74cd9d3e13f6c9U, 0xbd909611bdcf7603U,
  0x3e5ed560be188311U, 0x3e0e25b93db8d219U, 0xbe00ad603ddf3699U, 0x3c3f79c73cd2f069U,
  0xbd26c6f5bdacd1f1U, 0x3c715e313e619717U, 0xbd4fb7343e1f5922U, 0x3e8b6d3ebcd9083bU,
  0x3d396e133dbdcb99U, 0x3ce28b283dbc1d13U, 0x3e1b76c63e88c4deU, 0x3d8a18e83df3dd5dU,
  0xbd3dcd9d3dd92a3fU, 0x3bacbe0fbd001a8dU, 0x3d8736e63dbf1149U, 0x3e02fa413bd174b7U,
  0xbdc4e2c33ce55576U, 0xbdf48db83d5507b3U, 0x3dc3c97739b7ceaeU, 0xbbddc660bdb84b53U,
  0x3da779e53e54101fU, 0xbc9d3e8fbdcd9484U, 0xbb0bd747baea3778U, 0xbd9b3f98be00d3e6U,
  0x3d29bfc6bcaaf5acU, 0xbd502fccbe43f039U, 0xbe712ae1be7e0f19U, 0xbdc09e323df4cabeU,
  0x3d8fbbd5bca1ac4dU, 0xbde042243d2896a3U, 0x3cfb518dbe135e10U, 0x3c9add073d1319a7U,
  0xbe1799ed3ccc4f98U, 0xbe43f9b6bcb0138dU, 0xbc688c75bdec8ba7U, 0x3cb64058bdcc4903U,
  0x3d5e55483d92924cU, 0x3c163253bd93f74fU, 0xbde052eebd8428dbU, 0xbdc10d05be0f772fU,
  0xbd71d5cabd1aa1e0U, 0xbe0aa3debded6d58U, 0xbdb1186b3cfd5ae6U, 0xbd2fb4643dccfcd1U,
  0xbe22425ebe2e621fU, 0xbe151241bd0125b8U, 0x3d03d398bdb230faU, 0xbda334c5bdcacdcdU,
  0xbd9a5d943df820f3U, 0xbdd87651bccf9fc6U, 0xbea0997cbd933315U, 0xbc87057fbd9608c9U,
  0x3de358973e78a383U, 0xbd1dcb2b3b57d065U, 0x3ce63c12be29b2f9U, 0x3d86fd033c600419U,
  0xbdddffdfbca95d79U, 0xbd1621f5bcb6bdbdU, 0x3c4969f13e19d3c6U, 0xbe2683253daf960bU,
  0xbddd4ef6be298f2dU, 0xbddf63b5bce3f2f0U, 0xbd4c1452bdac3f8fU, 0xbdce7727be13a51cU,
  0x3c1cf6e8be0168fbU, 0x3d82b29f3b4ea848U, 0xbe03a4aebd151693U, 0xbd85b3b6bd85567aU,
  0xbdcd2e2abe1c986eU, 0xbe506e703dd23111U, 0xbc85cbae3c3602e7U, 0x3df2ea413d667806U,
  0xbcc5b1633d2d0fb3U, 0x3d8dc5ed3c8ae898U, 0x3d967391bb908f91U, 0xbc421b10bcd2df06U,
  0xbc656c2a3dcb0d00U, 0xbcc725a6bcfdb1a1U, 0x3cfc7bcd3de4f1dcU, 0xbcc42a1abdabb30dU,
  0x3c30e063be32fbf8U, 0x3da561ec3d2785fbU, 0x3db6733cbc5754e4U, 0xbd1d4c7dbe3a693eU,
  0xbd89b3e9bddbec59U, 0xbe412f303dc841bdU, 0xbc4a34df3d052fc6U, 0x3d0b7b04be06ce1fU,
  0x3ca19c493d8aa849U, 0xbd9a4ebe3d95024eU, 0x3d7c4a5c3dbe3905U, 0xbbe52bfcbc7b6db1U,
  0xbcbb37783d7d1586U, 0x3bab77513d62548bU, 0x3d40b6cb3d13546cU, 0x3d5360fb3d199f99U,
  0x3dee2e31be3e41f4U, 0x3d99bd173d92c35fU, 0x3e1a4b9ebc04a97aU, 0x3d3516663c670fc7U,
  0xbdd03ec6bd99fcc2U, 0xbd9b4cc4bd112196U, 0xbdc917fb3d73ffd5U, 0x3ddab944ba491af3U,
  0xbd760bbcbcbff6d0U, 0xbc9ce08ebe0a0ed1U, 0x3dbeef7abe62e8e1U, 0x3d81a04abd0516e9U,
  0x3de770c53df0b531U, 0x3d42131fbd4979e0U, 0x3d4090973e2f5030U, 0x3cc169613ceae8d8U,
  0x3ced160bbe160c90U, 0xbdf5d096bd654ccbU, 0xbd6502653ba506ceU, 0xbd20c34ebe0fdf13U,
  0xbd2017693cafb25dU, 0xbdb674a0bced9748U, 0xbd8a3a9e3cd46cecU, 0x3ca83622bddb796fU,
  0xbdb4da34bc6ba44bU, 0xbcfab00c3ce14e63U, 0xb9af9fab3d1f2327U, 0xbd2050f9bdc1c50fU,
  0xbdabc8f4bde52cc3U, 0xbe0229fe3d2cd766U, 0xbd86afd9bda025c6U, 0xbd3b4d7cbd11af28U,
  0xbd688914bd11e1bcU, 0x3d935af23d86875dU, 0xbe802fdd3c590927U, 0xbc6326c93d8d241fU,
  0x3d611d65bdcd66caU, 0x3b634c1d3d66a65fU, 0x3d31eca93d3366c7U, 0xbb995435bbf86739U,
  0xbc560f4e3ddd8909U, 0xbc386e7c3d59e813U, 0xbb36e65e3cf0083dU, 0xbd915c25bce35306U,
  0xbe0f950c3c32e2faU, 0xbd33270fbda22dd1U, 0xbdeba6f03d06ea35U, 0x3d32027f3d274e0aU,
  0xbccc7f85be175048U, 0x3d584df8bd8ebb39U, 0x3d77e7683d20b259U, 0xbd8235b83dc7c0d7U,
  0xbe022e1ebdf3773dU, 0x3b4a2bc6bdb06d8fU, 0x3d79ed5e3d4426dcU, 0x3d88fe433d61709dU,
  0xbd70b98d3db831ceU, 0xbd55e49ebd1e9f0cU, 0xbb9615c4bd62ce1fU, 0xbbeeb047be2a01daU,
  0xbc81ad763d89dfa2U, 0xbb8b5a913d937a71U, 0xbd2676aabc0d2586U, 0xbd654c00bd368467U,
  0xbe1cb7bb3dd8048fU, 0xbd058fec3c7f46ddU, 0xbe110d0f3dad732cU, 0x3dd2a2743cb55378U,
  0x3dd7a39abd6d2862U, 0x3e058e7dbda88b6fU, 0x3d7735eebd35b14dU, 0xbe2c329b3d66f734U,
  0xbcdf71b4bd3d5b76U, 0xbda61d0cbdaac7f0U, 0xbdb15f45be34682bU, 0x3d9896f93c422432U,
  0xbd95f75abd129cddU, 0x3e0a23e13c9a1130U, 0xbd8b9a5c3d460fcbU, 0x3d6d942ebd17b578U,
  0xbe692478bd045878U, 0xbc09a642bd147d16U, 0xbdafd0673dea5041U, 0xbca366053dcf5f3dU,
  0x3d26fd97bc7c76faU, 0xbba29d02bdb721a5U, 0x3e03316fbc9f821eU, 0xbe2b5d1f3dd15b13U,
  0x3dc8448ebc88d1b4U, 0x3d2938423dfa3b21U, 0x3ce483053d116c88U, 0x3d7b2faa3cb458d4U,
  0x3c8fd4debd53e532U, 0x3dc80701bb8a6108U, 0xbd48eee8bd96bbbcU, 0xbd018dcd3d14873bU,
  0xbd955e1f3bfa51f0U, 0xbdbf32bebc9280c5U, 0xbca7f5093d66aff9U, 0xbb1204593dec2ec4U,
  0xbe0d4ceebe319440U, 0xbcc9f9ebbca3293aU, 0x3d908ca43b88bd38U, 0xbd71724e3db7952eU,
  0x3d35c392bd3eb459U, 0x3ccb20923e34c6abU, 0x3dca9afd3c2317e7U, 0x3bf1dd2abe15e6f2U,
  0x3dd396eb3da6c1b8U, 0xbb56e1703d5a4b23U, 0x3d934acebdc9953bU, 0xbc6af4d43cbbe010U,
  0xbdd53252be2b5fd0U, 0x3cad20b13db3be91U, 0x3db054bebcc9fa3bU, 0x3d60db00bcf83f97U,
  0xbceb104dbd592646U, 0xbe17edc3bdbe851aU, 0x3cfb9c453b803d81U, 0x3daef7283c232397U,
  0x3d936e783d738a95U, 0x39cad6e4bd81c231U, 0xbc4dc4f4bcfd2973U, 0x3ca3590dbcdbdc2aU,
  0x3d9a138d3cd7a0acU, 0x3daa8441bd2a269fU, 0xb9c98c1cbd810dfeU, 0xbd3423353c5bcedcU,
  0x3c5aa605bc967c52U, 0x3cb98ff73d0c7647U, 0xbd64f575bc6970aeU, 0xbc3dd515bdf4025cU,
  0x3b137e933b0f0f29U, 0xbccf7af8bd7b129dU, 0xbdb3ca9cbca823bbU, 0xbc9c603bbc470333U,
  0x3d483158bd99fe53U, 0xbdfbb19dbcd85d79U, 0x3c9476cfbd2ef706U, 0xbd5d74253cefc60bU,
  0x3d9ad53b3d3f8d29U, 0xbd7ccbd6ba8e5e53U, 0x3c674c08bd42a064U, 0x3d6c0348bd040c9cU,
  0xbe3d29143d7c6af7U, 0x3d69413839eeeba3U, 0x3c5182d53d808dc7U, 0x3daf7f823d93675cU,
  0x3d07a3c23dd44ca4U, 0xbb147622bd860df3U, 0x3d7398de3da8027bU, 0xbca72600bd36bae8U,
  0x3d2f8f5a3da0893aU, 0x3db946f2bd1b46a6U, 0x3cead494bd977335U, 0x3d503c033ca15704U,
  0x3d582531bcf5cc29U, 0xbc4b98ac3c5b17bfU, 0x3c5cf86ebdeb54a0U, 0x3d64d4723dd5bfd7U,
  0x3db7de56bcbe26e1U, 0x3dbf4418bc0dd02fU, 0x3dd793883d93d86bU, 0x3d977a7dbd5e5a30U,
  0xbd63dcf33c15f294U, 0xbcaafda7bd5934adU, 0xbb88642d3d4e3cc0U, 0x3d9ad1f53d1c2829U,
  0x3d9bab18bd8d6117U, 0x3d2bc827bd6dffc5U, 0x3d916a633d49abf7U, 0x3cc79511bda338e0U,
  0xbd8258713d5ef1d5U, 0x3cd53f6e3ccf8a53U, 0x3d7de6453d9a8199U, 0x3c04741abb9c972aU,
  0x3d82c869bdeaf59dU, 0x3c2dc2073da7c16aU, 0xbcd5256f3c0f9613U, 0xbb446f8fbd5af435U,
  0x3ce58e213ce2ec6bU, 0x3ba145f73cf74d58U, 0x3dde25d93d96e372U, 0x3c10823b3cc20166U,
  0xbca7d02e3d82487aU, 0x3d2f64f63cf989cfU, 0x3cb0871b3d26212eU, 0xbab42ba53bae3603U,
  0x3d82b7823dcece1bU, 0xbd9e831abcf7562dU, 0xbd2fb944bc86f204U, 0xbcf5d62c3dd3db51U,
  0x3d0439f03daa7e38U, 0x3d8e0635bc4c32dbU, 0xbc320f81bd313610U, 0x3d8d9ccd3d840839U,
  0x3cfcc787bd388592U, 0xbdb44ecc3bbe4805U, 0x3daea19b3d7ea9caU, 0x3d5ca0de3d30d96bU,
  0x3d8e0248ba1e7d58U, 0x3e1b356d3dba1843U, 0x3dac385c3e665adbU, 0x3d4555e83c9a3a16U,
  0x3d854bd8bb83a4d1U, 0x3cca04f23c8033a3U, 0x3c92b607bc972c8dU, 0x3d750e96bd1f0471U,
  0xbb4748503c000443U, 0x3d8328eebe13089aU, 0xbe414ca1bc4819b1U, 0xbe02cb40be048598U,
  0xbe2273f7bd473693U, 0xbdda3f193dce78e6U, 0xbd202eadbb5f9429U, 0xbca835553b4069dfU,
  0xbe01878abda389b0U, 0xbd6c3deabd90662bU, 0x3d854109bd5e5e29U, 0xbd3d728bbe444a19U,
  0xbd5a4082bd523236U, 0xbd21cb99bcff60b3U, 0xbdbd360f3dbd9135U, 0xbdff1de6bdc1e170U,
  0x3e0553913c923870U, 0xbd998be2bd84f94eU, 0xbd8d08ba3c688f38U, 0xbc98922fbd8119cdU,
  0xbc72163bbdef88ffU, 0xbe013187bc5cde3fU, 0xbe08abd4bdc44426U, 0x3d52e960bd3c342eU,
  0xbdbff3db3abf1647U, 0x3d4fa9573d321c5dU, 0x3c2ddf5e3e2364d4U, 0xbdb317d63cb6b527U,
  0xbd7f464ebd9b76fdU, 0xbd77f5193cd12c71U, 0xbce6f7d53db585a8U, 0xbdd620a5be120c69U,
  0xbe271c063e3e9354U, 0xbdeef48fbc3337afU, 0xbdc8c040bdf3a3dcU, 0xbce9d28dbe38cef8U,
  0xbd19b26abcbb445aU, 0xbd60814d3d872cebU, 0xbc0ee028bd9b17abU, 0xbe083aa8be066db9U,
  0xbd35bd77bcd1da87U, 0xbe0e51743d474b5bU, 0xbdbf087c3c2ed5b4U, 0xbe014099bcb6cf63U,
  0xbda4cbdebce983f1U, 0xbddae4a6bd91aae7U, 0xbde280f73cb6abfeU, 0xbdbf78a4bdb0c8b7U,
  0x3dacf55a3c00afdbU, 0xbd107792bc048511U, 0x3d141318bd88ee75U, 0x3d32c4153e22b7a6U,
  0xbc6888a93cb66eb1U, 0x3b6ddd663bd676d1U, 0xbcb6f3a8bd7ffa1cU, 0x3d38cf243d304c06U,
  0xbd2732b4bc9a3fb6U, 0x3d4cc40d3dbdbee2U, 0xbc51f1043e2689f5U, 0xbd89b19e3cd1ceceU,
  0x3db0e633bcf5fec5U, 0x3d823e7d3da16483U, 0x3d900af6bd1e9d03U, 0xbd2691533d7e52a0U,
  0x3d507c86bdd8d22aU, 0x3de7e3b7bd8ee710U, 0x3dc7b8153b1576b6U, 0xbc77bfc2bd149fd4U,
  0xbd23da43bd8e430eU, 0xbd6c2d753bd69aebU, 0xbddb0d063d2083ebU, 0x3d241c17bcc24761U,
  0xbd9f31013c312252U, 0x3c6668903d24cebbU, 0xbd9686f73daf94b5U, 0xbd2c85113b512e2aU,
  0xbd80ff6e3d1e67fbU, 0xbc05ed08bd17e9c0U, 0xbd7339443e1a0333U, 0xbbfc98543d15e5feU,
  0xbd0d1817bd133fd5U, 0x3ce5410fbd020405U, 0x3cb61a963d3effafU, 0xbc5f6637bcd4b489U,
  0x3ded93fc3ddad9d6U, 0x3cdc35573c5cd910U, 0x3daca0d73d15601fU, 0xbdc6f2a53cfad5a9U,
  0xbd8253fabd1b601eU, 0xbdab4d05be017cc2U, 0xbdeb981cbdf60e76U, 0xbbbbc66b3dc05723U,
  0x3d58aa473d227f6fU, 0x3e0a56a23cae6506U, 0x3cf1aa343deedfdaU, 0xbd65ba123dbf5682U,
  0x3a8077cebdae2684U, 0xbcb5162f3c890095U, 0x3dfdd4aabd8e86b9U, 0x3ca95f35bda0b3feU,
  0xbd8cfbfebdb43bc2U, 0xbd24d6fcbc02be90U, 0xbd7c6a5dbda513efU, 0xbd61f00fbc1490c6U,
  0x3cff3d5c3d980790U, 0xbdc4ca8fbc850af6U, 0xbd784a71bd3e1ae8U, 0xbc77c7ba3b269913U,
  0x3c737877bd680b64U, 0xbca5e345bdc7e84eU, 0xbd3dd2b13d9be12dU, 0xbda47f5c3d5f646aU,
  0xbe0145c4bd071708U, 0x3d13bb253d859409U, 0xbe2a15953db5e8e7U, 0xbaba20ee3d9cd07dU,
  0x3c10e78a3e05a9f2U, 0x3ca8bae5bd884a62U, 0x3e140e963d527bafU, 0xbd01aa453d238255U,
  0xbc047d8d3ce70624U, 0x3d81b582bde788d8U, 0x3d1bfb9ebd237948U, 0x3ccc27c33d6c7503U,
  0x3cb122323d8428ecU, 0xbb2bb82cbd02ed2dU, 0xbd8d8d5d3d233e7dU, 0xbcb229fd3d2eb259U,
  0xbe155605bd3d92d9U, 0xbdc94d5f3d1a6742U, 0xbdccd8353d7e0fe1U, 0x3d740d9d3e37e3bbU,
  0xbd02fa6dbd107117U, 0x3d0a5c7dbdc76c9bU, 0x3d7700efbd8baf49U, 0xbe1c2e883de5ece7U,
  0x3db09c653d57842bU, 0x3cabaf333db4687bU, 0x3da8e1f93dee902bU, 0x3ce8879abd2bffecU,
  0xbd57d0263c4957afU, 0x3dbccb28bb9b59c6U, 0x3d842f61be38a378U, 0x3ba3a239bd42c23bU,
  0x3d367e50bdc9de2fU, 0xbd2587163d4ca5a4U, 0xbdb895f83de992ecU, 0x3d62c7b73b8c42baU,
  0x3e2458703e09936bU, 0x3c9a9f4fbd8f1f22U, 0x3dd023263d4cdc6aU, 0xbd91e8f03d171818U,
  0xbcd0e37a3d722aeaU, 0x3d5a804f3c17f28eU, 0xbd2588613e0b1c9eU, 0xbc146a1a3d7ac1e4U,
  0x3da2c2413d215ac3U, 0x3e0532eb3dbe058bU, 0x3ca8a7e83c255086U, 0xbcba7abd3d0db99dU,
  0xbe3cc52b3ce1987cU, 0xbdb921a7bd921a4cU, 0xbdaab387bd633e7dU, 0xbd9535dd3d42c9a2U,
  0x3dacccb9bd11221dU, 0xbd45e697bcc10d70U, 0x3e044c313d4ffd55U, 0xbe2afea7bc3486afU,
  0x3d2d8fbf3d18b34aU, 0x3c90b5463e13f985U, 0x3d772ac83dc78749U, 0x3ce47441bcc217edU,
  0xbcd774793c45b549U, 0x3d8866253da4ef8aU, 0x3e0b0a18bb0e7636U, 0x3dd32cc2bdb7dbafU,
  0xbdcaa1003e024fb7U, 0xbdae201dbe0f54e3U, 0xbdf7abfbbd493fbaU, 0xbb3045e03c1f2ad2U,
  0xbe08ef5cbdeadc83U, 0xbdd69e59bd98d13aU, 0xbd9f07e7bdc92590U, 0xbc3104f5be2c9e87U,
  0x3ce115163ce60ecfU, 0xbca39ade3b176269U, 0x3c6398d43da92b8bU, 0x3d5123e3bdda0a31U,
  0xbd3a2b5ebc7a3458U, 0xbc11d4f13b342786U, 0x3d862b08bdcad483U, 0xbd2cbefcbdde6579U,
  0x3ea77fa6bcc9f235U, 0x3d5372463d80e5d9U, 0x3b68b7d83d10112bU, 0x3d7df4dd3dbfad35U,
  0xbe2b9a16be7665d5U, 0xbdb478763df3eb10U, 0xbda1a7c43cdc971dU, 0x3dc70ed73d83e42dU,
  0xbd1123123da41cceU, 0xbc2fd082bde2fa79U, 0xbc3b0ec93d62a1c9U, 0x3db5adcabe568872U,
  0xbd99d03f3d375eb0U, 0x3cabd2163d42346bU, 0xbc39434a3db2c358U, 0xbc8f04c73da29d2aU,
  0x3df3e188bccac020U, 0x3d69588c3deaadddU, 0x3ceb9c6d3daaff4cU, 0x3d99b7383e4758f8U,
  0xbc897f84bdba8ae1U, 0x3d2e2eef3cb86247U, 0x3d4d54b73db6b119U, 0x3e055d553df862edU,
  0x3c2b65343d135c31U, 0x3de2ca0c3dd1587aU, 0x3deaf4dd3e2bdb5dU, 0x3dc16e153dcea89aU,
  0x3dd6e1243d5492f8U, 0xbaabe4c23bdc84b9U, 0x3dbde36c3d5ee7edU, 0x3e047094bc1ced34U,
  0xbd8eb3473e6842e4U, 0x3d44d519be4c998aU, 0xbe46b170be094c12U, 0xbda354433dc31377U,
  0xbe48e3cdbe98c2a6U, 0xbc685ba73d559b64U, 0x3d06857abd39fd6dU, 0x3dae7bb0be02923cU,
  0x3d4e10afbd043f7aU, 0x3c97fe4d3df8ddccU, 0x3c0009863e3c4592U, 0x3ce8204fbe231e44U,
  0xbd474af63dc6090bU, 0x3d038ac03c8b490cU, 0x3d83a9e63d779a7dU, 0x3bf173a3bd6f7773U,
  0x3daa83c3bd33284fU, 0xbe00bd93be22863eU, 0xbe511b8abe49b81eU, 0xbdea7fc2bd8ded99U,
  0x3c6d1f68bd5c3cc2U, 0xbd7ee1a53d220c28U, 0xbd7cf25fbe1b11a3U, 0x3e031703bbbd8996U,
  0xbe2babe0bd9c53b7U, 0xbc921cecbd417404U, 0xbdbb7ce43b8d0b7dU, 0xbe1e0fa0bd862a5cU,
  0xbe4dc6c5bdd2fbdeU, 0xbda4d543be0898d5U, 0xbdc881a4b8d31e59U, 0xbe2c53f8be878c48U,
  0xbe6752ec3e12913aU, 0xbb6da433bdf41340U, 0xbe8b3bb3be2627e9U, 0xbbfbedccbe8b20caU,
  0x3e0832ac3ddb1aa9U, 0x3cbcb9113e367df0U, 0xbe3e19eebe324345U, 0xbc124314be0a1b6cU,
  0xbe1e72943c3dc70fU, 0xbe1bc5d73db7ea96U, 0x3c83ac103e35c743U, 0xbdb4a9a1bcb2e67bU,
  0xbe50a977bcdb6a0fU, 0xbe1e55e2be093b3dU, 0xbc0b825cbc7370ebU, 0xbe483ac2bded6a7cU,
  0xbe5df0333de1b92aU, 0xbb9e74953d0504a5U, 0xbe49ccbfbd5bc380U, 0xbc94c7cfbdefad20U,
  0x3de060333d518f66U, 0x3cfb1fabbd57b95aU, 0x3d3ab42fbe21fb43U, 0xbdbe7212be0ec2ecU,
  0xbe3351b9bd96d201U, 0xbe3c8318bd84c6ccU, 0xbe397b14bdd62676U, 0xbdef6d983df5728eU,
  0xbd1b6517bdb9c232U, 0xbce64210bd8650b5U, 0xbde3c2923bf9f9c8U, 0xbde69e433d1cc999U,
  0xbe54e1c83e274fe8U, 0xbd7280603cbdc019U, 0xbde7c0133d982229U, 0xbcbc1fd1bd6205f7U,
  0x3d25c6c83d737b3eU, 0x3e16585abe64cc37U, 0xbc75e8eebdb7a1beU, 0xbe76eb35bc992d80U,
  0xbd649032bdf1018eU, 0xbdbf3341be58e767U, 0xbe1063f9be2db3c1U, 0xbd1eb4ed3d724968U,
  0xbe352e2fbdda0e46U, 0xb9d14355bddba3e9U, 0xbe0aeb3abe00460dU, 0xbe052c993d2562fcU,
  0xbd4fa9783d335444U, 0x3d1e99633e284dabU, 0xbdda04543cd72727U, 0x3d7a2bbe3d31e660U,
  0x3de9c7773da0a90cU, 0x3e06553fbe1fd945U, 0x3d93c8fb3dca81bdU, 0xbe21a3c7bd109d25U,
  0xbcf99e6a3d5f265eU, 0xbcb9a114bcd1d2a4U, 0xbc3134e33d241eaeU, 0x3d40b2ff3db618c6U,
  0xbda2fdae3ca85e9bU, 0x3dba494f3d87719bU, 0xbcf40743bcfe77ebU, 0x3d12a8fe3e3bbdf2U,
  0x3dc7bcb6bd9d59d5U, 0x3dd56f153de81f62U, 0xbdd11ebbbc4fc122U, 0x3e1b9de33b048a57U,
  0x3e3e8e533d247df3U, 0x3e1507103b70421fU, 0x3d7e7f233daeed6aU, 0xbde924823ba343e9U,
  0x3d8f9d533dac8730U, 0x3d8e834dbd93d940U, 0xbd1d842d3d23faeeU, 0x3d25e7713dd7441bU,
  0xbcdace5f3db77f68U, 0xbcc0bd123d85b242U, 0xbb65b126bdadcb7eU, 0x3e045ad33e1fabc6U,
  0xbdb264ccbe3c8e7dU, 0xbc4409823d54a58dU, 0xbdd940ac3dcf01b3U, 0x3d8bfb743da8e16eU,
  0x3d7dc05c3d8729d5U, 0x3d888b56bde7a1b1U, 0xbd33a3d5bd875689U, 0xbd02d6283df38d02U,
  0xbdc6f7babd67c677U, 0x3cea57febe7900f0U, 0x3c87944abd90cf27U, 0x3d967371bd6d5c5eU,
  0xbd9d28c53c82c059U, 0xbbf6c4f9bdb93abbU, 0x3c433548bd38266bU, 0xbc612a6abd43709bU,
  0xbdfeb8d3be1fbfb3U, 0xbd466b3b3d195b0aU, 0xbc3a07763d9fb2c2U, 0x3daab7b5bd95f8c1U,
  0xbd6ec03cbdb0bff6U, 0xbde96c8d3d4512e4U, 0xbcc930de3db51578U, 0xbd6b5b94bd546fcfU,
  0xbbf48da83d45bb3eU, 0xbce07dc63b2aa300U, 0xbd4b01b03d106378U, 0x3d3e8e673da766ffU,
  0x3d99d1d53db5d274U, 0xbd1738353d5b7d57U, 0xbd6463213d685059U, 0xbcbc77583d323c8dU,
  0xbd3d116abe389ea9U, 0x3d8cf6bf3ba5916aU, 0xbcb945553b055299U, 0xbbc3ec223daff79eU,
  0x3dfbb9acbb4f0b7fU, 0xbd8914d9bddcb59cU, 0x3d48e905bb862a7eU, 0xbd39775e3cd869c1U,
  0x3dbc99833d24a782U, 0xbccc1793bd9b469cU, 0x3d55f544bb86a9f7U, 0xbd38fc32bb209143U,
  0x3dba39073d8a1d23U, 0xbd64eed33d364657U, 0x3cb5b18f3d687682U, 0x3d4e19fe3dfbf9aaU,
  0xbe0ca7babdd3a836U, 0x3d6f5f8a3d4a7390U, 0xbe1ac6143d06c95aU, 0x3d6eb9d13dc5b1c7U,
  0xbc4f1619bdb422bbU, 0xbdd41d41bdd3bdccU, 0xbc84e4483d730862U, 0xbe506e56bd2dbfe4U,
  0xbdceca8b3d960736U, 0xbd6da3a2bd2a6038U, 0x3c2474e3bcb22c71U, 0x3d33684ebdb73893U,
  0xbd80943a3d3f9d19U, 0xbd3b77a73d8244e8U, 0xbde83ebdbda5ba4fU, 0xbd19aff33d8ac606U,
  0xbdffe7b0be2b373cU, 0xbcf0aa443c7046b3U, 0xbdd8617c3d2fc55aU, 0xbdccdb5fbd2c79d6U,
  0xbd08505dbe1b7aa3U, 0xbe45e03639cb922bU, 0x3b1f5fbb3db93814U, 0xbe08a765bbdb8e67U,
  0x3cd47066bc29a0a0U, 0xbd59a52cbc9c24b1U, 0x3dad4f9cbd332dbaU, 0x3dd220cfbd5a74cdU,
  0xbd4337d1bd44f561U, 0xbd251d8b3d6eb0d5U, 0x3c7c8201bda7b493U, 0x3d996379bd920745U,
  0xbcdb61e63d0a2f77U, 0x3c21330abcae8facU, 0x3ddddbd13d5c086fU, 0x3d404f2abd5f9ba1U,
  0x3bd81926bd8336f8U, 0xbdb7ed8c3dca7d64U, 0xbdecc03e3dcb94a2U, 0xbd040aa43d52814eU,
  0xbce0eff93be13477U, 0x3c6089533c633c80U, 0xbd4937ed3db211afU, 0x3cec38123c788e33U,
  0x3c24a7e0bd7a2274U, 0xbc1b7a653cf85f7bU, 0x3d2c8a67bcb96435U, 0x3c9104bcbc771f92U,
  0xbd1a07bdbdf78db0U, 0x3daca20f3d9730f3U, 0xbccce787bc242528U, 0xbdb51a183c5f9657U,
  0xbd2967b0be1237c6U, 0x3d34cee13cbd3b1fU, 0x3d80f1923d7cbb45U, 0xbda9e7f6bd274304U,
  0x3d301b0abd50cf5cU, 0x3d3c6f653d98f84bU, 0xbc6c122e3d321bc2U, 0x3dcade9dbe3370a6U,
  0x3c544a053d00178dU, 0x3d5a60293d1bec0fU, 0x3d576327bdd58a5eU, 0x3d5138afbd94cc6fU,
  0xbd1ac13fbdfc6021U, 0xbdbbe415bd24f918U, 0x3de8626a3d2607eeU, 0xbe1abf6fbce109a5U,
  0xbe61ea19be65f9d0U, 0xbe5c98bfbd072a79U, 0xbda0b7eebbad819cU, 0xbaee9191be11d989U,
  0xbd5cb25b3cad7a51U, 0x3d9a6ad63e0fb861U, 0x3db1152fbcec2c34U, 0x3d29bca1be7bcbedU,
  0xbd6ee400bcd37020U, 0xbe0a8b57bbf56d6aU, 0x3dbfd443be166101U, 0x3b9cce9dbcde8cbcU,
  0x3dd382e13d26109cU, 0x3bc1a2c9bd957145U, 0xbd779b84bdbf580cU, 0xbd70a7423cba99fbU,
  0xbc443165bd73e7eaU, 0xbd1252c13ddfbce4U, 0xbbfd501d3cd83c34U, 0x3cfbfcd8bcff94d0U,
  0x3cd50ff7bd4fbb86U, 0x3d29cb293d94963cU, 0xbd916aa83dffa156U, 0x3d668ababe079ffcU,
  0xbda271d9bd824c0aU, 0x3c752b373c66382fU, 0x3c1493933d4dcd42U, 0xbcc40993be1760e2U,
  0x3dbeb4413d0cc123U, 0x3dbc0c42bdeb6afdU, 0xbd2517ed3b3bb223U, 0xbd575dedbce300aeU,
  0xbdd3bab6bdd656a5U, 0xbe691e653e39e6b2U, 0xbd61f1c7bd6713f6U, 0x3dc46c6dbd604e0cU,
  0xbd8315af3dd76c0fU, 0xbc3885533dd2f532U, 0x3d90528c3db19f20U, 0x3d37a519bd75ee18U,
  0xbd9c7a423d8b3275U, 0x3ccda0f4bd379689U, 0x3d436cda3d9a9bb2U, 0x3cda3810be055ee1U,
  0xbd9df1ffbbbbca08U, 0x3df70aadbcab780bU, 0xbe071c263d6ca779U, 0x3bddb073bcdcfa95U,
  0xbdaec17fbe054086U, 0xbe2b38c53dcb1157U, 0xbcc617ddbd25e536U, 0x3e0e41cbbde8ebdcU,
  0xbd6bc0d1bc5bb22bU, 0x3d0c4e873d494480U, 0x3d90f3653de00884U, 0xbd958ff6bda67d7aU,
  0x3bb0e4b43d17ea63U, 0xbdae2efbbba2fc60U, 0xbb2581733e045cf3U, 0x3db54d59bdcb7daaU,
  0xbb89779ebdd49372U, 0x3d1c0343bbc3fc81U, 0x3db1c1ff3c310e3bU, 0x3d7858193d8dc92eU,
  0x3d1bc918bde1792bU, 0xbdadf5703deb8fd7U, 0xbd84ddf93d829f4aU, 0x3d4313193b6fc52dU,
  0xbd08a5763de7fa12U, 0x3c318dca3d92ae2bU, 0xbd24dd5ebdb71fc4U, 0x3d703e0abda29828U,
  0x3d368e22bce8ecc2U, 0x3d85dacb3ba94520U, 0x3d6c0cb03d912cefU, 0x3d96435ebccd37c2U,
  0xbd95dfb4be02f679U, 0xbd8066733debeacaU, 0x3dbaffccbd00e27fU, 0x3d9458bebe65a277U,
  0x3d2ec10e3d9d5a3eU, 0xbe2bb474bc99b42dU, 0xbd681f0a3d5e3f50U, 0xbdc3afd5be349273U,
  0xbcbf71f1bcc85dfcU, 0xba449f53bdad5f1fU, 0xbdebe909bd9ca027U, 0x3ce034dd3e236d16U,
  0x3d605414bc827ce1U, 0xbded4a08bda8695fU, 0xbd139238be0644eaU, 0xbd42289c3db76924U,
  0xbd0e9839bdf73e24U, 0xbdee863b3d29428eU, 0xbdbc4fc13bad41aaU, 0xba97e5b63d7ae30dU,
  0xbc58b5bb3d493210U, 0xbdfaccb33c3783fdU, 0xbb80a742bd7d2564U, 0xbcc6a2393c62d6b4U,
  0xbd84e6913c92fd72U, 0xbd4cc20dbe19b638U, 0xbdf73460be27d125U, 0xbd20d4003cb3ad7dU,
  0xbcabaa86bd9d52c0U, 0xbc895ebcbdd1adeeU, 0xbd55c879bccfd883U, 0xbd2a879f3d21bdb6U,
  0x39de3441be40d0b3U, 0xbd6d6bc2bd8ab7e6U, 0xbcb81d7b3d53139aU, 0xbd85d50a3dfe8c7aU,
  0xbc721b59bde3c691U, 0x3c23a1f33d586cbdU, 0xbd8259b3bce41d5aU, 0xbd1d6cfcbc703ee7U,
  0xbd950ef23d0be0bcU, 0x3c8c80e4bbebdec1U, 0xbd44d6aebd435195U, 0xbd688c2abe2e4380U,
  0x3c5b07c8bd90c5daU, 0x3e0bf6fc3d8f6f25U, 0xbdcd50d8bd1d1583U, 0x3d2154e3bceead6fU,
  0x3daf309b3d976f33U, 0x3d5e30adbb8bf7acU, 0x3e354ebabd5db8f2U, 0x3ddad881bdaa6e74U,
  0x3b76987d3d7ec847U, 0xbe08d5e43e0a2447U, 0xbd138b70bc2f3232U, 0x3cdf2f5bbb82ad83U,
  0x3d4e9f133d3b18d7U, 0xbdc04ea63db6438aU, 0x3a6f61bebc8978cfU, 0xbd4712b23d235ca7U,
  0x3c937657bcd086ebU, 0xbccfc1353d99203aU, 0x3cf4e8083db3a73aU, 0x3c723ea2bd068a15U,
  0xbd006411bc0b95caU, 0x3d8b427f3da74550U, 0xbce2d2223dadac27U, 0x3db0b175bd72fd29U,
  0xbd1b6015bc2e21adU, 0xbde9f6b63c566806U, 0xbd9480113a88438cU, 0xbdbd906abd429307U,
  0xbdafe0d9bb4f6f2cU, 0x3ce301eebe1151a5U, 0xbdf8e649bc9cc5e6U, 0xbc912aa5bd7583baU,
  0xbd1f0de1bda02b50U, 0x3c8df90fbcee5331U, 0xbdc0cd19bdd9f30cU, 0xbd3327a4bd5759d1U,
  0xbda841e93c0f345eU, 0x3da05d893d2a4e38U, 0x3ddaec023a8f8760U, 0x3d23325abc82ea9aU,
  0x3db2a2bd3d3c0911U, 0xbcf90f7abc92ea82U, 0x3d8a85bdbd61b310U, 0xbda87ac33de364b4U,
  0x3d5d2252bd8f0bafU, 0x3dfba7023d05f7f7U, 0xbd2e6b843b72af08U, 0x3d8161ca3b515d87U,
  0x3d7a4d4f3d424aeeU, 0x3d2b12513e01ae1cU, 0x3dafae8fbdbdcda1U, 0x3ca5e113bc8332b8U,
  0xbcfc45b43d1db446U, 0x3d27353e3b0a5dd1U, 0x3d073aeebdb877b4U, 0x3c46476bbe0f645cU,
  0x3c02658c3cf4cd73U, 0xbcb1f1623dab3877U, 0xbc5e7f58bdb31980U, 0x3c924c82bdfd5c48U,
  0xbd374296bd3bda81U, 0xbdc1e9403d8ec6acU, 0xbda154793d5daf3eU, 0xbd9704203d90541dU,
  0x3b9f4833bd2a3cd9U, 0x3bdc52f3bd0ef1fbU, 0xbd526c523c88bd11U, 0x3cadaeb23d5a498fU,
  0xbdf56837bcc2f339U, 0x3cbc10ad3da9b16cU, 0xbe2d2e7abc040cb8U, 0xbd9c06603bae7c81U,
  0x3dd491d03cd160bdU, 0x3d06d545bc739409U, 0x3d85b0b1bd164f34U, 0xbdb8988a3c4dabcbU,
  0xbd8db9753ceda0f7U, 0xbd0b6898bd81da87U, 0xbceab343bc8bdca3U, 0x3d889fb93bd55f27U,
  0xbc8f9615bdb41c78U, 0x3cd5e87d3d963059U, 0xbdecd9873d31b50dU, 0xbd498d2a3cddbe2dU,
  0xbde936813dc54f9fU, 0xbcd73cd63dbaf9d1U, 0xbdd2cb1e3d9bc6d9U, 0x3ccb637b3c322cdbU,
  0x3d3de7fd3d37a261U, 0x3d22c0f4bdb954b3U, 0x3dbe8e4c3d401d12U, 0xbe23ec2abcf058e3U,
  0xbb875d9c3b5561edU, 0x3e0727bfbd8bfc87U, 0x3cce3da4bc79401cU, 0x3d1e5b723de073c8U,
  0x3cb7df8abcfc2ec1U, 0xbc105ec53d782a91U, 0x3d18648abde711eeU, 0x3db372853c82b4cdU,
  0xbe499c6dbbc22702U, 0xbc726d7dbb0b4c3dU, 0x3ccae1dc3daa7ec8U, 0x3dccbc30bcd72c0aU,
  0xbca7b3033ddec633U, 0xbd0116463ca66be9U, 0xbd49f17cbd644ac6U, 0xbdd90a70bc60a9efU,
  0x3d985ae7bd224ec3U, 0x3d642c85bdaad64eU, 0xbcfd9bbabdadf6cfU, 0x3d69fee93e25395cU,
  0xbd8568e23daf1d95U, 0x3c3797533cef7df7U, 0xbc2d65ce3daaf2f7U, 0x3b495cd7bd274f29U,
  0xbe415211bb9e5a47U, 0xbd9288c7bd93518fU, 0xbe36d2d7bd9aa6eaU, 0xbc822295bd5c0c9aU,
  0x3d0fedaebd903b11U, 0xbca90614bc107979U, 0xbd3fbd16bcb3cf92U, 0xbe8b7b28bd329cefU,
  0xbd03e0383d562100U, 0x3d81a3d13dade0f0U, 0xbd5fdea93d2abf5fU, 0x3d923ffc3d52a189U,
  0xbd21a67dbd3769b6U, 0x3c6cb9403d72ea71U, 0x3cc5ab73bdad59e8U, 0x3db0b5adbd8a0af0U,
  0xbe0398553a9ecce2U, 0x3d41196d3d97724eU, 0xbe66fcf03d969659U, 0x3d5671433af20255U,
  0xbd3c8418bd844d6fU, 0xbd8363dfbd9e7d7bU, 0xbb23f4d53bbcf6feU, 0xbbf3b69cbde5d325U,
  0x392ed30c3cd3db85U, 0x3c4290c03ba17448U, 0x3dcd58013dd58439U, 0x3cb28f3dbbd429c2U,
  0x3cb503803d0f59edU, 0x3c85c8ddbc32f323U, 0xba36f94fbdd8e066U, 0x3da7fd1abd6159ebU,
  0x3c2a13e2bdecb3d5U, 0x3df4e1ebbca3fd09U, 0xbbf8d3dcbc34f9c1U, 0x3d5ef6373b7435d9U,
  0x3c140e463b3ef62eU, 0xbd6df5a33deb76fdU, 0x3d50e8a0bd53f4eeU, 0xbd72b97bbd2bee7fU,
  0x3dcf9a5d3daef33bU, 0xbd4b78d7bd157487U, 0x3db94f43bd162787U, 0xbd301234bcb54da4U,
  0x3d005cd7bc8e9b57U, 0x3c51068fbc317391U, 0xbce9cab03c7415b8U, 0x3c87278b3c29ac6bU,
  0xbe0678b1bcbeb14bU, 0xbc10b89d3ce34044U, 0xbce3da8abd1b673aU, 0xbb8e810bbceecc99U,
  0xbc555326bdc0e15eU, 0xbdf26260bc8a1639U, 0x3cadc7d0b9e6a4b4U, 0xbca67cdcbe0d6d43U,
  0x3d723db6bd92fcbcU, 0x3da9378d3da21519U, 0x3db86c1bbca16192U, 0x3dbf5bd13b971a49U,
  0xbd1d33343d6b0e1fU, 0xbdca8378bcc55430U, 0x3d98dd553c08d8fdU, 0x3d94e8ccbd80bb0aU,
  0x3d684298bceb778fU, 0x3d84c1443d5a180eU, 0xbda7f9463da7419fU, 0xbce03ccb3d4b26dbU,
  0x3cf64f3d3c92dd70U, 0xbd5c9aabbd56ceefU, 0xbc05fe873cb292a0U, 0x3d897268bd8adc19U,
  0xbb02a8a53db17822U, 0x3d41837e3d86284aU, 0x3cd13a893d9dabb6U, 0xbd1a1870bc3c15a2U,
  0x3d8b82f3bd6dc673U, 0x3d58b73ebd1c83b1U, 0xbd0b0ade3dc5c943U, 0x3c673240bd2ca981U,
  0xbe1d856f3d0fb692U, 0xb86870e0be075fd0U, 0x3ce3478fbda2d324U, 0xbdb072003d98299aU,
  0xbe2a808ebd08ad07U, 0x3c0f3bf13ce3508fU, 0x3c9680c6bdad8ccfU, 0xbd3a6f53bda413b2U,
  0xbd5f1805bdb03a17U, 0xbd9e546a3dcdc62aU, 0xbd38f5b93e0e52f0U, 0xbcb9a50abca989a3U,
  0xbce6c68e3bca48d9U, 0xbd893e3e3d79f6efU, 0x3bb16cbdbdaaed73U, 0xbd4c5bd4be19ec36U,
  0xbd5442d1bcecbaadU, 0xbc71d74bbd536b4aU, 0xbc220f19bda7afceU, 0xbd06a883bd71f985U,
  0xbd8856edbe11f789U, 0xbd9c910cbdc15dd2U, 0x3d015422bdf26b64U, 0x3c8a1f4cbde0a1fcU,
  0xbd8b23c9bd15f768U, 0xbdf0f4be3d9c8548U, 0x3d3334353d359f64U, 0xbd572935bd91bfa8U,
  0xbda80456be140c00U, 0xbdf140e6bd2b0540U, 0xbd9dd950bd530ab6U, 0xbdcb6584bd3cbeb1U,
  0x3db6a827bde1f7a9U, 0xbdf999f1bd8813a8U, 0xbe14a03dbdea573eU, 0xbd3f8ed5bdc2fb0fU,
  0xbe27d8c2be21e494U, 0xbe156d403c2f4a54U, 0xbd51c83dbe30dbc2U, 0x3d3a2b09bbf96e1aU,
  0xbc5ddce2bc8743c1U, 0xbdf95224bdb3c668U, 0xbd67c5f93c2fc747U, 0xbe3a91a5bd4565c5U,
  0xbc6c134dbde05014U, 0xbcf0b4dabc97a547U, 0xbd290cc7be10f27eU, 0xbe1170febe2c7a71U,
  0xbe2fe6633d30ca5bU, 0xbd99359abcbb9b8dU, 0x3d1382a9bda863f5U, 0xbcb9ed05bd47ab15U,
  0x3e0919bf3e1693e6U, 0xbd16ce803ca7c649U, 0xbd12aec63d927312U, 0xbded667dbe0a5f9cU,
  0x3d9904c9bdd5dcf9U, 0x3d088280bc84ea7eU, 0x3c5610d13d223896U, 0x3ce53af93e2c8499U,
  0xbcdb11b2bda7709cU, 0xbe0dff97bdcde66fU, 0x3cb4f3cabc9bb71eU, 0xbd04a4343ddd375dU,
  0xbc2952083d826c28U, 0xbd6838e63d764213U, 0xbda53c603d7cefbeU, 0x3df21cb6bd4e14f4U,
  0x3d9225f93c03d06dU, 0x3b5228c2bd131948U, 0x3cc13eacbd992183U, 0xbcf6a95abd27ff03U,
  0xbd8ddcd5bd9619fdU, 0x3da0db28bd0c0bf1U, 0x3d15efe83dce1b54U, 0xbd9b44743de3d90bU,
  0xbd937f71bddfbb63U, 0xbce01dc4bd893949U, 0x3d39c0d3bc81bdbcU, 0x3d94d9c93db6ed6aU,
  0xbe23d851bd7cd3b3U, 0x3c47eaf33d36a15dU, 0x3d253b4bbdbfe0aeU, 0x3dba8956bda653aeU,
  0x3d7252303d346244U, 0xbdaecd9e3b6627edU, 0x3c93b70cbbb81d0fU, 0xbdec1e34bdeeca42U,
  0xbd90532bbdbc4e74U, 0xbd077d77bd9c1a91U, 0x3c537d76be347229U, 0x3d9436f23df346d8U,
  0x3dc1a4ddbd824167U, 0xbe42a957bd946c61U, 0xbd29f4b3be0be97cU, 0x3bb4278c3da3bb2fU,
  0x3e1bdf5f3e044ab4U, 0x3d9016ba3d26489fU, 0x3dd1c6cf3d2bb71dU, 0x3e0bc42dbd67f49cU,
  0x3d2e26ed3dc9f3faU, 0xbdb4f1ab3e05431dU, 0x3d73e542bc83f651U, 0x3e2f1635bdb0deacU,
  0xbd13b8e23aea51feU, 0x3db2df623dc72a2aU, 0x3d9e8a453e8cc2fcU, 0x3d190e513dec81edU,
  0xbd12f8cfbb7d77adU, 0xbd969a6e3a6d12cbU, 0x3e0b402a3d0d204aU, 0x3db2253abc32522eU,
  0x3e545ec43cb78f35U, 0xbc9076febd1ff002U, 0xbd11bb6fbd57b5b1U, 0x3d2b70ccbd5b252cU,
  0x3ddd0d16bc87bebaU, 0xbd71bfec3dfd9056U, 0xbc1278cbbd2aec60U, 0x3e0f67d53cd458d0U,
  0xbcc0106fbd0456baU, 0x3d7cfd0a3de738c0U, 0xbc0a9d783e33f072U, 0x3d8fea02bc6413e7U,
  0xbd46d868bd08953eU, 0x3d6b7fba3d8a32e4U, 0x3e02484e3e04f675U, 0x3d1062b7bcc8f8aaU,
  0x3ead7a9cbd01c516U, 0x3cefc5813b175874U, 0x3d23e45d3db82bccU, 0x3df5232cbc56fa18U,
  0x3d8715c33d2ad032U, 0xbd77988d3d895cabU, 0xbd079a403bb47a43U, 0x3de7bcc6bd6f9b65U,
  0x3d9d98ca3da5f56cU, 0xbcfaa8943d174af8U, 0x3db946313e28dfb9U, 0xbdc1679d3d195c91U,
  0x3974df64bd01a3fbU, 0x393535c2bb2e3820U, 0x3d0de1663e462138U, 0x3d47fd633d94d79bU,
  0x3d0feca4bd273397U, 0x3db0410b3c5b19faU, 0xbd8ed2e33c2a9681U, 0x3dbea835bd1e84f7U,
  0x3c8ee8dbbcf93ad7U, 0xbe01bb13bbd73a64U, 0xbc9bdc563bcef109U, 0x3dbe7cf9bceee991U,
  0xbc71b29e3d19ce3fU, 0xbd4f30a6be1a5d76U, 0x3ce8b4c5bd1c8c3dU, 0xbd2129013d85955aU,
  0xbd99759fbd2286a3U, 0x3cee9ac7bca6a382U, 0xbd41c753bcd9281bU, 0x3cf0f514bd86771fU,
  0xbd5a862cbd3e5e0cU, 0x3da373193d8c4783U, 0xbd356bef3cbd5029U, 0xbc8ec44fbd4b8736U,
  0xbdda483cbd947737U, 0xbdfa574b3d5ab05bU, 0x3d91f5e93c87a238U, 0xbd7fb877baa9896eU,
  0x3be3df5d3dcf4954U, 0xbcccb5e1bdad5a8cU, 0xbd1d2214bded8f95U, 0x3d4c5639bc0ec126U,
  0xbca54ed2bd292ac3U, 0xbc23995a3bdf9777U, 0x3cc8ded1bc03a0bbU, 0xbc1cccc1bd4f7aacU,
  0xbe1222b9be7334ceU, 0x3cd363103c2c302fU, 0xbd51598cbd802954U, 0xbd510fb8bc1afa81U,
  0xbd0ca3f0bd1fda5bU, 0xbd39bc53bc677850U, 0xbc1c46a2bbae1acaU, 0xbd93dd25bdbfa0ceU,
  0x3d7c06d33d273ceeU, 0x3ddcc2f8bdbdc33eU, 0x3da03c1bbddb8973U, 0xbd304887bcf178dbU,
  0x3d9f88c83dd06e3dU, 0xbdce1860bd0d2126U, 0x3d626d59bdd9120dU, 0x3db123d2bae187d1U,
  0xbd366abcbdaeab8fU, 0xbacc761e3d5a85f1U, 0xbe397c3c3d3939a6U, 0xbd2eefc8bd24f2cbU,
  0xbd375587bcf9ef7fU, 0xbd3bea323c2df074U, 0xbd56e769bd9ab809U, 0xbc2e9e163cd1e76bU,
  0xbd994a8d3dc20f32U, 0xbdd050dbbd957bb2U, 0x3d493067bda9b9d8U, 0x3aa1dbc03c7a18d4U,
  0xbe098f593d016da4U, 0xbc1e58473d5e6291U, 0xbd875be03d512973U, 0xbcbe15053d8b1530U,
  0xbc5a0a89bd76c3b1U, 0x3d9a7d013cdbb2c7U, 0xbd87fc6b3dafee9dU, 0xbcab0aadbd3aa57fU,
  0xbde0608fbe2775a2U, 0xbc839798bd31be74U, 0xbc1f8dcbbd672bc5U, 0xbd87b63b3d7b722cU,
  0x3d6c45ebbc373607U, 0xbc3a563fbdcb6151U, 0xbd146fd43cc91ed7U, 0xbca85da7bdffc49cU,
  0x3d916f273db14949U, 0x3dbbceaa3bad6d18U, 0xbd81e3213c9d879dU, 0x3dbe951f3d7452e4U,
  0xbe2eebebbdc2e1b7U, 0x3d1ad690bd556d0cU, 0xbdb58603bc6f0e80U, 0xbdeedb14bd17de83U,
  0xbe3a9200be4d1324U, 0xbe36d73d3d56e46cU, 0xbd5e0e4bbd3c2267U, 0xbd998169bd875aeaU,
  0x3cb44015bc11f9b6U, 0x3dada1bcbc4a4931U, 0xbd8c69703cb86d97U, 0x3cbae2d2be3edeffU,
  0x3d67563c3d6339adU, 0xbdf4316b3d3df635U, 0xbacbc9c1bd8716d2U, 0x3d9afa783d170197U,
  0xbd697e953db2782bU, 0xbdcd50823d3997a2U, 0xbe692b3c3d9b86ebU, 0x3d489be73a93fc74U,
  0x3d189f193dd7270fU, 0x3d582f853d8282b6U, 0x3db2bcac3c51dfe8U, 0xbd91072f3ccb2e7fU,
  0x3da11aa3bd89ea3bU, 0x3df1cc1f3d4716bcU, 0x3bd5a70c3dfb254aU, 0x3db0f2133c73b83eU,
  0x3c84fa02babcda27U, 0x3ddb54a13d84f71aU, 0x3dac7813bded410fU, 0x3d0cb8123da7c68aU,
  0x3cf001ce3dee1022U, 0x3d5510203d042bfcU, 0xbd3cb39f3ca2d602U, 0xba71ab7c3daf1c96U,
  0xbe1f0dbbbe13c79dU, 0xbd8445d1bca7f6c3U, 0x3cc0c263bd192601U, 0x3d090c2dbd147998U,
  0x3da0c46b3d1d0bc3U, 0xbc3e6437bc948ebbU, 0x3db71ba43da21ea4U, 0x3dbdfbdbbd73a03bU,
  0xbcc879073d8188e3U, 0xbd6223973b47e1a1U, 0xbd110313bd81cd96U, 0xbce9244dbc822996U,
  0x3cd38f533dc1a292U, 0x3cdab7adbe1a8933U, 0xbcff8f17bd72e146U, 0xbd7ea472be148c1aU,
  0xbe5a9d5abe2c1e3fU, 0xbe08c85abd5c7de3U, 0x3b4894223d849ca0U, 0x3d20c89bbdca6f37U,
  0xbb4662913d314951U, 0x3ce8cf223d9abd04U, 0x3ca95e2dbc32619bU, 0x3d03c9afbe40b781U,
  0x3d2fd5cd3d894865U, 0x3c50401d3d1379d4U, 0x3d2007d2bdde5550U, 0xbd397349bd96d664U,
  0xbdb61659be1f9825U, 0x3d4eda6a3b86b75eU, 0x3dc204963d17f903U, 0x3c67e17f3d101487U,
  0x3c182c943c730a88U, 0xbd3500a3bd5d43daU, 0xbc1ac4ff3d8529ccU, 0xbe3ce8f73d0a84aeU,
  0x3c2b3ddabd5f4b3dU, 0x3d41c121bcea55b0U, 0xbd3097b9be2f9ccbU, 0xbd8f48aebc8fbaa4U,
  0xbd0c0fea3d68901cU, 0x3d4f43dd3db345ebU, 0xbc52a417bd817183U, 0x3d10b976bc52972aU,
  0xbcf63811bdbe7696U, 0xbc008b75bc4bd472U, 0xbc8ec3f43db55343U, 0x3ba93c8f3e13c374U,
  0xbd17e182bb83e5ffU, 0x3d81329dbd185afaU, 0x3d945d093aa7a990U, 0xbde3b26c3e3f3ae8U,
  0xbc73c6043d038fd3U, 0x3b4f9ebe3e0f8895U, 0xbd3b6acb3ba13fe4U, 0xbd1fbafabdc59d39U,
  0x3d6455513d85540cU, 0x3debef4f3d8df377U, 0x3cd7389abcf18674U, 0xbd7270e8bd0ff90aU,
  0xbcbacfb7bd2380e0U, 0x3bac246bbc00ab93U, 0x3de4f7bcbdb1894aU, 0xbd306c8f3d75eb4bU,
  0xbe22c80ebe43004dU, 0xbce6bbf03dada676U, 0xbc6588963ccfe374U, 0x3d89c508bd77ef06U,
  0x3d9a9338bcc7f274U, 0x3da2ae823da7df3fU, 0xbd618c643d611719U, 0xbcb558d4bde29851U,
  0xbcaeaf4dbdc0b89bU, 0xbd8a97e13d95917aU, 0x3d840d8a3d56a299U, 0xbda6c21dbe157de0U,
  0x3c479785be2da9c1U, 0x3ce36e40bd4a20d5U, 0x3e10ce2bbd842dafU, 0x3d7dbf0c3db070fdU,
  0xbdddb318be025b50U, 0xbd81f688bc962afcU, 0xbd519cdebc4787f6U, 0xbce6ee4a3dc7dcb6U,
  0x3d3c1c8a3d231a1aU, 0xbcbbdf4abb306359U, 0xbc15c770bdc958e6U, 0x3c455e3dbdae7d38U,
  0x3d8b1e5e3c63e858U, 0x3c3208a43dbc2aefU, 0x3c5117c23d12dde3U, 0xbce5ecc7bd33db10U,
  0x3dafe0b1be1570d6U, 0x3d773e293cc92d41U, 0x3d9997083d2f4fd5U, 0xbd791f2dbcc393f1U,
  0xbdbd4f99bdd414f7U, 0xbc71bba3bd2ec0bdU, 0x3d4b9ec5bdd7c533U, 0xbdb4b19e3e48de0cU,
  0x3d303d623d79ac8dU, 0xbda04c793dabfe97U, 0xbd9d4792be0a3cf4U, 0xbc3067a4be1077eeU,
  0x3d19bf51bd2702f5U, 0x3debc4c53c9c7605U, 0x3bc1a23ebd336191U, 0xbdab8d8ebcc72d79U,
  0x3d3e7367be405b53U, 0xbe1ce5a2bdacc26dU, 0x3df4b7f4be158191U, 0xbd93f0e43d9ab0f6U,
  0x3d3fde4c3c23bfe9U, 0xbd47bc25be0664f9U, 0xbdabe39bbd7a9eecU, 0xbc0b1b2c3ced4decU,
  0x3d6bf967bdebeb9eU, 0xbd1bc0073cf12d15U, 0xbdec6d7cbda2b9caU, 0xbc955ba33d8be0f2U,
  0x3da0f4f5bd2deb6aU, 0xbbde13d73d165e1aU, 0xbcc9c269bd4ee8baU, 0xbb8f54373b6adec4U,
  0x3dda2726be7551bdU, 0x3df9b122bdd17024U, 0x3b22f91e3da5c943U, 0xbb7432253db09e14U,
  0xbe7a37f6be813400U, 0xbd03857c3d10800bU, 0x3c421ae8bbcdb973U, 0x3e18beb73d6bbba3U,
  0xbd59831b3de53c5dU, 0xbc08ddd2be31a9baU, 0xbd910a0dbd32f204U, 0x3d89791fbdd20e3eU,
  0x3cb2be073d391de3U, 0x3d5217cb3d795e7bU, 0x3aade0fb3dafecb8U, 0xbcee7dde3ce203dcU,
  0x3e601693be9766cbU, 0x3dc725e73d3a4010U, 0x3d8a0c503d959026U, 0x3d359518bd45ae87U,
  0xbd70cf54bdc6e652U, 0xbe0904fdbcb80dbeU, 0xbcda298f3dcf3ebeU, 0x3cb965df3c31f14fU,
  0x3d5307a83ca250ecU, 0xbd848894bd88f176U, 0x3cce2a30bda3cd4eU, 0x3da0d34f3d49b8bbU,
  0x3b62a2cfbd28407aU, 0x3d2f143ebd3227afU, 0xbd91209e3e0c9b32U, 0x3da997303d8c9575U,
  0x3d80bad3bdc61bc3U, 0xbcd8565d3df0e293U, 0x3c3594353d53a87eU, 0xbc9ff6633d2c5f82U,
  0x3d9dfaebbc2adac3U, 0x3b353a19bd461ca4U, 0xbd939005bd5ee00eU, 0xbdf626f4bd6e0b76U,
  0xbd023793bc17f8ccU, 0x3d7edd523c4c5d8eU, 0xbdc229f5bd7724f7U, 0x3d8f7cdc3e1867b8U,
  0x3c84916fbcffbdd3U, 0x3d24efbd3cae09deU, 0x3c7cdbb6bc40d1edU, 0xbcd074373d97262cU,
  0x3e11444c3d990bb3U, 0xbde2ab29bd4d65c5U, 0x3dc28d92bd2748fdU, 0x3b0cb9fbbc51eb8fU,
  0xbcb0e775bdf596ebU, 0xbd282a9dbd58c024U, 0xbd2d3b1b3b83842eU, 0x3d102eb23d9e2563U,
  0x3c256e213cb5e303U, 0xbd9644033db43aefU, 0xbcd8cbb03daeaae6U, 0xbdaeb79bbdb5af98U,
  0x3ac7c096bdca9402U, 0x3cb5d15a3d61a4a7U, 0xbd913e46bc8d989bU, 0xbdc2edf6bddd93acU,
  0xbd122b97bda1c9c2U, 0xbbf3374dbd7dd6b9U, 0xbe3f4973bd8456d8U, 0xbcdca18abc2a52c6U,
  0xbcb099653c0609fcU, 0x3d42ab3cbd84a5a0U, 0xbcff275c3cc1a493U, 0xbb2df077bd0696daU,
  0x3b860dc5bd8ee02dU, 0x3d88fb4a3d260f14U, 0xbdc2c0df3d902c70U, 0xbc9933afbc134937U,
  0xbc4d1571bd97b0aeU, 0xbcfd3b80bcc3cc15U, 0xbd8b5d19bbf25ec4U, 0xbc9679ca3d3db6daU,
  0xbdb98b0d3da39639U, 0x3cd023d33d2540f0U, 0xbe32121e3d475af0U, 0x3d3f5763bcec6702U,
  0xbcd70f95bc6b9372U, 0xbcfc18efbd860cbdU, 0xbd0c54b23c88aa70U, 0x3b90bc8b3d79c21aU,
  0xbd5031103d203b54U, 0x3d484970bd9b08d1U, 0x3d99dd17bc72ba44U, 0xbcb56641bd8194c0U,
  0xbaa484bbbd03f2faU, 0x3b59489a3ca36f73U, 0xbd428816bd075e15U, 0x3d6045c0bc8870d8U,
  0xbe03a35d3d4be9aaU, 0xbe095e4bbdc74e85U, 0xbdff976abd76a8d2U, 0x3c74d05dbd33a044U,
  0xbdf06e9fbe3c2a75U, 0x3c823892bd0a4068U, 0xbe13fb09bc110c36U, 0xbd961275bc808f48U,
  0xbe14f5ebbd9d4a5bU, 0xbd8724d13b6dc3d8U, 0xbd865641bda86499U, 0xbde980aabd28c8b1U,
  0xbe1b6c9cbe2718deU, 0xbdef375bbc83f1b2U, 0xbe0c808abbf3965bU, 0xbda5d1f9be15c88bU,
  0xbbc52a6a3d54442bU, 0x3d6341dbbd56910bU, 0xbe9ae0f2bd1dc060U, 0x3d32fce2bd51eef8U,
  0x3de8d0023d3df58dU, 0xbd04b96b3c1d1d8eU, 0xbd52c431bd554e6bU, 0xbab218473d788108U,
  0xbd5f5383bd79e7adU, 0xbc8e427bbe03bdb1U, 0xbdc3df8abd2a9367U, 0xbd8677a73d8249aeU,
  0xbd0c2491bd853a49U, 0x3db43b1b3d3343b0U, 0xbd6be736bd587cedU, 0xbcf506fb3d830706U,
  0xbe54621e3d3ea071U, 0x3c28b3033d90e3a2U, 0xbd35bfcfbc1dc4ccU, 0x3d1709f33da66099U,
  0x3df37d1f3de14faeU, 0x3b390477bd54be30U, 0x3dc0a9eabcd403a2U, 0xbd9f5888bcf667e2U,
  0xbce19f2e3d537b77U, 0x3dd123e03d43cf01U, 0xbd056e2e3e2f558cU, 0x3d821b743d2646f6U,
  0xbcab9bd73c3a11b1U, 0x3dc51aed3d195993U, 0x3d73c5a1bdcfa0a2U, 0x3d9fb50dbd18cae7U,
  0xbd2072873ce6bf49U, 0xbdd6e45b3cb8046bU, 0x3bab75aa3da87891U, 0xbcfadfcd3af6302cU,
  0x3da12720bd33d303U, 0xbb61a476be071736U, 0x3db8dab9bd3040d8U, 0xbe151b053e2100a6U,
  0xbaa06f123d188aeaU, 0x3d29e95fbd081c3eU, 0xbddad8063d8d983aU, 0x3dc0de61bd4a8205U,
  0xbc02a220bdb16168U, 0x3e2e5f2fbce71295U, 0xbbce5fb8bd7014f8U, 0xbd1f66933dc44500U,
  0xbd2d8f42bbe85bd1U, 0xbd33a67f3d7b76b8U, 0xbddcab5e3d690785U, 0xbd13700b3dfbb2ffU,
  0x3dac46653e18e04fU, 0xbb8e78ddbd8e4073U, 0x3dacdb9e3d3bdd6cU, 0xbe0453333dfadf7bU,
  0x3e013d06bd8431acU, 0x3e24de913e48fb7dU, 0x3d17d89c3df5dbbfU, 0x3ceac7833d89d3b4U,
  0x3d9cbfd13d1fbadfU, 0xbc431b41bca8b58bU, 0x3e262c6f3ad8386eU, 0x3c0488c63b03499fU,
  0xbc17d8f73e00b4dbU, 0xbd900125bd86b3baU, 0xbd09bac5be1a5231U, 0xbd90d237bc2d4241U,
  0xbd605cb1bdfbf970U, 0xbd8c6a523dab9133U, 0xbd4b76983a875a48U, 0x3cebcd1fbdb51eaaU,
  0xbceeaa71bd73d3d1U, 0x3cb6228a3e097e85U, 0xbd6993f13cb5b9acU, 0xbd9a4fde3c40eca4U,
  0xbc931f703ccd7be7U, 0xbc1374b8bcd2358fU, 0xbd5dd371bb767db8U, 0xbd09d43abe2c5f67U,
  0xbdd5686cbbbf401bU, 0x3c3e219a3c3e32fcU, 0x3cf120ab3d57cbbeU, 0x3d0a3f94bd464287U,
  0x3d6901923cf69228U, 0xbde09c57bd42f599U, 0x3d0a47a9bcd48ae6U, 0x3ccd0025be229c3dU,
  0x3d0f1008bd309380U, 0xbc84407fbcad09b6U, 0x3db734313d804d20U, 0xbd516ac23d72840bU,
  0xbce7a3ebbc93ccafU, 0xbddf19ed3d64ea74U, 0xbd5e4c93bac5ae8dU, 0x3ca9fabebd148adeU,
  0x3c1417a73d82d11bU, 0x3d76c112bca5f01fU, 0xbe4d3369bbf1e90dU, 0x3dda2c2abcbe5e81U,
  0x3da228163d86be42U, 0xbd856f553d0c6195U, 0x3d495e3bbcfe2c7aU, 0x3cf89e093cf4a191U,
  0xbdc3ccfdbbd70e32U, 0x3cc39f54bd266a4bU, 0xbd841f52bdc3334bU, 0xbd237af6bdaa0e31U,
  0xbe05a02fbc85c2f4U, 0xbd87b00c3bb8c6f6U, 0x3d404266bb5f3e1cU, 0xbd9cdd96bd986e71U,
  0xbe3088843d0a0ac9U, 0xbcc400e5bd08d0e0U, 0xbdc7381b3d700860U, 0xba2bb3733d5dc510U,
  0xbd85a532bdba6188U, 0x3e029bb6bd10e0dcU, 0x3d026a54bccce5e6U, 0xbddea35d3bc9f826U,
  0x3d9e8fab3d906ae1U, 0x3d4a324fbcec6636U, 0x3d2b881d3b470075U, 0x3d883189be20e11fU,
  0xbd554e683df41193U, 0x3d43dffd3d85aecfU, 0x3d090ff6bcbe4f23U, 0x3df8023eb9b55574U,
  0xbd5cdad13cc3d7e4U, 0xbdae6780bd1792ffU, 0x3c770318bca584a9U, 0xbd8794cfbda65b37U,
  0xbe24ae34bdb0fbd7U, 0xbc9be857bc7c4907U, 0xbd2e61aabcf4abd5U, 0x3d94edf13c5861ecU,
  0xbd6326fcbd8034b3U, 0x3ca536ca3dce2099U, 0xbcbfc805bcf20430U, 0xbdf4626ebdf5d8ceU,
  0xbdc915fdbaf860ccU, 0xbde7842dbc8387bbU, 0x3b84db53bd63c9a2U, 0xbd9d7558be3e3fdeU,
  0xbda64c853dd72c4eU, 0x3dd4150dbc2b35fcU, 0xbe46163c3db9ad90U, 0x3cd7dab63c3df157U,
  0x3c71f1893cee88e6U, 0x3da2b5503c84db12U, 0xbc991f663bdc1d90U, 0x3d64ab873e086a7cU,
  0xbc7c9e483d196d08U, 0xbd6f51083b9ccddaU, 0x3b913249be2b0fe3U, 0xbc4f5a62bdcb7e28U,
  0xbdf556e83dd1689eU, 0xbb1eb5ee3d856a44U, 0xbdcc0c2ebd10d676U, 0x3d8f1ab4bbfcec53U,
  0xbdc40044be0e8566U, 0x3cda437f3d05020dU, 0xbd86db033dceff80U, 0xbba621813df33c2dU,
  0xbb4aa22bbe28ffd0U, 0x3c0b8b533d7eca05U, 0x3d45cf333d2008f9U, 0xbd7eb5633ddb59d9U,
  0x3d08bc1e3d8e3dbfU, 0x3daa5b693dea32c9U, 0xbd63a67e3d2b4819U, 0x3dbe1092bdb293b8U,
  0x3cf2b8993dcdd14fU, 0x3dad3bd83d9f61c0U, 0x3d8a28cebd67da91U, 0x3d9cdd93bc1fd844U,
  0xbcb0ebd93dc40807U, 0xbdc4ac4dbc8e36adU, 0xbd8cb0b2bdc54444U, 0xbda93c23bc10b80aU,
  0xbc9a8284bd975bdaU, 0x3d18186dbdad3db9U, 0xbe000ff5bd55e3e0U, 0xbce4726cbc001a53U,
  0xbd983140bc1dc2a1U, 0xbd8064a4bdfd7997U, 0xbe34d455bd874d53U, 0xbdc6e21bbe08277cU,
  0xbe1ad9e8be04157cU, 0xbd14025dbd5d6a3dU, 0x39d9e926bd08371dU, 0xbe0ec47bbd85bccdU,
  0x3e122f0dbde84a94U, 0xbc1011063d5bf830U, 0xbe1681533d37ffbfU, 0xbbe7e74c3dffaca7U,
  0xbd626d0bbdbad34eU, 0x3deb8b3bbc9ae85aU, 0xbce4900e3d80f476U, 0x3dfd65413badf567U,
  0xbd0a27fb3d0832d6U, 0xbd2fe891bd3f20e2U, 0x3d2d69b5bd17bbb0U, 0x3de0fc0cbe106224U,
  0x3d6744603dd7c97cU, 0x3cd2f8f4bbd4f221U, 0xbb645c6c3db1f7bcU, 0xbd587fe5bcdfc23bU,
  0xbd451e38bdcd8854U, 0x3da7267bbd690b7aU, 0x3e3648843daa742cU, 0x3cb16935bd367339U,
  0xbe1b5f36bdda05c5U, 0xbc207dd23d1636d3U, 0x3bd495a4bd73d5ceU, 0xbc86f6b73dbcc860U,
  0xbcf508803d218725U, 0xbd0f7fdebcc7cba0U, 0x3ceda2b93c467578U, 0x3d404e85bdeee9f8U,
  0x3e07f872bd2d5fdaU, 0x3d785d083bad52f1U, 0x3cefa35abd32cc20U, 0x3d3f70463d832c0bU,
  0xbdd6bf79bc31be0fU, 0xbd856dc73d73a4ccU, 0x3cc37c4fbd1baaf2U, 0xbd1bc6b93e013a8dU,
  0x3d5795053dc26495U, 0x3d840694bd90e034U, 0x3ca1ef7bbdb22b49U, 0x3ccc8c5f3d68e85dU,
  0xbd00fa1e3b26d1dfU, 0xbd88c2953ba62d1eU, 0xbe133d26bda5c351U, 0xbda62e8b3e13335dU,
  0x3c99cba33d04c260U, 0x3dee2a41bd18d6f6U, 0xbda2af03bd0cfb45U, 0xbcac8c033d23ef63U,
  0xbdc3fac23d83cfe8U, 0x3b395238bd7941fdU, 0xbdab61c63dcd98ecU, 0x3d39cc3e3d1c1363U,
  0x3ddffa5f3d592daaU, 0x3db3f42dbd08e591U, 0x3d9bd6debc2f7ed2U, 0xbd5dab0ebc7e5223U,
  0x3d9140a53d9c5285U, 0x3cfa115ebdc0dab8U, 0x3d1a6cf6bd305585U, 0x3d71c6753d2df484U,
  0x3d9512fabda2f10dU, 0x3d0905a6bc859e73U, 0x3d63943ebd16963cU, 0x3d8a46eebd4c9182U,
  0xbe13675dbd8c7637U, 0xbdb424ec3d572222U, 0xbde9fec83cb5445bU, 0xbcde0a673d21d27dU,
  0xbd18a9e0bbfc645fU, 0xbd02715e3d874b6dU, 0xbb1e497a3d02d764U, 0x3c9cb78e3cc70d73U,
  0x3d54b5f4bd0c0122U, 0x3e101273bcbde563U, 0xbc00edeb3dbbd106U, 0xbd050fe53cba9ed9U,
  0x3bd2f50ebc457ee3U, 0x3d8a59c33d6e0d23U, 0x3da68908bd6ec527U, 0x3db3a2f53b9abd10U,
  0xbe878d65bd48d21fU, 0x3c79452dbce3e238U, 0xbe004660bc5cce05U, 0xbd56c295bcb2753aU,
  0x3de44c7e3db8b818U, 0xbd3b8d1a3c156745U, 0xbd353b0d3d0f3bfcU, 0xbb9165aebd811ddfU,
  0xbd7770bdbd056abfU, 0xbd5c36ac3d56e7baU, 0x3d83507abd147e1cU, 0x3c8a54ab3dd0f6afU,
  0x3d6f0df1bb6df4fcU, 0x3d7eaebf3d8d956fU, 0x3b034445bdcfcae5U, 0x3c12834abd8a1267U,
  0x3d110357be372fbdU, 0xbd424d1abd28d5a6U, 0xbdd40f54bc27533cU, 0xbd85514dbd8c3751U,
  0x3c369707bd1912f5U, 0xbd412c0dbdbf3c37U, 0x3d1891b9bd36bab0U, 0xbce870d4bd7fd4b8U,
  0x3ba77f22bd252a16U, 0x3d1556e2bdbeaa07U, 0x3ac4aa8c3cc3fdafU, 0x3c92546abe081c00U,
  0x3d9feb9dbcd951a4U, 0xbda02b653d0ee54eU, 0xbc06cd3cbb852562U, 0xbd979481bbcc114aU,
  0xbe01534ebe2b3d24U, 0x3d0e570abdaf7e38U, 0x3de52368bd8fe7cfU, 0x3cf6c9eebc2d43b3U,
  0x3bb9ef5abe2d7817U, 0xbdb4d28dbd8b6dc8U, 0x3d4dbbf0bcc1de81U, 0xbe242955bdccc9fdU,
  0xbd8ba594bda819d8U, 0xbc41bb033d855f3bU, 0x3d209df1bc76e5abU, 0x3d713a8a3b34b4b3U,
  0x3dc248cb3d6ea576U, 0xbcc1b93a3da8c802U, 0x3cc56e5abcba59b2U, 0xbd75d637bd1aa86cU,
  0xbdf1dede3cbdb725U, 0xbd1680a8bd96ae7bU, 0xb910cc76bd889625U, 0x3d91e885bda19992U,
  0x3c9124babd723b6eU, 0xbe04a145bdb33ed0U, 0x3b4a9218bd1a91c8U, 0x3d113e51bd9f6c6aU,
  0xbd0bce013bafc823U, 0xbc41f0783d9b9409U, 0x3d0eb752ba5f55f8U, 0xbb7a1fcbbe09dc96U,
  0x3d6621c13d850f28U, 0x3d8b14aa3dcd1940U, 0xbd494ee8bd0d4d87U, 0xb9e08475bc9771aaU,
  0x3b78981abe69d4abU, 0x3c9993bbbd611970U, 0x3d12891c3d95be93U, 0xbbe428e43c2d0c6fU,
  0xbd660a0dbe314429U, 0x3cb406fcbd865fd8U, 0xbb8e30c33d3b694bU, 0xbd635043bcde7858U,
  0xbc3107903d4bcdd1U, 0xbcbcb06bbd8697a2U, 0x3d6b4254bd7592a0U, 0x3d7076adbbcb1c76U,
  0xbda3408d3d9d833cU, 0xbca3b6c93db31047U, 0xbc5bd757bd833bccU, 0xbd4bfef93da8bfb2U,
  0x3d55594bbe1a9190U, 0xbd8881f5bd93c477U, 0x3cff52673d3be448U, 0xbd850304bd9fbc9bU,
  0x3d316d18bd9e06fcU, 0xbe1c4e45bd78c7e3U, 0x3bf88f703d842fb3U, 0x3db333febbf7d7cfU,
  0xbcd79a9bba7916faU, 0x3cbf952b3dc1cdb2U, 0xbc69d63e3da4d11aU, 0x3cf48981bd5d2a9fU,
  0x3c2490aa3cb443e6U, 0xbc6bfc263dc9a4eeU, 0x3dabbc5b3c0b756dU, 0xbad3ab963d0696d0U,
  0x3e336c653ca666aeU, 0x3cf2f988bd5b768eU, 0x3d8af267bd6be694U, 0x3cbe57753c07bf4cU,
  0xbc7c7af9be19dd08U, 0xbdb03a82bd676bf0U, 0xbdab0da43d691c60U, 0xbd0c7e983de0b903U,
  0x3d5c9c193d2ef36dU, 0xbdcdc08ebdba0ef1U, 0xbcc1846dbd23129eU, 0x3cb094043c61efc2U,
  0x3d160e39bbd301e5U, 0x3d1fad02bcd9bfeeU, 0xbd8b1b0a3dd467f9U, 0xbc5270fc3d4b8c23U,
  0x3d171ef5be060d2eU, 0x3cb066be3c560f82U, 0x3cd84becbd6775c7U, 0x3d86fc843bd6f5e3U,
  0x3b94802f3d9395b6U, 0xbd8c3ec5bd6c0ba2U, 0xbd4dd60ebd656dd4U, 0xbdceb4833d78ba13U,
  0x3cc7d6ddbd1c3e79U, 0xbc0b0203bd038f4aU, 0x3d249ec0bdf8b27bU, 0x3ce580a63ca82afaU,
  0x3d32097cbd662c37U, 0xbd0bdaefbc61cd65U, 0xbd5423f5bd167ed1U, 0x3d066ecfbd721395U,
  0xbd8a88afbd87841eU, 0xbd190a38bcb3b092U, 0x3b298946bc55e39fU, 0xbd76a4473dd267aeU,
  0x3d903a983dba8455U, 0x3ccad2efbdb80d24U, 0xbc5811e1bd06570aU, 0xbd4f605f3dc11f7fU,
  0x3bda2eb93bb81c9fU, 0x3cb121753c3b7120U, 0xbcd6f9243d9fe644U, 0xbd64f6353d83acc7U,
  0xbc3c2ebabdd60625U, 0x3ca7a2ac3cdaa354U, 0x3d98b4abbced679eU, 0xbdfe872c3d939ca4U,
  0x3e33ad33bda46339U, 0x3d806fb9bc1f6383U, 0xbbe8bb7c3c9f98a2U, 0xbdf9c30d3d3c9e22U,
  0xbe00295cbde86b26U, 0xbde9941cbda1b499U, 0xbd8d7279bdc3c531U, 0x3dec2af13d2cca46U,
  0xbdcbce3b3d1d27b8U, 0xbe1609b0be2339a4U, 0xbd89a4babd57d5ffU, 0xbd8aee57bdc405ccU,
  0xbc6932453d5da79dU, 0x3d9b6727bdc0a9adU, 0x3c99f6ba3d1e76acU, 0xbcd64900bddaf439U,
  0x3e4cae6dbe43c232U, 0xbc7cb5643d9ad31dU, 0x3da03458bd449f95U, 0x3d6ebf4b3d855731U,
  0xbdbe687cbd98ee43U, 0xbd07e0cf3b5ea4f5U, 0xbd7689ebbd65d4b9U, 0x3e07a93d3dce93e4U,
  0x3c5034d6bd6090adU, 0xbd076b6fbdb0b00dU, 0xbd45f332be24ab13U, 0x39ae7717bdcf966dU,
  0xbc03958f3dbb8ebaU, 0xbd72dda43ba5ba8cU, 0xbe003e073d7a932dU, 0x3d1bbb8bbdb5f49bU,
  0xbd5a216abe784789U, 0x3db4f0823d1b4e75U, 0x3d4a0dcfbce1e392U, 0x3d733ed6bd9b74f6U,
  0x3c392f9b3d4c2a7cU, 0xbe501cc53d434566U, 0xbdcf1beebd4bb8beU, 0xbd860881bcb97ef4U,
  0x3b4510f73d325755U, 0xbc8001bc3ca38a22U, 0x3bc74f94bdebeb2bU, 0x3ba747913d9876c7U,
  0x3d95897dbd246948U, 0xbd67b97f3ca44f52U, 0xbc9bd8e53daf05c7U, 0xbd2400a6bcf60777U,
  0xbdf40d1bbd206d34U, 0xbd80ca69bdcf2bebU, 0xbdb45779bc04057dU, 0xbd497696bd07c8d0U,
  0x3cec69c4bbcff263U, 0x3cbc8206bd9d47f0U, 0x3d9495b9bd21ee78U, 0x3d87d0cc3d871b95U,
  0x3c0a36103d3206fdU, 0x3c0c2079be13f130U, 0xbd1bdf1abdcbeae6U, 0x3d33109eb992b728U,
  0xbc519e37bdded095U, 0x3cd5e8263ce49da3U, 0x3d862bdbbdd6b7caU, 0xbcc49b97bdbb9492U,
  0x3c3e3bdfbe896b63U, 0x3da287c2bd1cc005U, 0xbd9523bbbdaf729aU, 0x3cdcdfa8bda5170bU,
  0xbe28adaebe33a0a7U, 0xbd0e0c753c385b67U, 0xbcf2d9123d922013U, 0xbbf7c31a3ca4419aU,
  0x3d57e5fe3d65282cU, 0xbdd92af4be00a1bdU, 0x3cc2b08f3d46d033U, 0x3a1e0118bc9bfe0fU,
  0xbde187223cbb1844U, 0x3caaa6babb86a32aU, 0xbc33eb963d0e4909U, 0xbd5cf174bcd5b90eU,
  0x3e032f51be564eddU, 0x3e1368f53ca4ff69U, 0x3a2d09523db576f4U, 0xbb56ce53bdbf01f4U,
  0x3df3f97b3ca53786U, 0xbdd07587bcdad3c8U, 0xbd24963c3ce9c4a4U, 0x3da3dbad3d07f512U,
  0x3d341e073dc38486U, 0xbd2b3018bd9716a3U, 0x3cac9115bcc3d00fU, 0x3d80e8f73d65d768U,
  0xbc6b30c73d94014bU, 0x3cc0a55b3d70d7c8U, 0xbcc9a0bb3e5387e5U, 0x3cb11049bd46098eU,
  0xbd40290dbd967b12U, 0xbcbdaeeebcd20bedU, 0x3baf42593d81149bU, 0x3d65240dbd81650aU,
  0xbcd30271bd7f9f3bU, 0xbdd6c7f93c6b7623U, 0xbd935cac3d5615deU, 0xbe3a0abbbc495c7fU,
  0x3beec127bd8722ecU, 0x3cfda8523d25b3c9U, 0x3c337788bcb7b249U, 0x3d8151bbbd1dda18U,
  0x3da074bf3da1d5d9U, 0x3ba62a3abcba9958U, 0xbc7b690a3cb15f8aU, 0xbc32e2b2bbabe5fcU,
  0xbd32042cbd6dfbfbU, 0xbca1e68abd41632bU, 0xbcb600b63caca5e4U, 0xbd8ec52d3cbb0828U,
  0x3d0671acbd9c9f6dU, 0xbd96e25dbd9ccd6dU, 0xbd4f2d0b3d727bd2U, 0xbd00bfffbda3c0f6U,
  0xbcfdc9143ca5dc88U, 0xbd4d8c74bd99699dU, 0xbd487863bd8b3881U, 0xbb5a7788bdc483ecU,
  0x3daf60f4bd62e4b0U, 0x3d023c343c88debaU, 0xbcd0b7f2bd67ea5aU, 0x3cafabf8bc6ff670U,
  0xbdbe0f0a3d04083cU, 0xbd9a81bc3ca1e93fU, 0x3dd2ee1bbc9b4dbaU, 0xbdaac241bcdea801U,
  0x3db0284f3cc002feU, 0xbdb44bbb3d9b3deaU, 0x3daf40fa3d5586beU, 0x3c869e42bd95438dU,
  0x3d5eb398bdbbdc8eU, 0xbc8b30653dac7bb5U, 0x3d32a5183da6ee3dU, 0x3cad064dbd3c4dc6U,
  0x3d0849ec3c9f5391U, 0xbd42975dbd5a3d4eU, 0x3db4f8d6bd7868f4U, 0x3c1849ae3d63a345U,
  0xbda17264be3bf69eU, 0xbd28d9853d00d2e2U, 0xbe22ff723d17cf7dU, 0xbd68f7debda1eedcU,
  0xbd2e803ebe0ef195U, 0xbdd944c53baa7a61U, 0x3d25440c3ce8042cU, 0xbd8fc3d13c943a13U,
  0x3bca24ee3b19f11cU, 0x3bff54feba7f7444U, 0x3d71eaa4be079f94U, 0xbb70d95bbdc93c2bU,
  0x3d447bd4bd08bea7U, 0xbdadbdbb3d39d115U, 0x3d469f4ebde69b41U, 0x3cd38ba3bd87947cU,
  0x3dc344f8be697668U, 0xbc6999053d8b65d6U, 0x3cd6abdabd8a50d2U, 0xbd8d25a0bd736185U,
  0xbd308141bdbfb738U, 0xbd37f0a5ba529d16U, 0xbdd9b71c3d6b8283U, 0x3bbc386abd281066U,
  0x3d9a6e5d3d7c089dU, 0x3ca3f2f2bd52dfd7U, 0x3c48d035bd3d6a12U, 0xbd8a62e6bdc2cb9aU,
  0x3d40b66cbba112a1U, 0xbd9a24133ce68e59U, 0xbc35ab0d3dbfea4dU, 0x3daf0b773bd57d53U,
  0x3c799356be176423U, 0xbd3a344d3d18716bU, 0x3df439f83d7899b1U, 0x3d50c8d7be13afb4U,
  0xbc37a664bcb9e494U, 0xbd76a4393c85307fU, 0xbcf66ad4bcc9b09dU, 0x3d48137abb9e4af0U,
  0xbd99dd5cbd85cd07U, 0x3d8daf763d09dcc6U, 0x3d8cc12d3d8ee67cU, 0xbb893e6fbcb22cdcU,
  0xbb0235923d3c4511U, 0xbd2eaeaa3d5c737bU, 0x3c77f2523baf2bd8U, 0xbc04037cbc621437U,
  0x3d647068bc445950U, 0x3c466b843d07dfd4U, 0xbe3c49903d899b5aU, 0xbddf7e23bd284d75U,
  0xbdbd0ffebd36e694U, 0xbe0ec761bbd76094U, 0xbdec87d4bd75d412U, 0xbbda99f3bd9cde16U,
  0x3d2724e83d15d4d0U, 0x3cbc763dbe0ace01U, 0xbc4891f3bc598a36U, 0x3d8a7842bd75fbfeU,
  0xbcde6bfa3c29f4a7U, 0xbd22c07cbcff2ee8U, 0x3c3033dabc26d0fcU, 0x3c338063bdac4e65U,
  0x3d0f3921be0cbe13U, 0x3c87f8153b9af24aU, 0x3d1b926b3b72da69U, 0xbc9e4b993cf0b6f0U,
  0x3d142d52bd94249dU, 0xbdd3614e3c20ecbaU, 0xbc9febc73d5d140eU, 0x3d8d41f2bd9f7976U,
  0xbc7d74b4bd58c7d1U, 0xbd94bb4abdbf0956U, 0x3d276f313d5f3b77U, 0x3d97083bbb812134U,
  0xbd8dab263d63db0eU, 0xbe04cdac3c79f5f1U, 0xbceb63163c9aafe4U, 0x3c0b3877bd4507d0U,
  0x3d24168dbe4bbe3dU, 0x3ce1f24f3d5e8c35U, 0x3dc717ce3da3bbe5U, 0x3dd2829fbd1a85cbU,
  0x3d44114ebcee648aU, 0xbe1fdc603c88ec47U, 0x3d55ce993d8787edU, 0x3d11271abdb36cd7U,
  0xbcf479d4bd95b0eaU, 0xbd0c709dbd6e6534U, 0xbd831aaa3b9b26edU, 0x3d959c273d9f2699U,
  0xbceea6ae3c6961abU, 0xbd97945a3c8bf331U, 0x3d3c311e3e11a5c5U, 0xbcead2f6bc3cbc82U,
  0xbdb0251bbda4acc4U, 0x3d2a033cbd73a65dU, 0x3cd2ea79bcbc771bU, 0x3cf491193d9e590eU,
  0xbc06d891bc89db7bU, 0x3d361681bd6eea17U, 0xbd1bb0a4bd27d55fU, 0x3db2fed23c5fd1d9U,
  0x3a4096b53d6858eaU, 0x3e02a7ae3c8492d3U, 0x3d0940fa3e1a2095U, 0xbda8cd663d9038a5U,
  0x3d9c668fbdc74b9bU, 0x3da8ad573db87b19U, 0x3e0019dc3c2b505fU, 0x3ceefd42bc77fe59U,
  0x3bf0bf62bd9ca717U, 0xbd2f5d71bd78cf17U, 0x3d300a4abd54bd41U, 0xbd1fe6603cc03b40U,
  0x3d3bfb383cdee1dfU, 0x3bdc75dd3da12f49U, 0x3b99b455bb2084a9U, 0x3b1822853d186e4aU,
  0xbd572dbfbcdaee70U, 0xbd59b429bd8c27b5U, 0xbd1e809f3db6cc20U, 0xbd12960f3d6e2a21U,
  0xbd8ad491bd9c0ac2U, 0x3d855f5fbcbd56b4U, 0xbdb4b7df3ddaccceU, 0xbd6644f53cb9372eU,
  0x3d73ea5abdebc586U, 0x3d96895fbd1058f2U, 0x3d52e85f3d0a5158U, 0xbd434413bd251f93U,
  0x3d96972c3d944d8dU, 0xbd726c85bdbaaffbU, 0xbc7d7d09bb9b994bU, 0xbda28c77bd0feabfU,
  0xbc7028c7bd019e80U, 0x3ddbee183cc98cd1U, 0xbdb1e5c6bc4dfd19U, 0x3c8c63b8bcb5295cU,
  0x3d4c8876bce506b8U, 0x3dc91d083d9618b7U, 0xbcc823f2bcef0ee4U, 0xbd49a18b3dd8f22aU,
  0xbdf5dde2bd3f6b69U, 0x3d51ea153b7e8217U, 0x3cd5b44f3d692f2fU, 0x3c8918dabd942457U,
  0x3ca983efbd4f04f4U, 0x3c427529bca5eb99U, 0xbd53ab423cf0fa1dU, 0xbde1b51ebcbf5f38U,
  0xbccbb9fd3c17dad1U, 0xbd20a6eab99de15eU, 0xbdbae8663dcbab78U, 0x3d2ab2e93e051083U,
  0xbcb287433d8a465cU, 0x3d11fb573c87258bU, 0x3c6aaed9bc5fc541U, 0xbda44c113c706126U,
  0xbd8e7bf23d864b9dU, 0xbbe1d9773b62832aU, 0xbe267906bd04bd06U, 0xbd13b8ea3d323194U,
  0x3e0b9df83ccc3958U, 0xbd2390cbbdbf4160U, 0xbd56f532bd385681U, 0xbd2bdc2f3d0d3a17U,
  0x3dac832cbcb5db80U, 0x3e07177dbd5b4061U, 0xbcd961093d9299b4U, 0x3d980569bcb31501U,
  0x3c02d5c8bc652bc8U, 0x3d0eb38abca424c2U, 0x3d35b9dabdd5dfa3U, 0xbcd958eebd80a662U,
  0x3de5fe663e05810aU, 0xbda93b46bd144f67U, 0x3d3fadeabdb9a864U, 0x3d6da0ca3de1365fU,
  0x3d848184bcdaea3fU, 0x3d8a251e3dbc9e1eU, 0x3d01b90ebb041b3fU, 0xbd6ab906bd7b2d97U,
  0xbd768379bd9243f9U, 0x3e01f0053e026938U, 0x3d4749063e1d8730U, 0x3bf02b98bd172fd1U,
  0x3ccfb138bd90f1e3U, 0xbc4d9cbb3d1ba286U, 0x3b7546a3bd92ededU, 0xbd80d415bcd9b721U,
  0xbddb144abd7b600cU, 0x3d815703bcedcb21U, 0xbd86e7cdbd10e5bdU, 0xbcde89e73db7c98cU,
  0xbb1050933d0db1c8U, 0xbd4840b73d1185faU, 0xbd4acf723cc269aeU, 0x3cb9b0efbd89e6e7U,
  0x3cc60f643d859936U, 0xbcecfd2b3c8949e8U, 0xbc26e05d3d9aaeb9U, 0xbd4be5533d93e9ebU,
  0x3ce38f6d3d4d41faU, 0xbb9f41823cc07dfdU, 0x3d7a00933d98e469U, 0x3db7f8373da0e952U,
  0x3dac01c93e23a729U, 0x3c8be2933c019cbaU, 0x3bfcd8213d04a743U, 0xbd69c4efbd135a09U,
  0xbca83a69bd6f41ecU, 0xbcd192773d8cc473U, 0x3d4f2dde3d056c31U, 0x3d94e5a0bd8e355aU,
  0x3c8ea8d4bd686087U, 0x3d91c68d3cc23ddeU, 0x3d2b8af33ddb9964U, 0x3d5957a5bcd5e5c9U,
  0xbb807ee0bd851b15U, 0x3cdcf5f13d983abeU, 0x3d9563f63d23b568U, 0xbd204c0dbdf6c187U,
  0x3db308bb3db162a1U, 0x3cea9b013d8febfeU, 0xbcd7700ebd8e5202U, 0x3d97499c3b943169U,
  0x3e0a61f83d2e268fU, 0xbd823bf3bd2d1624U, 0x3be2ff1ebda2fd5eU, 0xbcd726efbe154685U,
  0xbcadd6a6bd20a38bU, 0xbcb1bbb4bd31e79aU, 0xbd93eb9abd68ead2U, 0xbccccf043d658158U,
  0xbc81994d3d6a9ca2U, 0xbdef7f22bd5201b1U, 0xbd1c67b83d24d634U, 0x3c89f53dbd8324fcU,
  0xbe23e65a3ce65354U, 0x3d5339f73d469cf2U, 0xbd852ee33d9b65a4U, 0x3d860ec43d82ff2aU,
  0x3d1e594f3c94bea9U, 0xbd8ee9dc3d5fc05cU, 0x3d9588443dbe4012U, 0xbdbcffa13c97e35cU,
  0xbd3843c3bb56f3cdU, 0x3de08abd3cf13457U, 0xbd0bb3a3bc0ddfdcU, 0x3d1944aa3dc5911bU,
  0xbcb1e3af3d5eed8bU, 0x3ce55a503dc3b972U, 0xbd391a3abdb958f6U, 0xbc5c9cd53b1a2c1aU,
  0xbc4c5ab1bd9f73d7U, 0xbc6742733b99a16cU, 0x3c72d126bc347201U, 0x3d809af6bc22f712U,
  0x3d00a88cbde84addU, 0xbdb0d3233dcd758aU, 0xbd12f67bbd50daccU, 0xbda2d430bd31b4afU,
  0xbc9316023d894859U, 0xbd984144bd581dcaU, 0x3defde0e3d83eebfU, 0x3d559d77bdbdac5aU,
  0xbd3fb4343d9e61c3U, 0xbdf45b1e3cf1414fU, 0x3d9d7b85bd50fce3U, 0x3cbe8a1b3d10cae7U,
  0x3d90b1dd3bc80196U, 0xbc80f1583d83a4faU, 0x3d77cdaf3a348577U, 0x3d103044be0f2488U,
  0x3d30f74ebd879ccaU, 0xbde831933dca581eU, 0xbd9ca5653cd4db6aU, 0x3c9f60dbbd3ff15eU,
  0x3d2f45173c075d6dU, 0x3a8565003d16bfeeU, 0xbcb2dbbfbdc75100U, 0xbd40b2d03d49ba0bU,
  0xbd413ec73d9b1d77U, 0xbd90b79d3bb6b660U, 0xbd11bc683dcc9bc0U, 0x3d9c146ebd9cfad2U,
  0xbe370b223cd13fd7U, 0x3c922220bd17fb25U, 0x3d49c021bd9e1010U, 0xbd9e375fbc4ce0cfU,
  0xbd815feebe198269U, 0xbdbfee81bd7b8392U, 0x3d73b3763d1b3d10U, 0xbded43a1be1379a1U,
  0x3d006f7e3d355821U, 0x3d1716503ddcf8d6U, 0x3d815988bba34b38U, 0x3da16498bd8b1a2bU,
  0x3d5e6bd13dbf09cdU, 0xbd86a90abc75a78cU, 0xbca8f44ebd1ccaeeU, 0x3dd10e67bdb9236dU,
  0xbd84db8bbd0b7135U, 0xbd182220bd153daeU, 0x3d44bba03d8d75dfU, 0x3b50db77bd24eb4bU,
  0xbdb98e12bdb839f9U, 0xbdb6f0363d840a02U, 0x3cc5e9cfbd7af8fdU, 0xbb8aa21bbd82a682U,
  0x3d97229f3a5c2c55U, 0x3d908206bd0ee8a1U, 0x3d81858cbda6beefU, 0x3cef36b1be05c3b6U,
  0xbd6bc3fb3c9d650bU, 0x3cc19078bcb52c52U, 0xbcbe99c53c5ee6c1U, 0x3cdd688f3cb1c330U,
  0x3e023db5be268dceU, 0x3d204eedbdb4a210U, 0x3d15adc23d27bb93U, 0x3d81569a3b8992d7U,
  0x3c88cac3bc63e045U, 0xbde09796bc01ddedU, 0x3a6a0d6ebc7c1780U, 0x3dc768123d962d96U,
  0xbd04d378bcc22dbaU, 0x3bf18bc0bc5dea86U, 0x3da73d6f3bda9327U, 0x39c248513ce18edbU,
  0x3dbd288e3da6efdcU, 0xbc1fcdad3dce130dU, 0xbd3cb8e7bb58f0cdU, 0xbcf1d0593da6508cU,
  0xbc2cbdf13d3e6d19U, 0xbcdd0bde3b89fe9cU, 0xbd21fdbabcdda340U, 0xbd8fbb3bbcec8286U,
  0xbd4e0ce4bd9acc36U, 0xbe1964b53da9e862U, 0xbda8dc223bcb629eU, 0xbd1e568cbdf1de3aU,
  0x3db38d8cbdb17a15U, 0xbd338d17bd894b82U, 0x3c9c3add3d7c43a9U, 0x3d504ebebe0c9962U,
  0x3cc6c1e73d013232U, 0xbdefa63d3dcb63ebU, 0x3d8a84823d1d13f1U, 0x3d714a773bed0300U,
  0x3df31aea3cc9c3c5U, 0xbdb85603be01ec88U, 0xbd04193abdd7071eU, 0xbd61ddc2bdb6e6f3U,
  0xbdbff7acbd4378d5U, 0xbe2c7d4bbda3252cU, 0xbe02f6ed3be5449dU, 0xbc989239be289a83U,
  0x3db113363d7c7bb4U, 0x3d36f71a3d93318bU, 0x3cc8cfd6bd415383U, 0x3c80795fbdeebc0eU,
  0x3c96f5813d6dc45cU, 0xbc9c187b3d19a434U, 0x3d82e92bbdc21a7dU, 0xbd2a8cd2bdab907eU,
  0x3dcf0b83bded6dcdU, 0xbd2b857cbe340be9U, 0x3ccaf206bde3eb7eU, 0xbde34be6bd90ba56U,
  0xbde166b6bdbef4b7U, 0xbcf116193d33b32eU, 0xbde96cc63ca71a6fU, 0x3e09d2bb3dbc17caU,
  0xbd75cd0e3ca8f39eU, 0xbd8e3253bc099786U, 0xbd04c1503de11d96U, 0xbdfdf4b8bdbf42dbU,
  0xbdfa3a91bc4c6d9cU, 0x3d72dd9ebde746e3U, 0x3da44da6bd5d35c9U, 0xbd1e756ebe5949b3U,
  0x3cad4528be361fbaU, 0x3de892523d68b635U, 0x3e23764cbc2f955eU, 0x3ddb77acbc948a65U,
  0x3df1228abd120a4cU, 0x3c036df63dd4ae9eU, 0x3cfe91a73c51c8f6U, 0x3ce1ff2dbd70a16cU,
  0x3cbe6b453df3554bU, 0x3d83e87c3cbeb750U, 0x3d97d1f93c51bbd9U, 0x3d1c693b3df9ab3bU,
  0x3c7c7873bad399e2U, 0x3d25ebba3b8c09a0U, 0x3dd0446e3db20432U, 0x3d7dfcb4bc24c4eaU,
  0xbc748688bdc83db0U, 0x3ce6acbcbbe8219dU, 0xbcb604463df2ec85U, 0x3d9ce6613daa2062U,
  0x3d81ea6bbc4a6854U, 0x3ce8a82b3d1c133fU, 0x3d3aa8943dd57b58U, 0xbd390e65bd774ef8U,
  0x3df8f873bd1ab0baU, 0x3de2b844bd13e69bU, 0x3c91cc4b3b1905baU, 0x3dec96fb3da942a0U,
  0x3d4ddaaabb473b20U, 0x3d95b1c13d904a62U, 0x3dc349c5bbdcd16fU, 0x3dcca9303e01fa01U,
  0xbe1e56443d1f3d54U, 0xbd5106153baeb31cU, 0xbdb8a68f3c10185aU, 0xbd3383f73d46c45dU,
  0xb9e0fc98bcd3a9f7U, 0xbd65a8e83db347c0U, 0xbb6a1e4c3c723005U, 0xbca62194bdde46b8U,
  0x3d8ee8163d8524e5U, 0x3cbc4e623d497f9fU, 0x3e1451ea3e37a999U, 0x3df2a6843d0e6e6aU,
  0x3d30bd273dbf134fU, 0xbce3293d3dd60064U, 0x3e1f60abbdc22549U, 0x3d7920253d949a6bU,
  0x3e63ada33ddd07d0U, 0x3dbc8840bd4ec63aU, 0xbd9d9e59bd97ef26U, 0x3b638856be0676feU,
  0xbe5cdaafbdf3dd5bU, 0xbe234c2d3df5607cU, 0xbdd12e803cd5777dU, 0x3e0b970f3d58ce90U,
  0x3d7689363de36b43U, 0xbcb9fc7a3db250d0U, 0x3d087f583cc2179cU, 0x3d75c500bd6c9efbU,
  0xbde9dc793dbd785dU, 0x3c0a423b3b29904bU, 0x3dc5375c3e696b2eU, 0x3d0de422be2e7c7aU,
  0x3e190eaf3e2db0f7U, 0x3c283f63bdee3619U, 0xbcda0c9a3d8b9eeeU, 0xbd153314bb9f49b1U,
  0xbe161338be5d4453U, 0xbdb5d34e3cba7f63U, 0xbde213a83da794a4U, 0x3d7297c5bdae02cbU,
  0xbd35d5bd3c917397U, 0x3ddfcc403d47e3f6U, 0x3d12b66f3e0993abU, 0x3c29786abde99a1dU,
  0xbdb0a5333d8b60ebU, 0xbe02c2413befe069U, 0xbcaa1a5b3e2b3326U, 0x3ca9c902be339fd9U,
  0xbe5b0c003e370325U, 0x3d80d573be6b9d0cU, 0xbe06fb1fbdf6df11U, 0xbe0c8276be55ab45U,
  0xbea210aabe15ebf8U, 0xbdba28903d0c75eeU, 0xbe2dc215bdb9e358U, 0xb99799d2be3d756fU,
  0x3dc6576bbd3779efU, 0x3daf23e03e3f1260U, 0x3da6f6ff3e301d45U, 0xbd409a01be71ef9bU,
  0xbc884fc7bd439236U, 0xbe38b49bbd3ff70cU, 0xbcdaa46fbdce8f5dU, 0xbd322558be3253ffU,
  0x3cc8214fbdcf075dU, 0xbe29c531bdc560e0U, 0xbda73e3bbe32d2e4U, 0xbd8ec581bd8d0a61U,
  0x3db11f993e068324U, 0x3c9fc2adbc951f54U, 0xbd6b0ac2bd3a0d1cU, 0x3da6b49abd63b43bU,
  0xbcbe832ebc989ec7U, 0xbd7fe57fbe096108U, 0xbe27f496bdf267e8U, 0xbe250d8f3e30b53fU,
  0xbdbb75aebd671289U, 0xbe3707d8bd6b89b6U, 0xbd5d0a383cf5b53eU, 0xbe3710dfbd4408eeU,
  0x3c7325013d3e3d84U, 0xbb97cb1ebdb5354dU, 0xbdc33989be1fafb8U, 0xbe09afb9bdefc6ceU,
  0x3d807dfe3d032db7U, 0x3c9ddf39bdbdf1baU, 0xbd4d279ebd59bf18U, 0xbd14f3e4be338ea8U,
  0xbdae33673bfaf63cU, 0xbe1915c9bd574202U, 0xbdef2d983b1c744bU, 0xbe195e213dd1c592U,
  0xbc9dcdf6bdb16723U, 0xbe1af711be2d47a0U, 0xbcd5547e3d0f603aU, 0xbe1f66f2bdf08c06U,
  0xbe2f0e0a3d5f7c76U, 0xbe0b336bbd988fa8U, 0xbdf7719abe387207U, 0xbde0de59bdd14c64U,
  0x3d8837683d752213U, 0x3d977579be4d14f6U, 0xbd1fe3a7bd077092U, 0xbdf8880ebdcc2ddcU,
  0xbe0521d4be398c43U, 0xbe2c5f47bd88a6fbU, 0xbe574c97be25a038U, 0xbdd918c93d05ab00U,
  0xbd9acbfcbe224061U, 0xbdd51bfdbc7fdb79U, 0xbe241bc1bd3ea0f2U, 0xbe0f2ccbbe031b92U,
  0x3cc053913b1be114U, 0xbe052cb53d5d8714U, 0xbd8ba75e3b143d10U, 0x3ac68df83e29abbbU,
  0xbd671970bc8a8f13U, 0x3e0f5e8ebdbb85e9U, 0x3d3487ba3b7310ebU, 0xbd1537a83de25ee4U,
  0xbe6d2271bd45a5caU, 0xbdab5488be82283dU, 0xbda500cabe0aca2dU, 0xbdcc97aebe007315U,
  0xbe5b85b9bd58d2b5U, 0x3de7ae4dbe0e1c2fU, 0xbe0d48903d17ecb7U, 0xbd49c7b3bdeae3b4U,
  0xbd0d1d84bdd8a20fU, 0x3d2706c0bc80fe95U, 0xbddef606bd6b53bbU, 0xbd3030c73ca066c8U,
  0xbdb7db8ebcb30c5aU, 0x3c0640d5bdf0c58dU, 0x3c2fd719bc719737U, 0xbd0816213cda6309U,
  0xbd667de9bb0ab0c5U, 0xbc3bb572be2df922U, 0xbddf9928be864537U, 0x3d53ec38bdd1fe6aU,
  0x3df76c093d4a70b2U, 0x3dacbef43db353e5U, 0xbd8f04813c95b5fcU, 0xbd0cf5c03d67c97cU,
  0xbdde4f9cbdf6098eU, 0xbd2c30413cb73b80U, 0x3d48a1783cafe359U, 0xbb30f8edbe1d565fU,
  0xbe16c18abe31398dU, 0xbd4f4f68bd52cd57U, 0xbdd33d473c9a6680U, 0xbe57962ebe027e43U,
  0x3ce609fabdd60416U, 0x3c708d42bd85a117U, 0x3d513747bd8c7376U, 0x3c3054babd99ef77U,
  0xbc7b6bcabb8c5136U, 0xbdfe2f37bdaddeb1U, 0xbc4bcc41bdbacc4aU, 0xbdbfeb7b3d111d37U,
  0x3d8ff7d9bda2bdafU, 0x3c159653bcbc1176U, 0xbd9724de3ca98bc4U, 0xbd8f1e443e166549U,
  0xbd59c558bdccea2aU, 0x3c2dfe843bc48ae4U, 0x3dab3e673db4cf4eU, 0x3e0b90253da0f015U,
  0xbdc1e9273c617d4eU, 0xbd39ff1cbe83c1feU, 0xbd811e73be7ef285U, 0xbd1f8064bd9e0133U,
  0xbddb9865bb9148f2U, 0x3e010f983c90756dU, 0xbd3fb453bcca5581U, 0xbd7dbd9abcdfdf7aU,
  0x3db3f979be077f37U, 0x3db3bfb7bcfed7a2U, 0x3d2832aabd06707aU, 0x3cd259b63ce73918U,
  0xbe34e08cbe4e2fe1U, 0x3d95f7bebd9accf3U, 0x3c8ed3d9bd0a5352U, 0xbdf959ff3d0fa8feU,
  0x3cf40a30bcae76a3U, 0xbd16a814be3d74abU, 0x3dbb4c5cbdf0dbb1U, 0x3a9426fabdc069f1U,
  0xbd5b7e45bd2cc2e5U, 0x3d94c1333d039476U, 0xbd071af23df1bd27U, 0x3ca8143cbd7fe2e9U,
  0xbe012f8bbbe901bfU, 0x3d6077ba3de66a47U, 0x3d43239f3d4f35e9U, 0xbd27693fbde4080eU,
  0xbc4362a6bdcc621dU, 0x3c56cbd03b876f1dU, 0xbda3f975bc2c1a1eU, 0xbea84bfdbdf284f6U,
  0xbd36060abd508526U, 0xbd8727bc3cbcabd6U, 0x3cc65edebe544f32U, 0xbbbf3e7c3c35cadcU,
  0xbd30bc613d96bb97U, 0xbd4a36413c3241b2U, 0xbd34e305bd80cf17U, 0xbbebfdbd3db3d949U,
  0xbd06d4153dd8c362U, 0xbd3a3160bc95cd7eU, 0x3cf4fdf3bdbd2c46U, 0x3e0c62aebd1b40faU,
  0xbd8454483c554963U, 0x3d155568bd112bfcU, 0x3c3942e63d9e2b49U, 0x3cf1d30dbd0a9289U,
  0xbbd210df3d82f3b5U, 0xbb8ac26b3cdbc3d2U, 0x3bc6ab9fbd475318U, 0xbd77934bbd630d3eU,
  0xbd92c3d43bca196cU, 0xbd8875f13cfdab5cU, 0xbd87464c3dd8926cU, 0x3ccae639bd5b2523U,
  0xbd48626a3a1c0772U, 0x3ddac3603d940dcbU, 0xbdbd51d73d732786U, 0x3de7957a3da789c1U,
  0x3ded5e7a3c689bdbU, 0x3dd0e639bd839678U, 0x3db83131bc872dd4U, 0xbe033bdf3d2e5288U,
  0x3d976ef63dd5ce99U, 0x3d03e5dabdf538bfU, 0x3cfcd2adbe0a88ebU, 0x3db4bae83db72ff8U,
  0x3b0a4e763dd7f228U, 0x3dac51583dd61da1U, 0x3cc98cbc3d853834U, 0x3de368223e1e48bbU,
  0xbe1eae2abdef8016U, 0xbd1f325dbca4b4a3U, 0x3d7fde033d8562a1U, 0x3d2f6dfebcb8aa7bU,
  0xbb84a4a53dd47d88U, 0x3d642a6a3d91f84eU, 0x3ccd99063cfce7d3U, 0xbe672e39bd84518bU,
  0x3de3b90d3cc745efU, 0x3cb1a875bcb21479U, 0x3b74d7343dc5bb53U, 0x3e12b58b3c9233a8U,
  0x3cd06372bc6cd864U, 0x3d7666b8bc805defU, 0x3db3a50ebe20ab20U, 0x3c7021343c8bbb39U,
  0x3e41f8c9bdba05a3U, 0xbd3a25303d053cb0U, 0x3e1c45693d5dd1ecU, 0x3dc0ac003d1b4c24U,
  0x3c410fd8bd62054dU, 0xbd578d743dc659f9U, 0xbd7e27153d4d523cU, 0xbd42617bbd20adffU,
  0x3da1ae9e3da20d1dU, 0x3dbe4dcb3d73cbf4U, 0x3bf198913d0908b0U, 0x3d1b8cd7bdc66b16U,
  0x3da6cffb3e08ff6cU, 0xbcda064bbb8fd9c1U, 0x3ce2ae70bcd5dea9U, 0x3d2083803dcc7736U,
  0xbd6a4be63ce437fdU, 0x3c41425fbe06f939U, 0xbd54bf42bcbdf3d3U, 0xb9c8ea11bd2dd9b6U,
  0xbe0fea7fbd9d75d6U, 0xbd236625bc4f9adfU, 0x3c97fc83bcd16b68U, 0x3c573692be129fc3U,
  0xbd744f923caaa204U, 0xbd8aa7bb3c997d57U, 0xbcbc5ae43dafd9b0U, 0xbd74350fbe14bf9bU,
  0x3a6dbdc7bd8d02acU, 0xbde03a5fbb3aa4e0U, 0xbd011c2ebcd4f57fU, 0x3ced8871bd75c5c0U,
  0xbe5e1ed43e438e11U, 0xbcc047e8bd46373cU, 0xbea6335f3b7a25bbU, 0x3c328fefbd9f5e4fU,
  0xbcd15519bda023c0U, 0x3d9c1222bd39b352U, 0x3d2448a3bdb82623U, 0xbdb4df1cbb2d5d5cU,
  0xbd3d14ccbd068dfeU, 0xbe0a5f07bd976f9cU, 0xbd6d43cebd700006U, 0xbd8f7627bd178160U,
  0xbe341740bde72067U, 0x3cfcebe2be0bbacaU, 0xbe0c5f3bbd0d8807U, 0x3c745d113d8ccb03U,
  0xbd53cae03e61200bU, 0xbd780cbbbe5e88dbU, 0x3c0ce9efbd69f173U, 0xbe2f4661be14d0d9U,
  0xbe24aca9be53c72bU, 0xbd81e4f43d1ee811U, 0xbe143de1bdce91bfU, 0xbc136887be1ff0deU,
  0x3cc692e93ccecf53U, 0xbd6e45693e667ccaU, 0x3d1406cf3d6a13a5U, 0xbce8ce12be166900U,
  0x3bf18c8abbc16cdcU, 0x3c82fadd3d76fd1aU, 0x3dd6dfe33b922d25U, 0xbd3bc31fbe949edbU,
  0xbe3e19333e55e1cfU, 0xbd1fb3f43c7638b8U, 0xbe5e33493dc5028eU, 0x3c7fbf75bd0100eeU,
  0xbbb30416bcd1d8baU, 0x3bcfb09cbdcbe0d8U, 0xbdb8b8d03b584ba9U, 0xbddd595a3cb630c7U,
  0xbdaeec47bd7fb80aU, 0xbd9b905abd8aa144U, 0xbd967002bdb038d7U, 0xbdbfc349bd572696U,
  0xbe6feda6bc8171d9U, 0xbccbc01bbe208cc0U, 0xbdd43674bd6727c8U, 0xbc67169e3d6ef11cU,
  0xbe22696c3de4e008U, 0xbdd22b7d3def2dd0U, 0xbe7247233de44697U, 0x3db370203e2bc7e3U,
  0x3e5afa533e367c2dU, 0x3d98a5ee3cd2df64U, 0x3de2ceb53decef6fU, 0xbdaac7dc3d40f9f5U,
  0x3d58a7173daa6ec2U, 0x3d7ccd2cbd6b1bb2U, 0x3d580b2d3da5460eU, 0x3deb59e53e389755U,
  0xbd9951edbd244caeU, 0x3dca56353bca7c6bU, 0x3cb85004bd802016U, 0xbc733e4a3e09518dU,
  0xbcd11f453e6c26dfU, 0xbd8389bebd71c73cU, 0xbde4b5c4bd26e7ecU, 0xbdcf6a4fbc00b82aU,
  0xbe0213f5bd851304U, 0x3d036028bd84f619U, 0xbccafe3bbe26dbaaU, 0xbe2e4a3f3d518e6fU,
  0xbd91a16bbda482abU, 0xbdb90042bd7d17b6U, 0xbe39d9c9be7b04d6U, 0xbdfd0aabbe42f7a9U,
  0xbe6bc24bbdd045c4U, 0x3d266327be31dd4eU, 0xbe051fbfbddfdf0eU, 0xbe2a7b1bbe17281bU,
  0x3d5407683d2610caU, 0x3d1979173db7c4faU, 0xbe8b27c13e19bef7U, 0x3cc7f8c33e2d0084U,
  0x3ac441f9bbe123aaU, 0x3e4ad892bd3baf91U, 0x3ddb71403cf9c311U, 0x3cb360343df66deeU,
  0x3cc9cf4c3cb634a9U, 0x3d0ff81cbd421874U, 0xbc6b0d213db22534U, 0x3d3cdc01bda6dd36U,
  0x3d7f67223d3129b8U, 0x3e05aa173cd33ebdU, 0x3d7ed369bd58b819U, 0x3d9e5a6a3dc5f920U,
  0xbe52deb33dfc6affU, 0xbc7f9a343ce3d30fU, 0xbe0eb1d9bd9bef45U, 0xbd75cff93d88140bU,
  0x3d9c44acbca7dc25U, 0x3cb5e9f23d361b42U, 0x3d5cecd7bd47d586U, 0xbe104394bd48f8d4U,
  0x3daa58c5bd8391cbU, 0x3d9f5fd03e2c45cfU, 0x3cf775323e49c34cU, 0x3dbed2203d837cd1U,
  0xbc8e7fd2bc5dfa3aU, 0x3cad15513dd3c6afU, 0x3d9a2742bdbbe003U, 0xbd1962d5bd8b0805U,
  0xbcb0367c3cb365a9U, 0xbdb7bfa7bd9f88aaU, 0x3ddfecc9bb996814U, 0xbddc2247bb238790U,
  0xbd1c319cbda84949U, 0xbccfaec5bd92049fU, 0xbd415f173c7d316dU, 0xbcfdb4ad3d2c1a45U,
  0x3b2718f4bd4ad855U, 0xbd024a713d8adf1aU, 0xbcf6fa70bbd0e49bU, 0xbda8553ebba7665fU,
  0x3d5e0f7cbdbed70cU, 0xba279df23da390a2U, 0xbbfec6abbd2868ecU, 0x3d6d9e6abd9289ddU,
  0xbdef02a6bd19af04U, 0xbd76f8f3bc921ee7U, 0xbd949be9bc0afdd0U, 0xbdac87d5bd30fd25U,
  0xbda0204fbd52fa82U, 0xbc899261bdba3938U, 0xbe1aaeafbc0cfed1U, 0xbe1ed731be1bba75U,
  0x3b112048bdc81a55U, 0xbd942107bb268417U, 0xbde966f3bd394128U, 0xbe1286d2bc26190eU,
  0x3c874f8ebd307adaU, 0xbd6d60a9bd85e079U, 0x3d2af19dba95746dU, 0xbd387cbebd1e5c54U,
  0xbe0302913d64ea58U, 0xba889df73b8b83bcU, 0xbdee72bebd644406U, 0x3c8946cebe2dad82U,
  0xba8dc3163cd4474dU, 0xbd820e61bd446df7U, 0xbb020617bd029dc7U, 0xbd8d1ce0be09bb01U,
  0xbdcf8590bd9edd98U, 0xbd40c0d1bd85def8U, 0xbe413e18bd0752dcU, 0xbe0d8ec73d2658daU,
  0xbdc6c077bdee2f9cU, 0xbd47ca1dbd9b4736U, 0xbe287430bd830b9cU, 0xbe0c22403cbe1848U,
  0xbe4e0139b8981546U, 0xbdb4b67ebded466dU, 0xbb5ee4bebdeb0e12U, 0xbe017cb5bd776811U,
  0xbdfbcb8cbce57b8aU, 0x3c8569e5bde644e2U, 0xbccaf254bdc3b2e3U, 0xbe57181fbdc27fe0U,
  0x3c164141bd9d0364U, 0xbdbfbd6f3d1b2d06U, 0xbd78019fbdb194f8U, 0x3c1fdc5cbc478e78U,
  0xbdcc9137bd65d63bU, 0xbd9847623d32c1e9U, 0xbcb8a4a7bd80ef69U, 0xbd09c097be0c1272U,
  0xbcaf21d3bcb33259U, 0xbd393542bd60eaa0U, 0xbe04377c3d59b9f2U, 0xbd7a69ff3dce2f34U,
  0x3de484643d9152faU, 0x3dbb54cf3bf450c2U, 0x3d797bca3db6a490U, 0xbda377fb3d499994U,
  0x3d19f9183d4ed9bcU, 0x3ddd0bbbbcd268dcU, 0xbd81ac373cd25c1dU, 0x3d2dbb44bd0023c4U,
  0xbe1a91a93d793589U, 0x3d9e28cc3bf5ee10U, 0x3ca65c2d3d0ecfe3U, 0xbcd0bf593de60858U,
  0xbd54fc7ebd00fb3eU, 0x3d94c3b13d6f9864U, 0xbe01f0f43d81ea3aU, 0x3de63a74bcb77c01U,
  0x3e21e99e3df86143U, 0x3d7491a63d2fe420U, 0x3dd4446f3e0358bfU, 0xbd6feaeebd971594U,
  0x3d8602e3bd9bee26U, 0x3dd9442abda337c9U, 0xbd02c2ee3e30c724U, 0xbca4bbcd3e320c59U,
  0x3ce612533d6447ceU, 0xbd818c6fba6b1775U, 0x3d569c31bd646bc2U, 0x3dee44b23dd57ec1U,
  0xbd88833e3df5b789U, 0x3d013feb3d742373U, 0xba52ff173da35e96U, 0xbc84ef543d8b02d2U,
  0x3d142e8ebca61ae2U, 0x3da91ca13b6d9867U, 0x3da553183d6b24c9U, 0xbdec03893ca04be4U,
  0x3cc885eabda5d3b0U, 0x3deaf44a3df5425aU, 0xbdb6adb43dec1bc8U, 0x3d2cb1403dc206afU,
  0x3dc682b8bd3a6aa2U, 0x3dc94889bd0abebbU, 0x3d9d073dba18a09eU, 0xbb7dd1593dbf022cU,
  0xbc707d4e3d303451U, 0xbd853b6a3d9ff2c3U, 0xbdbc14cebd8f1008U, 0xbc66b97e3debd5f4U,
  0x3df7fa2dbce7e737U, 0xbc7b60153d7627e3U, 0xbbd29efa3d5a2ff6U, 0x3c9d2058bcd93487U,
  0xbcf68b383d560397U, 0x3dddee2e3e0c0ad5U, 0x3d8d482d3e5ae18aU, 0x3d3605b93da6712aU,
  0x3dba9419bd2fbd75U, 0xbc70f0373da7ef6fU, 0x3e2cd5ec3b6e9989U, 0xbcaece23bd59fa92U,
  0x3bc2bec83d5fa88cU, 0xbca201213c6f2912U, 0xbd2f420cbd5e194eU, 0x3c0c756dbc53be66U,
