/**
  ******************************************************************************
  * @file    network_data.c
  * @author  AST Embedded Analytics Research Platform
  * @date    2026-04-01T14:44:26+0530
  * @brief   AI Tool Automatic Code Generator for Embedded NN computing
  ******************************************************************************
  * Copyright (c) 2026 STMicroelectronics.
  * All rights reserved.
  *
  * This software is licensed under terms that can be found in the LICENSE file
  * in the root directory of this software component.
  * If no LICENSE file comes with this software, it is provided AS-IS.
  ******************************************************************************
  */

#include "network_data.h"
STAI_ALIGNED(8)
const uint64_t g_network_weights_array[112582] = {
  0x3e2ce509bde22cf1U, 0xbe38be6bbe55364dU, 0x3c15203c3eabec5aU, 0x3e11adc7be2b939fU,
  0xbe82d3bbbd8eefe7U, 0xbe145b35bea0f0f4U, 0x3e897629be4f56e0U, 0x3d89681f3e42daf9U,
  0xbc550a423d05ab96U, 0x3dfe9e66bd1dba39U, 0x3edeece9be2ef2f4U, 0x3d93747abe502c6bU,
  0xc01fffafbe45226eU, 0xbecaf714bf4e0dbeU, 0xbef8703ebe8f2dacU, 0xbeeb3bfbbf1f1e41U,
  0x3dc2bd57bda45279U, 0x3ed9a2903d513769U, 0x3c19f164be955463U, 0xbdd4c1f8bf92e2a3U,
  0xbf35781fbd7ff481U, 0x3e7826d63e9cdd28U, 0xbdffe5bcbd9f28ffU, 0xbcb4c7c53dd30ceeU,
  0x3ec7e7c8be05b1e5U, 0x3e44c170be4dbd92U, 0xbfe9fd79bd8a9993U, 0x3e52b5183e32409cU,
  0xbe9e458abe771a32U, 0xbfef72d5be63a8d9U, 0x3e1cc22b3d03eb44U, 0xbcb1e05abfb218ccU,
  0x3b54f32bbc44fc6bU, 0x3d9180bb3ca0a2e4U, 0xbc4389143d185b8dU, 0x3ebd28433e04e140U,
  0xbcac50babe8073e9U, 0xbf02c2503e28bbbeU, 0x3e3816e03e173edfU, 0xbe25969bbf52ad17U,
  0xbdb662683e8010e5U, 0xbd844d7f3d6d20b3U, 0x3cc853b6be150441U, 0xbdfc768c3d0c3466U,
  0x3e0d75a6bcdc58ffU, 0x3df2941cbe1de5a3U, 0x3dbfe6853d8776ddU, 0x3d86ff9ebd8e198eU,
  0x3c6d91fe3d817c92U, 0x3d6086bc3d9b8b51U, 0xbd4f27dcbd89323eU, 0x3e4645f239e36dfcU,
  0xbdccd11b3e8406d4U, 0xbe25e7f5be2cacc6U, 0x3df35398bdba3d41U, 0xbe97fcee3c433f10U,
  0xbe1b359f3e777bdaU, 0xbde0cd46bda4779aU, 0xbe0fa8b83e027f84U, 0x3e2a8c05bd0439b6U,
  0xbd920d513e0db3e3U, 0x3eb00d953c863d9fU, 0xbd832fe8bec959d6U, 0x3d9052ed3da02f9aU,
  0xbd347156bc5dcc58U, 0x3e7d5b89bddcbfa5U, 0x3c8856273bc7198bU, 0x3d775a8cbe472e6fU,
  0xbd54b009be2f0ba8U, 0xbdc59da6bf859d6fU, 0xbedf2e453e5d4505U, 0x3d1764623eb512a2U,
  0x3dd38211bd006b4aU, 0x3cb8e9ebbe075c6fU, 0xbde69a77bd10484fU, 0x3dd067393d9b6139U,
  0x3ddf3e00be41bb0cU, 0x3e6a78a0bea2374fU, 0xbea753943e02d588U, 0xbda5406e3ea3ca41U,
  0xbed36b60bfce769bU, 0x3ddacb133cc44ec1U, 0xbe41acf3be4c6e8cU, 0x3ea0adec3d6a3892U,
  0xbe6d1e963e627ebaU, 0x3dcda0eebdffe6faU, 0xbe7915e23c7ffd9aU, 0x3e080d6b3e041333U,
  0x3d7f4a65bea55066U, 0xbc6625593c90ab2cU, 0x3db330cebd8a04a8U, 0x3da505103e844244U,
  0x3e55f92a3e093219U, 0xbee070a2be84c593U, 0xbcb4311abea15b91U, 0xbd65f7acbfb0f7d3U,
  0xc01cf32a3e331001U, 0x3e32dead3e5a0650U, 0x3e5e099dbfe2d4b7U, 0x3dacabcebd853b63U,
  0x3df946e13e9730f7U, 0xbeb9246bbdc38ab0U, 0xbe98684bbe8e0651U, 0xbc089e503dd2171aU,
  0xbbf016e0be0b4ea7U, 0xbe052c3ebdf683caU, 0xbc94528cbe072490U, 0xbda606f4bdb4bcc9U,
  0x3e02899abe46fef7U, 0xb838cec4bba21cb0U, 0xbdc6f0f53da502f5U, 0x3d467cce3d01c1f4U,
  0x3df99658bcd7b4fcU, 0xbe5b1ba0be0a72d2U, 0xbddb58b53d9d72dfU, 0x3e755210be0fa2adU,
  0xbe757756be098df3U, 0xbd98b9e03e03dbe8U, 0x3de7526fbd61688aU, 0xbe1c36923b3bd0b8U,
  0xbedfb02bbf1977bbU, 0xbcddda973e986db5U, 0xbd1aa99f3e90c0d2U, 0xbf16a8d6be080200U,
  0xbe44dd7abecd4feeU, 0x3ece2c82be8d84a7U, 0xbe94b9993e1d1ab9U, 0xbbc53af93de83ae4U,
  0xbd4dbce73e94a8c9U, 0x3c0e78f2bcfd678bU, 0xbe34c55ebfb92ea3U, 0x3d8dddb23d863958U,
  0x3dbeb0fe3da0bf36U, 0x3d2bd6403d9860d2U, 0xbe8055323e054d76U, 0xbf1d0ef5becf33a5U,
  0x3e518d5ebe57b5b0U, 0xbd91902c3cbd29c5U, 0x3ea261463e6ba44cU, 0x3d47de063e0a1209U,
  0x3dabac5b3c876986U, 0x3daf354b3d3ff9f5U, 0x3e0b31f83dfb665aU, 0x3e02c6bb3de7519aU,
  0xbdbadfd7bc86339eU, 0xbcd01d71bd37e176U, 0xbd7f1ea6bc634125U, 0x3936e58cbac4cd66U,
  0xbcdf138d3d811c33U, 0xbd166f6abd5f6aedU, 0xbdaa3558bd203f19U, 0xbdbc14bcbdeb924dU,
  0xbd44f38ebd2ebba2U, 0xbce21302bcfb2f89U, 0xbcf5cea7bbd94309U, 0xbc5d3b39U,
  0x3a8a539dbd81517dU, 0xbd992b3fbda0f5e8U, 0xbe534834bd7e3cc9U, 0xbdb8fd8dbc8bac62U,
  0x3b594782bdf11120U, 0xbe73174d3ef59ad6U, 0x3e9639e2bdaad1a9U, 0x3db33ef63da7aeb7U,
  0xbd473ab0bd36eebfU, 0x3c503034bc420d8dU, 0x3e41f5b83e09aae4U, 0xbd01577f3dc842dfU,
  0x3cf82c9fba65fea1U, 0x3e06afe43e2e6282U, 0x3e46e37f3e4a7328U, 0x3ad92d403e82abcaU,
  0x3d988638bbb20859U, 0xbc8a81b03da3171aU, 0x3e3bd0963e9da0d5U, 0x3d85dfd13c506c56U,
  0xbc874cc0bcd7fc34U, 0xbec5329b3ee984faU, 0x3e79121dbe3cf1eaU, 0xbd9306ec3e93fc1eU,
  0xbd19ef43be44d5f8U, 0x3cdcf89abe04019aU, 0x3d8d8de73d6b1fddU, 0xbd83dede3dddd56eU,
  0x3e0a9f4d3c0e1345U, 0x3dfa74e83db07d11U, 0x3e5c55c73db9e714U, 0x3d33ddca3e1d81b2U,
  0x3d82f16d3defe4e8U, 0x3d46e8e23e06382cU, 0x3cfd6e733df0b211U, 0xbdc1aa78bce1cca1U,
  0xbc183a67bd8f3fc9U, 0xbe9fe8753e0edc9aU, 0x3b5a0a69bc44fb16U, 0xbd5b7643bcca1fd4U,
  0xbdbe44e93e08c324U, 0xbb5dec38be05f606U, 0x3e3e0297bd0b2780U, 0x3c0bda623cd7ced5U,
  0x3e9983293d274994U, 0x3e431eb2bd05ab29U, 0x3ea1e180be431ffaU, 0xbd48735bbda5458fU,
  0x3e1a8060bdcae989U, 0xbe2b81b13e02d445U, 0xbe3d18b1bd3a9c7dU, 0xbdad6b963d4d7278U,
  0xbe5529793d1d3abeU, 0xbf151ba63ea792bfU, 0x3da68c1bbe069379U, 0xbe1deb7a3e8f341dU,
  0xbda8ac84be3ca798U, 0xbc598062be16e9a7U, 0x3bb7f5f4bd1259deU, 0xbe2f98f1bcc87cbfU,
  0x3e5bad873d6d206fU, 0x3daf22d1bc46755aU, 0x3d8f87c73d08db8dU, 0x3d91b4093e801902U,
  0x3e00346ebdb2e399U, 0x3e2c7e643e4fc2e8U, 0xbd874cfa3e734abfU, 0xbcdc5441be453416U,
  0xbeba729abda8cffcU, 0xbf159e783ddaace4U, 0x3e096ee0be086f0dU, 0xbe85079c3e7ed1adU,
  0xbe65dc0bbdf98bc4U, 0x3d06baf9be2f7521U, 0x3c4875483c5a5104U, 0xbe52bff73c71bf8fU,
  0x3dab68473c09f6cdU, 0x3c8d5cc2bd9ad9abU, 0x3acb90c1bc60c32fU, 0x3d30070abd4e8ea3U,
  0x3c5f0b56bdecf3b1U, 0x3dd6f11dbcb37b43U, 0xbe6211bd3db0019eU, 0xbdff61f9bea459cfU,
  0xbd9d7780be27353bU, 0xbe5447a4be8b5448U, 0xbe8a93bdbe391d85U, 0xbdcc482fbdf502f8U,
  0xbdb09594bd7a86c1U, 0x3e238903bd161c24U, 0x3a0ea32dbe45695fU, 0xbbcc39193e5ac11eU,
  0x3e16c7bbbe1bec2eU, 0xbe5ca7fd3d983eb1U, 0x3dbd55c2bd405870U, 0xbd80bdf83b7f7f75U,
  0xbe1d2f63be0b9881U, 0xbe13eaec3b832e25U, 0xbdca262bbd1e16b3U, 0xbdae5d56be69bdffU,
  0xbdbc49513c2ad2a4U, 0xbc61af1c3dbbb0abU, 0x3cddd4093de4f3abU, 0x3cbc41693e216196U,
  0xbc9014c3bdebd509U, 0x3dce45d0bc7d583dU, 0xbc900afe3d0c62a0U, 0x3a81d0353d73c890U,
  0x3e7f02023c2e3c2bU, 0x3d9f0d943e87d70fU, 0x3b9204a7bc8ac718U, 0xbd3a4250bcfa4bdeU,
  0x3db0048a3d0779e2U, 0xbd8666a53da13657U, 0xbd5d35d53e46c0f0U, 0xbd9a0541bdc96fc7U,
  0xbdad5342bdfab9c6U, 0xbdb68863bda3ac30U, 0xbdf870e9be03e7faU, 0xbe545c70bdf059ceU,
  0xbdeeaa79bea80aeaU, 0x3c2edeeabe43cb93U, 0x3c780b75be8e59bbU, 0xbdba1238bd4d2c00U,
  0x3d4db472bd8a06f4U, 0x3cbe61d13d85b8a2U, 0x3d7d40a9be343f9eU, 0xbd1b081bbdb5f05dU,
  0x3ca1744dbd794cbdU, 0xbe3d0d1b3dd05374U, 0xbe27ffed3d2b8777U, 0xbda8f8febe458c22U,
  0xbdd29a2fbc8f93ebU, 0xbe926f65be81edf7U, 0xbe05f42dbdb42b4fU, 0xbe9bdd96be1aff00U,
  0xbdc4f9eabddda67eU, 0xbdff0142be4a57dbU, 0xbd9cef0d3da3def5U, 0xbdcb455dbc6d6466U,
  0x3c89ae33bd77f572U, 0xbe654695be2389efU, 0xbda59323bc99a8f5U, 0x3da14f9b3dcea3d6U,
  0xbe371cd4bd177ea9U, 0x3deeece5bb21e9caU, 0xbe6ff430bd993cc4U, 0xbe366374be62f564U,
  0xbe1811cebe076b44U, 0x3de127733e2be4e6U, 0xbd9e37553de60c93U, 0x3c0657ee3d9c3e19U,
  0x3cc4e197bdc0a2d1U, 0x3cfbdf0fbe00e4c4U, 0xbd9995cbbe830e3bU, 0x3dff7dcc3c97a8c6U,
  0x3d139492be034adeU, 0xbca36fe5bc49e6acU, 0x3e4145223ccfcc39U, 0x3d8920633cc22aceU,
  0xbd49d007be19f55eU, 0x3e24cf6c3e83e776U, 0xbe3d53303e32569dU, 0xbe0800e33db69ef7U,
  0xbaf64aa7bdc670d8U, 0x3d92fe793e41e869U, 0xbdf8c4fb3e1c9f16U, 0xbdae964bbd4aa01fU,
  0xbcf61c6fbe88dc3fU, 0x3c4768633d1e1435U, 0x3d20056dbe26643dU, 0xbd9116ffbe02c408U,
  0xbe8cbc2d3d12eeafU, 0x3bc79bc9bde8a6f3U, 0xbe2d3a4fbe62ef17U, 0x3da4f0d5be78fe7dU,
  0xbd24d1a0bc276f5aU, 0xbd75ce0e3da00d25U, 0xbdeeab68be898234U, 0xbce3a5c03dcad47fU,
  0x3e14ae093dd10db8U, 0x3bb227423cfb5c6cU, 0xbda7a5c8bcba3fdbU, 0xbd03bbefbe476c3dU,
  0x3d1b0f9a3cbb40dfU, 0xbe2d300ebdb12f6aU, 0xbbb78166be3adb71U, 0x3dd23e45be091a1fU,
  0x3e078ebcbd4ece22U, 0xbddd66b33c96f769U, 0x3e8b9bb8bd5c0e47U, 0xbd08857bbd91d385U,
  0xbe26f5a13cc39562U, 0x3db750c13d9f1c84U, 0x3c9e2c35bd625840U, 0xbc4b2ef4bcc9ba67U,
  0x3e0479cc3b1b0f1eU, 0x3e5fdfe03db75ebeU, 0x3e2767583e712b02U, 0x3d9259153ea7d40dU,
  0x3dac295a3e64199dU, 0x3e0162dfbd9475d4U, 0x3d29b1453e095eb3U, 0x3e83894f3c9f0014U,
  0x3e86ef373dad4d28U, 0xbd6a0e6e3e2e2433U, 0x3e2ac6df3e08a9a9U, 0x3cbf944c3e9f75b7U,
  0xbd65a3ba3d7feb32U, 0x3ee3ef433e05fae7U, 0xbdf6299c3e08bfd0U, 0xbd849c8a3e81c178U,
  0x3e1b700cbd8a1cc0U, 0xbe4d9f053bce880aU, 0xbd58c9a43e50e502U, 0xbdf2ad29bd48ee50U,
  0xbda1702fbedb0964U, 0x3d2d1fb4bcfc52d2U, 0x3e07b530bdb572a9U, 0xbe0a8b5c3d24ffd8U,
  0x3dcc232bbcb7b3ebU, 0x3d88a8143e4dbcaaU, 0xbdfad9223dc54358U, 0x3d4adb923d947f5cU,
  0x3e29886e3ce23441U, 0x3d05a336bde646ffU, 0xbddb3c5e3e2953c5U, 0xbe15e45a3e6f4437U,
  0x3da839393e5d9a73U, 0x3d57458a3d8f653eU, 0xbe23156b3d5d5457U, 0x3cd4d017bdf3bc77U,
  0x3c824d02bc6a1f85U, 0xbccbf06fbade710fU, 0x3c5296633d2dcebdU, 0x3d24c6583dd8a3f9U,
  0x3de8aafdbc9b6658U, 0xbe8059413d70aa5cU, 0x3eacae87bd79a19cU, 0xbc7b52403dce8ab0U,
  0xbde3b145bc8640abU, 0x3ebf1f4f3ee732e0U, 0x3e2ba028bbb10dd7U, 0xbd19dc50bbef7c51U,
  0x3e158f653d1949d6U, 0x3c7d2b443d810e38U, 0x3e37539e3daad670U, 0xbe1d9bcc3e225f7bU,
  0xbe0cdfcf3e3320feU, 0xbcfc21ea3caa78cbU, 0xbccc71f53db66049U, 0xbc277551bc824026U,
  0xbc48b8e23c1dba2bU, 0x3d6669ef3dcdbe57U, 0x3b3c0d023ca34061U, 0xbcb2d7763e26e375U,
  0xbcbb9525bc174399U, 0x3e99312f3d1d31c2U, 0xbd2c89d83c1a751dU, 0xbd8d60aa3c441dedU,
  0xbd0d4661be14efb8U, 0xbf501d6f3e52ea9eU, 0xbdb94807bdc3392bU, 0xbe53f8ae3df140f1U,
  0xbe2c7a78be5db2e7U, 0xbc8ed19bbdb287f7U, 0x3d9511c9bdd59e41U, 0xbc71fceebdae6299U,
  0xbdf5f2e43d236fafU, 0x3d82bc7bbda587a1U, 0xbeb092dfbd506aa3U, 0x3bf4b2d03d1db972U,
  0x3d7a2a46bc9f18abU, 0x3e3ba1b93dc5e25eU, 0xbc73a7eb3c7aa7cfU, 0xbe4c1eba3eb75e61U,
  0x3d3d998a3e726890U, 0xbe90001dbc510078U, 0xbbeef1bb3cb73ab2U, 0xbe14a3293e03a2a8U,
  0xbd3da483bda980cdU, 0xbde82a8abd7fac80U, 0x3b9a7b353e3d2ec6U, 0x3d6f3550bd92ce5dU,
  0x3dc7de51bd59a3aeU, 0xbd8453c5bd88ce3eU, 0x3ec39758bd62459eU, 0x3d8fac553cfa3d5aU,
  0xbe26e6dd3df2baf3U, 0x3e92f3423e6a80dcU, 0xbd663f0d3dbb4434U, 0xbe1a7508be0156c3U,
  0xbebfe0283c5adc6dU, 0xbe4d9fb0bdbe639dU, 0xbd0a6d1e3d04de14U, 0x3c6db341be1e72c6U,
  0xbe27ffecbe545471U, 0x3e05f0e43dd7e857U, 0x3ea82ebd3d0c8f78U, 0xbe44fc133e347531U,
  0x3c089c2ebd1a6500U, 0xbde140ed3e97b967U, 0xbd710239bd218ebaU, 0xbc1f2818bdb100edU,
  0x3d9e04dfbcd3a6b9U, 0xbd75fe9e3db5544dU, 0x3e3e1f1cbd1558bcU, 0x3cf838b5be9e1cf8U,
  0xbd840c0e3dd559e0U, 0xbe7b0105be348b15U, 0xbdc5be843d4461ecU, 0x3d2fc50fbe21262fU,
  0xbce9755d3b1eda8fU, 0x3dc4ba6e3d49eb77U, 0xbd55c7103d6efc33U, 0xbc894482bdd3426fU,
  0x3dd82c4e3ccbc863U, 0x3e103cb03eb7f43cU, 0x3e5224663caa84b4U, 0xbd82c3283d927933U,
  0xbe13fb24bd8ace1fU, 0xbdff1066bcc63609U, 0x3ca840acbcb8d122U, 0xbb9ca6273c5d2df7U,
  0xbdf946cfbe0dbdc3U, 0xbe0cb369beab8fb5U, 0xbe63cbd23e538feeU, 0x3dde87eebeb32889U,
  0xbd2a83edbe1781e2U, 0x3d2e6888bc660d76U, 0x3e537e34be17a71bU, 0xbe4626463a0528f5U,
  0xbe9924c83e07352eU, 0x3e431fa33b83a5fdU, 0xbe0ae2cc3d817028U, 0xbc3052a83997b2c2U,
  0x3e269e1c3de4d60fU, 0xbde99bc03e347af2U, 0x3d8754cd3e7f37a7U, 0xbdb455f93ea15243U,
  0xbd2f45ad3e962507U, 0xbd4462d0bdb98875U, 0xbe5aeb193dd92d91U, 0xbce773ce3d81ba14U,
  0xbe3b5ff9bd99683bU, 0x3db423ba3cc74328U, 0xbdbce1c1bd5974efU, 0xbe5c2c4ebe0484a9U,
  0x3cee3e92bdd50072U, 0x3dfc8a06be1477e6U, 0x3cc48d77bd91f103U, 0x3cedf940be0fd290U,
  0xbe15d20b3dc64dffU, 0xbd0c27703d791221U, 0x3dc6ebbfbdc94264U, 0x3d5efe203cfa959cU,
  0xbe129b6fbbd6a4ecU, 0xbe848efb3db691a3U, 0x3ebb57eebe41a990U, 0x3c835afbbdb61aa7U,
  0xbda8ffcebd80660eU, 0xbea947d0bda55d0dU, 0xbd93e1c1bde1237eU, 0xbd04f727be1a3afaU,
  0xbe52c9fb3df9195bU, 0xbc604c59be6b5d48U, 0xbe063c4ebdb6ba33U, 0x3d3bac5abe506c98U,
  0xbe278147be168e2cU, 0xbe5bf3ddbe179cabU, 0x3c0fa5e83d3129a9U, 0xbdc398a4be6f5c85U,
  0xbe44ed373e2c3276U, 0xbdc0ac913e10f4edU, 0xbd9250bdbea52533U, 0x3d357d5dbe245220U,
  0x3d7e6acf3dc5cfb1U, 0xbd1481fbbe0df2b1U, 0x3e52eb2ebe003502U, 0x3d11a7f5bcfa2099U,
  0xbe7e14963ca6bfaeU, 0x3e2f06493e123488U, 0xbebfcb89bdba2f2bU, 0x3cac568cbd4c1405U,
  0x3e10df2fbc0745d7U, 0xbdcf59dd3e48c2bbU, 0xbe0be48fbda5470fU, 0x3d3bf53dbe94c35fU,
  0xbd2a45c73d70a98dU, 0x3d2f982bbe02ee21U, 0xbdcf8a16bd948255U, 0x3da81e8cbe2f1669U,
  0xbdb3bf17bd87419cU, 0x3d8f93c0bc0e46eaU, 0xbe3005be3e624af0U, 0x3dc7dbf93e2b4c66U,
  0x3e68c5a0bdc17e51U, 0xbdbab73e3dba0baeU, 0x3d0d0de13cb44ae2U, 0x3af40ec0bb46c314U,
  0xbe3d504a3caf812fU, 0x3d18cb9e3d630ad8U, 0xbe32ebd9bdbc47c0U, 0x3d27f988be2777c9U,
  0x3d8e1ce5bbec0e95U, 0x3d0266a33d6c9a6fU, 0x3de5a0983d81de30U, 0xbd75907c3d611444U,
  0xbd2ea6f9bea151f9U, 0x3e0277583d1f5569U, 0xbd60a6d0be229940U, 0xbdc8869abdb215beU,
  0xbe4037483e0927ecU, 0x3dc2d47f3d83d0eeU, 0xbe98e55f3e168c24U, 0x3d850311be136e27U,
  0x3defd0c9bbe14034U, 0xbdbe69a4bdfbeb22U, 0xbd7601403e48bb14U, 0x3d6d3550bb568d59U,
  0x3d149b02bc0b9181U, 0x3d1134903ea60eb4U, 0xbc458459be10ec05U, 0xbd2de7c0bdcc9841U,
  0x3cfffdea3e4b3040U, 0xbd6905a4be095f73U, 0x3e82248f3c0e6853U, 0xbca3c372bd967b13U,
  0x3e72a7b03dc92e9dU, 0x3d0d6039be7cacd0U, 0x3e3b3c3b3dd346f1U, 0xbc63f400bca1c65cU,
  0x3e76a9c03de933ccU, 0xbe858bd03cc0dc99U, 0xbd8301943de3ca50U, 0xbd0334a6bdf2dd93U,
  0xbd30bc7b3e3c7f0aU, 0xbd3dc700bedf94dbU, 0xbe94af783db45f88U, 0x3d284603bd66a8afU,
  0xbdb424ecbe4ac9e0U, 0xbc283b4d3d201a8aU, 0xbcf553a33e04fff6U, 0xbe204ba23cbe252eU,
  0xbd95f38dbb6bc7b4U, 0x3cf871463dbaf146U, 0xbe1a48e1bd71be02U, 0xbd7b3d66bd94c8abU,
  0xbdeb1c7dbd16c12eU, 0x3cd8b52dbe161ab0U, 0x3d405201bb3b3c40U, 0xbbf6c1ef3e2ca491U,
  0x3e83ec053e9bb73cU, 0x3d92b6febe917cf0U, 0xbd7ae55d3e2315f7U, 0x3ca0f85f3d4b0ce6U,
  0x3d5820cb3ca7b05dU, 0xbe8dbb6bbc35b9daU, 0x3db5a6a1ba3d0dccU, 0xbd664026bd233b78U,
  0xbe321830bc55545eU, 0x3df0677dbb4a3e4eU, 0xbd2c38b4be2fbebaU, 0xbbf701b03d374000U,
  0x3db261bc3e030684U, 0x3eb533fd3e348eadU, 0xbe1fbb0b3e1544f7U, 0xbc9a90663e9627a0U,
  0x3d15e6ebbde1c99eU, 0xbdba109fbdaa3396U, 0x3c93f428bca2264fU, 0x3df017773ba3cdb5U,
  0xbdfd4ea8bd0c8e26U, 0xbe32442f3d4e68ddU, 0x3dd85cccbe8a08f9U, 0x3cab4bb23d3f9b18U,
  0xbdaf0bbb3e0f2c8eU, 0x3ddee56d3deaa8caU, 0xbe1fa4c63e040a33U, 0xbcca55763b966b70U,
  0x3e30a85bbd50d180U, 0x3d1ac36e3d98dde3U, 0xbcd2672a3e0fd221U, 0xbc9445293e1c47ecU,
  0xbd8744d63d612cd0U, 0xbc90fe723bbf31bcU, 0x3e07a53fbdbb1f36U, 0xbc0a27b93ce41730U,
  0xbe2f9adabebd6bcaU, 0xbd63c4043e0099e0U, 0x3d7fb81cbc2bb9b2U, 0xbd826f8e3de50c03U,
  0xbdaf2c9e3cb2c4efU, 0xbe86e7b63d772332U, 0xbe2aaa0cbc9d4b40U, 0x3d8b41a93c88689bU,
  0xbe5cb6d33df60b70U, 0x3e2c7899be25ca20U, 0x3e89f25dbd995fccU, 0x3d2aef7bbe6736ffU,
  0xbe8fb16d3e2a0969U, 0xbe5c9596be7f3e49U, 0xbe71bd43beade9f2U, 0x3c44041abdaba563U,
  0x3df49dfdbd9c4f11U, 0xbd5a0a2abd8209cfU, 0xbd8701a6bd1c936dU, 0x3e37f9a43cce88a2U,
  0xbe44508cbd81473aU, 0xbd4f4955bd3b468aU, 0xbe314d92be6ab428U, 0xbb31fba0be294ec5U,
  0xbde058cfbc6b26e9U, 0xbd01c73ebd9a69baU, 0xbe14e4b5be94b489U, 0x3d2e9c4dbe8120bfU,
  0xbdcd54a73dca516aU, 0xbeb1d896beec1e45U, 0x3dc68bd4bd9d9ac6U, 0x3d51c9fabdcb0549U,
  0x3de799e5be003e2cU, 0xbe25a4c7bd8a6e85U, 0xbd5f7143be191580U, 0x3b649b3a3c1f038cU,
  0xbe43976d3dca5e01U, 0x3dd482ca3b949b86U, 0xbb60d625be89cd03U, 0xbcb36420be9cd5cbU,
  0x3e1415e8bd9522b1U, 0x388a72cfbe399c82U, 0xbd840030bcb55d6bU, 0x3d852104bd651be8U,
  0x3d6865913df21ecaU, 0xbe2488db3d9ff5ffU, 0x3dd63956be5947c0U, 0x3e10fe993d5aea45U,
  0xbca51f5cbebdfb4eU, 0x3d6d33823d990a4dU, 0xbcb45ca5bd338a15U, 0xbe1212bd3d882202U,
  0xbe30b2323de54449U, 0xbd2fb56dbc0849caU, 0xbe8ad99dbd00470fU, 0x3d9e80013c3f41b6U,
  0x3d3098db3cb7a5d5U, 0xbdbc9c173d51b7eeU, 0x3e3f273a3e1b2388U, 0x3e74a5013e043e1aU,
  0xbdb06a413e31e957U, 0xbe68f029be1de6b0U, 0x3df5ab46be44782cU, 0x3e003721be4b1c3aU,
  0x3d4aa541bd9c87e0U, 0x3dfee42b3d620ed4U, 0x3df8a9a83e131616U, 0xbc3584e93e828e89U,
  0x3e836f4bbd81932aU, 0xbdb5a5cc3e2729eeU, 0xbd84d5783e0255d7U, 0x3d6a2666bd314c49U,
  0xbd026b8a3de32bb1U, 0xbd12e175bd9c2433U, 0x3e152db4bd7e6f7bU, 0x3d9b6c90be4c498eU,
  0xbeab8f673e8a9dbeU, 0xbdf0fa92be107fedU, 0xbcb1712e3be30771U, 0x3da2c760bda19fecU,
  0x3d94ed72bd4bda09U, 0x3e636b913dbd42e2U, 0x3e4ae5cb3bfa6dc3U, 0xbe3321f73e0a4c69U,
  0xbe1b45e3bd11bd23U, 0x3e1562d63e416e50U, 0xbe60ad803e0e0bd3U, 0xbca08ee03d16a873U,
  0x3e4d47f3bcf7d2d6U, 0xbd939ff33d6b39f6U, 0xbd38e1323e810931U, 0x3e48a85bbbce861eU,
  0x3d1f96fdbdb4cb8eU, 0xbef751483de55748U, 0xbda63ee3bd9ea84dU, 0xbdff18353d278a69U,
  0xbe442d02bed8dafcU, 0x3e0d0871bc9ecc89U, 0x3e7bbd11bb0fdca6U, 0xbf1a95a93c31139bU,
  0xbeaf56ac3dc465f7U, 0x3e004c3ebc8f5798U, 0xbe3d6f0b3e44159eU, 0x3d67030a3e59c904U,
  0x3e16fa19bd4b66eeU, 0x3d02ca2dbdb0e78aU, 0x3d7f1ecd3cd8b748U, 0x3d5befc43c1ccbafU,
  0xbd8a279cbe8a6014U, 0x3e3ef6e3bd9134a3U, 0xbe40c0abbdacb43aU, 0xbe53b50c3a2d09fcU,
  0xbe0cdff0be64520fU, 0x3d3ca1b0be4d177fU, 0xbde489f6befcfadfU, 0xbd04af773e04907eU,
  0xbf00fa80be084b88U, 0xbdd3e4b4bce8ba86U, 0xbd825968becf1b1cU, 0x3d4e37e2bd4819eaU,
  0xbcf1c787be5eb641U, 0x3e106bcf3e4ad0e3U, 0xbef176e93da4aa85U, 0xbe918487bd1ab00cU,
  0xbcbe2011be5e0c6fU, 0x3e2cefe6be563cfaU, 0x3bf3f3ea3e5b8174U, 0xbdbf31a4be0be181U,
  0xbdf6d496bd91704dU, 0xbe102428bcdc5a2cU, 0xbe2c02a9be8f746aU, 0xbd770f6fbda4db07U,
  0xbe87f462bd90f201U, 0xbe63c7a7be0a9a43U, 0xbec289c4bea28e84U, 0xbb931a30bd35ad3bU,
  0xbd5ee3183da02643U, 0x3c594d69be31c7c2U, 0xbd623271bcb4b72aU, 0xbe06adb53dbe15f6U,
  0xbed39509bd88c902U, 0xbf3d530f3e30f270U, 0xbc914f2b3cfa38ffU, 0xbe8e8db33e44e708U,
  0xbe947a08bf421549U, 0xbe099a82bea7b85bU, 0x3be37714be1105c4U, 0xbeece888bd52c5e7U,
  0xbdb0088bbdb812eeU, 0xbc7d9e0bbe14b924U, 0xbd83c417bdb3835dU, 0x3da8e9113d4b0838U,
  0x3e018704be033f7eU, 0xbe8db081bccd0e5bU, 0xbc7246ee3e69a929U, 0xbe7b1285be124bf5U,
  0x3e373d673d163d2cU, 0x3e7427d93d83c696U, 0x3ece99da3d45a6abU, 0x3d68e1353c918805U,
  0x3ddeead43db72fa2U, 0x3de2f67dbd35df82U, 0x3e30b1f0bdc0e0e6U, 0x3e95d82ebdb8d26aU,
  0x3ea2242c3cb8147cU, 0xbe20e9193d87257eU, 0x3f1b1735bd6e12fcU, 0x3cbcccac3e0a113fU,
  0xbc51bf913d706d04U, 0x3f1eca3a3f1893ceU, 0xbecf116abc9b6e65U, 0xbdc6816dbd7874eaU,
  0x3e02006fbe2514f8U, 0x3ea1724f3e9133b5U, 0x3dcc50fd3e2aaf98U, 0x3b918a0d3c4991a0U,
  0x3cc2be42bdf657d9U, 0x3de5eee63d873fe9U, 0xbdec0e2c3c524ae4U, 0x3e2461703d734f7dU,
  0x3dc73ccc3d0086bfU, 0x3d1417413e1cc5e3U, 0x3da1327c3e84bc76U, 0x3cfa3d803e985a79U,
  0x3e3ce9e7bd961fb2U, 0x3e1221d63e1c9eafU, 0x3e4fd2563dc47d76U, 0x3d2951463e693babU,
  0xbe93733bbc74a382U, 0xbe5193603e244b0cU, 0x3e3762e23e0111cbU, 0xbe1a98bb3d731bbfU,
  0xbd89e9f3be90bac9U, 0xbe9596fcbe9aed5dU, 0x3dda36debe2b0b46U, 0xbd9ed84bbe64652fU,
  0xbe94ac003d212021U, 0x3d27f028bd8765b5U, 0xbd8481cbbebf639dU, 0xbcec4aa0be7d1a85U,
  0x3c8576c83d987994U, 0xbe07d5063dab9dd4U, 0xbdfc6e8a3c81b10dU, 0xbe91339abce50cefU,
  0x3e2626893dbd32f1U, 0x3b7ccbbcbe91a1f8U, 0x3d3392c13de86106U, 0xbdc03161bdb33d85U,
  0xbd669c963db03a06U, 0xbdd85b0ebe19e853U, 0x3cb43d673df57c7cU, 0xbd6f53d5be80eca1U,
  0x3ebc7631be127335U, 0xbddacdcb3d9c1867U, 0x3f1d7b843e5127baU, 0x3d8c8f513e03cf49U,
  0x3c82d64bbd916e13U, 0x3ea8d2b63c4eae02U, 0xbe7eda153e067775U, 0xbe3de4613dc4201aU,
  0x3d40813ebdececafU, 0x3cb6f8503ded731fU, 0xbe32d7f63e34767bU, 0xbdc202993df89f5cU,
  0xbd9294753d36f982U, 0x3ddc0b4f3d1dc151U, 0xbde10e3cbdfb203dU, 0x3dd0a672be5b4bdeU,
  0xbdf7652dbca86490U, 0x3b89750fbd151e3bU, 0xbe2899093dac1ca1U, 0xbc719dd83d76815eU,
  0xbe34c689bd47594dU, 0x3e084bf63dcce63eU, 0xbe419a15bd103978U, 0xbe0eb38f3e80909eU,
  0x3d44fe863dd1dd7aU, 0x3e704f783e05a894U, 0x3d08d0933cbb4a62U, 0xbe2b0a58bd950adbU,
  0x3be46ed83d465350U, 0xbe2f508fbe3a41e3U, 0x3da1a9d63cfb98dcU, 0x3d036254bdd8c819U,
  0x3cdb48ffbaa8fdbaU, 0xbe4c1896bc82862eU, 0x3d894184be00a333U, 0xbba1e4503d371544U,
  0xbe1fd90c3d32df41U, 0x3cee2ebdbe6cfc69U, 0xbdeaee35bdc070a7U, 0xbda7329abd3ea62cU,
  0x3dccb10c3e2c253eU, 0xbd8a02acbdaefc9cU, 0xbe1f2742bd86f32eU, 0x3d5865073c0404b2U,
  0x3da9e9e73e3b6bb0U, 0x3d06d473bdbe12c0U, 0xbde774073d88ef94U, 0x3d8814d3bd32148aU,
  0xbc32d6a4bd7e9c43U, 0xbd057c88bdf9bc45U, 0x3e266a613adde52dU, 0x3d334d02bda9295cU,
  0xbdce8fa8bcae23fbU, 0xbda87bae3cbb58d0U, 0x3c30c739be573353U, 0xbd8854df3d3735d7U,
  0xbc24453fbc1f8fabU, 0xbdaba1623d08e89fU, 0x3e3901f23cafe350U, 0xbd6cf7b63d991cebU,
  0xbd72e7e43da1e12eU, 0xbdcf15c53d1a2d4aU, 0x3e3c265fbdfb5afaU, 0x3dd0d9573bea04c6U,
  0xbc84e9ba3dc7d036U, 0x3c2aebbb3be1fc84U, 0x3e31032abd8ee006U, 0xbda3f930bd8b2dcfU,
  0x3dfb22883d971128U, 0xbcef9dd03b35e8baU, 0x3ddff85a3dcc280bU, 0xbdd43405bd21e21fU,
  0x3d34c2f03dc5850aU, 0xbd6fbc64bd14b4f3U, 0x3a201fadbda6bd98U, 0xbdd525dfbd639e7fU,
  0x3e0537753e08c978U, 0xbd9828cdbdc699c8U, 0xbe25f54f3d7c1ec6U, 0x3bc6eb18be4a220dU,
  0xbd29c05e3d470061U, 0x3c39f4a8bdbf136cU, 0x3e025d62baa01f40U, 0x3d247e90bd84f37aU,
  0xbd75c4c53d7b1059U, 0xbd6b77de3da56cebU, 0xbd0e37d5bdaf8616U, 0xbd08828ebe0e734aU,
  0xbdad15913ba88b86U, 0xbe4551b7bd75317cU, 0xbe445a5abd28ea66U, 0x39f95444bd5abe42U,
  0x3da857353e2d2d12U, 0xbddb1754bcd1cd5eU, 0xbd45ff5f3bf4f1c0U, 0x3d0428e93c274303U,
  0x3db383d63d1deb2aU, 0xbdd10b07be258231U, 0x3debb5ddbda92461U, 0xbd871743bde723fbU,
  0xbdf62a01bd8c2a6eU, 0xbddfcd46be862d28U, 0xbd81e234bdbbc257U, 0xbc5e0558be00106dU,
  0xbdf852603d10094dU, 0xbd336f48be77ffbeU, 0x3ca4503f3c744b43U, 0x3dfa78843c4bf4ddU,
  0x3b27d8fc3ddd7cc7U, 0xbe62b8f83d84dbceU, 0xbd500b3a3cc9f29aU, 0x3d235ef2bbb21c26U,
  0x3d7944083d93b4ddU, 0x3dcb2343be260df8U, 0x3df12c84be111c53U, 0xbd981616be941a3dU,
  0x3d7d104a3d58a503U, 0xbe8a107ebece38f8U, 0xbe2997b53d84fb10U, 0xbd27e2813cb55f46U,
  0xbdc347313cc5d29fU, 0xbdc0939e3cfa7b44U, 0xbe7d4151bd99bf22U, 0xbd1fe07abd213109U,
  0xbe02382c3ddc5816U, 0xbd853d04be12df9dU, 0xbcfbdbd33dbc4ffcU, 0x3d32c7a3be2c4fffU,
  0x3df1f82ebca89cdcU, 0xbdfb3fbbbc89c911U, 0xbc4b6bbfbd07564cU, 0x3d6a420aba8b4246U,
  0xbd4ed2293b007debU, 0xbe515623be95ab98U, 0xbd783b8fbe25c5b6U, 0xbda0d6e0be0e8c4aU,
  0xbdcfb77abdbe9721U, 0xbdcf37acbe4a3c1fU, 0xbee714c9bd1e9977U, 0x3e00252bbd88588cU,
  0x3ddacdca3e1aa0fcU, 0xbdd3442e3dd649f1U, 0xbe34b8bb3df218d8U, 0xbd9db4cbbdbdb5e8U,
  0x3e14dccfbe5d9dfbU, 0xbe3bc4cfbdb7dcabU, 0xbd986657bdb67bbcU, 0x3d75a87abe374780U,
  0xbe0f9285bd058373U, 0xbe876387bea03a49U, 0xbe0fab77be32b91aU, 0x3ddff66dbc7435d0U,
  0xbd9e79dcbdd1d485U, 0xbe1b7a2cbeb61c93U, 0xbdc01c0ebe963860U, 0x3e941be0bdd0da41U,
  0x3dfeb9dfbd9129dcU, 0xbe68d24f3e357493U, 0xbe6b6ea2bd9fe31eU, 0xbd13b3bcbd983fd1U,
  0xbd5959a9be2413f9U, 0xbdcfaa37bdff10e5U, 0xbd9c45b8be8abc23U, 0xbda339f3be2969dfU,
  0xbe5573fbbd6190f8U, 0xbe417c8abebf3ed5U, 0x3cbe8c33be33a7a6U, 0x3e242b473c8fadc7U,
  0xbd9c5b8f3b3a489bU, 0xbe24fd34bde90c0eU, 0xbd1c40163d4ad835U, 0xbcbcb772bddf3d0bU,
  0x3c2851f8becc826aU, 0x3dcf04ff3e1281daU, 0x3e32086c3d9f84cfU, 0xbebdc8fc3ba82058U,
  0x3cae2472bcd6c68bU, 0x3e02f1eb3d057bfcU, 0x3cd648ca3d1c92f3U, 0xbd5ea2d0bdfb9901U,
  0x3da33235bdc599a6U, 0xbdc98ea5be84c912U, 0xbb8a2ed93bb157d3U, 0x3d3da75ab8a34543U,
  0xbedfbedabeb7f7d5U, 0xbe1e7ad93ddf42b9U, 0x3e9ac4063d8721beU, 0xbe8f25e83e70ea89U,
  0xbe56a3f83dfc0647U, 0x3d1b19febe2528b6U, 0x3d5790b2ba48f758U, 0x3e1a2034bdb12ac6U,
  0x3d1623063d888817U, 0x3d46b105bd4a76d6U, 0x3e875abebc7ad8e5U, 0x3d23f3aabc1306edU,
  0x3e001a11be00695aU, 0x3e1ae7b43dc7b924U, 0xbdb0ee643d6864c8U, 0xbe0898efbdde240bU,
  0x3e2e424cbc2c567cU, 0x3f0da3b93e5db1ddU, 0x3b89b9c5be509916U, 0x3d5e324d3dc4219bU,
  0x3e50fdfd3dcd4678U, 0x3de5941bbd3ccee0U, 0xbf0334a7bd9794d2U, 0x3eb378bebe04bd59U,
  0xbe398379bdabe1f6U, 0xbe8f5c83bf001cfdU, 0x3e8f2b17becfc633U, 0x3d876f1bbe397cc8U,
  0xbde7fca0bdb4875dU, 0x3ee02fd03e951fb3U, 0xbdfca7b3bdf79530U, 0x3cd43376be8501c5U,
  0xbde260e7bd7b0fafU, 0x3cba5c433dfe59bcU, 0x3d27b00bbe4d2348U, 0x3cbecdc53de89244U,
  0x3c17732fbe482f1fU, 0x3dba42f73d7a850bU, 0x3d290763bae75e80U, 0xbe3a67b43e7d5ca1U,
  0x3ce1a35a3cb7bc76U, 0x3e09a2e23e2ee3c7U, 0x3cf3a1bfbd970802U, 0xbd60aa6b3d04ee38U,
  0x3dc47cfbbe09a908U, 0x3e0f64533cda404eU, 0x3dbce17d3d8bb41aU, 0x3dec0497be002876U,
  0xbe5dca2cbe9ccdc3U, 0xbcbe049bbc456746U, 0x3e52b49ebe1ffdafU, 0xbe35b35ebd5d22f9U,
  0xbd9fbf803e5a832eU, 0x3ce141febe172105U, 0x3e41e920be311033U, 0x3e1979dfbdd752e6U,
  0x3e3994693cfa5609U, 0x3d5ac5213db53df6U, 0x3e9775f5be2a6226U, 0xbd64ac16be2e5daaU,
  0x3e1f0ffebe9fee9fU, 0x3cfbc9ac3e2c1604U, 0xbde83711bdca9e46U, 0xbe442d80bead73c8U,
  0x3e7f32a33e8b3ff7U, 0x3e0d3cafbed1c60cU, 0x3e30b692be6ba116U, 0x3d0f09b63d7da19dU,
  0x3df70cd63e91e81dU, 0x3e09c7d13df4f906U, 0xbce4d4413dedd316U, 0x3e9887debd7a2951U,
  0xbe4b41ec3e4401a2U, 0xbd975f3fbeae33f8U, 0x3e4f2231be7e9583U, 0xbbf6dd30beb9817dU,
  0xbdbefb8a3c04bb20U, 0x3e95f7d43dd7142dU, 0xbcbe9225bdf14df7U, 0x3e35db10bcca0d14U,
  0x3d6ea7abbe00e225U, 0x3c3790253e869839U, 0x3eeb763bbe8d0494U, 0xbd5dcbc23d5b676aU,
  0xbe3d6fc0bee86484U, 0xbb1882ff3b9da3caU, 0x3d573d49be917399U, 0x3db884debca01ed5U,
  0x3d9009de3dc73655U, 0x3e3fe88bbcb5e5c7U, 0x3e12df3bbe67d026U, 0x3d4e98563dfb8698U,
  0x3e03b098bd174459U, 0x3d569d5a3de3a588U, 0x3e70815b3eb8a7a7U, 0x3b9efce3beaacadaU,
  0xbddc3767bce88052U, 0x3d19105a3edbfd70U, 0xbde1cedbbec3e78eU, 0xbdc27b313e3dbd78U,
  0xbdbb6cdf3d8bfea6U, 0x3c871278be14d484U, 0x3c9e1a95be858dc7U, 0x3d9d91a8be63de9aU,
  0xbbf444bfbdd3e900U, 0xbbdd4d5abeed6a25U, 0x3dbc0270bea01099U, 0x3d7abb86be5ae2ccU,
  0x3d9587e0be21f2cdU, 0x3db1357e3b6c9661U, 0xbe4e43e33e7db615U, 0xbdb02cd7be518cafU,
  0xbdc6d8c53e1b6822U, 0xbe0a711bbea24e4aU, 0xbd54dc2a3da0d95bU, 0x3dac56193e044fffU,
  0x3e64a36c3e8bfaecU, 0xbc0ba9a73e1a8b3fU, 0xbe1e58293e49064bU, 0x3e3737e63d684a28U,
  0x3e8b26a53d80a236U, 0xbd06b2a7bd421462U, 0x3dbae1433c00a98fU, 0x3d4e7c8abe5a4eceU,
  0xbdd5f43d3a736520U, 0xbdb787c23dc97d30U, 0xbdc3d099bde27613U, 0x3df1dc88be19c976U,
  0xbdd1be79bb038490U, 0x3daee692be78d4beU, 0x3d4558643e5327c5U, 0xbd94d9b83ca47ef5U,
  0xbe0671cbbc12eb6dU, 0xbdc05f5cbd9bbc00U, 0x3d42b18c3d0a07b5U, 0xbe014d413db2563bU,
  0x3da427debd543973U, 0xbdd86f6bbc6ba4d2U, 0x3cb886a23be2ea35U, 0x3d65ee723d1e87c1U,
  0xbd95d61f3c948830U, 0xbd1575873d812274U, 0xbe0bef2cbdf02d2aU, 0xbd2dc3623d7f74a8U,
  0xbe78de74be8a2793U, 0x3c846b56be879b90U, 0xbc99d0923d7b49a2U, 0xbe6271d0bcf814bcU,
  0xbdb8c815bd748afdU, 0xbe199aadbe3fd876U, 0x3e0c5115bdbf6cf8U, 0xbe89295a3dbc189fU,
  0xbe53c8cbbce51eaeU, 0xbde93e953d2f5ea6U, 0x3cd95919bde37ac4U, 0xbd6b05c63e02e776U,
  0xbd6a59c4bcb579ceU, 0x3e159c6b3d9784b0U, 0xbe1e0c14be49d5aeU, 0xbe9b87de3daae94dU,
  0x3dbc75183bf705d6U, 0x3d0d56c4be94132dU, 0x3d8b9350bcbb9851U, 0x3ca6907bbd87c78dU,
  0x3dca5bae3d904390U, 0xbe2c49d2ba341dedU, 0xbd47388abc0e3ae8U, 0x3d079dbf3d251488U,
  0xbe944dbebdc8a000U, 0xbd68095dbe2de665U, 0xbedb9805bdb43badU, 0xbda0669bbe2f63c2U,
  0xbe95b614bd96c97cU, 0x3cb91a78bcd1da36U, 0xbd6bcc76bc6dd328U, 0x3d4a8dcdbd154b49U,
  0x3da0d7393d705023U, 0xbcdc1df5beb47798U, 0x3cd09c5a3e22cd29U, 0x3d8bd21ebc1c1b1aU,
  0x3d60786a3d80292fU, 0xbdbd2b34bc5ca92eU, 0xbd2d69c33dbbf38cU, 0x3d969196bc36fd70U,
  0xbe46d78a3dac6497U, 0x3e1d6f95bddbdc47U, 0xbdd76a09be3c0a32U, 0xbd2e1fa6be1a8560U,
  0x3ceb128f3df0fb2aU, 0xbd7f7a873ca3bf77U, 0x3cbaa9a63d1230abU, 0xbdb232b43d21cfecU,
  0xbcaa75f4bdfb54c4U, 0x3db232f93ddb840eU, 0x3df860433e0bfe1aU, 0xbd8e14d93e34f3eeU,
  0x3d149c203d184910U, 0xbe64e32cbbcd6f02U, 0x3e81f480bef76045U, 0x3c56e0013ce82b8eU,
  0x3bcd0d2bbc1e5127U, 0x3d3d76f5bcba0069U, 0x3ecc3f1fbe835d72U, 0x3cf87dccbece2fa9U,
  0x3dba8d56bc6de214U, 0x3d2132353e0c089aU, 0xbe00f67d3e204cc8U, 0xbe1b61f0bcb0fbc4U,
  0x3d6ed4de3c20e99cU, 0x3bc56df7be8fa54bU, 0xbd269609be8065d8U, 0xbb694224bea6672dU,
  0x3dc798723e2be61cU, 0xbc87a83abdee30aeU, 0x3cbd48643cb7817cU, 0x3e5d00e33d7cc49eU,
  0xbe74c835bd81be03U, 0xbe41588e3ce30cbcU, 0x3da278ba3d82af4bU, 0xbcf0d080bda9f000U,
  0xbdc412063e31cc73U, 0x3d06b5b23e01a2e8U, 0x3e123b6abe373e6cU, 0xba9a2115bdf80933U,
  0xbcb2f8563cfdcc8bU, 0xbee9441f3deddfa6U, 0x3df9def9bdaeaa5bU, 0xbebbf86a3e88facfU,
  0xbeaa6947bdc297c1U, 0x3dad6a16be85965dU, 0xbc82e6f93d90d78bU, 0xbe72a79cbcf6464fU,
  0xbb9dc55db98f5dcdU, 0x3e0b5f983e29383bU, 0xbe8cf11c3e3dc64eU, 0x3d2461103e079f5eU,
  0xbd0c779abd4375c5U, 0x3e22af103e0f40b2U, 0xbd0875403cb89128U, 0xbe63a11abd9e993eU,
  0xbc635ccc3daefbf5U, 0x3e546cf43e71a264U, 0x3c71b9a6be333fcfU, 0x3c010a3f3e5f23d9U,
  0x3d0fca383e0c9bd6U, 0x3e1c2dd0bdde2117U, 0xbe138e8e3e21640fU, 0x3e26ca993d432f11U,
  0x3ea01185be3ee518U, 0x3e08e5ae3d7b7177U, 0x3f45855d3dd53b48U, 0x3d81239b3e04c352U,
  0xbd6d406fbcd96763U, 0x3eaf31bc3f198b5dU, 0xbe56b3a23dd0f31eU, 0xbdbedd85bd8367bfU,
  0x3cc98d08be176cb2U, 0xbdab9160bd44e2c0U, 0xbe557283bde11fa6U, 0xbaebe2943d459883U,
  0x3c0715e13e053e33U, 0xbd3dcd2c3d7727e2U, 0xbd4a3c77bce5895eU, 0x3de5b1a53d6bbc92U,
  0xbe09f5b6bcdbadefU, 0xbd422224bd85b912U, 0xbe0f3db3bc6da80cU, 0xbd6f2f70bd856751U,
  0xbe0fbcb83e0c46dfU, 0xbd09f6f1be062d91U, 0x3e358c8cbdb3b189U, 0xbde6b9f53d7e02d5U,
  0x3d7924f9bdd80e5eU, 0xbea4832cbdae33a1U, 0x3d321298be9530fcU, 0xbce406363e4ada51U,
  0xbde948bdbd00c76eU, 0xbe0df430bd8145b2U, 0x3dd71ab3bd94b860U, 0xbcd0fefcbd6153efU,
  0xbe9bc96fbe02d1bcU, 0x3d155c3a3d954869U, 0xbd1dc3dcbe238ea2U, 0x3cfa4760be5b2e00U,
  0xbd9321723c5fc7dfU, 0xbd4732d5bdca6e49U, 0xbd3e89713e2110f8U, 0xbc944394bea5aed8U,
  0xbc1802f03df61b56U, 0xbe7047bc3e2ccb81U, 0x3e92e1a1be11cd88U, 0xbd9af2813df732b6U,
  0xbd93ef1cbd871eb9U, 0xbe2a3f99bd29f913U, 0x3dcf86ccbc958724U, 0xbd5a1c48372a7436U,
  0x3d96d9ba3d8b1302U, 0x3d7a519ebe4fe3d1U, 0x3bf122f1beaeba7bU, 0xbd7c5280be970fc9U,
  0xbc0b15e3bc2607e5U, 0xbe648e8dbd291657U, 0x3d77b34e3e03430eU, 0x3be72590be646bc4U,
  0x3e0737ddbe7e30c1U, 0xbed064ff3df97e5cU, 0x3d845e8fbe659debU, 0xbe34668b3e07d873U,
  0xbe53292ebdd7a400U, 0xbe169cc9be234f08U, 0x3d7626b3be043af0U, 0xbe1911433cd5b051U,
  0x3cbbb1553cfbe4dfU, 0x3d1c3a943c9462b8U, 0x3d8cf5b9be561b52U, 0xbd5bbba0be2de0c4U,
  0x3e1b0f6ebd455c05U, 0xbe4678743e313813U, 0x3ca7e5763d5940a2U, 0xbddbc898becaf1b9U,
  0xbe46dadd3d81e6ddU, 0xbe89bf9a3e56bf55U, 0x3dcb1522be65a4a6U, 0x3c6ebaba3cde799aU,
  0xbdc19228bd1381afU, 0xbe07b085bdce7b1aU, 0x3ded1d283cc084cfU, 0xbda4f6d6be558834U,
  0x3e039a02bc78e146U, 0xbc730bf4bc2efb4dU, 0x3e98e1a0bdb02f0cU, 0x3d0a6716be2efdd0U,
  0x3e1fb571bc3330bbU, 0xbe20b59cbdd23351U, 0xbe2e24f73cfece67U, 0xbdc409dbbe6b0e0fU,
  0xbdb3f0583e2bad57U, 0xbcf3f448bdd832f5U, 0x3d982dd13d2e4a6fU, 0x3d9d863f3dcf68a8U,
  0x3ce72cf03db320a7U, 0xbe1544ffbd4cd51fU, 0xbce0c49a3dd12c73U, 0x3d9d4d21bdaac491U,
  0x3dea14ca3c4499f6U, 0x3ca127f5be6c7932U, 0x3d21ec023d230946U, 0x3c0548683d3c5bdbU,
  0xbd79de0a3d89c87aU, 0x3db0fb8cbce2da32U, 0xbe1ef0e0bd063f89U, 0xbb2e5bf93cbcfd1bU,
  0xbe6bff22bd82c0edU, 0xbd8c21cc3da991ecU, 0x3d4661643e05e26eU, 0x3d971f823d278b7aU,
  0xbddbc907bd229cb1U, 0xbdd25599bc86dc95U, 0x3e13000e3bd0b27aU, 0xbe5ed932bcbc478fU,
  0xbda8be363d276575U, 0x3d136c32be8cf11dU, 0x3e459ba3be43e440U, 0xbd43a350be17bf07U,
  0x3e80dccf3d360d73U, 0xbe8529e0be2bac1bU, 0xbe33cce03ccf162eU, 0xbd8194ca3e32f2e3U,
  0xbd31a26a3d9a991aU, 0xbe3b8fa93d968c65U, 0xbcdf6ee3be1f7d0eU, 0xbdc17598bdc5e8c4U,
  0xbe42e7fdbc97f5ceU, 0xbcc79ac2bcecc810U, 0x3d9195f73cfbf674U, 0x3d88e9dfbca30c79U,
  0x3e5d7d7c3d1ca055U, 0x3d9969f0be349de1U, 0x3e2afe6e3d5c6a7fU, 0x3d42f346bc4185e4U,
  0x3e0513d5bdbfe63cU, 0xbe7db111be193e57U, 0xbe502695bc20c480U, 0xbdbaeb6bbe243aeaU,
  0x3d7e26643e4ba06eU, 0xbe1aeee8bd8bd163U, 0xbc9033943dbcdb98U, 0x3df4f50abda645d0U,
  0x3da97d5c3e09fe67U, 0x3d423ad43d1fefb1U, 0x3dd46f393dd9bde0U, 0xbda0f5d7bde532e8U,
  0x3e547e033c90e731U, 0xbd97ca093dbf1f57U, 0x3d0e13643e3662b0U, 0x3bd83230bdbb0dc1U,
  0x3e0fd0c73e1660b5U, 0xbe5b635dbe8b47baU, 0xbe0859aabd6521fbU, 0x3d2ff732be1bc30fU,
  0xbba50e593e0559e0U, 0xbe05830fbaee796dU, 0xbe0a3c303d779b17U, 0x3ca7cbc33d37276fU,
  0x3dccf7153d55f971U, 0xbe143ab73da1edffU, 0xbd17959b3d415fc3U, 0xbdba0906be39b01cU,
  0x3df14349bd350f37U, 0x3d8912c3be86dd01U, 0x3e0fdd1cbe5ac931U, 0xbcd3e8acbe87b8c3U,
  0xbd8815ccbb9c65a3U, 0xbe8e8911bcc7714eU, 0xbe0fc35ebd95aa06U, 0x3d1a605f3e3a28bcU,
  0xbdccaa46be3faf8cU, 0xbe412132bdd17974U, 0x3d034816be064126U, 0xbcdbc8b9bdddb316U,
  0xbd9b380abd3d5362U, 0x3e400d9bbd090162U, 0x3c9d5af4bd901518U, 0x3b37bfe63d9f9805U,
  0x3d5f47533da4ed2dU, 0x3e23af903dbb8cf1U, 0x3e0de1943c897882U, 0x3d83e2ad3d6cced2U,
  0x3e088cc23dbd86b8U, 0xbe5a6093bad5012aU, 0x3bbff5303bcfbe91U, 0xbd197434bd373037U,
  0x3d3cdec03beb9105U, 0x3d197a703d69692cU, 0xbe2d4455be89abd3U, 0x3d704039be25cd0cU,
  0x3dda6f91bc11610eU, 0x3dfcde1d3dcf8cb6U, 0xbd1e9036be04232dU, 0x3e4f998f3dd47962U,
  0xbe24ba80be26ca78U, 0xbd96c143bc937d49U, 0x3e21b01c3d76363fU, 0x3c5b2a403e1d6396U,
  0xbd9db1383d863442U, 0x3d249c173d78895dU, 0x3e09c41139dbe6d3U, 0x3d829b0e3cca02eaU,
  0x3e9c72533e2b06a4U, 0x3d2a77bb3e59a6acU, 0x3e40dfb3be4672cbU, 0x3deee5ae3e03c0a4U,
  0x3dedf92dbbe7fbc2U, 0x3e1114d7bc5f1679U, 0x3e3b1f213d3d4cbfU, 0x3d9ea52d3b933993U,
  0xbcc736113da7b9e0U, 0x3d494f2f3d7a9117U, 0x3e713cd93dd6820dU, 0x3d93e633bd952ae1U,
  0x3e042a4c3e376528U, 0x3d8027ed3e224330U, 0x3e10cb0e3d9fcf97U, 0x3dcbca8bbc43d89eU,
  0xbdb5628c3d14829aU, 0xbe7983e53c8f9f18U, 0xbcd339c8bd9799cfU, 0xbc26150c3ae5bb39U,
  0x3d377ef33ea36c1bU, 0x3cacba77bd343659U, 0xbe65e84a3c783e89U, 0x3e2f885abdba930eU,
  0x3e08bce33cc13394U, 0x3d48114abe1b2d78U, 0x3e2c27a6bd75980fU, 0x3d07c260bdb76efeU,
  0x3c128e8a3d1bd47bU, 0xbdf1be523d6955a3U, 0xbe6bcce3bd867305U, 0xbe193696bd992a40U,
  0x3e451976bae04b25U, 0x3e197b84bd43ec5dU, 0x3e3b091a3b01c8b9U, 0xbd4056163d6de051U,
  0xbd4d9ede3e823570U, 0xbd707be63d2d3e68U, 0xbcef900a3de4d660U, 0x3e823462bd84d631U,
  0xbd1e80553d210966U, 0x3d01dfb9be632515U, 0x3e86aeedbd7d5a21U, 0x3d198dda3e175154U,
  0xbe043ad43de0f324U, 0x3db08f543e00e949U, 0x3e3a13453d01518cU, 0xbd73da7f3d32d48cU,
  0x3e331750bcf96e5dU, 0x3e3744083e039b4fU, 0xbdbd9420bdd93286U, 0xbe4a57ef3d305c4aU,
  0x3d0617e7be13501fU, 0xbdaf88263d2d86ecU, 0x3db9d464bd8f43b5U, 0x3e1871003d99d990U,
  0xbdd384663db72c0dU, 0xbbc22d96bdef2611U, 0x3ddba4b0be0827ceU, 0xbc4b78e83d3d66d3U,
  0x3dfd37523dbe2066U, 0x3d1413813dd1a3d6U, 0x3e04fa283d924ff6U, 0xbdd389f3bc7e2d5aU,
  0xbea29c7abe1c6b8bU, 0xbdbd2ea1be41cfd2U, 0xbe332f483f2450adU, 0xbf06feb03e0b2b56U,
  0xbee1737d3e8c0a05U, 0xbc807e7dbed4f689U, 0xbdd5d926bd538668U, 0xbe77e795be302292U,
  0x3dc27b19be04c313U, 0xbe29ab933c8d3608U, 0xbdbc7f1f3d70ae1dU, 0x3d507b16bdbbd6e3U,
  0x3d2d8cdfbe7e6676U, 0x3e2b1736be067d3dU, 0xbf01151dbe0bf85cU, 0xbef25a083db72627U,
  0xbe6b55273d07bcefU, 0xbbb9cc733e158f67U, 0xbd0c278a3e94912cU, 0xbf494eb33ddb69f9U,
  0xbeaaf6ce3dceb1a6U, 0x3c027368bec0d806U, 0xbe04b0573da6cfd0U, 0xbea3df40bd41cd49U,
  0x3d72f43ebdc5e5d8U, 0xbe1128fa3c418906U, 0xbe7cafbc3dcde21aU, 0xbcc735363c0f1568U,
  0xbd1b5874bdd45871U, 0x3e5b4fa23db12790U, 0xbe5982cfbcee6ff9U, 0xbeeca6173e73e108U,
  0x3ecab40abd12f4faU, 0x3e2c0d603eba2bc0U, 0x3e7aa6c0be8acba5U, 0xbf88a6323e83e153U,
  0xbec1102fbe8f7414U, 0xbe042ff4bf159416U, 0xbef8d5243cc66640U, 0x3da7bd3cbe5f9109U,
  0xbe1d3496be84bddfU, 0xbe08b126bdd6d827U, 0xbdb150ff3d154aa9U, 0x3d4e111a3d7b2178U,
  0xbe1dc575bdc6ee69U, 0x3e5e9c693eab4831U, 0x3dec6f473e31d5c5U, 0xbf17ad91be11605eU,
  0xbdaeaee53d996334U, 0x3dcea767bc961149U, 0xbe0df366be26b0ddU, 0xbdadc1113e74ae81U,
  0x3ddd890dbdb42035U, 0x3b136f3ebe21e14fU, 0xbbc19592bdb58cefU, 0x3e23e4abbdead640U,
  0xbe6a0b08bdd3f1feU, 0x3dc065fabe8391d3U, 0x3dbfbb0cbd8f82fcU, 0x3d8527213d4b323dU,
  0xbd2e606ebe0f8252U, 0x3e6f51aa3e1c6e92U, 0xbea4679abbfc538fU, 0xbe336433be374480U,
  0x3df373edbd0633c4U, 0x3dae01a3be165df0U, 0xbdda6c34bd803842U, 0xbd717a403c6dc297U,
  0x3dfa322b3d93599cU, 0xbe6a4ff53c4fb489U, 0xbe647e4dbde6b6c0U, 0x3e7b25ba3cb0680eU,
  0xbcb178eabbb4c686U, 0xbe1c9bc5be47c320U, 0xbd1874923c55b40cU, 0xbd99a88b3de63ce7U,
  0xbd6886d73c77e7a5U, 0x3d9b9d47bcff28baU, 0x3c6a603dbe178cb1U, 0xbda5119d3dba479fU,
  0x3e2fec92bd4fcca4U, 0xbe551a10bd4afd34U, 0x3db5bc5cbe3147f5U, 0xbd4c5c69bba2fdebU,
  0xbdb2bf46bd5d4c31U, 0x3d1113133d789371U, 0x3e0cf53a3e364059U, 0xbd74ff283da082c4U,
  0xbe641ca0bc9bed3aU, 0x3cc8734fbc39df83U, 0xbe9c98bf3e8e1a17U, 0xbca9bcf43ebd4560U,
  0xbd64e209bd9376caU, 0x3eee62fa3ea2a18eU, 0x3dbb10f6bd3ecbdcU, 0x3df010753c0fa7a8U,
  0x3df80a4d3dd3b1feU, 0x3e445482be2123adU, 0xbe0ea4593d3f3e15U, 0xbda3b6543cd2c5a4U,
  0x3d7f74ea3e1e6ef7U, 0x3e26d3513b3d16deU, 0xbe66d837bc422bb3U, 0x3e1834473d9cf0e6U,
  0x3e8b89b33a6d43eeU, 0xbdd141f33e6a2e9eU, 0x3e9fdc553cfe0e53U, 0xbcbedee0bded9140U,
  0xbdb5390fbd95b263U, 0x3e89abf2bd34dc45U, 0xbc79aea4be3d2081U, 0xbd825f313bc34806U,
  0x3dfb90483c36eca5U, 0x3dbca4953da776f8U, 0x3e4096cbbeb2a0c6U, 0xbbb702583c445fc6U,
  0xbde133383ca49551U, 0xbcad938a3d5bd954U, 0x3da1a0173d11a999U, 0x3d8ccaaebdef64d4U,
  0xbe922cbf3d9cc144U, 0xbc7f58993c82479bU, 0xbe3023373deb33b1U, 0xbd2a8ca03cfcc0e8U,
  0x3cd345ef3d6e6503U, 0x3aa73639bdf63bf4U, 0x3df764cdbc0c09ebU, 0xbc0e18abbd778abdU,
  0xbd6db4d5be66d470U, 0xbcf1fff63e52bfecU, 0x3c7afd80be9a4115U, 0xbd29c7843dd4b113U,
  0x3ca32af53d0fdf82U, 0xbdc0c908bc8bd0cfU, 0x3d9aff33bd8fa519U, 0x3dfaf3e1bde9d84bU,
  0xbd4c743a3d4cd35fU, 0xbc25ee54be61b46eU, 0xbd588476bd44b7e3U, 0x3cb306a03cdcfc73U,
  0xbe105e5dbd06ebc2U, 0x3c7561873df6c495U, 0x3c563309be4789e3U, 0xbda5b896be30ece6U,
  0xbc5ad0c1bd9bce85U, 0x3cb11291be303a0cU, 0x3e204252bea802c2U, 0xbd2d8421be599f28U,
  0xbe13df4bbdbc00cbU, 0xbda187233c716c9bU, 0x3d8dc159bdcc4338U, 0xbdfa6af4bba7229dU,
  0x3d70cebebdd90093U, 0xbd9261d63ac82931U, 0x3ab1d3e4bd94c780U, 0x3d93c45d3d7b189fU,
  0xbeba024abd98a7e6U, 0x3d41c946bc6eff92U, 0x3d570b203d677980U, 0xba96ceb93c615fc5U,
  0x3d05b3e8bdd49b03U, 0xbbe400823e606cf8U, 0x3e47e02bbe4fa7dbU, 0xbe966b4b3e60eaf0U,
  0xbdfcc666bdd2bc88U, 0xbe2b844fbe7dd8c2U, 0xbdbf8c533daac010U, 0xbd9f1126bdfc895cU,
  0x3d3e40f73de85351U, 0x3d869c34bb3085b3U, 0xbd45cb92bc1e5623U, 0x3d6b700a3dd81c4dU,
  0x3cb2997abcfb110cU, 0x3e38121fbd86b02aU, 0xbe2eb46b3d3ac937U, 0xbe38213abe4f5a84U,
  0xbaf7eb3fbc087941U, 0xbdfeb08e3d3d90c2U, 0xbe5c67e5be41f0f8U, 0xbda89e49bd944428U,
  0x3ca67b833dfa4996U, 0x3cbd61763cb15887U, 0x3da0ae9ebc78d024U, 0x3d71c02fbcc7c11eU,
  0x3e35efc1bda8e70bU, 0xbe162f16bdb013afU, 0x3ebbd2ccbd2f003bU, 0xbd9a3508bdc331a4U,
  0xbd5645dc39937b75U, 0x3daebef93df6def0U, 0xbe0f01a23d008a1aU, 0xbd6e4457be8b5bdaU,
  0xbdd14d96be338243U, 0xbdd18ef23c3ff0fdU, 0xbdcb301abd0e0a36U, 0xbd9c80053d18d77aU,
  0xbe2c82fb3c840cf2U, 0xbe0a3656be2136bcU, 0x3cb7f8c5be6ed119U, 0xbdef0d11bd13d245U,
  0x3dc00c5bbe014dbcU, 0xbdabf940bd377ba9U, 0xbe0e6ba7bd5d24e0U, 0xbd53f57b3b6a38e3U,
  0x3d998dd33cddfa8dU, 0xbd87fa63bc6d7e25U, 0xbb999a5c3ce20c45U, 0xbe499b79bdfe0fa4U,
  0xbc4d7fd43e5bc6c7U, 0xbe3478d43c15397eU, 0x3df3c51fbccf0a36U, 0x3e237ab0be225c1aU,
  0x3e1629c73ea623d4U, 0xbdfb10fe3d7da58aU, 0xbdbd00a23e21fc2dU, 0x3e4c1085be11e9a1U,
  0xbe0255783e06bb9cU, 0x3e20b32a3d08ac48U, 0x3df36881bdf2d466U, 0xbd8d4340be213feaU,
  0xbd2ba734bd3fe17cU, 0x3e258df7bd14cac1U, 0xbdb4d9043bfbb0a3U, 0x3da6961cbe5af6a9U,
  0xbd35e8bebd8740fbU, 0xbe786db0be52ad5bU, 0xbe231d28be1c8239U, 0xbda10b61be2c540bU,
  0x3c0e83f7bdeb7aceU, 0x3d7919803d9f267fU, 0x3df67d6abe30a28aU, 0xbdbfc224bc6cc13bU,
  0x3e32d77e3db992dfU, 0x3e5a2dc73cdf5c66U, 0x3d54867dbe2e1cdfU, 0x3d7d5cc2be51163dU,
  0x3dc5a126bc5a8463U, 0xbe37e232bd8cdb31U, 0xbd8e2aca3e423040U, 0xba145043bd8220f3U,
  0xbcab471ebe4efd37U, 0x3cc340583dfed7a6U, 0x3c0752b53eac52f0U, 0x3a536a973cdaac11U,
  0xbd956516be36f6acU, 0xbe0d162a3aa17303U, 0x3d5ed3d5be59cd4aU, 0xbe83c68ebc624f2cU,
  0xbe66f253bcafa059U, 0x3dbf2508be191748U, 0xbe45f647beb59da5U, 0x3d814fa5be381748U,
  0x3d5e36fdbdb97b5eU, 0xbc4f54ea3e0ee7cfU, 0xbdc498f23e00fa3dU, 0xbd4663b03eb1844dU,
  0x3d8713e83d9b5176U, 0xbe02a1863d3f8416U, 0xbd6436f7be3634d3U, 0x3dabe729be48cfbaU,
  0x3d1ac0503d724ef1U, 0xbe660ac13c133f9eU, 0xbdfdad513d599519U, 0x3db4317abe4aaa89U,
  0xbdafb3aa3bf48987U, 0x3d1c9f3dbe4b7565U, 0xbaa896afbe42ed86U, 0x3d8f380b3cadc4e3U,
  0xbddbcc373dae2a3cU, 0xbe8f4902bec00a27U, 0xbdc573f73d2f59b5U, 0x3c3fbd8ebdb6b0fbU,
  0xbdb52ec9bdcf1143U, 0xbda38ca8bd9e8164U, 0xbe3fa327ba7bcbb9U, 0xbcc3f102be29191eU,
  0xbdf04cabbe02bf93U, 0xbc8de9323d6ebb68U, 0x3c6d1e57bd1cda18U, 0xbe220a94bd9938fbU,
  0x3cf2a20b3c792904U, 0x3e1010ccbda10caaU, 0xbad6a538bd8f2294U, 0x3d8ef94bbd34625aU,
  0x3e092a77bd0f9521U, 0xbc7a10aebd9676c0U, 0xbb9334e63d572400U, 0x3dfcb3dcbe35ae28U,
  0x3c14829d3ddfa7a9U, 0xbe828e603dd7d0c0U, 0xbe042853bd9d031dU, 0x3dae49213ac431b7U,
  0xbcca7219bb8fe45fU, 0x3e76c765bd9058cdU, 0xbe08497bbd304b64U, 0x3be627cabda5f9fcU,
  0xbe0fbb313d7fc71aU, 0x3dc66a933cd70de3U, 0xbe069b183e60c8d4U, 0xbc5026283e61861fU,
  0xbc0ca42ebd37a8c2U, 0x3e306a343e8ae238U, 0xbe3251213d8e567aU, 0x3dbd047abdaa3740U,
  0xbe106372be6b0773U, 0xbed57181bdead37eU, 0xbe08ec79be42740cU, 0x3e1ff6f3bddc1839U,
  0x3d6f5bcebd93012dU, 0x3e19eb883d8ead58U, 0xbbd7bd81be3be0b6U, 0xbe3dd0083d0124d1U,
  0xbdafeec0bdd402beU, 0xbe6d19abbd081e5cU, 0xbd5396693db6043bU, 0x3d22c8eabe654c07U,
  0xbd44e377bdbc501cU, 0xbed9b622bdabfd6cU, 0xbda067bfbdcc7933U, 0x3d403311bdc3844dU,
  0xbe88510b3cd7d320U, 0xbe51bbacbc402b37U, 0xbdb6ea11be653c02U, 0x3e62c77dbde68551U,
  0x3c9737babdb62c93U, 0x3e379b3b3bb4fb79U, 0xbbc54698be085960U, 0xbe553846bd91b9f2U,
  0xbda228acbe41786dU, 0xbd33c0e63d41685dU, 0x3ca329143dfcb5e1U, 0x3d961de9be1e6adeU,
  0xbd8d788abdcb15efU, 0xbeb22fecbd261729U, 0x3bff56f83da466a9U, 0x3e50f2d5be408615U,
  0xbe8bb3ac3ce372fcU, 0xbf07ebe6becb1082U, 0xbeba9b63bebe4af0U, 0xbe8ba2cbbe75297bU,
  0xbd356543bd8ca0e2U, 0x3d7438e5be837754U, 0xbe1f4d453e15b2d3U, 0xbe90c52ebda35b79U,
  0x3dea78a0be4f1eedU, 0xbdc20a013ce9b9b7U, 0xbd8e3b283def6df8U, 0xbd96a35bbd78c83dU,
  0xbe77da78bd62b6c7U, 0xbe462b053d063a36U, 0xbde901dfbdc145b6U, 0xbeb55fccbe851e5dU,
  0xbc84a09bbe05b369U, 0xbe8ab8dabdddb12bU, 0xbe937fc0be9793baU, 0xbe4b30d03d2d7ac7U,
  0xbdf77854bae5361bU, 0x3e675839be33f43aU, 0xbd5cbc143d4d0832U, 0xbe46dd11bcf72892U,
  0x3d7a9539be5deac4U, 0xbe91ce9ebc9a58c9U, 0xbe0554f83e1d18e9U, 0xbcf5b1163e01b205U,
  0xbe318d4a3d152e73U, 0x3c3a00fabdb03968U, 0xbdcae215be0787e7U, 0xbe550983be20ac0aU,
  0xbe24823dbda45457U, 0xbebd2b63be6a1707U, 0xbd1a03ebbe58da82U, 0xbd7486993d839aa7U,
  0xbdc67d1ebdf1c84dU, 0x3c8b3a8dbdde2967U, 0xbe04f4993d696360U, 0xbbc0594dbd992e1bU,
  0xbd1829fabe05322fU, 0xbe9e699abcd832fbU, 0xbe2084e43ddafcc5U, 0x3cdae2403dbca397U,
  0xbdb51d1bbd568f7cU, 0x3d9193663d696981U, 0xbc9d064c3da3412dU, 0x3d06be4bbe10ecf2U,
  0x3d9ad7413e2c8eb1U, 0x3d8cee75be534dd5U, 0x3d3dc94c3dc639faU, 0x3e0b59593ddf9a86U,
  0x3e56bc223df3c887U, 0x3c2f4e13bb68a683U, 0x3cc12fb33e1f38f3U, 0x3e856e27bc853e50U,
  0x3de6cc103dc844d1U, 0x3d6d16cbbcd517c0U, 0x3d3a738f3e271bfcU, 0x3c1294a83e1e408cU,
  0x3d6e95e1bd1c1a7bU, 0x3f0858723e9a535aU, 0xbe1b4258be04a562U, 0x3d4522953e4bf964U,
  0x3d48162dbd740508U, 0xbe0142cf3d9966cbU, 0x3d5199443dd41d53U, 0xbde371343cf170d7U,
  0xbcbb7cb5be1cd6deU, 0xbddfd9b13d46aeebU, 0x3e0249e2bd429b81U, 0x3e2016b3bc2147afU,
  0xbe1322c63d5812cfU, 0xbcf7b8a23e586287U, 0x3e61b8f1bd756f65U, 0xbd56f9fbbdafe15eU,
  0x3b156566bdecbdb6U, 0x3cef1d9dbd1aeb08U, 0xbe64a01a3d983cb0U, 0xbd1502303d7eff10U,
  0xbe762ce5be6341c5U, 0xbee6a9db3df3b75cU, 0x3d7e6c89be4efb7aU, 0xbeadaa40be0912a6U,
  0xbec7bd4fbdfc64a5U, 0xbe114fcbbdf27e64U, 0x3d42d598bde73ce6U, 0xbec72cfabe3564b3U,
  0xbcf16c3ebe086e72U, 0xbe4cc3e3bc2aa422U, 0x3d26d8dabe036a14U, 0xbb4ca3a0bab77e43U,
  0xbde9d2d9bd8908c3U, 0xbe53caf7be2ecc80U, 0xbdf906edbe383b18U, 0xbe1d2118be15ec14U,
  0x3dd223653e6249c9U, 0xbdf15567bda4eb7bU, 0x3e1bc4913e284a0fU, 0x3e34d78c3d45c126U,
  0x3e5683873e3d47ccU, 0xbe5f6bd33d87f747U, 0x3dc00eeb3db22597U, 0x3e35692fbcd5e65eU,
  0x3c6399113e19a944U, 0x3de00a3e3cbe60ceU, 0x3ea93713be33094eU, 0x3c4ae940bc0b1a09U,
  0x3da4defb3ddc6742U, 0x3dbb2f4b3e87d2bfU, 0x3d90e649be6e2596U, 0x3dee16d63d1074daU,
  0xbdbd3c4b3e3b64a9U, 0xbea528413dcfe725U, 0x3e183a343dd86752U, 0x3d58749d3dbc1ac3U,
  0x3cbbb938bdabcb29U, 0xbe67ce3c3c1a8b82U, 0x3e3f473d3e2088eaU, 0x3dd2efa03d66f6e9U,
  0x3ceefcf23da00a6bU, 0x3da207223de8cc96U, 0x3ebbd186be79060aU, 0x3d433e86be282965U,
  0x3dc83f8d3cb6e061U, 0xbce04c69be973e91U, 0x3e30d2de3b8a6e52U, 0xbcf1e916bd41decaU,
  0xbe117089bd9ce4a7U, 0xbe3fcf973d82f32fU, 0xbe1c12afbe29360cU, 0xbe6b9ff8be037e5eU,
  0xbe157369bdde29d9U, 0xbe8ace3ebd947d49U, 0xbd672a30be6b5eeaU, 0xbe4c5a03be6e4379U,
  0x3d12d3b6be191585U, 0xbe08ca20bdaa6968U, 0x3e17b26bbf1d6afeU, 0xbd597570beba15dbU,
  0xbd1cc2a4bcd4eb70U, 0xbeb353fb3d5e88f6U, 0xbe22be02bdfea222U, 0xbdf92f6dbdbe3d63U,
  0xbe2baffebe3d02f5U, 0x3e236cfabc6664d1U, 0x3e1e7b273dd4efddU, 0xbba175603e03a579U,
  0xbde5e940bd64606eU, 0xbe130925bc68fb02U, 0x3db1ef15bc4c314eU, 0x3da95234be1502b8U,
  0xbbd4371dbc89fbccU, 0x3c80a986be5c8c76U, 0x3cb795eabd3cb7ccU, 0xbc9738343ca0e910U,
  0xbd9f6e57bcc79037U, 0x3dbcd1ca3d90df86U, 0xbded5f9a3e359821U, 0xbd43c7e1bc814bd5U,
  0xbe52e919beabdf31U, 0x3e756293bd5dd036U, 0x3e4fcda83e774d04U, 0xbe0295b0bd1523b8U,
  0xbd85d06abded79a3U, 0xbe209656bdf72235U, 0xbbffd805be85f61bU, 0xbdbc09723dea7c2bU,
  0x3d1aafed3db8da61U, 0x3d85b6b23e00c291U, 0x3daadd1abe9f1d47U, 0x3d19139abeb3f020U,
  0xbd409f29bdd486afU, 0xbddb4e153d719ceaU, 0x3d2914243cb264f9U, 0xbdca03e43df52249U,
  0xbdbb7433bef11e8fU, 0x3e1d6a31bd481310U, 0xbc37bf853e3085ddU, 0xbe0ed8f7bd49abe5U,
  0xbe447aa3bcdc02eaU, 0xbe8aba8abd94f364U, 0x3de237abbe300d51U, 0xbd8bd0173ca9fe4cU,
  0x39eaa4723dd41debU, 0x3cdd113dbd9c5ebdU, 0x3dd2ad0fbe3313cbU, 0xbbfc7c80bd39213fU,
  0x3d50246cbe0ddfe4U, 0xbe01567ebe24eb81U, 0xbcbe9409bde89611U, 0xbdf94e99bd98494fU,
  0x3e98b15b3e525f5aU, 0x3e696635be446d34U, 0xbdffd14ebd3077f7U, 0xbcbff61dbed7b424U,
  0x3dd12c8a3e0e733bU, 0xbc42b9eabdf14507U, 0xbc48a5863de39d61U, 0x3eb1c2663da4b907U,
  0x3eaa3294bcb3bd6fU, 0xbdd537cc3e26d407U, 0x3e1548eb3c67e691U, 0x3d9e3a61bd86d613U,
  0xbdfced153d5b5fcfU, 0x3df8cb253e8bccc3U, 0xbdf29112bcbe3ffeU, 0xbd3488e8bcb67631U,
  0x3e5ca549be621af7U, 0xbd040d1dbeee15f0U, 0xbe12ae6a3e8964d5U, 0x3d12bf6d3a1aa967U,
  0xbddf8a04be4ef61dU, 0xbdf2e64b3d9f4791U, 0xbe27a8d3be8fa7feU, 0xbea96d91be02e753U,
  0x3d779c063d6e5045U, 0x3dc9b5f0be21046aU, 0x3d0bc913bc275ea2U, 0xbd7dff76bde57ad3U,
  0xbe10bc693cec3cfcU, 0xbe9453f3be2df1e8U, 0xbd3c1011be8ffe1fU, 0xba6862f13e5b2828U,
  0x3b8516c2bda630adU, 0xbde70156bddc2129U, 0xbd0f0b7d3e91c07bU, 0x3d6c05de3e02bf4dU,
  0xbdf5b214bd93b735U, 0xbea3def83d8932feU, 0x3dd0ef5fbe3a9d7cU, 0xbe1cccbcbd306651U,
  0xbc9b08553d59a067U, 0x3dd64fcc3cdf187dU, 0x3deb777dbe736988U, 0xb9c97500beb3c1aaU,
  0x3d6990b13e0c4636U, 0xbefd68efbe9aae6eU, 0xbc14c172bd2a2300U, 0x3cfa12be3ecd803cU,
  0xbb1f5f5fbd35e2abU, 0xbe684fa9bdfcdd71U, 0x3e2912d1bde5e445U, 0xbd216675be4bb2d5U,
  0xbd80f51c3dddcbffU, 0x3cdcac66bdd7e240U, 0x3e0c1b0a3d9f89edU, 0xbe1b535c3c4de3c8U,
  0x3e3821863d49e8edU, 0x3d55950e3e8730cfU, 0xbd34d55b3e04f07eU, 0xbd335b163e521cf3U,
  0xbb836f1c3bd2eaf4U, 0x3e115ac2be06b90bU, 0xbdf31d5cbcbfb31fU, 0xbe0ebd2ebe1733a5U,
  0xbe9e3bd23ceaec99U, 0xbea5db18bee27094U, 0xbe5f547fbd8f8d6dU, 0xbd5818b5be353de5U,
  0xbd8fd9a03dcd7b37U, 0x3e6f112cbdfc31d0U, 0xbd6f1bffbe221548U, 0xbd939ad0bd40c21bU,
  0x3cc9bb61bdb61ddbU, 0xbdefd44d3a76eb18U, 0xbd7e56a53e146027U, 0xbd75a55bbde88468U,
  0xbe69179abe046988U, 0xbc90b7fa3d6a3c21U, 0xbe2dfa23be426882U, 0x3c9615c2be81dab5U,
  0xbdd79b573e1d4968U, 0xbe728f6cbf0a40c5U, 0xbdbf0f483dbcad39U, 0x3db826f0be3361d7U,
  0x3e6b35153dfe87a1U, 0xbe3dc43f3e1ae87dU, 0xbe5d81773e02b66dU, 0x3e3bbde9be277b8eU,
  0xbee18c503cc3065aU, 0x3dcac573be3c0559U, 0xbe8d74babe90beabU, 0xbb9cc1d0be3b2b60U,
  0x3b8204d3bd3ed1adU, 0xbe0e83f5be8272cfU, 0xbda823c7be3c8720U, 0x3e0af9dd3e78d262U,
  0xbdc3fe65be162340U, 0xbe09ec2fbe7d3259U, 0xbe81ac583db48764U, 0x3d837425bd91106cU,
  0xbdeaf28cbdd4abffU, 0x3d6c08a83c70635aU, 0xbe4c1adbbdb63f4cU, 0xbe71c360bdb3a9b5U,
  0xbea05b82bd4969a8U, 0xbd02c265bd572ca8U, 0xbe4581c0bd94a398U, 0xbbd82db0bdf3fa77U,
  0xbc850bfabdb97de7U, 0xbe971195be769dafU, 0xbd892eecbe580de1U, 0x3d74d8b0bc2cdfd1U,
  0xbe0daf683d281befU, 0xbe1cf8ecbe984fadU, 0xbe250fab3d5f9464U, 0xbc41f4a5be697137U,
  0xbda327b83d83a802U, 0x3ca70c3c3c634511U, 0xbdde1425bc2e44bfU, 0xbdf206fdbe2c6a6eU,
  0x3dbf9b51bd8520bdU, 0x3c3a43a8bd7d16cdU, 0x3c8c34e73d2e6880U, 0x3c711798bd95ea93U,
  0xbdd612ee3caf5084U, 0xbe64ea1abe88c144U, 0xbdbedf13be6fb45fU, 0xbcd2e5f6bd47d02fU,
  0xbe4b12fbbd13231fU, 0xbe4532dabe8269dcU, 0xbd3867623d2450d7U, 0xbe1f8a9e3c09e735U,
  0xbe39ef5b3b7a1999U, 0xbd3e1afdbd3e4321U, 0xbb9ae4d13ddc8c93U, 0xbe57fa4cbd6114d4U,
  0xbcf9994a3cb87ccbU, 0xbd8cb721bdb165c0U, 0x3e70a7373bd50dcbU, 0x3d863515bdd264e9U,
  0x3d80f112bdbb1a37U, 0x3db35005bea97749U, 0xbe2bcbc1bdfc6e9eU, 0xbe2f3c27bdacbfa3U,
  0x3d79769dbc105425U, 0x3db995ae3ca39050U, 0xbdca30dc3e3a133fU, 0x3d19e3c2bd3a4620U,
  0xbd23234f3dfc2435U, 0xbc9bd645bd3791bdU, 0x3cc3c0dabd2bdfd0U, 0x3daf7f3abccf9747U,
  0xbdd040413d9d9639U, 0x3d4045f5bd8fe749U, 0x3e045b9a3a54ebeaU, 0x3c6298283dc43368U,
  0x3e03a7fd3db616b7U, 0xbe61ab27be9db3faU, 0x3cd30badbea080d3U, 0x3d99052f3cdd590aU,
  0x3d10d2d9bd94d69fU, 0x3e106f00bd1b2bf7U, 0xbe3b2ddd3e06eba4U, 0xbc57af95bdf57bdfU,
  0x3d98e8703e375443U, 0x3dc5c088bd0b87d1U, 0xbccb43eb3d039e22U, 0x3e88a9d43df3c36cU,
  0x3d176227bd45c88fU, 0x3c6c50943d3fb55eU, 0x3dc01f65bd3129a2U, 0x3d13844a3d255f01U,
  0x3d20fcce3c76e1acU, 0xbe9a03fbbd8652aaU, 0xbd79eb983c8dc52fU, 0x3d0f6d9f3de33f1cU,
  0x3dd14d56bba2bc44U, 0xbc4c355abd2c6523U, 0xbe93be9d3dadbc94U, 0xbd2be09dbe13c0b7U,
  0xbe210f1fbdf19e65U, 0xbdeef083bda0e91aU, 0x3dcc9789bdb41652U, 0xbe19fe5ebc930e56U,
  0xbd89c0103c5b6bffU, 0xbd48c461bdd3af18U, 0x3eca4511be846783U, 0x3d44a54abed5d761U,
  0xbcd35b233b11db8bU, 0xbee66c46be7c64c7U, 0xbd38c731be21e0f0U, 0xbdb1fb0eba4e8644U,
  0xbdd8dca4bd6eccd0U, 0xbf3c7d73bd3e50c7U, 0xbe9ee43dbe1074aeU, 0xbf6fdeb33dd6fc0cU,
  0xbf216cd13e076da8U, 0xbd325698bea17ec6U, 0xbe96e3383d4504d6U, 0xbee87840bd777ce2U,
  0xbb70a3e3bdeb5dcdU, 0xbde7a47cbc1e8ceaU, 0x3c961cf63d0a1edeU, 0xbd4abf8b3d172130U,
  0xbe2cf144be163705U, 0x3e32b3f23d5cf8f4U, 0xbea8c6893cf72ecfU, 0xbeb54050be8e5bd2U,
  0xbe360046bdc6ca2dU, 0xbe0dec403e6b4818U, 0xbd8dd534be80f62fU, 0xbf714e423dc61f22U,
  0xbf1001483e209e19U, 0xbcea2345bed13ec7U, 0xbe9e6b103d8f3419U, 0xbf04a4ed3cd80ee7U,
  0x3d22adedbe4ae290U, 0xbba1891e3e06c95eU, 0xbd17da213d94f3e7U, 0x3d1d2b063d5e2886U,
  0xbe30ca55bc6c6093U, 0x3e840e023e41a48aU, 0xbe4e9c703dd5d172U, 0xbec33e623d8f19c4U,
  0xbc9e5ba93cf07ef0U, 0xbe0f9fbf3e0b2647U, 0xbe55f9d4bebbef5eU, 0xbf131c5e3e10d293U,
  0xbeb280cdbe0e04e1U, 0x3d95d892beeacdaeU, 0xbf2c12b8bd5ca980U, 0xbddf14383cbdc5e8U,
  0xbdd66715beb30b96U, 0xbe1935bdbd59252dU, 0x3d61ee9dbd850d46U, 0x3d9309e13cbd9648U,
  0xbe009f39bdc04e26U, 0x3d208bd23d9c5fcfU, 0xbd39abeb3d50c346U, 0xbec65f76be2fd6e9U,
  0x3d7d634cbd082c0cU, 0x3dda1d6dbdeeae28U, 0xbdb798843d86e609U, 0x3da76394bd0ad1dbU,
  0x3d1359d93bf26f9cU, 0x3d68bdc23dda953cU, 0xbb1238d4bd7137eeU, 0x3e43b514bdbf57beU,
  0x3e3141b33c9c2a92U, 0xbd5cf6c7bcadb5d4U, 0x3e9f8745bde8b58dU, 0xbb395500be45668dU,
  0x3e2e9d923c6c8ac7U, 0x3e7fce823e645b44U, 0xbe3058eabded0dbcU, 0x3db075353d88f2caU,
  0x3d426744bd9bba9bU, 0xbe505b63bec51d2fU, 0x3eb116c3bd6ebf13U, 0x3d1706cbbe407c82U,
  0xbdb4c4a1bdb4b3b3U, 0x3bb13afd3d3821bfU, 0x3e03aa1a3b3c1c59U, 0xbd92c3593dd5f894U,
  0xbd3658ab3ddd98a4U, 0x3da5f2443e070fe8U, 0x3d9445bd3da71ca0U, 0x3bad5680bdcf0b30U,
  0x3d2c0f0abae6b05cU, 0xbe86eb85be79a416U, 0x3e658d82bd46606bU, 0x3ceda3babdd8976aU,
  0xbdd29d23bd296516U, 0xbe7b52e93eb6f4ddU, 0x3cf4a1f6be0ddc80U, 0xbd469ebd3d7273cdU,
  0x3c7a52403d4c43d7U, 0x3d6232fcbda51620U, 0xbd29f8103cbaa58cU, 0xbe0d3da8bd99ac38U,
  0x3d6afcdebd60de7dU, 0xbdd0d1323e31d84cU, 0x3dd859f43e02a37cU, 0xbce88cd63c77b178U,
  0xbd0db08bbb025dceU, 0xbcf2d3d93d9538b5U, 0xbe14daf43da6422bU, 0xbc2df02abe91529aU,
  0xbb0c260ebe89d320U, 0xbdedaf84bdc1d6a1U, 0xbe9981debe9a6e84U, 0xbd348efabdd3007fU,
  0xbdbcf11cbe054719U, 0x3e34570bbc8ab4b2U, 0xbd06684ebd195f5eU, 0xbdb055bf3e27a023U,
  0xbdad155cbe403d7aU, 0xbea3bcf23dd721d9U, 0xbe3a4bb13e2fdbdaU, 0x3bf8d4003da1c921U,
  0xbe1833813d0b4dd8U, 0xbd4eec9dbe0545aaU, 0xbdaa3314bd5dd900U, 0x3c7cfbcdbdb45d2bU,
  0xbda4975f3dca3431U, 0xbeabd92fbf0fb15eU, 0xbec0de0f3e0128e6U, 0x3e0a2440be6a83d6U,
  0xbdd9478dbe11a68eU, 0x3e9cc8db3d52db7bU, 0xbe925be83b8424a3U, 0xbe8edbc1bc88cc05U,
  0xbdd6bf9c3ddd8ca2U, 0x3e2f02d13e8a7c0cU, 0xbdce29363dca87cdU, 0x3cbb0e74be9701ceU,
  0xbceff8e83da5ce2eU, 0xbe048b93bdc9cf81U, 0xbd49d5f5bc8b7b41U, 0x3d7ba5a03dbf9208U,
  0x3cbd9faf3e64470eU, 0x3df3cd7bbf17f88dU, 0xbe5ed2073ea4f034U, 0x3daf0a79be4286d9U,
  0xbd74483cbe9a2395U, 0x3e5001fd3d1f58fcU, 0x3d05fd78bda8b1acU, 0xbeeef1c0bcb1fa1aU,
  0xbd2af2c33ccf9c94U, 0x3d80b2b63e6b856dU, 0x3cf5c6e13d8cde71U, 0xbda01fabbe47aa6aU,
  0x3d8bee183d88a7f4U, 0xbef26fe5bda4364bU, 0x3e08f634be21226cU, 0x3d90f4ee3e686a87U,
  0x3e4cf56ebe3c2d19U, 0x3e01a278bd9ace03U, 0x3ea594d0bdbb0e60U, 0x3ce672ecbc8f112bU,
  0xbda38f73beb1a6faU, 0xbe97a4b13cbc6e28U, 0x3e9accd8bdaee2faU, 0x3d309bdebe24ef0dU,
  0xbe353f4bbcdea046U, 0xbdfbabc6be0f96f9U, 0xbe6a754f3d135b3aU, 0x3a09de803d88f9ebU,
  0xbdc911543e0031cbU, 0x3e6358353c96388dU, 0x3d1523e43dc677adU, 0xbd5caedf3e7a7363U,
  0xbceb603cbdaac980U, 0xbea3f1b4bd965290U, 0x3e8018f4be576188U, 0xbe27a9523c85f14aU,
  0xbdf3d469bde76e86U, 0xbdd788263d0560d8U, 0x3d7c192dbda8b01fU, 0x3dcb0f0dbe0777aeU,
  0xbe1cab3fbdb44596U, 0xbdd214b3bd4a9f65U, 0xbe59b9633e01891cU, 0x3c9395ec3e281477U,
  0xbeb3425f3d03b8bbU, 0x3e9eccac3e057861U, 0x3e347d293befff5cU, 0x3d01fc71bec41e08U,
  0xbeb3e9293e12ea9bU, 0xbe7aba47bd6760f4U, 0x3dd4e51cbdc5becdU, 0x3d93af68be31d31bU,
  0x3d5bf0443e3b3f6cU, 0x3d3946e5bdc29040U, 0x3d279b41bcfa8581U, 0x3e813b153d20f349U,
  0xbd00e7673dae885dU, 0x3c01857e3d29879fU, 0xbe0bf9ea3cc4b177U, 0x3d135c7a3df02ee3U,
  0xbd0f68e4bcb42e76U, 0xbccf0ebc3d6ba6d2U, 0xbdadda16be2b5595U, 0x3d975017be0c087cU,
  0x3d0bd7c0bd266ae7U, 0x3df7929abdbf1af1U, 0x3d12cf7b3d6b9c2fU, 0x3dc37c7abde19b97U,
  0x3b904b8f3e1f9a3dU, 0xbd85137abd0e42cdU, 0xbcae5fec3df7b53aU, 0xbdc8d1d0bde53a96U,
  0x3dc82d6d3c385c82U, 0x3daf41bebd8b591dU, 0x3acdc50fbc122561U, 0xbd9f12e3bc2ea17bU,
  0x3de6399cbd991567U, 0xbdf9285fbeaad2daU, 0xbe249c1cbd2d958cU, 0x3d10fe733d8ec86aU,
  0x3dccc1dc3d8f4ccdU, 0x3c0b46973e0c246dU, 0x3e8cd26c3e3ae3acU, 0x3e8954433e36606aU,
  0x3caeee6f3e39c2d0U, 0xbe0e35b23e41664bU, 0xbc1710c43d9813e8U, 0x3df88928be2c5b8bU,
  0x3e2c859f3e06cabaU, 0x3dc0fe0abdd39bc8U, 0x3c76acd1bd27bcd3U, 0xbd017ccb3e97d78aU,
  0x3dffa1603e2e4dbcU, 0x3d2c740b3e1756d6U, 0x3daae5653d6100e0U, 0x3e2687ad3db1db7bU,
  0xbe5ec7683d306397U, 0xbe02f92a3d92d880U, 0x3d07e3023e2259cdU, 0x3c9859b43d6e5684U,
  0xbe1aab7bbe571fddU, 0xbdac62373e08d819U, 0x3e7da835be21970eU, 0xbe33b593bdc2477dU,
  0xbdfe0bf93e107e05U, 0x3d032113be0e91a7U, 0x3e472236bdf945c3U, 0x3c8f318cbe2a4301U,
  0x3df4c9933dbb7b23U, 0x3d3fc352be001129U, 0xbcfe3082bdda12ddU, 0x3d0785773d8ffa07U,
  0xbe42a151bd35d2c5U, 0xbe457d38be88ff0bU, 0xbe1db0353e3ad942U, 0x3b6c2bbb3e180018U,
  0xbd5699b83e56de65U, 0x3e5ae02d3cc474c6U, 0xbdb9b0fe3df5d915U, 0xbcf761553dad11bcU,
  0x3e91848fbe68a3dcU, 0xbeb904433d2107b3U, 0xbc1e7eaa3e83c0d3U, 0xbccb272c3d4ccc82U,
  0xbe5eb8cfbb1209f4U, 0x3d8948c0be7aa971U, 0xbcb38af1bbb80fc4U, 0x3d26a2b53d591d27U,
  0xbdb380693e40b7faU, 0xbdc68f83bc2a674bU, 0x3d0eaa9b3dfc8d36U, 0x3dde0ad33e06fd66U,
  0x3e0577edbd39f41cU, 0x3e26357e3e07d6aeU, 0xbe01a5093dde9c20U, 0xbda501233cb3616bU,
  0x3de312e13d53a904U, 0x3de6a7ff3d13ec0dU, 0xbe0d28543e52beefU, 0xbd6930a63da09be9U,
  0x3cdfa2bf3dcc6fc0U, 0xbdce71433ddf944dU, 0x3d4b84713d93cffeU, 0x3e39a232be2c087aU,
  0xbe93c9a8bd588065U, 0xbc2782dc3df04512U, 0x3d97a9a0bd2a90b0U, 0xbe295a2dbd6db077U,
  0xbe314b58be85dcdbU, 0x3d2b1e2bbd1c7f42U, 0x3bdfaffabd0d08a5U, 0xbe8dd8c2bd863f7aU,
  0xbd6a49b93b2e9f9aU, 0x3e6c83b4bddb2cd7U, 0x3cb9309e3dc2daecU, 0x3d89d7d9bcb37d76U,
  0x3d334af1bda26dd6U, 0xbde34e093d99ccbfU, 0x3d1caaef3dcd4ce8U, 0xbde28289be00df11U,
  0xbdbc2874be098136U, 0xbec5b7f7be97e096U, 0xbed9bdf23e0804cfU, 0xbe463d41be856e34U,
  0xbe56225e3d1d891dU, 0xbe13452ebd8e572eU, 0xbdecc50ebdc7ab3bU, 0xbd2535ffbe187430U,
  0xbce304cabe39ea74U, 0xbe617256be0ce109U, 0xbe7f9e04bbce9e2aU, 0x3d4fd092bd2e29a4U,
  0xbdf4b006be14d9c2U, 0xbd7f7c0fbe3d5472U, 0xbe4cf50abe88eeafU, 0xbe0ea2863ea5638aU,
  0x3d04ed27bdddc701U, 0x3da8dc0ebe720c51U, 0xbe28dae93e0c9effU, 0xbe62b558bcc2af44U,
  0xbe330643be8b337cU, 0x3d635362bd2879b2U, 0xbdea7b193bffb009U, 0xbe156c0abe55525aU,
  0xbe8f6570be22169dU, 0xbd8bf3f3bbd1d69fU, 0xbec39d0a3d8effa0U, 0xbac0de003dc95d12U,
  0xbdbb0bc63da44fcdU, 0x3e4b4c16bc01f650U, 0xbe48c8a7beb1747cU, 0xbe723c903ec5a46dU,
  0x3e5a6f17bdce466cU, 0xbe3a0cdbbd8ec773U, 0xbe8f671e3c9efc98U, 0xbde80a573e0151e0U,
  0xbe2c43d5bee7e8b2U, 0xbe1d253cbe56dc77U, 0xbef035993cc428edU, 0xbe2195c6bccb9a6dU,
  0xbea0c3edbd58610cU, 0xbe17724fbe6f77e8U, 0xbea3bd2ebe1cfb03U, 0xbda5a420be3b4082U,
  0xbd3a0355be3352f6U, 0xbc6279eabe139860U, 0xbe98fb7cbe9106bdU, 0xbebdab483e14595cU,
  0xbe0760823d366d42U, 0xbddff8993e177279U, 0x3dddb05dbe044badU, 0xbd0cfcb3bdd2ec29U,
  0x3d1faa15ba888cd9U, 0x3dc9d6c2bdd0994dU, 0xbe138e843d5cba4bU, 0xbdd46ae63da4b1cbU,
  0x3d8079993d6c7defU, 0xbdb4c12f3dbd6adeU, 0xbd1bf4843db9dac8U, 0x3d3c7902bc9f4aa7U,
  0xbdcf425d3b2fb41aU, 0xbdce99f33d748a8aU, 0xbc80e9c73d74fc52U, 0xbcc29604bda0aa0eU,
  0xbcd6b5723ddc2032U, 0xbe9e2efc3cd97e8bU, 0xbd0756ebbe3d8c29U, 0x3c8b28953dcc942fU,
  0x3d8599423d39af42U, 0x3e6f33e9bd73c2f2U, 0xbd80a25e3dd7393cU, 0x3cde90ff3d17edb1U,
  0x3e76b5d5bd777cc7U, 0x3d1af9da3bfa1c4eU, 0x3e129ed63e755776U, 0x3da995913e04b529U,
  0xbcfcb94c3d8ba8a4U, 0x3e32e3403e09484fU, 0xbc7ff8983d999732U, 0x3d9f80ef3dd6223eU,
  0xbe2d89103db20d3aU, 0xbeac3ffe3e17a433U, 0x3da5ff32bccdbe12U, 0x3ca404863da745f0U,
  0x3dc635473d7946fcU, 0x3e26efb23df892c0U, 0x3cc0b1c43dcf2f21U, 0x3da643213d1dd367U,
  0x3c14f6f63d06ace2U, 0x3d815f2e3d9ded19U, 0x3de5e5ad3e7feaf9U, 0x3d8b719d3d10161eU,
  0xbceacf183dec41b7U, 0x3e15d5c53d7e31eeU, 0x3e4c18c43dfcd93dU, 0x3dd5a2393d13dbb2U,
  0xbe93ccddbe09e7faU, 0xbc9bc381bd4e80afU, 0x3e36577d3e042b83U, 0xbdd86edd3dc0dd23U,
  0xbd4e5f83bd5ef9d6U, 0x3e8c6decbe54443eU, 0x3d9966d63e0d99d3U, 0xbe9de7513d636b94U,
  0x3ecdbc903d941318U, 0x3ca2b7573ea139ccU, 0x3e3ec5cd3e3dd88bU, 0x3a7744003e2c482fU,
  0x3dd1b375be55560fU, 0x3e58370ebc888e19U, 0xbc75796b3d92fc57U, 0xbe1b0d7bbd92dcd7U,
  0x3cbe12f0bcae1da6U, 0x3cda5752be0b47b2U, 0xbceee9de3db71bf5U, 0x3c83107c3d89911dU,
  0xbbd35b73bceb024dU, 0x3e387cdebd6d38e4U, 0xbd405d323ea9b78fU, 0xbb09ab15bca75e86U,
  0x3eaebe0fbe0b4e1eU, 0xbe221e1d3e1d7f74U, 0xbb03558b3ea49431U, 0xbd8542ce3e663647U,
  0xbdf2b291bd894d26U, 0x3e6e0bba3d98dc7fU, 0xbdd748c73e4cad29U, 0xbc65d1153c938147U,
  0xbcf2f6253b361bf2U, 0xbe7a4cbc3cfbf740U, 0xbeef1edbbe5e518fU, 0xbe11d83b3d0e1d10U,
  0xbdfce111bda9aac4U, 0x3c74a3f2bdcc47b2U, 0xbe3f84293e6da719U, 0xbe0f870fbdf78104U,
  0xbceef3a5be040ab5U, 0x3c6a5e4ebdeb45d3U, 0xbd40b1e83d66539fU, 0x3cb412403e397b8fU,
  0xbe348018bdcc90ceU, 0x3dce67d53d576b95U, 0xbe0193f6bc51dd12U, 0xbdb045f5be0b3c73U,
  0x3e34bbf33d09a3dcU, 0x3e040b7abe8609a3U, 0xbdf7c9c43dc4c376U, 0x3d9aac5b3bf74df5U,
  0x3dd97d8abe7aba6aU, 0xbebca6483d8fbfdaU, 0x3e26c095be676500U, 0x3d4fd808bcc62febU,
  0xbdb357663d7ad975U, 0x3de941e7bcd213c1U, 0x3dc60e9dbe624bccU, 0x3d7bb8e2bdb1a9c8U,
  0xbb508dd03c10fbfbU, 0x3e8d3de23e1f3909U, 0xbd5ea8863d5f9761U, 0xbda8c6a83e6e8a39U,
  0x3e66c78d3d5d0380U, 0x3e6e2831be889436U, 0x3dae69733e2456b5U, 0xbcb8528f3d3d1716U,
  0xbcaadb4cbe724701U, 0xbea86adcbb96ddb4U, 0xbd9488c9bd5b3b97U, 0x3d9cdbd6bd58adb0U,
  0xbc6e0eebbd99fde8U, 0xbdca2fc53cd5264bU, 0x3cd362f1be554bb1U, 0x3d967e853d2db03eU,
  0xbbd3899a3d516494U, 0x3e9361d63e20a8ccU, 0x3dfb3965be0ea673U, 0x3d11b44e3e61b8edU,
  0xbb04f82bbd81900bU, 0x3e3d3d34be9af8cbU, 0xbde52f3bbad1d608U, 0x3d522601be28b2a8U,
  0x3d1e1ebfbe5ecebcU, 0xbe6ff5eb3e073bc0U, 0xbe6bc6aabe6f2363U, 0xbd5350783d35cfc5U,
  0xbe7fdb6abe070582U, 0xbe2651f1be569397U, 0x3d3d0f0bbe9fcaf8U, 0x3d29d066be88fbb1U,
  0xbe623b993d9bf36cU, 0xbca4cfc23e09f532U, 0xbe0213f6bdba713bU, 0x3d1ac56f3dfe29c5U,
  0xbdeba8b3bcc68edaU, 0x3b037b53be033bf2U, 0xbc85cbf83cd934b1U, 0x3c141eb83dec5c91U,
  0x3e135e703e4f3165U, 0x3db65668bd90b1d5U, 0xbc9aa6cebc2d707fU, 0xbccb71923d6778aaU,
  0x3d8fa1fb3c92b079U, 0xbb8add0bbdd46c74U, 0xbce805c33d0ecc4fU, 0xbd7077d6be5e7245U,
  0x3da25462bcb04425U, 0xbe21ecb0bd6fefb0U, 0xbe93f61cbe5ea8f0U, 0x3d710d5dbd8c3871U,
  0x3e6d51d23e5e15f0U, 0x3e280e0dbe281a23U, 0xbdfe949abb8bd0ccU, 0x3b6bd94b3d0788bcU,
  0x3dc5f0533e680803U, 0x3c0d01d93ddffec0U, 0x3d835f98bc0c8049U, 0x3e3504263c9f0437U,
  0x3e5b139f3d23c3e6U, 0xbd363283bd62a90cU, 0x3ea26fe73e12f3aeU, 0xbd948ff83e19a5baU,
  0x3d60619f3e05cb9dU, 0xbc8c8323bd4b8314U, 0xbda0407c3e0b9ae3U, 0x3df14142bd0c6581U,
  0x3e1942693e9627efU, 0xbe7c2235be665054U, 0xbe3687103d8c9f34U, 0x3e0253223c9e707eU,
  0x3d8e18f53d1d8746U, 0x3e1bf0763da5dd67U, 0xbd4e3c893e292bb5U, 0xbe34020a3dd6bef7U,
  0x3e5af1103d58923fU, 0xbce96b503df9cb98U, 0x3df08c453e8e1f4fU, 0xbc51a4c03cbc95c0U,
  0x3dfec6a73d4eb244U, 0x3e82c5adbe005cf3U, 0x3d99763e3c256572U, 0x3daae5d73e4a41e6U,
  0xbdfd33b43c520023U, 0xbd2ee334bde86dc9U, 0xbd580ad63e6735b6U, 0xbe4c070b3e33ae22U,
  0x3d09a2773e5331b9U, 0x3d470dedbd7b75beU, 0xbdd2c97c3daef371U, 0xbbb8fd4d3cc70633U,
  0x3e6d9fe5be55994fU, 0xbec010973c6bc756U, 0x3ca14fbb3e8a1a7aU, 0xbd4cd2bb3e5f5744U,
  0xbe029a97bdebdc55U, 0x3eae2bf53d4a71c4U, 0xbc91bea53d228b60U, 0xbe1c6b16bd995967U,
  0xbc83b19e3e8239e5U, 0xbc1828c6bb9e1f45U, 0xbdb27c893ed37c6fU, 0xbdb045563e90d515U,
  0x3d8b42f63dc1b1c4U, 0x3e49ce8fbdd2b272U, 0x3e2357f73e70adf6U, 0xbd7a398a3e1f2d27U,
  0x3ea1de8d3dc3b6d7U, 0xbdf66bbb3e43fd42U, 0xbd75fdd93e4d0a82U, 0xbc9a7dd43ce6aab0U,
  0x3d938e7ebbb95741U, 0x3dd919b1bbe93758U, 0x3db696983e44e9f1U, 0xbd82ddcc3c65fc27U,
  0xbe7a35483e1df881U, 0xbe3dfe55bcbe4708U, 0xbed4fbf83c50162bU, 0xbd10dbdebe3d7ca7U,
  0xbb82afdd3c495548U, 0x3e8228623c8ceb4bU, 0xbe9bca863e6d24e5U, 0x3b2962253c8c4eb2U,
  0x3e6637b4bdc8685eU, 0xbda0ec6c3d645053U, 0xbda2ba0a3e3d4046U, 0x3c4973003e6aa436U,
  0xbe5a85ba3d27949dU, 0x3d80853b3d2747caU, 0xbea1f2b4bcd1f9c6U, 0xbcaa2e6abd7177ffU,
  0xbe465f9dbd81b5b5U, 0x3e18f241be777b3eU, 0x3d8334503d0de236U, 0xbe8048d9be3d8072U,
  0xbd6e3f7e3d0978f7U, 0xbdf9b761be5b9749U, 0x3eab566bbce515a6U, 0xbd38733dbdfb94e1U,
  0x3ec096bdbe7d1105U, 0xbea0c6c53d8c1f41U, 0x3e027d6ebb159992U, 0xbd8ee9bebdf6ce8dU,
  0xbe97c478be90a5d2U, 0x3de729ca3db1d73bU, 0xbe4a542bbe3888c9U, 0xbe7c28a63e284f61U,
  0x3e56fe55bd36fe13U, 0x3e4823afbd66a95fU, 0x3d6976363c0ca1c6U, 0xbd59c6adbd2a2647U,
  0x3c8b9fadbd47c975U, 0x3d90459abd864d16U, 0x3e06d0cb3d38dd09U, 0x3e793168bd9fdaaeU,
  0x3dd8b6bcbe8dbc20U, 0xbe6aeb583df02730U, 0x3d1ad5b43e3a01f1U, 0xbcd330603df8c429U,
  0xbe1822f2be083a70U, 0x3ead52b43f03416bU, 0xbd97ddfd3d48586bU, 0xbe0cc3933e9a6542U,
  0x3e605443be062a7bU, 0xbe579c023b96fea5U, 0xbeb402cabf11530fU, 0x3b4e2bb9be5f9647U,
  0xbe16d339be366f9dU, 0x3d66b2a63aff9ec8U, 0xbdf8068fbc89e741U, 0x3d33d024bd1ede18U,
  0x3db14f01be9adc5eU, 0xbf0bb04cbe3376afU, 0xbe85e5d33d35c95aU, 0xbd7323103cc5e80bU,
  0xbf0195e5bcfdafa1U, 0xbaec33cc3d0b4403U, 0xbd153519bdcbb937U, 0xbd76143c3e1c1c42U,
  0x3b008fdebe3960b7U, 0x3e19cc533d7f4ec9U, 0xbdb0a072bda78e44U, 0x3cff842fbc811233U,
  0x3db7931f3e0ad876U, 0xbc95ebf33c258626U, 0xbd2635e5bd235293U, 0x3e164c65bdd56975U,
  0x3cb1c5ac3d836161U, 0xbd9b3e41bdde65e2U, 0x3e1ee606bd87c8ecU, 0x3d287a5abc6fcd6eU,
  0xbd7de75cbd87bf44U, 0x3e6d3d6b3e2f08bbU, 0xbe03b280bd838b3fU, 0xbd81ecf6b9153547U,
  0xbe132c943ccba11dU, 0xbd84685b3c9dacadU, 0x3e27e109be17b80dU, 0x3d8a1dc8bdf57752U,
  0xbd894d8ebd5a3677U, 0xbb9978273db8aafdU, 0x3db24101be800c4dU, 0x3d5d06debcbe3186U,
  0xbdaf39fb3d774c6bU, 0x3dda46983d3e1524U, 0xbdc76f8c3d1074f7U, 0xbc87d4ecbccfb228U,
  0x3d8a64583d63f2b7U, 0xbe33ea35bd3ea442U, 0x3e5d364abd8b6063U, 0x3dbd5623be18c1acU,
  0xbde4f040bdfb85e5U, 0xbe8cb46a3e0efce4U, 0xbdcedc87bdcc91acU, 0xbe5ad8563e20a066U,
  0xbe80bd7a3e1dbaeeU, 0x3d10640dbe2c2111U, 0x3ceaa7283cb3794eU, 0x3e0ffefebd362a26U,
  0x3e60c9e83d1f93f4U, 0x3cfa0beabd44c883U, 0x3c0f61da3dd76136U, 0x3a266a803dadcf29U,
  0x3d969d393d3b10e7U, 0xbd2bec97bb8dcdfaU, 0xbdf02f95bd46f04fU, 0xbd329ef9be417603U,
  0x3e52c74b3d37335bU, 0x3ea01bd9be0e2028U, 0xbb55d2f5bba653f8U, 0x3d8eef11bd47b023U,
  0x3d950fcf3e5beacbU, 0x3e0fccadbd816fedU, 0xbda99609bd833e04U, 0x3e89c16abd644b91U,
  0xbde73515bdd7a5d3U, 0xbdce87fe3db6fa06U, 0x3e38a2f43e3c1dc0U, 0xbd5dd5e03deba543U,
  0xbe6e16723b4c4f7cU, 0x3e52db623cd9468aU, 0xbd36298cbe408a4dU, 0x3d1804c63da47fa2U,
  0x3e42edd2bd899c25U, 0x3e6c7bb73e15713cU, 0x3db40d183db1502cU, 0xbd1a70a23d0bf6a2U,
  0xbd8be964bdba4223U, 0x3dde7ea9bb832b45U, 0x3b81e4cbbe1f45bfU, 0xbe18cfdfbe38a507U,
  0x3d510d763c955e10U, 0x3e036010bd501a7cU, 0xbceef60c3dfe83e6U, 0xbc9207b43dad045dU,
  0x3de372f73dd85ae0U, 0xbe3ff0d73c9a3b4cU, 0xbde0159cbe76994bU, 0xbdd67f333d49af87U,
  0xbc668b7dbdf649deU, 0x3d1074a4bd83257eU, 0xbe7782a33e918565U, 0xbc5110f4bcac93b9U,
  0xbe1f56f6bcbcecc3U, 0xbd4c9b04bdd6023cU, 0xbe75a2babe05d10dU, 0xbe5a433ebd93ffc6U,
  0x3dcb095b3de0c24aU, 0x3dc50283be4506fcU, 0xbd4800e4be7ef3c1U, 0x3d2c1666be6cd946U,
  0xbc642ccabcc24bafU, 0xbe6207dfbe0d2940U, 0xbe45dc71bd43a0ddU, 0xbe26b0473e232aecU,
  0xbe6c34443d837964U, 0xbd241dcdbd795691U, 0xbe5f1f2dbc500649U, 0xbe7b74543e2967d4U,
  0xbda6f8c3bc6da398U, 0xbe23b8bdbdd77a07U, 0xbe7ea44a3db30ff3U, 0xbd7635aabe31e2abU,
  0xbda89716bcb84b88U, 0xbe3bae65be516526U, 0x3abb64893df2be3aU, 0x3d4b84623dbe8a89U,
  0xbd3182dc3d3dc0aaU, 0x3e930d023e0998a9U, 0xbe61a0abbe007732U, 0xbe9d894bbda19ff7U,
  0xbdf6c6a9be2c63ddU, 0x3b7b9b7cbd0ea299U, 0xbe3742303d593ee0U, 0xbe8c6a863de2a942U,
  0xbe8495c3be2e93d0U, 0xbe00099ebe427b87U, 0xbdcd272abe3239c0U, 0xbe2481f93d4a996aU,
  0xbd8f73d33c33b269U, 0x3d130c02be74b478U, 0xbdaea100bd62644aU, 0x3d80092d3bb4cbcdU,
  0x3dd0d139bdeee1afU, 0x3acc7798bd0234c5U, 0xbdbc6fe5bcd33266U, 0xbe071a103dd4b164U,
  0xbda277e5bc43cabeU, 0xbe9ee2d43e3075b2U, 0x3d5a4c59bdbbb9eaU, 0xbdab790d3d669e2dU,
  0x3c011e9ebb9f8b36U, 0x3dbd1376bde30bdaU, 0xbe5dde6f3dadda47U, 0xbdabab463e8882d7U,
  0x3e7a2cdebd03168aU, 0xbe292d663eaba8c7U, 0xbc8f531cbc8a92efU, 0x3da36ff93c7cadfbU,
  0xbe24141fbde493bcU, 0x3d8aa69dbd52a628U, 0xbe1324323ea421deU, 0xbce47285beee653aU,
  0xbe2d51c63d927c9fU, 0xbd70fe843de6d8baU, 0x3dca1cde3c66ec30U, 0x3dca204dbd735692U,
  0x3d059467be0d39ceU, 0x3d6995223e3e6df5U, 0x3dc879d8bdb489a7U, 0xbe0c6de4bd545f02U,
  0x3e30bbf93e11ecbfU, 0x3de8bbb93e1fd51eU, 0x3e959366bc7983b0U, 0x3d9975e3bd2a4f63U,
  0x3e3572d23df5e206U, 0xbde5a9bc3e1c1138U, 0x3df466003d511582U, 0x3bc879f9be04997cU,
  0xbda67289bdfc8b25U, 0xbe846894bd2d0467U, 0xbd38208dbe1776f7U, 0xbdb5227a3d78091dU,
  0xbe0096b8bc39a18cU, 0x3ca3f96cbe4f0566U, 0x3d362d4dbe1ff18eU, 0xbe82ab283c12d4c7U,
  0x3e0eb2363b81372cU, 0x3e13a18dbe21bf54U, 0x3e2d3937bd20aec9U, 0xbd5bcf86be058e55U,
  0x3dd353c1bca0bad7U, 0xbe39acefbc11cc8cU, 0x3dbd7a593e139168U, 0xbdcd2208be2d3ce9U,
  0x3d2044f8bdf09a62U, 0xbe0d7bd4beb66becU, 0xbe0234413d0ac27cU, 0xbccd36b6be2d8fe7U,
  0xbdd88cadbb75f990U, 0xbdf92d48bdf25e5fU, 0xbdac7605bdda15fcU, 0x3cd6f39bbe4cfa5eU,
  0x3da30808be1d4e56U, 0xbe12b653be166217U, 0xbd013018bdd36d78U, 0x3da9b495be48c5deU,
  0xbdbd0864bd8cd046U, 0xbeb3c2d9bde0461eU, 0xbd29cb7f3da4aff8U, 0xbd36c058bd41eb90U,
  0xbea023a43c742ccfU, 0xbee8b8733e59c6e8U, 0xbb71aa81bec2016aU, 0xbdc44ea13d9b45f9U,
  0xbd85a386be5d9a18U, 0xbe1e177cbd9f740dU, 0x3d374f4abd7f1ab4U, 0xbe9130543e49cd1eU,
  0x3e5fbda03c654bd7U, 0x3db1c7febe0fae8bU, 0x3d8975e2be6ff5c7U, 0x3ccd2a40bdb2d926U,
  0x3e1314f83dbc8cdaU, 0x3d90249a3da8588eU, 0xbc862d3a3cbdb167U, 0x3cf1f460be876043U,
  0xbe5354cbbcb6a5cfU, 0xbe73c176be108258U, 0x3deedcb1be9b1daaU, 0xbdc13c79bdd6f174U,
  0xbd88384bbdabfabcU, 0xbd7be71abe14ad4aU, 0xbd43d5153be34bfdU, 0x3d1dd168bd8142c1U,
  0x3e067ee73d10ca3aU, 0xbd08ceccbd7ce946U, 0x3d90d47bbde54928U, 0xbd97a4debe57baf6U,
  0x3c985559bd8a8a4dU, 0xbe2ccdc0be35b4c3U, 0x3e07e8e83d867d23U, 0x3cb33d40bea13efdU,
  0xbd4b38ab3caa2528U, 0x3dceb10bbd7f1831U, 0x3d6621debcf1b1d3U, 0xbcc7a32abd82b97dU,
  0xbd4604b73c808883U, 0xbe750b97bdbdd6d6U, 0x3def4e11bd0d5cafU, 0xbdc1422037e76f0bU,
  0x3db58ec13d792e6aU, 0xbb57aa51be444712U, 0x3d89afbebd4cc044U, 0x3da27de53bb0b1c3U,
  0xbda7b7583ce20786U, 0x3d7bd7863d195801U, 0xbdb31c8ebc5f9d51U, 0xbe6e7e08b94335b8U,
  0xbe10dbc6be2958c3U, 0xbe79cb3d3d76c5beU, 0xbd2a657dbda2003fU, 0xbdb9d0ed3e14f870U,
  0xbe58d9a2be73efcaU, 0x3ddff913be1be624U, 0xbe8e8ad4bd8fd974U, 0xbe897c5abdc61e94U,
  0x3d35b0eebe343c7eU, 0xbd924eb63d950551U, 0xbcc0417c3e596a8cU, 0x3cd9cbd43dcd28bbU,
  0xbdbfa13dbd9b72efU, 0x3daee2343e6a28bbU, 0x3dacded53d4a93e0U, 0xbe11b00fbe82afc8U,
  0x3a06b7193dfb4a1aU, 0xbe1e15b13dd88dbeU, 0xbd6c2c93be7ba045U, 0xbe46ac69bd9549ffU,
  0xbd41a6b0bdc5a59eU, 0x3d136ce5bd9566ecU, 0xbe57ebb53cba99e7U, 0x3e205da0bd206853U,
  0xbe0047fcbd61c5e2U, 0xbbfb7dc4be187aabU, 0xbd25387bbc899f64U, 0x3d278d403ca0209dU,
  0xbd893aafbdde902eU, 0xbd01d1143d95100aU, 0xbe55a1bbbb75b679U, 0xbc8aa346be91e3b0U,
  0xbd40b1d6bcac5653U, 0xbcd8e203bd8713b5U, 0xbdd4a9d8bd7ad01fU, 0xbbb08cc63d30d593U,
  0xbd8f97cfbd98e5c0U, 0xbc504d35bca1ee84U, 0x3cd91c70bbba22b6U, 0xbdf1c50a3bceb02bU,
  0x3e17f678bdb949daU, 0x3d4e91e5bb6bff77U, 0x39d04dfb3dd45514U, 0x3da52b5d3e154a96U,
  0xba97b5c1bcac7271U, 0xbd184204be5c38ccU, 0xbe639653be56362bU, 0xbde4e689bca5fdb4U,
  0x3e19ceda3e37ae93U, 0xbe3f76c7be1e5a94U, 0xbbbd40eebe41e99dU, 0xbc7e1978be971016U,
  0xbd27a7613da55892U, 0xbd9cc9173d0e0f3aU, 0xbd989d113e85b28cU, 0x3d9fa208bcde6212U,
  0x39977261bd157bf2U, 0xbd325adc3b4ac581U, 0xbc92ac1cbd85d1b6U, 0xbd84ecb0bd122b43U,
  0xbe6abaefbd478168U, 0xbe1a0ed0be3645d9U, 0x3e3c12f0bdd62642U, 0x3dad5d61be007f28U,
  0xbe10e5bfbe125dbbU, 0xbce98d713e16c610U, 0x3e2a96cbbcfe7586U, 0x3d16ef433dc5a20cU,
  0xbd7660cabdb65058U, 0xbe26ddde3bd31827U, 0x3d919d7bbddaae24U, 0x3dc96b40be0280caU,
  0xbe04220f3de956deU, 0x3e5869b73d4ddc10U, 0x3cf40ff13d873ef2U, 0xbda031763e3bb620U,
  0xbd082614bcf5b3b1U, 0x3cec67e13d630702U, 0x3db4e48a3d3117a7U, 0x3cc82661be2846fdU,
  0xbe0287a93c0d13f3U, 0xbe8bf5a9be1c3c74U, 0x3cd369623d9ac4b3U, 0x3cc9bf6b3e5e6017U,
  0xbdb43bbabdbbde62U, 0xbe71cb4e3d58277aU, 0xbd61bb48bce6d915U, 0xbdf74ef93db7ee88U,
  0xbd3b4f393dd85a49U, 0x3c9b077abdc22c51U, 0xbc289110bddaa60fU, 0xbc15ab98bdc13742U,
  0x3d6c580abd4adc0fU, 0xbe75b16ebc97dbb8U, 0x3d7c4b5a3d9ed4bbU, 0x3d8007f2bd956f8cU,
  0xbe1904cdbd3c6719U, 0xbe7253453d55ab60U, 0x3d5263393c974ac8U, 0x3d989e48bdaf75dcU,
  0xbe2b1ee9be9260dcU, 0xbe1f0abbbb29fd98U, 0xbc3c83f2bdbe9b8eU, 0xbed68b60bd5943a7U,
  0xbdc89f123c8418c3U, 0x3e051f67bd910916U, 0xbd1eb6e2bea90170U, 0x3d9c9c89be06be6bU,
  0xbddc16153d51144cU, 0xbf10d9e9be6fa187U, 0x3da799edbe15a429U, 0xbd40e641bd8ba1b0U,
  0x3dbb8bb8bd1bb7b1U, 0xbda207d6bca501f9U, 0xbb908f31bda48852U, 0x3dd179aebdcc05d8U,
  0x3d304d883d02ac99U, 0x3cae96e43d496509U, 0xbcf14835bde27d77U, 0xbd00a0f13c2d97b5U,
  0x3bc1da71bda472fbU, 0xbd484ee5be220556U, 0x3d48b367bd5383ecU, 0xbd6aa406be5015aeU,
  0xbda3072b3c21b33bU, 0xbdd4c00a3d708542U, 0xbca7f0babe33445fU, 0x3d0244603d55f1cfU,
  0x3c9f9025bc3695cbU, 0x3e1b66203dfd2cadU, 0x3dcd10ba3e4902b4U, 0x3d3fad27bd44c631U,
  0xbcfb03babe20b87bU, 0xbd8b09a13daf2ccfU, 0x3da6c8a7bc742f0bU, 0xbe8ddc8abdd04b5bU,
  0xbd9d86463e01b5c0U, 0x3cc0a309bd0d22c8U, 0xbe0b23aabd0ed9f4U, 0xbc7acb683db0d881U,
  0x3e3ff8e2bd90a4a3U, 0xbdf2a8b7bd2d6c6eU, 0x3c9011433e23d49eU, 0x3dc1d878bd4654adU,
  0xbded0bfa3d3503dbU, 0xbdadc353bcc5cd67U, 0xbd8e38a9be162252U, 0x3cde12583b531beeU,
  0xbdbcfaafbe4093d8U, 0x3e0776d6bd82e821U, 0xbe5aafc93d9a6819U, 0xbe1d46843e1c45dcU,
  0xbd560af7bd717d10U, 0x3c0da8f13d830d1fU, 0xbe174f3d3e1d0143U, 0xbd17a4063e6d69cdU,
  0xbc87993bbafc5cc2U, 0x3d26c15fbd776992U, 0xbbfdaa493dc1357aU, 0xbd7b32f2bd84651fU,
  0x3defb032be199d9fU, 0xbe398f4b3d8e3978U, 0x3e3904a03d16067fU, 0xbb3d2f293e171995U,
  0xbe1404113babf352U, 0x3d7814d3bdf7335cU, 0x3d06825f3e0fbd6eU, 0xbe5c0c9dbd7d47b7U,
  0xbd1517043d576db2U, 0xbda675ad3e16a53fU, 0xbc10c30c3e6ad9adU, 0xbc2157183e8a0d29U,
  0xbdae49f2be0011a1U, 0x3e13fa10bd980c4fU, 0x3c848baa3e198013U, 0xbd2b210e3cdd196eU,
  0x3d29730c3e14f7b5U, 0xbcb2e2b03e709443U, 0xbe06fffe3e1119c4U, 0xbd88fc493e70bdb3U,
  0xbe3845debdce2b99U, 0x3e634912be1f32cdU, 0x3ce0fbe03db6fb7cU, 0xbec331f6bd3b71cbU,
  0xbcd81e4cbd0ffd1cU, 0x3e25b0dfbd72c4fbU, 0xbe4569663e54728aU, 0x3b11ff603e104b11U,
  0x3c9bf8c3bdc8de10U, 0x3e08f0763dff0eeaU, 0xbdf042d03e65676bU, 0xbdb6bd963ccb08e8U,
  0xbe2bc9bfbd9ee39fU, 0xbd1d6b9fbebe8512U, 0xbed9abc23c3a3694U, 0xbe231cefbcf94214U,
  0xbb55fc26bc287cb5U, 0xbda65273bdc4b467U, 0xbdeba545bded88b5U, 0x3ccc8c93be5dc13aU,
  0x3e0c61e0bdaaf1b3U, 0xbe2bc3f63d2405a8U, 0x3e51d5bebe766bc2U, 0x3c88b1d4beb37a7dU,
  0xbde174cebd918511U, 0xbda3334abd0bd557U, 0xbe823efdbe71604fU, 0xbe4793b6bcb3417eU,
  0xbdabaa743e6064b6U, 0x3cc506bcbe4d0938U, 0x3df588a73d115c05U, 0xbd81ae11be28103dU,
  0x3df4cb2a3ddbd7a3U, 0x3ce1b0c5bd8e527dU, 0x3c8f21cf3b9ead8fU, 0x3d9a250ebe2f719fU,
  0x3e766e73bcc99d72U, 0xbe7d3d0e3e7775fbU, 0xbd3a73dcbc53483fU, 0xbd39cdcbbd23741eU,
  0xbe3b19923d5c51ceU, 0xbca11ec5bdae630fU, 0xbd6bb273bc64852fU, 0xbde5b6d1bd5ef841U,
  0xbe6f521dbd22050cU, 0xbeb9cd603e02b064U, 0xbe0fbc85be80b7caU, 0xbdfa9d26be3fe6e3U,
  0xbdc54a683c6fc71fU, 0x3db3135cbc1a3209U, 0xbde4b4f2bd6b3966U, 0xbdc0b69e3d79966cU,
  0x3e3961f9bea0e0a4U, 0xbe66ee003e840e34U, 0x3dc935603e01ff88U, 0x3d63d056bc0b896eU,
  0xbd23c9e4bd1db8e9U, 0xbe002aed3dc7cfaaU, 0xbd85eb163deba288U, 0xbdc8d0dcbea3d0afU,
  0xbc8f34a6bef941e2U, 0x3e7934e9be69959dU, 0xbea863013e00ba5aU, 0xbdcc5782be6272bdU,
  0xbd42d4cabe8210d0U, 0xbe0b96d2bdc0d6e2U, 0xbd7b4731bd58bf7cU, 0xbe31d965bb49c8a1U,
  0x3d229f0dbe33f518U, 0xbea7beeabcaed9a9U, 0xbd95e63ebd7b43a8U, 0xbc44ab683dba93c8U,
  0xbd9bf19ebdb7429dU, 0x3d0dc07cbdb99c9fU, 0xbdd31df33ce84fbbU, 0xbd9bc9ee3d2f42e2U,
  0x3dc910b53c9bf7beU, 0x3eb6b680bb02995cU, 0xbdb8acb23dc3fbecU, 0xbbb897b7bd401ef4U,
  0x3db57ef5bca20fb1U, 0x3d4a59aabc751e39U, 0xbc9b59d53ce1a097U, 0x3e04f97cbda9c022U,
  0x3d81e6afbe2b766dU, 0xbe84db47be573acfU, 0x3da72a763dcaf9d1U, 0x3cd9b30c3ef2649aU,
  0xbe1c371dbdbf0008U, 0x3ea784fb3dd3959fU, 0xbbfb43013e26df7aU, 0x3ca2b2843e17534aU,
  0x3d94e3883e0697edU, 0x3de6c4ca3df9b0a1U, 0xbd81db383e166467U, 0x3d3ae4c6bcd272d9U,
  0x3d6469e8bd8d1ab9U, 0xbd55d2d53d71f3cfU, 0xbe5c2fb03d4a95d8U, 0xbdadb69b3cc06fb9U,
  0x3e49a826bdec940dU, 0xbe55a7e3bde29e35U, 0x3b7cedc33dd6d509U, 0x3cd825c03c29739eU,
  0xbe1f78fa3c20a4bfU, 0x3e02341b3d68854bU, 0xbe55e8023c0ffc5fU, 0xbd803a7f3e67510cU,
  0x3d184d95bc78d098U, 0x3de92129be6687adU, 0xbe4e8b723c94c753U, 0x3cbf1d283bcad8f2U,
  0x3dd820fa3bc09815U, 0xbe31bc663d975060U, 0xbd4e37b1bd58f19aU, 0x3e534f46bd5ebaf9U,
  0xbdfbf60e3d0228e1U, 0xbe3a3f00be7cbc0fU, 0x3ebcf146be9431ecU, 0xbcf2176cbe60aafdU,
  0xbe14bcdfbc972273U, 0x3dfa2c913e7fea82U, 0x3ddd329dbdd7dbaeU, 0xbdae48da3c8e64a8U,
  0x3dfb5ca43e369aa3U, 0x3e58c6ac3e049ddeU, 0x3e00615abd797049U, 0x3d80e3c73d04be12U,
  0x3d213c9abe354e77U, 0x3cdf82343ae64c9eU, 0x3decf97abe298542U, 0x3aaa2a153db24ec8U,
  0x3abaf791ba839dbfU, 0xbe923ef73dd3bf11U, 0x3dcffa623dd35331U, 0xbce717763d849202U,
  0xbd80cf3b3df57d4dU, 0x3e05228dbe4ad207U, 0x3d0d199c3e38a007U, 0x3d8ff9ad3d75b27eU,
  0x3e3689ad3e1723c9U, 0x3e0a8094be8ca69dU, 0xbe9e82d93dfef5c2U, 0x3d93d3a03df3b46dU,
  0x3da3f4c4be823e39U, 0x3e09a8633da07fb9U, 0xbe9ddee9bdb87c8cU, 0xbe6463e03e264495U,
  0xbdd05ee0be1cb31dU, 0xbe7893c03d76892bU, 0xbec5405e3c3a9130U, 0xbc121728bd986ee6U,
  0xbe52546fbd2d4beeU, 0x3d82409e3e35b9a9U, 0xbcfcc8b93d450facU, 0x3d2c07763e52a5f2U,
  0x3b990a90bd4e1bafU, 0xbdd161f63d85a48dU, 0x3d58236e3e25abadU, 0x3b27b5a03c06e799U,
  0xbd85b2ad3dadcc5cU, 0x3d4d97e43de49c61U, 0xbd975c27bdb7ee9fU, 0x3e3d72ae3c96eff6U,
  0x3eb1fa893ce94e3cU, 0xbd314e3a3d2210e3U, 0xbd958feebab66809U, 0x3cb8eef43db83fdaU,
  0xbd69b362b9585c32U, 0x3cef50d5bd2edfafU, 0x3d1dad0c3be961daU, 0x3da8e781bbae5407U,
  0x3d500a3f3d901198U, 0x3d9177a6beb3e43cU, 0xbea584ed3c8b7525U, 0x3d4847c0bc8c701fU,
  0x3d5324ad3cb93225U, 0x3e1be5003c1e0c68U, 0xbd0040ba3df53b9aU, 0xbdb633173c7616f0U,
  0xbc0695b7bc6490baU, 0x3df09079bc198181U, 0xbcf44c093d3fa562U, 0x3d404e62be0f28c7U,
  0x3d1015163dc5e1e3U, 0x3b8bf041bc915ca4U, 0x3d025b5a3de2cb42U, 0x3b774b64bcc859f5U,
  0xbd8aad8dbe92c724U, 0xbd2a08a6bf10dc5eU, 0xbdb3393c3d2a6fc1U, 0x3e039e52beb324f0U,
  0x3c3cbaa7be153b07U, 0xbcec5da23de55639U, 0x3dd39522be2dc3c3U, 0xbe2a00043d4ffb84U,
  0xbe105674bd3c9696U, 0x3da903653dc69677U, 0xbe1fc8f4bdb80028U, 0xbd8c25d6be1f9e47U,
  0x3d73ff55bda4f711U, 0xbe9262a8bdbc86f1U, 0x3d0c688d3e55034aU, 0x3e752c5d3e7d8698U,
  0x3c1742a9bd9b8988U, 0xbe2f7730be3682d2U, 0xbe016049bceed83aU, 0x3d1c9c423d64b9d6U,
  0x3b7fe86c3e0ff904U, 0x3e25d6ae3b8cff8bU, 0xbdfc86cc3cc6b37fU, 0x3de8b52fbdabc01eU,
  0x3d4baca6be29b9daU, 0xbe4cc3fe3e00b81fU, 0xbc70097a3d96a0b3U, 0x3cf2322c3e396bbcU,
  0xbe6e9507be126674U, 0x3e1228ef3d50ebd3U, 0xbdaa4c55bd530dadU, 0x3dcd9cfcbe689c30U,
  0x3cf98127bd2f45aaU, 0xbe2c3b96bf11646bU, 0xbe3ac64dbe19932bU, 0x3da155ebbe11c5efU,
  0x3cfad9e43d9b9a30U, 0x3dfa79bf3dce84e8U, 0xbd34dcf83c8d574aU, 0x3d59f57abd80f9a8U,
  0xbdb50c15bad92e20U, 0x3d2927b7be4f1882U, 0xbe76571d3c822b6dU, 0xbd5c034bbe5e11a9U,
  0x3b0d6d023d7e7757U, 0x3dc20f1a3c441fc0U, 0xbd93c8d7bd9e7770U, 0x3dbdfe05be4f7641U,
  0xbd55ba48beb57a76U, 0xbd8dc254bea3a98fU, 0xbcde30533d51fc0cU, 0x3db1b09ebdd240b7U,
  0xbd38a3113de2bbcbU, 0x3bdf94843dff15dfU, 0x3dabb44dbe1c2671U, 0xbd2aa840bdd93f63U,
  0xbe8cfc603d29c4b2U, 0x3e099bfabe4b9b41U, 0xbea7398abc5b0feeU, 0xbd7cb7e63dc75ebbU,
  0x3e21d9743d9c98f1U, 0xbe1be122be86685dU, 0xbcb76021bb8a0abfU, 0x3e5782773dd80716U,
  0x3e13064e3d5f974bU, 0x3d1375bcbed851c0U, 0xbedaa6c43d91b55bU, 0x3e228dd83da891acU,
  0x3d6908df3e16b592U, 0xbe8a41513e02e65dU, 0xbebdc0f0bdc91dfdU, 0x3dde1957be4eafffU,
  0x3d274312be69d308U, 0xbeb2341abeb79cf6U, 0xbdad16f3be3a4b5fU, 0x3d24826a3d1d6ce4U,
  0xbe1f33b2bd0d1303U, 0x3e23ea293bd44b9dU, 0xbc144e56bec42660U, 0x3d4ba8eb3e506d3bU,
  0xbdaf3da93cf87076U, 0xbd2bc938be60a9eeU, 0x3e5745ddbe7a70a3U, 0x3e457fb3be921601U,
  0x3d9744593e09e1feU, 0xbe4cba3f3e16cc15U, 0xbc423a4ebd6bd015U, 0x3af0369b3d89c5b6U,
  0xb9b0c30f3cc1b721U, 0x3ca67bb2bbfbaaaaU, 0xbe81be4dbd18dd3eU, 0xbd381b26be4e1389U,
  0xbcb30dac3d7adc0aU, 0xbe222330be8fedf8U, 0x3dc5029cbdde8b49U, 0x3e655782bdb9abadU,
  0x3db3e0f6be6c2d88U, 0x3d98feb73c7281ddU, 0xbde5d3a9beba123cU, 0x3e2590c3bea3bffbU,
  0x3deebdaa3e006323U, 0xbde9cfcc3e0fe62eU, 0x3e292452bd9aeeefU, 0x3e31f571be4060c6U,
  0xbdc8a1d23cb43daeU, 0x3e4ceb0abde19d7dU, 0xbe48f377be127bdcU, 0xbd8bbcdbbdaa5789U,
  0x3df88747bd241a01U, 0xbf1b2a3fbddae219U, 0x3ccf93cdbe123baaU, 0x3e284fc13c27df9bU,
  0xbe66378c3b3b4de4U, 0xbe8cc744be8050ceU, 0x3d1bfef5be9f2017U, 0xbc1c5241be44169cU,
  0xbd8a4d0ebe3663d3U, 0x3c81596bbcf9e92dU, 0xbd44ef733c27d34aU, 0xbe77af4dbe12bd65U,
  0xbe537203bddc54ecU, 0xbdd9d6b5be55a1e4U, 0xbe96ec3f3e0faf31U, 0xbc9a72543d1cfdf8U,
  0xbd12f200bde29242U, 0xbdee8475bdf4f4b2U, 0xbda6dfc4bd4b0344U, 0xbdd668bebdc5ef06U,
  0xbe593994bd0d06f0U, 0xbf2a02a6bf0658f7U, 0xbe73bbf3be688387U, 0xbd70d67f3d1f5feeU,
  0x3c2fe0c9bd8c8c7bU, 0x3d4f5f3f3cf1cc2aU, 0xbda2eafe3db37067U, 0xbd537691bc0e449cU,
  0x3cc10360be0de842U, 0xbbb36edbbe6830f6U, 0xbe3390113c845a94U, 0xbd0d2bf63e0629a5U,
  0x3dc45276bcf01835U, 0xbe307d74bedce687U, 0xbca73d3cbcba4b4dU, 0xbda0e90ebe200178U,
  0xbe9b567bbe1cacbbU, 0xbf25db2dbda973cdU, 0xbd80d437bdc858bcU, 0xbe6fd6da3dad5b7bU,
  0xbe5f9c0f3c934e49U, 0x3d5e70fdbc110cbeU, 0x3d59ed473e077581U, 0xbf0e6534bd2b0890U,
  0x3dfa7134bc0f6363U, 0xbd8c794f3dd79fabU, 0x3e4396e43e2029d0U, 0x3c74f580bc834da7U,
  0xbe1a9e76bd5b1dd9U, 0x3d9ade71be8b93e7U, 0xbb6027a4bd4b2459U, 0xbe1191bebe370e00U,
  0xbd3fad2bbd0aa9cfU, 0xbda7f3933d3ebccdU, 0x3dff09b0bdf28470U, 0x3e0bdee23e3a3cccU,
  0x3d34092d3e14a6ccU, 0xbdb6b1b4bc8e6a30U, 0xbdcdbd85bc9499bfU, 0x3d51d013be4c3207U,
  0xbd613b67bdaf99b3U, 0xbda09655be4bbd31U, 0xbe02d9aebdc1e781U, 0x3d490f2abd9cc829U,
  0xbcae963fbca7a626U, 0x3d159014bd2e8fbbU, 0xbd4658b63dd9beadU, 0xbc70a9823c69ed3eU,
  0xbb8d78573e8199c6U, 0xbd9aef3ebe3204ddU, 0xbe0aa53bbc020fb7U, 0x3d35598b3dd805abU,
  0x3dea20fd3dcc068eU, 0x3dc4a0033c923dabU, 0x3d6125433dce2f12U, 0x3df79b0d3dd8112fU,
  0x3d5aca77bd18bea8U, 0x3d800518be316a6dU, 0x3e95ff81be9bcc68U, 0xbd212e70be4cee2dU,
  0xbcc129ed3d1a0697U, 0x3e192bb5bdd05077U, 0xbcb63a033db16869U, 0x3de288993dfbd833U,
  0xbe984b03bd98be9cU, 0xbefb54a83d9fc667U, 0xbd0c03d53daf4cf4U, 0xbe0c627f3dc498b4U,
  0xbec0f9803e6662fcU, 0x3c7a3049be1089edU, 0x3e469319bda3f7b3U, 0xbe48b9cbbd38e747U,
  0x3ea0f5563c808215U, 0x3de86198bd81304dU, 0x3ed6c8dabe0b799fU, 0xbd8047e6bccc029bU,
  0x3dae82eabd831dcbU, 0xbe925e39bf0eff04U, 0xbe741110bd9452d8U, 0xbe26a9af3dab5c5aU,
  0xbdafd80d3cee042aU, 0xbd562cd4bdca8b89U, 0xbd24702cbd019432U, 0x3d505aa3bccb07fcU,
  0xbd3f42133e53c98bU, 0x3d2b5f19bd0c56e7U, 0x3bf0f5c83dc8b35cU, 0x3e2f5e9dbd6e75b0U,
  0x3e340cebbe2ef046U, 0x390f44a7bc858277U, 0x3d3d69293d6ac786U, 0xbd945a733d588335U,
  0x3b26a75a3debd137U, 0x3c4c787c3d70c382U, 0xbd7d6eedbe68c27bU, 0x3e0bd49fbe801ee2U,
  0xbc2dbdeb3e3540d7U, 0xbe4e6557be46fc3bU, 0x3cd4c3333e81d930U, 0x3e08cf3a3deb4922U,
  0x3e105beb3e87135dU, 0xbd3178d23d991e78U, 0x3bc4ff273da72ee7U, 0x3db05a953db121cfU,
  0x3e0651083ddb3cf3U, 0x3d0b7c523d5e24b8U, 0x3eab74f43d33a889U, 0xbccb97003db4ece6U,
  0x3d1c445d3e0b2c96U, 0xbe2e8b63bdd62ae3U, 0xbcb0315ebe667d41U, 0x3e2c4790bd69bb9aU,
  0xbda5e8a6be3e8b07U, 0x3b8ec09b3cc0b58eU, 0x3dac2375bd945aaeU, 0xbdad2ab3bce69eb1U,
  0xbd999fdcbe2e121bU, 0xbd9ab7bd3d675a2eU, 0xbdc02ef83e2abc34U, 0x3d150b5dbe2da8bdU,
  0x3e579ad23712d2ccU, 0x3dd8fed0be05aaa2U, 0x3e9b6cb6be81628aU, 0xbbcd6f80be967b2eU,
  0xbde8837bbdae92dbU, 0xbe1c6426be7d6af8U, 0xbe613ae5bd258ac2U, 0xbd5197ee3caa20a0U,
  0xbd108993be86f49cU, 0xbc9c21dbbc170233U, 0xbe3fb829be3ca9c7U, 0x3cb1ffba3d620815U,
  0xbd224fb1bd97cd5dU, 0xbe76a05fbd7475a6U, 0x3ba4cbebbe46c3fcU, 0x3c0c8bbbbd80d32dU,
  0xbe4154c1be0207edU, 0xbd6d1108bebc654dU, 0xbd18bf0abec8a284U, 0x38d9c000be991c1fU,
  0xbbd0bc6fbdf15ffbU, 0x3c9ba5163d581ceaU, 0xbe0432e83d57d4c1U, 0xbd37e8d9bdf3b107U,
  0xbd0c8b79bd895151U, 0xbd92951abd68aed1U, 0x3e0fd28abe547fe5U, 0xbd096d5cbdfd40b2U,
  0xbe16d5323d3b09f8U, 0xbdb83b183cf9447bU, 0xbdc1b440bdbf9657U, 0xbdc773b33cf33915U,
  0xbda1b8d53d702465U, 0x3d0a86ebbd3a3b06U, 0xbdcbfa77bdfe2096U, 0x3d3bb45abdc40cedU,
  0xbd935b2f3d71ad77U, 0xbd0f2cb5be24a623U, 0xbccf193f3e05eaf1U, 0x3d85ea8cbe3775c1U,
  0xbd9a016ebd85864dU, 0xbcf77daa3da23fe5U, 0x3d16105dbea0d9f0U, 0x3d26ec7f3d9e3879U,
  0xbdd9d104bd999e2dU, 0x3cd9cd4dbd78664fU, 0x3de6c633bd940663U, 0x3c5e3ec33d1bdd6fU,
  0x3d9e01773db78d68U, 0x3d415e693dd2637fU, 0xbdbee7fb3cacacebU, 0xba836000bd29bfefU,
  0x3e13c698be151d47U, 0xbb3fc0b53d81b3d3U, 0x3bc100753d998d15U, 0x3d68cc4abe27751aU,
  0xbe373a8abd981eafU, 0x3ddec1903eb812dcU, 0x3d874a99be158c3eU, 0x3d6cca383d8b3227U,
  0x3ca273c53d8fbd86U, 0x3e447a72bd12e3c1U, 0xbde0bdcebcff9e35U, 0x3dfab0bb3de3aa25U,
  0x3df6a3ddbd298161U, 0xbd2e77b33e18d7bbU, 0x3e97672e3e915cfbU, 0x3d01a2f03d6a4350U,
  0x3df5afeabde9ecd5U, 0x3e9eeb923ea7a65fU, 0xbe18ae363e9ecae5U, 0x3cd9916dbe0dec71U,
  0x3e039d6dbdb671c5U, 0x3d9b6c563ea44908U, 0x3d3253e3bd967773U, 0xbd46e9d73e395a7fU,
  0xbd972c4bbe3a02e9U, 0x3db7c9773d45a853U, 0x3cb6a4c83cb86f75U, 0xbc61f7383e363c37U,
  0xbccd99c93d321dd9U, 0xbd37fca53e03f111U, 0xbe5fb9613e5dff36U, 0xbd43f0763e0d73f3U,
  0xbe2b1a793dda17f8U, 0x3dd2ab593e6c7dc7U, 0x3d9b8e0d3e9e0ef7U, 0x3d90bd303d306006U,
  0xbdca0e013c0175c0U, 0xbe28a7083d8eea47U, 0x3d9c24a13d6dcdefU, 0xbe00d8d53d67ad93U,
  0x3d6e3dedbc7fa3c8U, 0x3cd0076dbc59f28cU, 0x3e27cebe3ad37ec0U, 0xbc030c8f3da8cfe0U,
  0xbcb765983c6a0120U, 0x3dd6722dbe1167bdU, 0xbdaa7b583da50f8cU, 0x39aa63003ddafffbU,
  0x3dca22e33c76e776U, 0x3d2b3f933e58a40eU, 0x3d9ab87d3d1eac21U, 0xbd87a58a3b606558U,
  0xbe2b4663bdaa6796U, 0xbda47cd4bcef650fU, 0x3dadbd4f3de6f20eU, 0xbe9be7983e5a8a25U,
  0xbe00d76e3e1943d0U, 0x3d29488cbe248c9eU, 0x3d0fe5053e8658f3U, 0xbddcb34c3cc65e51U,
  0x3e8d5a40bdc71a81U, 0xbe68090ebd25c7faU, 0x3d5184803e323da4U, 0x3d6a08b63e03d18eU,
  0xbccbb4b5bd998699U, 0x3eb8efc2be3e8de6U, 0xbe7659a73db590e0U, 0xbe17afc5be4ccb9cU,
  0xbe1b5a1c3cf40b69U, 0x3c86664dbbab3c44U, 0xbdb63ff6bd099299U, 0xbd9221ce3e7340faU,
  0xbd73eb66bbadda5dU, 0xbe2358d9be2f77b4U, 0xbe0985d93cac0b6bU, 0x3dac6ff3be1f5f2aU,
  0x3d3715d2bd4b6d11U, 0xbe5b7cccbcf431f5U, 0x3d6f06903cb2e32dU, 0x3d9e8add3dc723dbU,
  0xbd9b5b173dbe30ffU, 0x3e8e99653e424f45U, 0xbbb654edbcd839dbU, 0xbe10a48cbc4fc593U,
  0x3e18f8e43e1e5c37U, 0xbcd8f936bc9ef34cU, 0x3e49ccca3db67f4bU, 0xbd822f843dba20e8U,
  0xbb99c0463d8d0941U, 0xbe4aa7ff3cc9eb1eU, 0xbdc6ced4bd290f92U, 0x3dfdd53f3d90ca5aU,
  0xbe199d613dbc8c1eU, 0x3e440be23e3919e3U, 0x3de40f48be4e3e4bU, 0xbb3e2200be08dc2cU,
  0x3c0ab03fbc93667eU, 0x3d8d4cf83e1a0928U, 0xbda52bf1bdcac0bbU, 0xbd544f113d80efbbU,
  0x3ebc18423dfefcf0U, 0x3e32fb2abe14e6deU, 0xbecba4d03e7a59b5U, 0xbc54f404bdbc5c1fU,
  0xbd9fe05bbe3de14fU, 0x3e0fa8cc3bb6e77fU, 0xbd8e2b18bd032b56U, 0xbd6270e6be2d83fcU,
  0xbda79c09bd8a2518U, 0xbe262b3a3e945483U, 0xbdb2bc473e4b8107U, 0xbc2d14e83e055180U,
  0xbe401e6a3da413f0U, 0xbd461f53bd92c3a7U, 0x3d9177403df13d56U, 0x3da7fffc3e8b44bfU,
  0x3e0afb483c5dfab1U, 0x3dcde6a23c937dabU, 0xbd723cf93e57f856U, 0x3d9d1deb3e50181dU,
  0x3d893e223b35eeeeU, 0x3d7f1e823c44f311U, 0xbdc648503d050b81U, 0xbdf6cce6bd7e9458U,
  0xbd6367903daa58dfU, 0xbca95ed7bd4afd20U, 0xbd21ad2d3dfefaf6U, 0xbd7bf1563e329a3fU,
  0x3cd1e10bbd6f9703U, 0xbec0c1fdbdea6e4fU, 0x3c677e48bdafa307U, 0x3d0ffaef3e38b33eU,
  0xbe4cdc4cbd81a0f7U, 0xbe87251a3e44f702U, 0x3e2807363e05ac1eU, 0xbde0ab19bc87c367U,
  0xbeb243bfbd4eab61U, 0xbe62ecd63bef5da3U, 0x3db0c934bdaf8685U, 0xbe4a1836be3237acU,
  0x3e297b843cc23667U, 0x3d92be973d14839fU, 0x3ec91664beac6172U, 0xbc8a552cbeb43dcfU,
  0x3d9c17b23d6e3513U, 0xbeba64afbd734ee3U, 0xbe6904b23c328af4U, 0xbe1c19c13d7580f6U,
  0xbe22f291be82413eU, 0xbe8cc38dbed88b1bU, 0xbe072fe7be434b7fU, 0xbd86575abe5d713fU,
  0xbded6bc1be830e94U, 0xbe2671843b95869fU, 0xbe6f1835be5320beU, 0xbe18e5ddbdd273baU,
  0xbd16804b3db178caU, 0x3c49992bbeaa9ff9U, 0xbe369f1dbd02e9a9U, 0xbd2c2aa0be5a7761U,
  0xbc578e623d43fd19U, 0x3cac360ebd93e521U, 0xbdaa5bbabda0b45dU, 0xbd844a85bea836aeU,
  0xbe173cb73c3ae9f2U, 0xbe278fe7bdeccbc9U, 0xbcc2fa3c3dcc9af3U, 0x3db262bcbd216c59U,
  0x3c9c288cbd0b0b53U, 0xbc4f8a503c30c266U, 0xbe170273be01d0f6U, 0x3d6550683e370111U,
  0xbdb3499fbbeb37bbU, 0xbd1af87abb09d2a0U, 0xbd955f4dbd336ccdU, 0x3c5d1b00bd3c069fU,
  0x3c42e56d3d78ea7fU, 0xbe4d7fa6bd852f39U, 0xbc45a5223da1c673U, 0xbc8a48a23d02c3b5U,
  0xbec4a567bdf4204aU, 0xbef234683eae4535U, 0x3e9872003e574aadU, 0xbe2ffec23db3a0edU,
  0xbdc9a59a3b0800a0U, 0xbe40f246bcaec520U, 0x3e4752493e00f2c2U, 0xbd1e626a3bfdee70U,
  0x3ea8e7893d4b635cU, 0x3c6001283d9e95d6U, 0x3f017bb3be69b625U, 0xbd241c0bbe5322bcU,
  0x3c73f6a23d36652fU, 0xbe7f4246bda67a81U, 0xbe0a6fcb3e513226U, 0xbe18062f3cd7212fU,
  0x3cffdcf6be86630eU, 0xbd31680bbd16d989U, 0xbcbfcae6bd213abbU, 0xbccaf148bdb92249U,
  0xbd851e05bdd2d5ceU, 0xbe4cd81bbd87275bU, 0xbc5eab63bd17ec68U, 0xba547eafbe08babbU,
  0xbe25d81d3b6648eeU, 0xbca3780bbe3b6251U, 0xbe33257abe559678U, 0xbd8e9538be0075e5U,
  0x3de7a0ffbdcb722fU, 0xbd3d50cf3b1ff45dU, 0x3de811983ca1594bU, 0xbcf37cacbd8dbcd8U,
  0x3d50dcc73d153d45U, 0xbe33810dbb814363U, 0xbe5784f9baeef59cU, 0x3cd726553ded8d78U,
  0xbd07a4ffbd2c8a68U, 0xbdd2bdeebd3a19e5U, 0xbe3dafadbe56ea2eU, 0x3d4da7603db6ad68U,
  0xbe103bebbdd09dbbU, 0xbdd832cbbdd5d355U, 0xbd588f31bd89f842U, 0xbd9060b8bdff2769U,
  0xbd8444ff3e026be5U, 0x3c2084b538fee871U, 0x3de90b0dbe50af0bU, 0x3c3794e7bcaf8840U,
  0xbdac9d87bcef7d29U, 0xbe2ba7203e28e480U, 0x3e0537eb3e014080U, 0xbe1d70f83e018b8fU,
  0xbe823dfabdde0295U, 0xbdd983993db53188U, 0xbdc8a5aabe2ef81fU, 0x3d67e964bd2638f7U,
  0x3e0f4171bd8c2156U, 0x3d84c56b3e19b9ceU, 0x3e953a68bda3f152U, 0xbd82838bbc1c371eU,
  0x3d0320a9bdb0d89bU, 0x3c53a7e0be04ee97U, 0xbec16a223cc69a8bU, 0xbe017766be02ce5cU,
  0xbf02c0b73d50551eU, 0xbf35d90fbe8779f7U, 0xbd503321bd456ed3U, 0xbe6e3db5bdf47d46U,
  0xbc7d91c23e56968fU, 0xbbc1b7a5bdea963fU, 0x3c622e603e2982d8U, 0x3c94573cbd2c819bU,
  0x3d83ef5e3d21b838U, 0xbd1bf0763d8dd43bU, 0xbd3d45b73d9b12bdU, 0xbce5e16cbd5a5c89U,
  0x3b5a7c81bd640fd2U, 0xbdc69355be2c4f3aU, 0xbe658a70bce1113aU, 0xbd207c60be6cc557U,
  0xbe46fe243e643392U, 0xbd8bda45be5869f4U, 0x3dc79710bdfdefa9U, 0x3de8ecf63ccadbaeU,
  0x3e4bbf283e10e3baU, 0x3e2765a23dde4e54U, 0xbde7ff3d3e3dd467U, 0x3d14baa83d3005bdU,
  0x3de495653d2bfe06U, 0x3d3dadb53d7d85beU, 0xbd40f14b3e510452U, 0x3bc3d1b03e476ea3U,
  0xbca25f1d3d0cb416U, 0x3df605cc3cd15a6bU, 0xbdee83833d80cd52U, 0x3d560a26bd8e4223U,
  0x3d9b83e93d26728bU, 0x3d60a2da3e197e9bU, 0xbd8b6080bd6838d3U, 0x3da3eb403e56f370U,
  0x3d823356bd93dd81U, 0x3e146b233d9ac698U, 0x3d09320fbda7fc0cU, 0xbdc2b6e13d71da91U,
  0x3e0b6f683d880334U, 0x3e4c3e5e3e16f2f2U, 0x3e1a250ebd0ee1aeU, 0xbd4cd67bbd5eb053U,
  0x3e23ebbcbc43d10bU, 0xbb6b2c4a3dca6e3fU, 0xbdd3ded5bd75e695U, 0x3d83c4153d93fab5U,
  0xbea5fdcdbc2eaa79U, 0xbe8c8cbdbd81235eU, 0xbe26c8b3bd9a803eU, 0xbe3dcfddbec2f3cdU,
  0xbe8477613e014f6cU, 0xbe2bc4fb3cae483dU, 0x3dbf60babe9261fbU, 0xbc94a25cbdccab6cU,
  0xbe3a14013cc12c0dU, 0x3d28a74cbdbb463bU, 0x3c8bf515be932b38U, 0xbced08a0be831951U,
  0x3dbc7472bcb5e9c9U, 0xbed5c994be5fefdeU, 0xbe308a9cbe3db2e5U, 0xbe371a75bd58add7U,
  0xbe3b2eaa3dbf70bdU, 0xbe85b165bebcc50aU, 0xbd51db6abe103287U, 0xbd9a8ffcbe4fb5c7U,
  0xbbed9af93e4b488cU, 0xbcb4327ebdc16df0U, 0xbe50852b3c8aa32aU, 0xbdb39ebabe076aa4U,
  0xbdcfa0273c99a784U, 0x3c9bde073d40e211U, 0xbd31d3d03deb3990U, 0xbcac5b2c3db54ca6U,
  0x3daec537bd6e21ddU, 0xbd2b899abe807f21U, 0xbe24a8a9bec50ca0U, 0xbdae83f8bead9e1cU,
  0x3e224e32bd5a3170U, 0xbe762190bcd21e5eU, 0x3d8eb275be68b905U, 0xbc7b34343d6e00c9U,
  0x3ce9bc1abd387b8cU, 0x3d8c5dcfbe173faeU, 0x3e25d4503ccda756U, 0xbe862c803d37fd33U,
  0x3d3512443e121dfaU, 0x3dc65a3f3c1c927eU, 0x3dd476de3e2f01c9U, 0xbd771ab6bcfb98fbU,
  0x3da521743d98c209U, 0x3ce8e564bc3cbc61U, 0xbd926e703cf7dc99U, 0xbda44d7fbdc5bfc9U,
  0xbe6895d1bd511964U, 0xbd416494bd5a81caU, 0xbdcec4c53e06edf8U, 0xbdbbe53bbd2a6951U,
  0xbe94b61cbc374bb5U, 0xbd870b7e3da81d48U, 0x3e1cddf2be8a3056U, 0xbe5d5d53bda1b9cfU,
  0x3d407be83e20d86aU, 0x3d4448babdb84ebbU, 0x3dfe62b2be2a0804U, 0x3daa0d5dbe248202U,
  0x3e4f91febdc2a71aU, 0xbf04dd8dbe4f2d96U, 0xbe815235bd81c66dU, 0xbda9bc1d3e42d372U,
  0xbed03e133e5cd2feU, 0xbe2672a4be2cb75cU, 0x3d1ec3533da77d94U, 0xbed8ee423dc1ce82U,
  0xbeb93aea3d4fed59U, 0x3e08a8b1be3b2639U, 0xbbae9a8d3d851d8aU, 0xbee5b102be67ae0dU,
  0xbcdf398ebc72790eU, 0x3c0a17ba3e7b6711U, 0xbdce510b3dd638ecU, 0xbd9b13183e0b7a01U,
  0x3d268030bdd7d9ebU, 0x3de00d29be3d4a4eU, 0xbe5014d2beace90fU, 0xbe80f59c3e0544c5U,
  0xbea07b3bbd3e7038U, 0xbe3ac6ee3e922dc0U, 0x3c16e0233d8a1d47U, 0xbeefc3213e90084dU,
  0xbe20b181be55c920U, 0x3c0e5b81be89f3eeU, 0xbee3cf9bbc878913U, 0xbe4a8f1abe97c647U,
  0xbe4c0483bd830775U, 0x3d48440ebe0a53d2U, 0xbe9cdfcebd8fa2a7U, 0xbd787abbbd8d9e66U,
  0xbdb59996be30725dU, 0xbcfdeb083e1fcab6U, 0xbf01219c3de011ceU, 0xbed8bcf43da7842bU,
  0xbdd991983d91fe88U, 0xbe44d578be82581aU, 0xbb1d0850be2781d7U, 0x3d4ed83dbdaf3ab1U,
  0x3daf41a23dfe1c04U, 0xbdf7fce03c97ec63U, 0xbe18f108bdc291d6U, 0xbd898d2ebce3c9adU,
  0xbe54a493bcd1f5f5U, 0x3cbc1f9cbe053a03U, 0xbe8e1f65be71a687U, 0x3d2b693abe899765U,
  0x3dcab6783dbc5b73U, 0xbdc9a670be55f263U, 0x3dd51ed8bd1eac81U, 0x3d41e010bd946a1eU,
  0xbd402d6ebcfbb863U, 0xbde2a2f03e8649bcU, 0x3d6bcb68bcb05028U, 0xbe609f2c3e264924U,
  0xbe522074bd91f3bcU, 0xbdeca064bddb5872U, 0x3d63bf75be4ee982U, 0xbdce5a28bdccc488U,
  0x3e698049bbf12d0bU, 0x3e2cd9db3ddc9947U, 0x3e959788bd88ba4fU, 0x3d91c061be507cb1U,
  0x3df3f1743daf30b6U, 0xbe68b81fbcede3beU, 0x38a1e00f3d8f3d57U, 0xbd787c8b3cc13f90U,
  0x3d53e0243c8fea67U, 0x3e536dd0be89a1b9U, 0xbe14233ebe50b0a7U, 0x3db445e3be0ccefeU,
  0xbc0e7f743dd3c26aU, 0x3adc5cadbd665964U, 0xbe03cf3ebd0dc70fU, 0x3ce03275bcd02a68U,
  0x3e0f48e0be3f91d3U, 0xbe2bcd6b3d2f5464U, 0x3cc1f2d5be24e284U, 0xbda213aebe245eecU,
  0xbe2b2321bda84b19U, 0xbc92e0e93d36caf2U, 0x3d861c153bc1a2a2U, 0xbd9c8fd8bbe87db1U,
  0x3d250336bce0fa39U, 0xbdad66183eca1ae8U, 0x3e3aff1cbe9ed910U, 0x3c6533babe307f80U,
  0xbd58e3eebb1b38bfU, 0xbe782ab03ac40a6fU, 0x3d9f2cafbe1b70e6U, 0x3d080f023d95ec38U,
  0xb924b0053d08501dU, 0x3dca32793dd0376fU, 0xbdfd05c0bdb22570U, 0x3d87f661be030045U,
  0x3d8173d0bd0e8878U, 0xbe82f640bcea1410U, 0x3d88eed3bb4db367U, 0x3dd1c78cbe886232U,
  0x3aebfd403ceceed7U, 0xbe9ca4fc3d88db40U, 0x3db68ea9be8b9211U, 0xbe06f57cbcd2fdf2U,
  0xbdcb115b3ce543bfU, 0xbd9c459cbe4bd07fU, 0xbe6c5c483b6f0263U, 0xbdb0ad61bd113674U,
  0x3e831f48bcb79947U, 0x3cdf5cbc3e0eee75U, 0x3dec7f2bbdee1a8cU, 0x3cfc7a00bd769a11U,
  0x3cdf7a5f3cc226f9U, 0xbe4906243deba916U, 0xbe14ac663e2c2e33U, 0xbe24c77ebedfec17U,
  0xbc09c6eabd1c31a5U, 0xbc80fc09be37243bU, 0x3d514686be02aa4aU, 0xbe416ccbbe8a405aU,
  0xbdd4c9a4bca1f97eU, 0xbe1fc8a13c4d13daU, 0x3dc5aeedbda21786U, 0xbd8eec113cee2bacU,
  0x3e161ffd3cb816e3U, 0xbe039d3f3d161225U, 0xbe5731693dae1877U, 0xbd4c1c5b3dd6b0deU,
  0xbe95f60d3d81d093U, 0xbe86c045be0d2918U, 0x3d5cf14fbe27f738U, 0xbdabbef63d9bc468U,
  0xbddd0fa6be1c6540U, 0xbdae54e83ea59b60U, 0x3dbf5ec7bb99bfb4U, 0xbdaef1323dd296aaU,
  0xbe51d676be490159U, 0xbe0f90e8be283ac1U, 0xbab45ba9be5d21c6U, 0xbc142f55bdabc071U,
  0x3e9cad403dd759e3U, 0xbd9675643a181b6eU, 0x3d6738313e04b1eeU, 0x3d6a7e323e51e03aU,
  0x3dc21ba9bdc29ffdU, 0x3d14e8de3e644217U, 0xbcb04c0e3d0f6c92U, 0xbe248c53bddcdc96U,
  0xbe3a1d59bd1ae713U, 0xbdd7ca94be6297d4U, 0xbd90489ebdb58bb2U, 0xbe0e17d33dba419fU,
  0xbe05ddf73b08396aU, 0xbe2a57fcbe418052U, 0xbe0ec505bc68c4abU, 0x3d9beb05bdc1bd34U,
  0xbda5de15bdce550aU, 0xbdec3a63ba98d33aU, 0xbc9da893bdd6f60fU, 0xbd6730cbbe288056U,
  0xbe1bc57b3d6d249fU, 0xbd60f411bd7f245dU, 0xbcc2e3b7bd21310aU, 0xbdd5a554be27ec9eU,
  0xbe25e4fcbe225fbcU, 0x3d016f6ebc35811eU, 0xbd522791be35cb1aU, 0x3d0727f13d5f0c14U,
  0x3e06fa15bda52d4cU, 0xbd9f73fcbc8717a0U, 0xb91f32843d80fcd5U, 0x3df007d8bdc403b2U,
  0xbe24830a3d314ab5U, 0xbe37dd993c141a91U, 0xbd517a47be552cd3U, 0xbd92b878be31e448U,
  0xbd71a6083c9caf74U, 0x3e1810923e5de814U, 0xbcd0406d3d19b63dU, 0xbe009928bc99c215U,
  0xbadacf9f3d83c477U, 0x3e3f909d3dc84814U, 0xbcd9850ebdfd41feU, 0x3da480debe1697acU,
  0x3d4241f23dca28a3U, 0x3cdcf2513c65f21bU, 0x3e937952bd2a0e35U, 0x3e98a195bd9c82a6U,
  0x3ec92028be06e247U, 0xbd97f3053e83efe1U, 0x3ea04827bd9a776fU, 0x3cdd11ec3e1fce45U,
  0xbdefb84a3d9a1866U, 0x3f139a1a3eff4223U, 0x3bc414b3bcd268aaU, 0xbd7a10febd2b75daU,
  0x3d3041f53e245979U, 0xbc818c7e3d276776U, 0xbcaa9e04be8b1720U, 0xbc820ce73ceca4b5U,
  0x3dacb1e5bddac0c0U, 0x3d08d1203e0855c5U, 0xbe02c1bd3d489313U, 0x3d8d80823d6b9163U,
  0x3c3202fa3d5a55d5U, 0x3c9d7c0c3d815f68U, 0xbdb0f70abdd5c845U, 0x3da9afb93d8b3a75U,
  0xbd130b653ddd4d19U, 0x3e22b47d3e250e0dU, 0x3d51e5cf3c855861U, 0x3d2517d2be303a72U,
  0x3dd12dfa3dc37634U, 0xbbbcab523e3f7921U, 0x3e598787be6e7e93U, 0x3e0a5ac33ce91368U,
  0x3dd3d2b0bdcdcb65U, 0x3e386259bcd56727U, 0xbd6cb3103e3f1172U, 0xbd7856633ebd82c8U,
  0x3e21384b3e2400f7U, 0x3e14d7c33e89e849U, 0x3df1d1acbd4d187cU, 0x3d8e3a793c53e63fU,
  0x3e136dbd3aaaefc3U, 0x3e1d49493e311482U, 0xbd0870553e72aaf5U, 0x3da9d71cbe6d33b5U,
  0x3c9f2a4bbd084cddU, 0x3e1de9383e52e219U, 0x3e5dd92abe1b4394U, 0xbc8ec659be30391fU,
  0x3d2e923e3c75e0d0U, 0x3d14cac43d28d6e4U, 0xbdff61adbd8ad6f4U, 0x3e8e43dcbdb7f732U,
  0x3e086145bdd3d91aU, 0xbceb57503bed94acU, 0x3ddc4b5fbd9bc6baU, 0xbc93e6ccbc59d788U,
  0x3d0d25dc3dccff19U, 0x3e9c1ea43d4aac26U, 0xbca8d94a3e48a1cdU, 0x3da175bbbe636157U,
  0xbb1ef1cc3e07437cU, 0x3e6d39733eaae5faU, 0x3e638b5cbe8b8848U, 0xbdd238fc3de0bbffU,
  0xbd680e27be83a010U, 0x3e5418153d666846U, 0xbdd278733d83bf51U, 0x3dc33a913c55c34aU,
  0x3db474c63d1481a7U, 0xbd1df0d13e3d26caU, 0x3c9b7f4dbcb0de56U, 0xbd86599e3bed1497U,
  0x3d38e4c83d78f9a9U, 0x3e99b7b23ea5c866U, 0x3dbc0f0c3e47c87bU, 0xbba25cf1be8432baU,
  0xbd82b0dbbe0f539cU, 0xbd9b9ae13ee4bfffU, 0x3eb90800be90f5daU, 0xbbe550ee3e20b1eaU,
  0x3d73091fbe428a78U, 0x3e549dc03c9f4508U, 0x3d0608493d924077U, 0x3d86a5b13d1b759dU,
  0x3ea44d5e3d27c516U, 0x3d8dbb0e3dd81d98U, 0xbe12056d3e1ca20eU, 0x3d5c89a63e5686b2U,
  0x3d8095803dbab026U, 0x3e8626aa3dffc9e9U, 0x3e60b7b83e8d9e04U, 0x3db7941fbea30fe1U,
  0x3c629e893e075f39U, 0x3e86e66d3eb17f1fU, 0x3e803a26bd41d301U, 0x3ded15093a273b4aU,
  0x3d8cd226bd7f7b43U, 0x3e1b57013b5f859eU, 0x3d9b79ddbd1a4caaU, 0xbdcda6203ca962abU,
  0x3db82996bd0f8b9bU, 0x3d786bb13e04e3fcU, 0x3dd46cc23d682e1aU, 0x3d265f1a3d4210caU,
  0xbc3416303d10f9f4U, 0x3e29dbf13e12e58aU, 0x3d61467e3e9b3110U, 0x3d8970b2be2bb3e6U,
  0xbb6b4e34bdc823a4U, 0xbd96be3d3edc6695U, 0x3eb41f463cda4c51U, 0x3cbaddf73e77fd3aU,
  0x3d1f1166be4b4445U, 0x3e5ba5ba3d287fe9U, 0x3e00757abd67d0feU, 0xbcf01fa33dc3abc7U,
  0x3e4609873d5d5f46U, 0x3bd561483dee40bcU, 0x3dc6844f3e3b2bf2U, 0x3d84751b3e6afb6fU,
  0xbca4c3083c9a2e89U, 0x3e9ff9d73e1155c0U, 0x3de5aeba3e8beedfU, 0x3d0ce04f3ca1e768U,
  0xbdefcc39bdee2f5bU, 0xbd1215843ed8a168U, 0x3e957940bb057ec7U, 0x3e05c7793e80b4dcU,
  0xba21d9c13deea7d8U, 0xbe5e61fb3da444adU, 0x3e9ff6773d5fb23cU, 0x3e8ab62abd1c1c2dU,
  0x3e856a3f3ded9207U, 0x3e047c10bdcfe05fU, 0x3e03f4fdbe16f36aU, 0x3d8005833cdaec9eU,
  0x3d420f203d3cfd56U, 0x3e5f11363eccd15eU, 0x3e67f9d43dda6d30U, 0xbcd0b5a7bdeeac73U,
  0x3e503fe33d456d2cU, 0x3eb21c1dbe8c29f9U, 0x3d981e53bdaab2ecU, 0x3deb46abbe6fe827U,
  0x3d50fbff3e2c34b8U, 0x3d73abe4bd99783cU, 0xbc9e84d3ba5bda6bU, 0x3e95b0ef3e041021U,
  0x3d29df3fbe00ddc3U, 0xbde191de3d18f4e3U, 0x3d9d9eba3db0af70U, 0x3da509813e09e522U,
  0xbd795b4bbb8ffa76U, 0x3e95ca19bb41b232U, 0xbe3ef4883d3ccb21U, 0xbd1614653d4c35bfU,
  0x3ea47a923ddd64b1U, 0xbdae2c773d36ce50U, 0x3e1c99073c86e2e9U, 0x3d2208d6bd9b9f6dU,
  0xbcdab40cbedadae8U, 0x3e1d2fc53d0b1338U, 0x3d8139d6be1ab7b5U, 0xbdec62c43d09bafdU,
  0xbe8f592b3dc8b089U, 0x3d2c860d3d84e04aU, 0xbf62a8fc3da47db7U, 0x3c6933e83dfe4f41U,
  0xbd9f1239bbf89abcU, 0xbe6d9a15be2fe70aU, 0x3c62d6393d877bafU, 0x3dc82be83e659f4fU,
  0x3e5af1bc3e32ea3bU, 0xbe293d913dc11fa9U, 0xbd52b0033e3cb95dU, 0x3b9c5be93d2d29c2U,
  0xbcd7385bbdb262d3U, 0xbd9832573cb9394bU, 0x3e832c33bcc5f062U, 0x3d2aafa0be4f4df4U,
  0x3ea298ff3ca2466fU, 0x3e23b717bdd7cd31U, 0x3eee57f3bdf7acaaU, 0xbc66f298bd9ef91bU,
  0x3d8517ef3d91abfbU, 0x3e0505133ea4efddU, 0xbd050859bd39fb95U, 0xbd769f913d4568a9U,
  0x3d41371d3d77ee97U, 0xbd7f5ff8bd75b1c7U, 0x3a243dddbe2edf03U, 0xbe259aeb3db2e7feU,
  0xbe5391f93e165241U, 0x3d25d91fbd0ecfddU, 0x3b209c513da36630U, 0xbdc49138bdcdb84cU,
  0x3e09d4b53d1d6993U, 0x3bb654a5be08ba10U, 0x3d82f2fb3dfee8e4U, 0x3d0590ba3d2c5bc6U,
  0xbdbb7d173c188af8U, 0x3e20adb2bda9b825U, 0xbde2e2073b818542U, 0xbdf1cb93be06b7faU,
  0xbe69d694be081353U, 0xbf6da3633c93a003U, 0xbdf0ed1bbd8ac57dU, 0xbe1a6fb83de41552U,
  0xbe26f581be982918U, 0xbdf5b6cabdb93c87U, 0xbd306ab3bd8526c9U, 0xbe6f49f9bdc38792U,
  0xbd8eda9abd4290a4U, 0xbcf7269dbd8db438U, 0xbf4ad3153ded1755U, 0xb90400003dc701abU,
  0x3cb75703bd0bcbc1U, 0xbe46a7c1be852436U, 0xbde8a0c8bd860212U, 0xbd9f187bbe352986U,
  0xbe02b9903ec32075U, 0xbe19a9a1bdf0fa37U, 0xbe430df8bd550cd6U, 0xbd3ae57bbe032293U,
  0x3d5c151e3c6f7fffU, 0xbd9f69f13c843cbfU, 0xbd5789ac3e36d1a4U, 0x3c91748d3db36a3bU,
  0x3ea317b3bbc24683U, 0xbd98b861bcbde050U, 0x3ec5cd42bd6b5409U, 0x3cf1de803db98f1dU,
  0xbdd38e2a3e2c4768U, 0x3dcfb4dc3e9495a2U, 0x3e57b7fd3e9b1589U, 0xbcfd6fefbe1adea0U,
  0x3d3224683ac78225U, 0x3dd58a22be86c800U, 0xbe410a763e5c3570U, 0x3d634ea1bd273c85U,
  0xbd5ec505bda3d4e0U, 0xbe7951633c7c8f6eU, 0xbe4095b5bc061b8bU, 0xbe3d6143bccaed00U,
  0x3c80e2043d1405e9U, 0xbd5db42dbe86fabfU, 0xbe08f55ebc05667cU, 0x3c324018bdb1a6b1U,
  0xbdd7be30bd93cbe0U, 0xbe346366be62ecddU, 0xbdf89dd6be0c2872U, 0x3c46d6ca3e2516eeU,
  0xbddc0af0be303bd3U, 0xbe818d09be39a116U, 0xbe3227c13e47e70aU, 0xbc27b8c03d640546U,
  0xbe9cfd4cbeaf14edU, 0xbe843369bd180f09U, 0xbbf26e6e3d4ead02U, 0xbe720a2dbe4f32e8U,
  0xbea3997f3d8e7d6eU, 0xbd566076be81ca58U, 0xbeb0b608bcdb8055U, 0x3da66899bcfda690U,
  0xbd3b75e4bd5d7d4eU, 0xbc3ac4f4be8adc33U, 0xbd22651fbe814d2aU, 0x3cac69c73e8d37deU,
  0xbec4865d3e00dd61U, 0xbedbae46bebe98e9U, 0x3d9f1da53d243668U, 0xbe283e263e252dd4U,
