/**
  ******************************************************************************
  * @file    network_data.c
  * @author  AST Embedded Analytics Research Platform
  * @date    2026-04-01T09:44:02+0530
  * @brief   AI Tool Automatic Code Generator for Embedded NN computing
  ******************************************************************************
  * Copyright (c) 2026 STMicroelectronics.
  * All rights reserved.
  *
  * This software is licensed under terms that can be found in the LICENSE file
  * in the root directory of this software component.
  * If no LICENSE file comes with this software, it is provided AS-IS.
  ******************************************************************************
  */

#include "network_data.h"
STAI_ALIGNED(8)
const uint64_t g_network_weights_array[112582] = {
  0x3e081a44be09c7b3U, 0xbe40797abe61aadfU, 0x3c829d0f3ea6b353U, 0x3e12c1a1be2b19adU,
  0xbe72b9fabd82c8f1U, 0xbdfb9a41be8ac6b3U, 0x3e87a31dbe43ccc7U, 0x3d8dc4523e3da547U,
  0xbcc2ab4c3cfe2aa7U, 0x3e0a4841bcb11908U, 0x3ee64a4cbe1c8f27U, 0x3d8c024ebe454a4aU,
  0xc01922adbe3c1f8dU, 0xbec4102ebf4bfa62U, 0xbedd635bbe4f9db3U, 0xbee6a6e4bf1aa60bU,
  0x3dce5922bd893c92U, 0x3edd5f693d6f80bbU, 0x3d03bda1be8ac6edU, 0xbdcb7302bf9042abU,
  0xbf2bcb3dbd5219ceU, 0x3e7b47f33e99267fU, 0xbe1379fdbd967f89U, 0xbc9a5f063dca97ecU,
  0x3ec810e2be04f8a6U, 0x3e424e71be493454U, 0xbfdeb795bd832a2bU, 0x3e741fb73e506103U,
  0xbe8d2611be57030eU, 0xbfe58fdfbe33e260U, 0x3e092063baab8600U, 0xbd075451bfad61e1U,
  0xbc91a4f7bd0ec45cU, 0x3d148a4f3c6e2ef9U, 0xbc7b70713c16adceU, 0x3eb2dff93dd99633U,
  0xba9ad218be7ec437U, 0xbeef55633e2e0807U, 0x3e35af643e30ba6fU, 0xbe28cafebf4eb1c8U,
  0xbdce8f363e6d441aU, 0xbdb00ecc3cf50a62U, 0x3c0b63d7bdd92e53U, 0xbde2dba53bb15272U,
  0x3de57e6cbd3ca03fU, 0x3db6a57dbe24c946U, 0x3d906df03d06df11U, 0x3d21469dbddd6533U,
  0xbc3121ef3d12bb95U, 0x3d1c48b53d83fb43U, 0xbd994fedbda402daU, 0x3e395010bbe93fe9U,
  0xbdb7ccfe3e6d9aeeU, 0xbe2a7754be1d8ea7U, 0x3e048665bdabbdb5U, 0xbe80785c3c738c55U,
  0xbe1b06983e7d4844U, 0xbddab6cdbda01a7cU, 0xbe1b92fb3dde6daaU, 0x3e11b52cbd333fc6U,
  0xbdbbcb403e03e0e2U, 0x3eae7720bc00586fU, 0xbdb75ca1bed10c95U, 0x3d82c6bc3d9edc00U,
  0xbd52a174bd01e38dU, 0x3e60d8f7bde0698bU, 0xba578f99bc92dcc7U, 0x3cd029c1be5dceaeU,
  0xbd45fe73be26d985U, 0xbdb5c05cbf7cf752U, 0xbed8d8143e5e5e13U, 0x3d2c15763eb2cc64U,
  0x3dc670c4bd4c4f94U, 0x3bc82f6cbdf4555eU, 0xbdad7fcdbd56b2e8U, 0x3da501cb3d842e42U,
  0x3dc614aebe3bcd3cU, 0x3e6b2d89bea90ca0U, 0xbeb336433e087d93U, 0xbd3eb4983ea9dd9eU,
  0xbec0babfbfcb2a83U, 0x3dc526c73c4101eaU, 0xbe3cebdcbe4f0f57U, 0x3e9d0ecd3d727e3cU,
  0xbe73882a3e4fdd2fU, 0x3da67c9fbe12ac99U, 0xbe771a19baf762eeU, 0x3e0b5ee23debc5dbU,
  0x3d819ff8be9b92dfU, 0xbc1dbc503cbb1bbbU, 0x3daec821bd881343U, 0x3db4e0973e7ccae5U,
  0x3e3ef3243e06e5d2U, 0xbedb2c8bbe794048U, 0x3c15321bbea80cddU, 0xbcd0eb00bfb4f04bU,
  0xc01d4e883e58e481U, 0x3e56c2da3e761b3aU, 0x3e628de2bfe14785U, 0x3dca3a59bd455c87U,
  0x3e13248f3e961946U, 0xbeb6cfa7bd90bb69U, 0xbe87a658be672680U, 0xbc089e503d6415baU,
  0xbbf016e0be0b4ea7U, 0xbe052c3ebdf683caU, 0xbc94528cbe072490U, 0xbda606f4bdb4bcc9U,
  0x3dca4c9ebe48cff2U, 0xbc29c139bd2f99f9U, 0xbde6f1463d670ca7U, 0x3d209be03c19d5d4U,
  0x3dba4ce4bcf300e0U, 0xbe59aeacbe16dfcdU, 0xbde8e8b73d3ffc4bU, 0x3e5e895abdc85367U,
  0xbe6d707ebe18d06fU, 0xbd1fb3bb3e1ceb90U, 0x3e08f8b9bd48d80fU, 0xbe0c42b83c9eef04U,
  0xbedaa81bbf087e5dU, 0xbcc583c83e934aebU, 0xbc94cdf63e9be3a3U, 0xbf05737fbe0a2fe9U,
  0xbe1f7fd1bebb2346U, 0x3ed648a5be7ff92cU, 0xbe8d52d13e1a14d1U, 0x3ba8490c3df2643dU,
  0xbd3ad2f33e993ebbU, 0xbc817721bcfd8c5aU, 0xbe1fd250bfac4f7cU, 0x3d9a50ed3da5389dU,
  0x3dd757e43dbb7139U, 0x3d51398f3db5481bU, 0xbe62bb243e0fed75U, 0xbf19d574becb4463U,
  0x3e4ebc00be5cf5faU, 0xbd98917a3c1963dfU, 0x3e9fb0303e69663eU, 0x3d2d70723e0ba8e5U,
  0x3d70e9a6bbf6042cU, 0x3d3769ce3ce75ec5U, 0x3df3b4e83dc25d41U, 0x3deb55413dab6904U,
  0xbdc23e4ebc094c8fU, 0xbc5dfd64bcb7d0e0U, 0xbd710371bbc0717fU, 0xbd01a7703bb51770U,
  0xbd489a343cdb8096U, 0xbd82954ebdb53b1fU, 0xbd9947bebcf42655U, 0xbdaa150fbe06b84aU,
  0xbd053969bd468e1bU, 0xbd0a67f5bd3ff715U, 0xbc8fd98ebc8912b7U, 0xbc7262d6U,
  0xbc8ab90abdafd1bfU, 0xbd52e064bd95dcc3U, 0xbe481054bd5c3175U, 0xbdf4e05bbbdf93edU,
  0x3c83e015bde41bedU, 0xbe74d8a03ef06c46U, 0x3e8f0848bdfe6a35U, 0x3d9e88d53d8be4b1U,
  0xbd1c211abcf97ea0U, 0xbc9c167fbcaa2091U, 0x3e3419723e06dd92U, 0xbca4d9e53d5e4d98U,
  0x3cebf05dbcfef348U, 0x3de085f93e18b8c8U, 0x3e46c5ff3e4b0f3bU, 0x3ad92d403e84b60dU,
  0x3d1e4ce53c83b274U, 0xbc03c6b13db7fb38U, 0x3e3e10e43e8a1e40U, 0x3d5e6b6e3ba32aceU,
  0xbcecf3f2bd0b79a3U, 0xbedc82833ee32137U, 0x3e659458be663e02U, 0xbdb54b363e973712U,
  0xbd3a9a23be578e4dU, 0xbc5e9984be00f24cU, 0x3d58e8c03d32d548U, 0xbd811b623d883146U,
  0x3d9548d2bca5d940U, 0x3dcf19be3d34d978U, 0x3dfba6e43db139c7U, 0x3d33ddca3e226d87U,
  0x3ce9cdb43e053aedU, 0x3cd89a003dcad38bU, 0x3d2be5993d9ac65cU, 0xbdd9b842bd43b394U,
  0xbca6530dbdba2872U, 0xbea44cc33e070348U, 0xbcd6ac1fbc80fccdU, 0xbdb4bbd9bb8b22d0U,
  0xbdb2faf73dff624cU, 0xbd36036bbe29a84dU, 0x3e21cc88bd44350dU, 0xbce5b678bd062b4cU,
  0x3e89b1b33beda8a4U, 0x3e43aef5bd94557fU, 0x3e91c262be4b8121U, 0xbd48735bbd8becd2U,
  0x3e14dde9bdddbf7eU, 0xbe378f0f3dd3568dU, 0xbe5efb4cbdb8c52aU, 0xbdf3e3dd3d1f68c9U,
  0xbe44b95f3cf7a026U, 0xbf1733743e9f254aU, 0x3d57187fbe0efdecU, 0xbe3cb3d03e8d105bU,
  0xbd9c4160be3f6fd9U, 0xbc97c59ebe27efd1U, 0xbccc3194bcc0dc09U, 0xbe3f1cc1bd80d4f2U,
  0x3e303aee3d0dada5U, 0x3d6c447fbd126399U, 0x3d138b0f3cf3fb2dU, 0x3d91b4093e70b322U,
  0x3dbfa7fdbd7c7d93U, 0x3e1a96dd3e2e3284U, 0xbda6a0163e2e448dU, 0xbd51c174be5c1bf6U,
  0xbebae932bdcbb078U, 0xbf10c1f93d9de1feU, 0x3dc641efbdfbad2bU, 0xbe937c1a3e7756e3U,
  0xbe5f3bd7be0a6301U, 0xbc3081fcbe422f55U, 0xbd10c35fbb6e597eU, 0xbe545ffabca72c9eU,
  0x3bc7a2eabcac9b9aU, 0xbbab0b3bbde4f95cU, 0xbda4317cbd3d6d83U, 0x3d30070abd9fe109U,
  0xbcd986a5be05b644U, 0x3d92c164bd6bc4acU, 0xbe728b5e3ba389c9U, 0xbe239be9bea58f4cU,
  0xbda7cd13be2f8d2cU, 0xbe4fbdb2bea27d80U, 0xbe95b433be305d67U, 0xbded9bf3be0a6a45U,
  0xbdc5105bbd9202b2U, 0x3e02b109bd836470U, 0xbcd8e1edbe5ce417U, 0xbccb05203e312e1eU,
  0x3e08b40fbe221adfU, 0xbe758c363d497634U, 0x3d842aecbdaf03e5U, 0xbd80bdf8bd08ff47U,
  0xbe27b88dbe184b0dU, 0xbe3c0f82bd3d78b5U, 0xbdebcb80bdc885c5U, 0xbdedd54abe6aa6baU,
  0xbdd4b3debbe6cb14U, 0xbc8aad503d95039bU, 0x3c90065f3dda09d6U, 0xbc8c025b3e0d146aU,
  0xbceb0d66be02711bU, 0x3d895f3fbd78fbd1U, 0xbd373b7b3ca97b0fU, 0x3c16e80f3d301bf7U,
  0x3e5dd733bc856e10U, 0x3d4494613e634bd9U, 0xbccbaddfbcbdc4feU, 0xbd3a4250bd150750U,
  0x3d613dd23d4c7e62U, 0xbd9c8fa93d3b1829U, 0xbdd81b3b3e1f1ff1U, 0xbdee3e54bdd895afU,
  0xbd9f8845bde4ebe9U, 0xbdeab246bdff84eeU, 0xbe0a88b5be23076dU, 0xbe60eed8bdfff71cU,
  0xbe02a138bea97362U, 0x3c91fe84be539048U, 0xbc8e7565be95661bU, 0xbdd85930bd361dd1U,
  0xbbf22e0fbdb0a3ffU, 0xbccb364d3cdc142fU, 0x3b918d4dbe47b02bU, 0xbd1b081bbdeb89e3U,
  0xbcde9d8bbd93ad48U, 0xbe40c2163d3d53cfU, 0xbe26362cbc7ee954U, 0xbde34638be61d55bU,
  0xbdcceabebc5ecd90U, 0xbe89352ebe6befadU, 0xbdeba41cbddaecc3U, 0xbe9223e1be345a9fU,
  0xbdb0da00bdd6f6e9U, 0xbdf5b267be4e6666U, 0xbdb5267c3d4b549cU, 0xbdb1267ebd14a86eU,
  0xb9f3abe7bd824acaU, 0xbe5b30ebbe28161dU, 0xbdfc5fa5bd136576U, 0x3da14f9b3d8f1d1bU,
  0xbe4122cabd3cb635U, 0x3deb10c0bc90328bU, 0xbe75efc9bd81ff3fU, 0xbe2e1024be588d69U,
  0xbdf051fcbdbef294U, 0x3da9514e3e0e4038U, 0xbd8d49563db1795bU, 0x3c1d0e203d454fffU,
  0x3d3cf246bd9d3f44U, 0x3d54f9a3bdf3e9b8U, 0xbd8ca6afbe73e87fU, 0x3e0db6233c46e35eU,
  0x3d126cbbbe04841bU, 0xbc97c3033bfdbe0eU, 0x3e46e5eb3ce400ccU, 0x3d8920633cb09bb9U,
  0xbd4c6c71be08f69cU, 0x3e1670ad3e83cfbdU, 0xbe2f280a3e35c46dU, 0xbe01d40d3da21028U,
  0xbb9bcc45bdae683aU, 0x3d01243c3e55d226U, 0xbdbff4f63e0f0030U, 0xbdd1aaa7bd84df98U,
  0xbcf32849be9b4938U, 0xbbead8d33cfb213cU, 0x3d9ae441be0b3440U, 0xbd7dbf5dbdded4ddU,
  0xbe8b31813d67dbf0U, 0x3ce4ba74bdbab8a4U, 0xbe24b232be5ab837U, 0x3da4f0d5be6ef281U,
  0xbcb21bbabb547321U, 0xbd8330483d99af8bU, 0xbdd57413be767d93U, 0xbced4aa23db5df11U,
  0x3df056683dffb5aeU, 0xbca1fc033d54aa78U, 0xbda31d8cbd0c69fbU, 0xbd479704be544e48U,
  0x3d263df73c431ca6U, 0xbe3dcb90bdd04686U, 0xbac67e82be250a0fU, 0x3dd6d54dbdddc023U,
  0x3e360a0dbd785f03U, 0xbdba4a3abb8c9030U, 0x3e94a005bd4cd247U, 0xbd08857bbd69bf6dU,
  0xbe2dd2b13d106956U, 0x3d8c47093db51e56U, 0x3b5fe888bd7037a6U, 0xbcda246ebd5e391fU,
  0x3d38b54cbc380c9bU, 0x3dfa76133d703868U, 0x3e12b05a3e18e89dU, 0x3cd0550f3e91052cU,
  0x3d3bc6533e5cfc4aU, 0x3d9def1abdc03ca8U, 0x3cf16daa3e16abf3U, 0x3e5e14d13aaa0c2aU,
  0x3e8a8f343d004645U, 0xbdb63e073df89bb3U, 0x3e2a159a3dd7f0f4U, 0x3cbf944c3e935075U,
  0xbda887993d5dd982U, 0x3ecec09c3ddeed39U, 0xbe043e983da92bfbU, 0xbddcb0093e295c5dU,
  0x3ddece92bd89361cU, 0xbe908e6e3b9805c4U, 0xbd878b443dff4e02U, 0xbe2bde44bda76af0U,
  0xbd98713abee7bde8U, 0xbaf78bffbd9f68baU, 0x3dd5b99cbdb458c0U, 0xbe134f0a3c4353e6U,
  0x3df2bb9fbd620112U, 0x3d710baf3e0dcd67U, 0xbe0c97a53d828479U, 0x3d4adb923d5bf3dbU,
  0x3e16de643cf35c2bU, 0x3d1f9816bdf5ba6dU, 0xbe0286213e1407c7U, 0xbe3e59033e18442fU,
  0x3d84ffc93e7e8040U, 0x3d6b21233d11bd0eU, 0xbe466202bb93978dU, 0x3c4b1dc7be133fa7U,
  0x3d50aa523b07a9d2U, 0xbd46eb1dbcb7e096U, 0xbd1bf79e3d943241U, 0x3d7f96de3dd2854cU,
  0x3dfcb9fcbd7df6fcU, 0xbe8ec5e93cfd91a1U, 0x3eacb98abdb2d325U, 0xbc7b52403da50b04U,
  0xbe1b76afbc6d5a5dU, 0x3ec026893eec48fbU, 0x3e106ddbbd3fb69fU, 0xbd7edcffbd5e5b4bU,
  0x3dce829e3c8f57acU, 0xbc11f6b13d7cc2e2U, 0x3e3417713d481a21U, 0xbe3f703a3dd6fcadU,
  0xbe11ff5b3e27a790U, 0xbd8fe797bc753af9U, 0xbc8a3e6e3db0e730U, 0xbd33a6babd69051fU,
  0xbbaefc9cbcc3c84aU, 0x3cd445473da864ceU, 0xbb3070eebca7bd85U, 0xbcb2d7763df23167U,
  0xbd2216e0bc355904U, 0x3e7031e83cfe1f72U, 0xbd51e3b1bcdcd038U, 0xbde9c79bbcb62f0aU,
  0xbd95d982be03b9f6U, 0xbf5053533e2437a4U, 0xbe11f152bde8190cU, 0xbe626be13d956a61U,
  0xbe10b974be5323bdU, 0xbd7e5324be046e0bU, 0x3d1b920fbdc2fae1U, 0xbcfcaab5bdc4440fU,
  0xbe31aca2bb7b5192U, 0x3d0583d6bdcc45d5U, 0xbec666bdbdc8326eU, 0x3bf4b2d0bafb1f04U,
  0x3cea0131bd077068U, 0x3e01171f3da2441eU, 0xbd87cd48bcd84291U, 0xbe776a073ea9f594U,
  0x3d532c143e7cd083U, 0xbe9cf68ebd9bac49U, 0xbc8c29933c9d50e2U, 0xbe1ebb863da7bc81U,
  0xbd6df870bdaa9e93U, 0xbdcd36aabd6e0ae8U, 0x3c394f4b3e4d6857U, 0x3d7f47fdbd6fea79U,
  0x3dfed8c7bd9667d7U, 0xbdc08a67bd5b33d6U, 0x3ec65af4bd3aa300U, 0x3d8fac553cf5a809U,
  0xbe3cfadb3df016f4U, 0x3e864c993e45659aU, 0xbd7714773d8c6f19U, 0xbe20e140be0967e1U,
  0xbea7d781bd36b3c1U, 0xbe17d264bd86ab12U, 0xbc7dc2f73c4dceb3U, 0x3c1c19eebe017da2U,
  0xbdec7f68be28ed24U, 0x3e1ba53d3dc1a590U, 0x3e95e6f43be83c17U, 0xbe1e3f4c3e2a2d07U,
  0xbc4b9247bd9c99b0U, 0xbe290a083e8fced8U, 0xbcf33bf1bc8ecf78U, 0xbc1f2818bd9b32b7U,
  0x3d8f1890bd84e839U, 0xbd4e5ad93d9b18fcU, 0x3e4e03f3bced64d9U, 0x3c92a048be907898U,
  0xbc5428f63de961ebU, 0xbe4c3531be3247f5U, 0xbdf821613cc17fd2U, 0x3d89fd3ebe298512U,
  0x3cbc01ee3d856a98U, 0x3de726c43da0d929U, 0xbde5dac13dc2c838U, 0x3d60ff81bdd2d4a0U,
  0x3e12c2fa3c8c15a1U, 0x3e028a763eab36b1U, 0x3e904f423d297c9cU, 0xbd82c3283db9982bU,
  0xbe2c0eebbd96dc5cU, 0xbd9702b53c4b1e1cU, 0x3d74e7afbd6f2487U, 0x3c3d3f563cd03e2fU,
  0xbdcd7ea0be3e062fU, 0xbe0dcf94becb7a13U, 0xbe8b62213e3c5b07U, 0x3e06e677beb96b6fU,
  0xbd6994ffbe2894c9U, 0x3d50cf023c383da4U, 0x3e301badbe0c7629U, 0xbe4f61923cf14843U,
  0xbead639f3dbf35c5U, 0x3e3b364abd1190b4U, 0xbe6ec62e3daad22bU, 0xbc3052a83c61567bU,
  0x3e05ef5d3dc7cf45U, 0xbdfcfaea3e260a40U, 0x3da23a0a3e272d38U, 0xbd4657183ea23f4fU,
  0xbd0f2a143e6491a0U, 0xbbdaecfebd8b423dU, 0xbe64945e3dadab1eU, 0xbccd01163db6494cU,
  0xbde68916bcb0f12aU, 0x3dc000b63c784be3U, 0xbe16f549bd9cbfe7U, 0xbe28a828bdf3b550U,
  0x3b28e998bdf212f2U, 0x3daa8a13be172761U, 0x3d37cd74bd57c7dfU, 0x3cedf940bdfec4caU,
  0xbe0b0f9c3d1e0665U, 0xbc034b633db8dcf0U, 0x3d56059fbda70204U, 0x3d37ead63d640b3eU,
  0xbddce5fcbc003757U, 0xbe7a959a3d8b2345U, 0x3ebfa8fdbe72deacU, 0x3d055a3fbdd0f5c7U,
  0xbd87c6e0bc0add33U, 0xbe995d32bd76a5d0U, 0xbdd2433cbd9f0392U, 0x3ca85c04be1231e3U,
  0xbe2dda373e04f438U, 0xbc378323be6a5fbdU, 0xbdd7c9bebd71d8b5U, 0x3d3bac5abe367326U,
  0xbe30ea72be057cc1U, 0xbe4ef058bddf81d2U, 0x3d11e4bdbc6b0304U, 0xbdb1a4efbe5e68ecU,
  0xbe3fb9f93de37d9dU, 0xbe03c3793df71812U, 0xbdcd6802bec38c56U, 0x3d47c32ebe3cc2ccU,
  0x3d19ec0d3daa7306U, 0xbc8e85e2be024cbdU, 0x3e434093bdd8024cU, 0x3c0ee7b2bc02f56dU,
  0xbe94e3f9bd2b8232U, 0x3e1d51c03dd2fa0fU, 0xbef443efbd8b9023U, 0x3cac568cbcf7c512U,
  0x3de27439bc8367d8U, 0xbde1d8dd3e2f71c4U, 0xbde2b477be196d91U, 0x3d989c19be9e49f2U,
  0xbcdb893bbacd12bcU, 0x3d8cf091be2d1f19U, 0xbdae2dfabd72f0cdU, 0x3db633b2be22e63aU,
  0xbd65772bbc9450e1U, 0x3d81c0eabc3b3763U, 0xbe4f935a3e36d623U, 0x3e0c3e923e00b2d1U,
  0x3e559465bdd245f8U, 0xbded4ae93d43f33cU, 0x3d8b193a3cdb9059U, 0x3af40ec03c0d8525U,
  0xbe43da1ebc44420bU, 0x3d2978643d8e9665U, 0xbe1735d1bdf68c18U, 0x3d1cb157be0abf74U,
  0x3d6aab07bcaea75aU, 0x3c6c972c3d4d5a0bU, 0x3e00dd1b3d5eab35U, 0xbd7917103d766f0bU,
  0xbd129b8abe8da339U, 0x3df192373d40bf62U, 0xbd853fe2be209fbfU, 0xbdaef3cfbdd2b96fU,
  0xbe4b31c33e0ce945U, 0x3de0992b3cea0899U, 0xbe9a08ea3e207430U, 0x3d850311bdfe1fefU,
  0x3e0231403b70e0cbU, 0xbdec438dbe08025cU, 0xbd01d06e3dfb2510U, 0x3d69cd7ebb52b515U,
  0x3cd1b8a2bd75b1feU, 0x3cd10ce13e98eb97U, 0xbd5543e7be31cfd6U, 0xbd508964bdbc8a1cU,
  0x3cbece9b3e481353U, 0xbd9236d5be0abefaU, 0x3e6080f938bb1578U, 0xbc2c468ebd85809cU,
  0x3e4234353cd589f9U, 0x3c29a24cbe99aa33U, 0x3dd8ae453dba3994U, 0xbc63f400bbc04db3U,
  0x3e549cdc3d8fa9dbU, 0xbe82b2b5bb84a230U, 0xbdb657c83d3de5e6U, 0xbcdee777be07ff9fU,
  0xbd00ca523e4266e8U, 0xbc841c2ebee354d7U, 0xbe860b9d3de882c5U, 0x3d12144cbcf78044U,
  0xbdd96b90be55d15bU, 0xbc336d8e3cbb4311U, 0xbd2705f63df0b9fdU, 0xbe143e1e3ccf36bbU,
  0xbde584653ceb61a1U, 0x3cfefa8d3dcffee6U, 0xbe377042bda6eb37U, 0xbd7b3d66bdbc1edeU,
  0xbda551c3bd36618fU, 0x3c82daa9be11c7d4U, 0x3d32ec523bf5ecefU, 0xbca72af33e43c2f4U,
  0x3e75e5733e83d6c1U, 0x3d977f88be8ee239U, 0xbd15ab073e1685c3U, 0x3b8eda033d4c835aU,
  0x3cd6c4bd3c578ffdU, 0xbe8f0aadbca46c5cU, 0x3dc27fa7bce6bf01U, 0xbd994408bd8f4259U,
  0xbe63f5dbbc30a33cU, 0x3dc1c1f9bb70f33bU, 0xbd5c883cbe3b6ba3U, 0xbbf701b03c652fbaU,
  0x3daec5033dee2081U, 0x3eb4516f3e32e1b5U, 0xbe01b98b3e1bf216U, 0xbd2062a73e921c99U,
  0x3d168438bdf7ddc4U, 0xbdc343a3bd86500dU, 0x3d1d7d9bbd63ac8bU, 0x3dd5c1f23c3ec0ccU,
  0xbe0416c0bd0cc98eU, 0xbe1ceb363d247da2U, 0x3dcd30a2be897d7aU, 0x3ca585533d1175e2U,
  0xbddfbc473e05212dU, 0x3dbd13993dcfb168U, 0xbe41663c3e1bebdcU, 0xbcca55763c8faf02U,
  0x3e14e794bcdf90e6U, 0x3d4a7af23d8c2810U, 0x3b95f1ff3e0d2ddeU, 0xbcf9cfb03e096ac4U,
  0xbd13d7e53d9e791eU, 0xbbbb602a3c94464bU, 0x3e08b854bd7118e1U, 0xbbb051113d171014U,
  0xbe2d06b5bec91c29U, 0xbd75cfe43e0d9090U, 0x3d426b07bcb6659cU, 0xbd5188733dcd4b53U,
  0xbe112e503d42bc72U, 0xbe7903383d6e0a8fU, 0xbe571ea4bd01cf01U, 0x3d8b41a93c008d57U,
  0xbe40b56e3e104082U, 0x3e283f4fbe2792ecU, 0x3e8c6f67bd97075fU, 0x3d4a42fcbe40bb71U,
  0xbe8934283df3c80cU, 0xbe53311bbe7624c3U, 0xbe6b533dbea6dea4U, 0xbb958633bd8b7978U,
  0x3dabf821bde97b51U, 0xbd5790bcbd95edf1U, 0xbdc1459abdd2d58cU, 0x3e1df5af3c68194eU,
  0xbe77e936bccbcaadU, 0xbcbbbc2dbd6e1653U, 0xbe4ac3d2be71ea72U, 0xbb31fba0be20ee51U,
  0xbdc9cfe23bb7afa9U, 0xbd0e4b09bda7d847U, 0xbdfd1dddbe80d0c5U, 0x3ceba18cbe6d0376U,
  0xbda333843dc4d58fU, 0xbeaa369dbee1146eU, 0x3de46ca2bda61c25U, 0x3ce6467cbd80d6b5U,
  0x3dd1e44fbe07a3f1U, 0xbe17fa0abdae87cfU, 0xbd726a84be1434adU, 0x3c4126df3c4457f8U,
  0xbe3517283dc16e83U, 0x3dbefb71bb4bc395U, 0x3b9063afbe75d2f2U, 0xbcb36420be88d206U,
  0x3e09a466bd4c4955U, 0x3b81442dbe469522U, 0xbd7ed001bcba534eU, 0x3d34c7b6bd73e6c6U,
  0x3d630a193dfd8416U, 0xbe38e0873d53101cU, 0x3db47c67be51aba7U, 0x3e17e8a53d49f798U,
  0xbce46923bec2c363U, 0x3d989ee43da8a597U, 0xbd48c35fbd9a7ebeU, 0xbe1ba1343d01339fU,
  0xbe4c72b73de642ecU, 0xbd2ef401bc4030deU, 0xbe86905fbccbe4b1U, 0x3d9e8001bc314909U,
  0x3d3b0a9e3c142519U, 0xbde2ccbd3d33b402U, 0x3e3aa20e3e0dfbf7U, 0x3e7e07e73e0c0f58U,
  0xbdb4d0883e04ae18U, 0xbe794868be18aee1U, 0x3e08ce5dbe30480bU, 0x3dcfc63cbe54ea97U,
  0x3c5b6313bdf0ffecU, 0x3de9a8003ce2056eU, 0x3dd68fb53dad2806U, 0xbd27b17d3e403a4cU,
  0x3e50ca0cbca77748U, 0xbd99c7413dff5e0dU, 0xbdaab8c73df1aef0U, 0x3d6a2666bd46a30aU,
  0xbc0efcda3de5ba4aU, 0xbdc46934bdbb0ca6U, 0x3e170721bd92551cU, 0x3d7ff29fbe489436U,
  0xbeabf1673e71cf76U, 0xbe033836be1e27f8U, 0xbd14e2093c39744aU, 0x3d3dbdbcbdd6d354U,
  0x3d4200a1bd82fedcU, 0x3e5450203d65fcb1U, 0x3e4fd99ebce2b068U, 0xbe45a4d93ddfb55aU,
  0xbe1cea8bbd1c2d3aU, 0x3dfa7cc03e32bc61U, 0xbe5066983e0887e9U, 0xbca08ee03d0f8c81U,
  0x3e4457f7bcada74eU, 0xbe18b10d3d1699e7U, 0xbd6211a33e5cabe8U, 0x3e297bdcbc4611e6U,
  0x3d3a3769bd94e8e5U, 0xbf01c0d53dc8c02fU, 0xbdacc4fdbd9994fbU, 0xbde420ba3c473c1cU,
  0xbe48fd04bee1685fU, 0x3df218c7bbacdcdaU, 0x3e824782bc20e62cU, 0xbf1e1847bb24932fU,
  0xbebbe2433da173b0U, 0x3deac3bbbd055157U, 0xbe4d1f9e3e4686e4U, 0x3d67030a3e583fb8U,
  0x3e021cf7bcf687fbU, 0x3c951ab6bdcc2ad7U, 0x3d9c7e883cb24710U, 0x3d69638d3c9a485bU,
  0xbd390515be73e5d3U, 0x3e5b9c6fbd7e300fU, 0xbe4cfefcbd9fdf5eU, 0xbe3873bbba97d21fU,
  0xbde67fb6be52b055U, 0x3ca00378be3ac447U, 0xbdd65aaabef623a5U, 0x3c4b55973dcbf894U,
  0xbf05dff2be1a653dU, 0xbdc38ebcbd22c61aU, 0xbd060d90bed09a28U, 0x3d4e37e2bd592141U,
  0xbd18da0abe60fe9fU, 0x3e2114e13e5d5ccfU, 0xbefc3dd93d87f6d5U, 0xbe85c3b4bc8a4eceU,
  0xbc9d105cbe559ce7U, 0x3e363247be65a388U, 0x3c741fcf3e688ce0U, 0xbd939c03be0d1853U,
  0xbde87402bd7bc928U, 0xbe26d0f73ba0b0faU, 0xbe134f81be918f1cU, 0xbd0ed57dbdcf92adU,
  0xbe831739bd587b50U, 0xbe4a6f72be1f04f6U, 0xbeb93705bea79250U, 0xbb931a30bd662cdeU,
  0xbd0743ef3d96d05dU, 0x3b94111fbe3902d8U, 0xbd6e909fbd182d6cU, 0xbdd82ad73dd96a89U,
  0xbeded678bd8c2641U, 0xbf42ed503e270d34U, 0xbc87e237bb9a2af1U, 0xbe8e3e0e3e43436fU,
  0xbea1211dbf4615d2U, 0xbe05a99ebea6ed57U, 0xbb141b56be179cdfU, 0xbef69a73bd595caeU,
  0xbe099c6cbdd12e64U, 0xbcb17adcbe21e67eU, 0xbddf9cf7bda9f8ddU, 0x3da8e9113d5de765U,
  0x3de00f5bbe005646U, 0xbe9441a4bcf35e53U, 0xbcfaa6fb3e5e5ebcU, 0xbe74ce09be25e45bU,
  0x3e59446a3db05a06U, 0x3e6e64ee3da1e5f7U, 0x3ecfb91c3ce417a9U, 0x3d7da1c33cd34e78U,
  0x3dea229a3dc77456U, 0x3e0b3a12bced5826U, 0x3e381875bd5f514fU, 0x3ea6a14ebd95fdbeU,
  0x3eaff5233c256798U, 0xbe2a3d0f3dbf3ea8U, 0x3f220765bd33666aU, 0x3cbcccac3e04cc66U,
  0x3b8cb0943d5814e2U, 0x3f1c6b983f1a24a3U, 0xbecb9a62bc0c7c57U, 0xbd92805cbd56462fU,
  0x3df45c8fbe39a392U, 0x3e8975d53e94d88fU, 0x3dbe6d583de34a00U, 0xbbbd8d09bc996e88U,
  0xbcf14d3cbe10e388U, 0x3dfca95f3da9c790U, 0xbdcd73b4385b9dd0U, 0x3e0aaa9e3d4db818U,
  0x3dc049febcc64f4bU, 0x3c368d1a3e27d0f7U, 0x3d4282743e8a663eU, 0x3cfa3d803e9c0fb3U,
  0x3e194672bdca6b8eU, 0x3dbda1d13e00d5eeU, 0x3e5695f73db3a637U, 0x3d3bc36b3e47eca1U,
  0xbe92e4c8bcb02dc6U, 0xbe751ac83e04f227U, 0x3e38fe8d3e0abd97U, 0xbe2a4e4e3d3fd9dfU,
  0xbdd52bb2bea0fcedU, 0xbe995b75be99c435U, 0x3df3062ebe48eb04U, 0xbdcb04bbbe4cacfcU,
  0xbeb1424c3d3abdd3U, 0x3d2e4473bd666814U, 0xbdf4d4d8bec95ea9U, 0xbcec4aa0be8449d7U,
  0x3c47745a3d40ccd6U, 0xbe2d90aa3d1804b3U, 0xbe02f84bba7a7583U, 0xbe8c71d6bca6acb5U,
  0x3e15bbe83de3ce7fU, 0xbd6b0fb5be900176U, 0x3d7c1f263e077ed3U, 0xbe0818e0bd9491a2U,
  0xbdedcec73d96a1c9U, 0xbda69e3bbe24342fU, 0x3d48127b3e25600cU, 0xbdcf8e2dbe536e99U,
  0x3ecea772be1f0f6dU, 0xbde604c53dd49f36U, 0x3f1b78c93e6f2fe8U, 0x3d8c8f513e24c3c5U,
  0x3cb9d423bdace43fU, 0x3e994e32bcde3811U, 0xbe8186673e2642c2U, 0xbe55dac13d632502U,
  0xbc34c973be265c5eU, 0xbcaafcd73e179d60U, 0xbe4956fe3e11d225U, 0xbe01deb23e1bb9d5U,
  0xbddd05803cdfb8a6U, 0x3ded6fe73b85e706U, 0xbde981f6be08edc5U, 0x3d3e9728be32be52U,
  0xbdc91262bda2aa82U, 0xbd1696ddbd1ad4d6U, 0xbe4fc9943dda0286U, 0xbc719dd83db4c3dbU,
  0xbe515e99bdb40117U, 0x3e28f4a03de29458U, 0xbe5e1070bd2214e7U, 0xbe2911e93e4c65ddU,
  0x3d74ef533d8584c2U, 0x3e6cc5223e0414f3U, 0x3c7346fd3cda0402U, 0xbe250c2ebdabe9c6U,
  0xbd2258343cac1a3dU, 0xbe1ce179be461521U, 0x3d850d4b3bde187fU, 0xbc59c65ebdab4973U,
  0xbb602418bd017db3U, 0xbe48d502bc6c6ec3U, 0xbb99bfb3be0694e6U, 0xbba1e4503d158454U,
  0xbe3573763c3885fbU, 0x3c67b914be71cb94U, 0xbdcb72c9bdb7cbd8U, 0xbdacf276bd08c71aU,
  0x3dbc04073e21b3c7U, 0xbdac2067bdc18adbU, 0xbe31d7a7bd2702aeU, 0x3d3f6213bc99c738U,
  0x3d1d36813e270fe6U, 0x3d419828bddfc924U, 0xbdbeee843d25190eU, 0x3cfd2ba0bc5d2341U,
  0xbbb0f418bd6c81a3U, 0xbccc0ce1bdd95190U, 0x3dfbed2e3bb2a881U, 0x3d334d02bda1c85bU,
  0xbdc2f7253bf8425bU, 0xbdd304143c2ec03eU, 0x3cfd51eebe8054ddU, 0xbd9d3f3f3d877049U,
  0xbcd6e461bcbede57U, 0xbdb21dbc3ced3d8aU, 0x3e460c593d06eafeU, 0xbdb3cc4e3d7d8d41U,
  0xbdaee0d33d4013fdU, 0xbdcb7475bb00f833U, 0x3e39427fbdd18ad5U, 0x3d6b8cb2bc27d665U,
  0xbc3fbebf3dcf669cU, 0x3c99ee7d3c6c7c34U, 0x3df7d134bd80f017U, 0xbda3f930bd58f62cU,
  0x3df2603f3dab5dfaU, 0xbbf32118bb3672e3U, 0x3dedb19a3d8fb8f6U, 0xbe0b618ebd07256bU,
  0x3d257a393d1ec034U, 0xbd6d09ddbd3d0040U, 0x3ba87f5bbd8a8cf6U, 0xbdd574afbd8346d5U,
  0x3dcc4a463dd5de87U, 0xbd8a2467bddd9188U, 0xbe1a8b363bc7366cU, 0xbcdc132dbe2ee8e2U,
  0xbd6358033c9837fcU, 0x3c0bfd9dbdd85cb2U, 0x3d9549843c96dc3aU, 0x3d247e90bd0b92b2U,
  0xbd9a281f3d465d45U, 0xbd65173a3d9131adU, 0xbd037f61bdb977ddU, 0xbd0d495ebdecfab1U,
  0xbdb652c7bbf0d982U, 0xbe3f5a3fbc5c735aU, 0xbe299a63bc891e50U, 0xbbf3c0b3bd870b05U,
  0x3d828e733e2042bbU, 0xbdb8b01dbd208e59U, 0xbd31c4ddbc46eae9U, 0x3ca28e543cf3c43dU,
  0x3d82c1c03cc9e333U, 0xbdb81caebe18b58fU, 0x3db42313bd68f5e7U, 0xbd871743bd8eae3eU,
  0xbdd133f9bd30ff46U, 0xbdaca5f0be6b6b2fU, 0xbd22ca5abdcfee0bU, 0xbcbe5f68bddc385dU,
  0xbdd6c6e43d26e173U, 0xbc8534e1be5aee0bU, 0x3d2630f33d1de5faU, 0x3ddbd08e3c987cf9U,
  0x3cebdd013dd4144eU, 0xbe52723e3d211cdaU, 0xbd2d6e033d378aa8U, 0x3d6534003b8430ddU,
  0x3d84a6ce3da3b293U, 0x3de8604cbe0ec283U, 0x3df6b2acbe080a29U, 0xbd981616be877e94U,
  0x3d8055443d89fae3U, 0xbe6da255beafb200U, 0xbe221c213d30e946U, 0xbd7dabf23d312052U,
  0xbd98554a3bac6fb5U, 0xbdbb8fda3c6fddf6U, 0xbe789137bd9e2209U, 0xbd2a2f11bd27d20dU,
  0xbde4a5a43db0c239U, 0xbdca3215be123a4eU, 0xbd5889c13d869a0cU, 0x3d4fcc1abe6b1e75U,
  0x3dafb980bd9b47d7U, 0xbe0b3682bd2b9cc1U, 0xbd093122bd73cdcfU, 0x3d6a420abc3a2a1bU,
  0xbd99bb153c3bc8fdU, 0xbe2a7b93be79df2cU, 0xbd1a1905be21ddbbU, 0xbd9f71e4be0db164U,
  0xbdb7b895bdd7d9f2U, 0xbdca45efbe2ef4e7U, 0xbed3d4f4bd1bd0b0U, 0x3de21435bd770db1U,
  0x3de45a683e079a48U, 0xbdfb80733dbbaaeeU, 0xbe3a76b23d9b1872U, 0xbd92d893be177e18U,
  0x3df4f0dcbe3e0dcbU, 0xbe23c9e1bdcd9457U, 0xbd8a8adcbdcdc8cfU, 0x3d75a87abe328a79U,
  0xbde411163b0d79a1U, 0xbe6eba32be892a70U, 0xbdc71573be4f0e24U, 0x3dbea71dbc6b1fdeU,
  0xbd62bf7fbdb13ef3U, 0xbe076593beb0fc4fU, 0xbdcafc4ebe9ae834U, 0x3e8d19cebdc026ceU,
  0x3e21d733bd64a707U, 0xbe6c82f63e2787c1U, 0xbe6b1df1bd83b0a5U, 0x3b1a44eebdd82701U,
  0xbd884a61be1dedf3U, 0xbdb98b80bddffc80U, 0xbda75076be8cda15U, 0xbda339f3be181847U,
  0xbe4b185bbcda5159U, 0xbe1d6cbbbea3f154U, 0x3d227818be4ce761U, 0x3e1248333cb21f2eU,
  0xbdb81c7e3cf2482fU, 0xbe3eb916bdeac236U, 0xbd4781393c857d1aU, 0xbd1518b3bdd3482bU,
  0x3c9c715cbec1e1a1U, 0x3ddb15ae3dfeed2fU, 0x3e276b243dd73d27U, 0xbeb26b053bc80affU,
  0x3bedb893bcf906deU, 0x3e0176ec3cb1ddceU, 0xbc1bf5153d1db3e9U, 0xbd5ea2d0bdf994e6U,
  0x3d846010bd8b3d99U, 0xbdb46c5ebe71fe1aU, 0xbcc60927bab524d7U, 0x3d009dd3bd07c783U,
  0xbee4381dbebcb6b4U, 0xbe45a47d3daac7e1U, 0x3e8c23143d4babacU, 0xbe9a1de73e6196e0U,
  0xbe88cedc3dcb9f49U, 0x3d21e255be3ffee6U, 0x3d06584bbd07c9fbU, 0x3d77bef7bdb16703U,
  0x3caf71003d3f4ebfU, 0x3cb3444bbd64f795U, 0x3e4d0d44bc9041abU, 0x3d23f3aabc766fa7U,
  0x3dd9ca6dbdcc3566U, 0x3e08dca23d8db84cU, 0xbdd12df33d2f1c12U, 0xbe20daf5bdfed213U,
  0x3e125632bc8aa768U, 0x3f0835043e375680U, 0xbc4e7c8abe4d0548U, 0x3d3de4b73dafac1bU,
  0x3e250bfa3db1f044U, 0x3df27922bd8528f5U, 0xbf024ef0bdbaab9eU, 0x3ea543b5bdf1f10eU,
  0xbe4f2010bdcb3d1fU, 0xbe97b041bf0059e3U, 0x3e5ae226bec7fbafU, 0x3d876f1bbe2e98d2U,
  0xbe2771f2bda554a6U, 0x3ed1943a3e817ac1U, 0xbddf76babe19a05eU, 0x3c1147bebe89fc22U,
  0xbde826cabd4bb5ecU, 0x3c0095df3dcdc215U, 0x3d070fabbe5f3787U, 0x3c3a53233dce311cU,
  0x3ccac8a4be349ee7U, 0x3da7d6803d7743abU, 0x3d19acf63cf2279aU, 0xbe352ecf3e888fa6U,
  0x3ca6a7383cac7514U, 0x3df09a1f3e3ad101U, 0xbb63060bbdccd7daU, 0xbd60aa6b3c910082U,
  0x3da50afdbdb71d02U, 0x3e0a73713c25580aU, 0x3dcab69f3ceefc29U, 0x3dcb7047be125ca4U,
  0xbe7e184fbeb0fd78U, 0xbd52aae3bd18df8cU, 0x3e2f25d9be2b2e35U, 0xbe4af62bbda49672U,
  0xbe0dc3233e3d60d4U, 0x3cb1a5bebe428f7eU, 0x3e3331f3be5e5ff4U, 0x3dac58eebdc18664U,
  0x3e1a84753a547abdU, 0x3d0729e73d8c0f04U, 0x3e662fe3be248be2U, 0xbd64ac16be29a018U,
  0x3e061b21be936b91U, 0x3b87258f3dff532aU, 0xbdbd2791be0b6750U, 0xbe69443abeb71274U,
  0x3e77a5333e8ee0b2U, 0x3e112d06bedfd943U, 0x3e2b074cbe8465bbU, 0x3d16aba03cb8dfc1U,
  0x3dd94eba3e91da28U, 0x3e1ffdcb3dd40f29U, 0xbd59500d3dd5b27bU, 0x3e92b0a2bdbbc919U,
  0xbe4124dd3e23a749U, 0xbdb64f8bbea835baU, 0x3e1f88dbbe6854c2U, 0xbbf6dd30beb1b156U,
  0xbe12f0203c923e76U, 0x3e9ab8173dcfe2e8U, 0xbce0716ebe12a88fU, 0x3e2c7bdcbc73c507U,
  0x3d654ebbbe1767b2U, 0x3cf1307b3e740fb7U, 0x3ee47e63be74a37cU, 0xbd3acbbd3cb3f33fU,
  0xbe30889abee7614aU, 0xbcb29d063ca576c6U, 0x3d9a659dbe91e44aU, 0x3d884521bcea153eU,
  0x3d8932dc3dce79ffU, 0x3e3d4e783c95115cU, 0x3e135a17be8a7198U, 0x3d4e98563dc4666cU,
  0x3e03b88bbd1d5b02U, 0x3d6d4c453db269aaU, 0x3e696be93ea2fde3U, 0x3bf71f53be9fc857U,
  0xbdf5f988bd8961f1U, 0x3d242fdf3ecc4059U, 0xbe0d83fdbec6be13U, 0xbdc306843e242d56U,
  0xbdebddc93d257681U, 0xbbf77ae4be1d6348U, 0x3b1e5e2ebea67839U, 0x3d401635be8fd812U,
  0xbd3f6859be068fafU, 0xbcd483e7befd281cU, 0x3befb3e5bea80addU, 0x3d7abb86be82a47aU,
  0x3d398dddbe29048fU, 0x3d99897bbd142656U, 0xbe58b36b3e60c91fU, 0xbdbb061cbe448e59U,
  0xbda6a60f3e245e50U, 0xbdf4a327bea8ba26U, 0xbd697ec93d97064aU, 0x3dbb32b33d9ffc41U,
  0x3e64ba183e8ec6c3U, 0x3c823e7c3e14f678U, 0xbe2278793e38c11bU, 0x3e39008e3c17d086U,
  0x3e8c2ef73d60c4f5U, 0xbd09e040bd3e206fU, 0x3d06731c3cea63d8U, 0x3d4e7c8abe4e547eU,
  0xbdfbdc483c9adbc8U, 0xbd9398ac3dd866e1U, 0xbdc0fe21be148ab1U, 0x3df1a8e3be08749aU,
  0xbdff7a27bc931d28U, 0x3d72278cbe6ece31U, 0x3c9b0ae33e3b6110U, 0xbdbe38e63c788cbbU,
  0xbdf0caf8bce82db0U, 0xbdc12fdabdb2f758U, 0x3d01391b3ccde37eU, 0xbe11be423d8a54e0U,
  0x3da563eebda5ee6aU, 0xbdea97f2bd2e7c3aU, 0x397680ae3c8d17e4U, 0x3d65ee723d24cef1U,
  0xbd9fee4b3c37b2e9U, 0xbd1454823dbb6bb0U, 0xbe2437eebe1059c1U, 0xbd5115303d1dab87U,
  0xbe7a357fbe84ec9cU, 0x3aca9eeebe80ef9cU, 0xbce07f183d0c1af8U, 0xbe623028bcfb1e31U,
  0xbdc5aa43bd803b8cU, 0xbe3407dfbe3644cfU, 0x3dd63304bdc170f4U, 0xbe74f5443d5a83a5U,
  0xbe434051bd023829U, 0xbdd963743c73e413U, 0x3c61fa16bde047a5U, 0xbd6b05c63e05b395U,
  0xbd9b4f30bb6d0354U, 0x3e098c4a3d857f8aU, 0xbe178cd8be5deae6U, 0xbe9b33143d67c5a4U,
  0x3d9d0dccb7d77db0U, 0xbc2f1b5bbea5620eU, 0x3d95d6cdbce4b3bfU, 0x3c3a04a2bdb8b93fU,
  0x3d689e1c3d87d58eU, 0xbe4886fd3bcc3ae1U, 0xbd5285d7bd039070U, 0x3c84f7053c14947cU,
  0xbe9e5a44bdc85758U, 0xbd9bded2be4dd7a5U, 0xbeef006cbdc932c0U, 0xbda0669bbe30e84bU,
  0xbe950ccabdccfa7cU, 0xbd3c2120bdd3e656U, 0xbd8b7045bcd89967U, 0x3d4d38bbbd989141U,
  0x3d0490fc3d1424e7U, 0xbda49e67bec3908eU, 0xbc959f563de72700U, 0x3cd1bbbbbc9ef37cU,
  0x3d8075243d63d941U, 0xbdce2b5bbd848f47U, 0xbd408e803dc57c4eU, 0x3d9cd4c0bc85eac0U,
  0xbe4e73d83ceab83cU, 0x3dfbd19dbe06d621U, 0xbddf13a1be3919dcU, 0xbd2e1fa6be1bd5f3U,
  0x3c3730cc3dc20df6U, 0xbd6407013c8285a8U, 0xbc195d9dbcd4b09dU, 0xbe04d5743b2783fdU,
  0xbd27cda6be0fe910U, 0x3d49cf893d9883a9U, 0x3dc511b43db1b1e6U, 0xbdb88f623e13b627U,
  0x3b19cd5e3c8e65dfU, 0xbe6e521bbd004e6bU, 0x3e46c53ebf006aacU, 0xbbbb00663d129acdU,
  0x3c35cf0fbd3ebc9fU, 0x3c5a0eb7bd96df37U, 0x3eac4a29be78e3efU, 0x3cf87dccbee00d8fU,
  0x3d309c13bcec01b1U, 0x3a0684693db97433U, 0xbe1bafc73def8801U, 0xbe32d90cbd8708bcU,
  0xbc041776bc87bac6U, 0xbd0b7ce7be993915U, 0xbd5f37fbbe83c653U, 0xbcdbeb60bec31a50U,
  0x3d107bd13e13633bU, 0xbbbaa6d0be04c5c6U, 0x3bba362e3afa5a62U, 0x3e32015d3d8fa7e5U,
  0xbe79bbafbd7e6d14U, 0xbe4c1187bb1c54d9U, 0x3ac21bfe3d9c903bU, 0xbcf0d080bdac5002U,
  0xbde2d3853e128af4U, 0xbc9eae183d95095eU, 0x3df79089be399e12U, 0xbca48cd2be2af0ebU,
  0xbd78bb453ca6b8f6U, 0xbef2890d3dbe1644U, 0x3d8b5674bdee14e5U, 0xbed2c0f63e7252e8U,
  0xbea84a9ebdb72f6fU, 0x3da6048dbe9e0ffcU, 0xbd3e9b873da3025cU, 0xbe60d7c1bcdaa6d6U,
  0xbc81bad4bd5b9519U, 0x3dcc9fec3e14dea1U, 0xbe9697353e35c4c7U, 0x3d2461103dff386cU,
  0xbd7e8b83bd374dbfU, 0x3e1bd8043dfc10fdU, 0xbdb2712dbca996f4U, 0xbe8d54ddbdce28dfU,
  0xbd17f8bb3d50eb66U, 0x3e3a2ac33e29b0e1U, 0xbc998d98be4a94dcU, 0xbca0ccda3e2fd962U,
  0xbbd3b4de3dcffe53U, 0x3e2df8d1be11cff2U, 0xbe2e3fbc3dcec010U, 0x3decfbed3d9044dcU,
  0x3ea85d9cbe71fa1bU, 0x3da75b2c3d77839cU, 0x3f2ba62d3e02e197U, 0x3d81239b3e081b62U,
  0xbde4928cbd25bd0cU, 0x3e9844f33f07172cU, 0xbe4f1e343d80f740U, 0xbe081cc3bda9ece9U,
  0x3bf4fd98be3d5a05U, 0xbdc81cc5bcf46311U, 0xbe4e0f0cbe029d1cU, 0xbcdd213e3d5cd1f4U,
  0xbcea9ebc3dc8d97bU, 0xbcf132093ca994a7U, 0xbce8ec16bd822199U, 0x3db29e443d945a9bU,
  0xbe28a6dabd54b70dU, 0xbdab4bb1bd426135U, 0xbe49ede8b988765dU, 0xbd6f2f70bd5764eeU,
  0xbe1886693e083243U, 0xbd569cdfbe240dfeU, 0x3e2c339fbda1c26aU, 0xbe100ef63d45fdb9U,
  0x3d4a0b88bdf60643U, 0xbea9b574bdf7e8e2U, 0x3c9afe6fbe98d9d7U, 0xbd89640d3e19db76U,
  0xbe1163aebd354143U, 0xbe070332bde02a19U, 0x3d92436dbda19eb6U, 0xbd32c692bd6af63dU,
  0xbeabda77be1c7e2eU, 0xba7c83043d611d84U, 0xbdbbb954be2eb0ecU, 0x3cfa4760be754221U,
  0xbdd13c833cbbee7bU, 0xbdabc8efbe02f09dU, 0xbd6c04263d933e72U, 0xbd8749d2bea8c4a0U,
  0xbc930d703daadba0U, 0xbe5932c73e0c08acU, 0x3e741e98be175cafU, 0xbde5a0a73dbd8118U,
  0xbd9def3abdc8a4b7U, 0xbe1f9fa7bdbf1c40U, 0x3d729698bd4e7cabU, 0xbd9f5362bc8c7839U,
  0x3cc2ccad3cb99534U, 0x3c9b4380be5f981dU, 0xbd0682bbbea75311U, 0xbd7c5280be88d83bU,
  0xbd2d95f5bca43118U, 0xbe4627b2bd9c0c76U, 0x3cadda453d754f4fU, 0xbd0e1bcebe60717bU,
  0x3df47640be9134b2U, 0xbecd12a63d92c8bbU, 0x3d14daedbe5b733eU, 0xbe4e1f4d3ddab6abU,
  0xbe63d6a8be019c59U, 0xbe2633a3be36391cU, 0x3d009fdfbe24e79dU, 0xbe232512bbe6df16U,
  0xbd17ec55bbb8a0d6U, 0xbb2683573b849886U, 0x3c801484be6b8780U, 0xbd5bbba0be363529U,
  0x3ddf1aaebd52f834U, 0xbe5e1cb43e06989aU, 0xbba2a110bb0730e1U, 0xbe1138bfbec0a305U,
  0xbe38e9303d12eb6fU, 0xbe717d943e38f003U, 0x3dccd8b7be67d64eU, 0xbc58a1a2bc2211f9U,
  0xbd9b98bfbd498b20U, 0xbe036586be0b56b9U, 0x3db893c03bd527a1U, 0xbde4f691be558cbcU,
  0x3ddcf2e6bd044d67U, 0xbd43f28e39415c74U, 0x3e81cdc4bdcac848U, 0x3d0a6716be3a840dU,
  0x3dffa0d5bbf5b431U, 0xbe0a6e2fbddf4d95U, 0xbe2e0dd7bc3ef0f9U, 0xbe10a7cebe57afbeU,
  0xbd8872c43e16101cU, 0xbb977f09bdfb8a8cU, 0x3d84a8203d7970a7U, 0x3d7ae3683d9b9021U,
  0x3d4a1c823dad47eeU, 0xbe0dfe84bda9b5adU, 0xbd92db733db639d3U, 0x3db0f66ebdb94e6aU,
  0x3de1c64cbca8c72dU, 0xbc86fee0be69db68U, 0x3d3552b43d180a98U, 0x3c0548683ccf5351U,
  0xbddbcfb33d52d727U, 0x3de2e223bc414d50U, 0xbe24cdb7bdbd1139U, 0xbcec635f3d1c4cd4U,
  0xbe5c6a6fbda5feb2U, 0xbd8647803d506383U, 0x3d257a123e0cc77dU, 0x3d926e393ba12a06U,
  0xbda77829bd2737aaU, 0xbdf44676bc2fb490U, 0x3e03dd49bbbc0073U, 0xbe37dd3dbcc3d349U,
  0xbdd7f32d3d2003d3U, 0x3c803fffbe8e1896U, 0x3e1d6fd3be5e716fU, 0xbd43a350be23bcf1U,
  0x3e6423893d12fbcfU, 0xbe6fb0b2be2eaafdU, 0xbe4680f7bb1b2ec7U, 0xbd8735103e39800cU,
  0xbcbd49023d3243d7U, 0xbe2182ff3d3624dfU, 0xbcaa8edbbe2b59aeU, 0xbe04a350bdeb6d1cU,
  0xbe2b51d4bd071aacU, 0xbd591712bd93b6a8U, 0x3d1f44b8bcce72adU, 0x3dbdbeb2bd6c57a1U,
  0x3e38abc33c955c7aU, 0x3d21f485be52839dU, 0x3e0410fc3cda7a97U, 0x3d42f346bcc17d78U,
  0x3dceb864bdc6cd83U, 0xbe670650be235119U, 0xbe4d473cbd531f60U, 0xbe10f22ebe25056fU,
  0x3d9a211d3e33f79fU, 0xbe065c77bddd700dU, 0xbc2895c93da54a76U, 0x3dddbfb1bde66422U,
  0x3db3fc4b3e08bdfdU, 0x3d1219f63cf4cf97U, 0x3dc5e7b23da0bc0eU, 0xbd55441fbe0a2d2dU,
  0x3e4c83723cb044deU, 0xbde73fa43dbcd301U, 0x3d5db6c93e27b293U, 0x3bd83230bdabd256U,
  0x3e01235d3e151847U, 0xbe34b7fdbe85e174U, 0xbdd75c15bdccebf5U, 0x3cd2054fbe1fecf1U,
  0x3b1871e43e0cee23U, 0xbdfc5a55bc8a136cU, 0xbe164c3e3d8f226cU, 0x3c6a90e23c129834U,
  0x3dcff4ec3d660461U, 0xbe179ffa3d972a86U, 0xbd536bef3d2c3640U, 0xbd7153b0be440e5cU,
  0x3dc7b8c4bd2b7679U, 0x3d6d91a1be8a0149U, 0x3df815e6be6ac80bU, 0xbcd3e8acbe81fb71U,
  0xbd977e84bc7d68d1U, 0xbe904a7ebd74c0a0U, 0xbe049ce4bda46c4cU, 0x3d02e9b23e2f8ce6U,
  0xbdf5107bbe42cd44U, 0xbe4b81fbbdbd11b1U, 0x3ca5fe88bddcce98U, 0xbc655c10bdbb0fc0U,
  0xbdb311c2bc9f89a0U, 0x3e27e457bca17a51U, 0xbaee0993bd3edb39U, 0xbbc8d0b93da50feeU,
  0x3dabcb7f3dc2915fU, 0x3e3934a33d9fdc62U, 0x3e2efe0d3ca0d0abU, 0x3d83e2ad3d8e67a0U,
  0x3e1be7633d958ad0U, 0xbe5721393c427d1dU, 0xbca1e61b3ae774dbU, 0xbcb9d69cbd36e7c1U,
  0x3cc3b7a43c62172fU, 0x3d41e2203d4e4dbaU, 0xbe282742be6f88f8U, 0x3da7505dbe0e4fd8U,
  0x3df6e2213cadf2c1U, 0x3dc202c13dff2365U, 0xbd2de2c5bdcb76afU, 0x3e56d2f93dd06d7dU,
  0xbe1a5190be010e74U, 0xbd110941bd0af540U, 0x3e331b253d6aaf62U, 0x3c5b2a403e130510U,
  0xbd57bd4d3d42eb14U, 0x3d2446df3d7963daU, 0x3dfd0a6dba3bdc96U, 0x3da70d6a3cae56aeU,
  0x3e90f4d63e3e374dU, 0x3d546ff83e61d103U, 0x3e4f5a2cbe25c724U, 0x3e10c70e3e0b416dU,
  0x3defa5cf3c5b48f2U, 0x3df4c7d63c061f39U, 0x3e45983f3d682b44U, 0x3dcab0363c62cfc2U,
  0xbc293d4b3dde0c89U, 0x3db5228b3d97ba17U, 0x3e8c65a43dc27e7aU, 0x3d93e633bd9e7766U,
  0x3e2b12953e2b7da0U, 0x3d63a2673e375ac0U, 0x3e08fd303d962f21U, 0x3df443353b8c9108U,
  0xbd9d99733d2f26ccU, 0xbe6145733b4886a2U, 0xbd557ed4bd7384a5U, 0x3d15f693bbdb58f6U,
  0x3d8662c33eb3f3f3U, 0x3d45d935bbf0d3ddU, 0xbe7498993cf81d71U, 0x3e4cfca6bd78ac04U,
  0x3e1346ce3cffe94dU, 0x3d510acdbe137642U, 0x3e3eddb8bd42c91eU, 0x3d07c260bdc03e20U,
  0x3c0d9f5c3d077278U, 0xbdd864753d6cc40bU, 0xbe5d0ee8bd5cfd88U, 0xbdf4a8f5bd2e781cU,
  0x3e59f5093c3fd444U, 0x3e355b23bc9738b4U, 0x3e4e343b3c370c2bU, 0x3bd572df3d5b2efeU,
  0xbccb33613e8f2861U, 0xbd4cd7d73dc4e81dU, 0xbc6f20283e008048U, 0x3e97559ebd4e7639U,
  0xbcf1f4533d8f7d13U, 0x3da104dcbe45c208U, 0x3e8dfbdcbd364063U, 0x3d198dda3e1c4e55U,
  0xbdedb3c03dc575f1U, 0x3dd1eb603e22e68eU, 0x3e4536583d954d75U, 0xbc200caf3d9b73d0U,
  0x3e45fc02bc209bb2U, 0x3e500ec23e281084U, 0xbd8e6957bdb28954U, 0xbe0e51723d0acb78U,
  0x3d591697bdfac168U, 0xbd9c10e73dbb426fU, 0x3debeaf3bd5a171aU, 0x3e38c92e3dd16f37U,
  0xbd8ff7bb3df80f73U, 0x3d2828eabdafdef9U, 0x3e18c1edbded9ceeU, 0xbc4b78e83d4d223bU,
  0x3e2432383dd2831fU, 0x3d341d483e1d4035U, 0x3e2255c93dbc899bU, 0xbd5ab01c3c65b952U,
  0xbe9d51f1bde5f418U, 0xbe21068cbe36a9e7U, 0xbe4517963f16882aU, 0xbf11e36a3e19a022U,
  0xbeef88123ea03905U, 0x3d83fdadbed6c5aeU, 0xbe04ac6bbb84f952U, 0xbe847e11bdb44e65U,
  0x3e1ab0c6be3370dbU, 0xbe412bdb3d1d0bc2U, 0xbdca570e3e043278U, 0x3d507b16bce8e6f8U,
  0x3b8e7afcbe6ed159U, 0x3e7157f9be0aaf41U, 0xbefa3652bd9ffef4U, 0xbeeee0ef3d0ec4c2U,
  0xbe64ff013d222a44U, 0xbd9716163e5135a6U, 0xbc9a47673e6bb23dU, 0xbf49f9d93e2cc0f1U,
  0xbea760193e08ed71U, 0x3dae91b2beb4e10fU, 0xbe07631d3de2585bU, 0xbea249bc3d1655d3U,
  0x3ddfe23abdde8030U, 0xbde3a3583d7e6c12U, 0xbe77fc1c3e2e457bU, 0xbcc735363d901a5bU,
  0xbd65cfd0bddee65cU, 0x3e9478483e08d033U, 0xbe57f8113d3b960cU, 0xbed4093b3e3b3a9aU,
  0x3ec3fccbbc53439fU, 0x3e0e2b2e3edc7dcbU, 0x3e8654c5bea1485bU, 0xbf88a12d3ea0acd8U,
  0xbecdd8c9be823aa4U, 0xbd921f53bf0683c4U, 0xbeec24af3d5251beU, 0x3d7c22d7be3076ecU,
  0xbddaa523be8a8043U, 0xbdc72869bd39bbeaU, 0xbdabd9913ddbaaf4U, 0x3d4e111a3e017245U,
  0xbe108279bdba633dU, 0x3e80780b3ebd2430U, 0x3e1581b43e6c63b5U, 0xbf09b9ddbe3aa5f1U,
  0xbdcada9c3d6f3301U, 0x3dc419b1bce13f09U, 0xbe1ffa40be25f87fU, 0xbdc86b1e3e6ceb34U,
  0x3dbfbbfbbdd15feaU, 0xbd1aec55be35a57bU, 0xbd07cd48bde717d8U, 0x3e140433be10a08cU,
  0xbe68f591bdd9fdccU, 0x3d97ef6cbe98078dU, 0x3dc33123bdb36433U, 0x3d8527213d1b8f8cU,
  0xbd3d29b1be0e9d9bU, 0x3e562fb23dfb3761U, 0xbeacf69ebd187620U, 0xbe4cd662be3e91a5U,
  0x3ddf5742bd1a293dU, 0x3da9a7b2be213913U, 0xbdf1f63bbd89ca59U, 0xbd6dd0583c8fae85U,
  0x3e021c8c3d9d82f2U, 0xbe8859ca3c877a2aU, 0xbe628ea3bdd04eb3U, 0x3e8135383b07414dU,
  0xbd29f7ffbcb602f9U, 0xbe35d3c8be5a55a1U, 0xbb26a362bb550cdbU, 0xbd99a88b3dcffa40U,
  0xbd6a36313c072497U, 0x3dacaeabbcf0f840U, 0x3c36da32be270e64U, 0xbda8e9933da9b065U,
  0x3e198a3abd24d78bU, 0xbe533c48bd666df1U, 0x3da7a089be18d036U, 0xbd3598adbd1743c2U,
  0xbdaa74eabd9c2290U, 0xba71c8ec3d45c8c3U, 0x3de4300a3e26a82cU, 0xbda31c463d99fe44U,
  0xbe6a51df3ba0b28cU, 0x3d34de59bcdbed13U, 0xbe9f14273e74f165U, 0xbca9bcf43ea6236eU,
  0xbd269443bd479f94U, 0x3ed71b333e9c3257U, 0x3d9b3a7abd9bc4eaU, 0x3de664563c0c4df4U,
  0x3deb1f863dca73bcU, 0x3e44da28be16e88dU, 0xbe17fcec3ce02256U, 0xbdabc3903ca64674U,
  0x3d7e5ac03e1a014aU, 0x3e098b4dbc3210a8U, 0xbe60c7b3bbde29b3U, 0x3e1a7e243d9059cfU,
  0x3e86e5e3bc6d64a8U, 0xbe077c5f3e5bddeaU, 0x3eb166c33bddaaa5U, 0xbcbedee0be0b4c66U,
  0xbddfd1acbd9e588fU, 0x3e930935bcadca4cU, 0xbc2627a8be4b6d2cU, 0xbd92734b3b886b2bU,
  0x3df65de53bf404f9U, 0x3da97aed3d9fa5d9U, 0x3e416f0ebeb76b67U, 0xbb5e0814bb9f6889U,
  0xbdb76dbf3cc02212U, 0xbd185a133d6584aeU, 0x3dab46c43cf94934U, 0x3dc21701bdd72922U,
  0xbe9881993d8c17adU, 0xbcb9d99d3c97c1ecU, 0xbe2d98d93de2c2e0U, 0xbd2a8ca03cba054cU,
  0x3bec3c3f3d91136eU, 0xbbf63882be01b369U, 0x3df0c140bcb51203U, 0xbc131852bd7a79e0U,
  0xbd68b0a6be67848eU, 0xbd0648863e46dac9U, 0x3b24f393be9d8743U, 0xbcbd1b0f3db41150U,
  0x3c2b7b293cdec0e0U, 0xbda34d3ebaed13fbU, 0x3d84971ebd8e5df3U, 0x3de8646bbdd3151cU,
  0xbd5dc6273d2b5f5dU, 0xbc4bea00be53d349U, 0xbd5668c6bd4978ffU, 0x3cb306a03cb1ff4fU,
  0xbe183a51bd5b56b0U, 0x3b6d7d5d3decda91U, 0x3c5c25edbe5da28aU, 0xbd867478be2a6705U,
  0x3c719bc0bd8b50e5U, 0x3d2da0e6be2e5de6U, 0x3e2d85ebbea5daeeU, 0xbd294f44be5fe899U,
  0xbe00088cbde01a00U, 0xbdb7e1393c520c63U, 0x3db17992bdda7b9cU, 0xbdd9f324bcc44121U,
  0x3d2f89cebdaa7a48U, 0xbd4f2e823cdaa28dU, 0x3cbdb9fdbdb3e8fcU, 0x3d93c45d3d473925U,
  0xbeaa0b71bd63837aU, 0x3cbee86ebd291527U, 0x3d85cf153d37e5daU, 0xbab08ba13cf6af2dU,
  0x3cd1e5cfbddd96b2U, 0xbbaff8ff3e5fb881U, 0x3e453fc2be5d38bbU, 0xbe9316583e5ae797U,
  0xbddbd474bdfe837cU, 0xbe0dbb4fbe6f05afU, 0xbda2c5633d9d957bU, 0xbdba7ae8bdca9b27U,
  0x3d17a89d3dbc7544U, 0x3d80153c3c5b22b4U, 0xbd86a571bb8cf49fU, 0x3d6b700a3dcfb544U,
  0x3c1db880bbf957efU, 0x3e34c351bd708cd1U, 0xbe222a843cb99bdaU, 0xbe38f123be6ccb66U,
  0x3b913ef5bcc50fe1U, 0xbe07ddef3d4637f0U, 0xbe60dad9be227a7aU, 0xbdaf9808bd8bd546U,
  0x3bf28b1a3de95700U, 0x3d2604853cbdb788U, 0x3d973e87bce41505U, 0x3d5b81b5bb4488dcU,
  0x3e3d7594bd8f4233U, 0xbe1d0fcabd8a80f8U, 0x3ec0dba7bcd7f199U, 0xbd9a3508bd8795fbU,
  0xbd7056f6bca57944U, 0x3d9d55723dd2b41eU, 0xbe11ddeb3d2d05f5U, 0xbd6071bdbe8902d0U,
  0xbde19ca3be3b0facU, 0xbde78e1f3ae6deb9U, 0xbdac25ecbc9f7af6U, 0xbdcac0ee3c818a45U,
  0xbe340103bbddba70U, 0xbe07d223be322f45U, 0x3d07cf5ebe85d0d6U, 0xbe047a35bcb15a1dU,
  0x3df1411dbddedf03U, 0xbdbd13a9bc514191U, 0xbdb3eff8bd6c40cdU, 0xbd53f57bbc1f8fc4U,
  0x3d8909ed3d0915ebU, 0xbd9e3b27bcc38d9eU, 0xbc71514b3d8cd79aU, 0xbe57bed3be1321e2U,
  0xbd262c013e5be226U, 0xbe4b18d93c94045fU, 0x3dc06a1abc6cea7eU, 0x3e026d80be0367d5U,
  0x3e12aeef3ea2ceeeU, 0xbdc79a583d42f923U, 0xbd6085923e394159U, 0x3e441538be0286e0U,
  0xbda5b4e03dd92cc5U, 0x3e0938483d890d43U, 0x3e16c970bdb0f77dU, 0xbd8d4340be0e83cfU,
  0xbd245f6ebd28b8f0U, 0x3e23a47fbb96f305U, 0xbdc6139d3c369cb8U, 0x3d7889f8be7fbd1dU,
  0xbd9bf0eebd8ad2a9U, 0xbe898b81be5e5eacU, 0xbe3a3c0dbe1a651aU, 0xbdd79e8ebe2e977dU,
  0x3bd1028cbe0bdb68U, 0x3dc4651d3d5a7f32U, 0x3d9250d7be30d1b6U, 0xbdf513af3c8885f8U,
  0x3e166a2e3d9b0753U, 0x3e4d5c7a3d4c842fU, 0x3c9f1df9be259063U, 0x3d7d5cc2be4d21d6U,
  0x3d889e71bc9c1b9cU, 0xbe322c25bd5143c8U, 0xbdad75763e2d9299U, 0xbcb92294bdddc427U,
  0xbd0d7d52be592e28U, 0x3b85ead03deafebbU, 0x3cb2a9373eae9d89U, 0xbcf008283d670c53U,
  0xbdabc6b4be4f9f24U, 0xbdfc03e9bca35c94U, 0x3d80dbe7be7e977aU, 0xbe90a5ed3b81538eU,
  0xbe547176bc91e1e2U, 0x3dceb5e2bdd0a101U, 0xbe21b82dbeb67c76U, 0x3d814fa5be499ee3U,
  0x3d33e907bdd1d747U, 0xbd0bf7ac3e0b8278U, 0xbdc2bb8a3e016fdbU, 0xbd95f5313ea9c1aaU,
  0x3d2a318d3daf01baU, 0xbe0e59993c8428a5U, 0xbd5a5467be15fe10U, 0x3d466fdbbe233a1fU,
  0x3d2095a53d734b36U, 0xbe437f6fbcbf7e03U, 0xbdb0ad563da08926U, 0x3dac525cbe3c4638U,
  0xbd4eaa483c0c6c5fU, 0x3ce87fa2be1e058bU, 0x3d3d638fbe3371f0U, 0x3d8f380b3d45fe3dU,
  0xbdd50f353dac6955U, 0xbe921666bebbef72U, 0xbdddd8783cd4eb37U, 0xbcbf84f8bddae5e5U,
  0xbde468e7bdd0cb94U, 0xbdac112ebd930948U, 0xbe445d6f3c278b7dU, 0xbd68515ebe1a8749U,
  0xbdeec8bfbe02d953U, 0xbd2e66ae3d182e31U, 0x3ba4ca59bd446002U, 0xbe20d75fbd91b42fU,
  0x3ce17060bb877ad7U, 0x3de94ed8bd9f05e9U, 0xbc06b2f1bda3c630U, 0x3d8ef94bbcea6074U,
  0x3df22c70bd5be7b1U, 0xbb204caabda2cfbeU, 0xbd05e9de3d176899U, 0x3dbb8218be4a7335U,
  0xbca722de3db3fe72U, 0xbe8a2c933d9809a6U, 0xbe0292e9bd8dac75U, 0x3d5d5459bc5969f9U,
  0xbd448bdebd11240aU, 0x3e56eca1bdc34153U, 0xbdf3e3e9bd8dc556U, 0xbce1ed27bd97019dU,
  0xbe1871083d8c58e8U, 0x3dd48cd13ce7442aU, 0xbdbbe9d83e3d58afU, 0xbc5026283e521b06U,
  0xbc996dc4bd937302U, 0x3e1e9cd23e7a2238U, 0xbe4142103d84c69fU, 0x3d84b199bdefaf3cU,
  0xbe09d4cbbe5579b0U, 0xbed4d821be071a2dU, 0xbe07a3efbe27e453U, 0x3e02d679bddec354U,
  0x3d4284d8bd8759fcU, 0x3ded03263d188059U, 0xbc0f27b2be2cb600U, 0xbe30fcdd3d0d600bU,
  0xbd9431f2bdb96e41U, 0xbe7498c9bd45ccc2U, 0xbc020eae3d52dc7cU, 0x3d22c8eabe7e32ccU,
  0xbd30b25abd9406feU, 0xbec9bdeebdcc3a43U, 0xbdd8b9f4bdf8fc36U, 0x3c863a0ebdc16cb7U,
  0xbe818f513d449311U, 0xbe419d19bcf008b6U, 0xbda42ccebe4ba01fU, 0x3e4dce6cbe0226f6U,
  0x3b6b4d0fbdb79771U, 0x3e0f6959bc5eec4aU, 0xbbd597a0bdee3bccU, 0xbe663918bd42ab87U,
  0xbd560c8ebe406f98U, 0xbd8175623d4f50adU, 0x3c8a60693d9d80feU, 0x3d961de9be464ca0U,
  0xbd75c146bd9374c8U, 0xbeb96858bd78a7cdU, 0x39428a753d934aeaU, 0x3e3911e6be3dabf8U,
  0xbe88a24f3c93623cU, 0xbf086f00bec9bc99U, 0xbeb56714beb7f9a7U, 0xbe8ced48be69eaf1U,
  0xbd2b2170bd95835cU, 0x3d8275a5be87df39U, 0xbe25754e3e257aedU, 0xbe9275e3bd94effeU,
  0x3dc4dc16be4be11dU, 0xbdbed6603c9a4936U, 0xbda2f3093de466a5U, 0xbd96a35bbd9633c4U,
  0xbe6c9805bd723617U, 0xbe576d633c41886aU, 0xbdee3615bdc5c928U, 0xbeb2863abe8286f1U,
  0xbc539ea0be218356U, 0xbe8618a0bdeac22aU, 0xbe9c666dbe92ab29U, 0xbe4a37aa3d2b446aU,
  0xbe06fe58bc8e3fa4U, 0x3e651758be3e4da1U, 0xbda295203cf84c56U, 0xbe456eecbcf01c8eU,
  0x3d2ec861be675220U, 0xbe973dfebd00fc79U, 0xbe09ae2a3e0f4396U, 0xbcf5b1163dcdc4ccU,
  0xbe3c50913cffe82dU, 0x3b9f7468bdb00f12U, 0xbe07f01bbe09bad4U, 0xbe574e53be22525bU,
  0xbe2f7e4dbddc915cU, 0xbec354e0be6a6faeU, 0xbd2510d4be5a0ba3U, 0xbd9e5f4b3d8f80beU,
  0xbde189d2be11d128U, 0xbc061677be0519adU, 0xbe18a8473d11294cU, 0xbce2d12ebdfdbad2U,
  0xbd5e57c7be08a280U, 0xbe9df810bd9a1a8cU, 0xbe37f3043dae877aU, 0x3cdae2403d819288U,
  0xbdd623a9bd5c10b8U, 0x3d50b7fb3d308b19U, 0xbca518e03d61a273U, 0x3c5b412ebe18685bU,
  0x3d8edc433e11f0c9U, 0x3d7b4d33be4bffd6U, 0x3d182ad73dcd8983U, 0x3e08ba333dc42e68U,
  0x3e378e3b3dbfd20aU, 0xbbc3dba7bc5e4362U, 0x3cebba383e0b1a7cU, 0x3e7a1dafbcfa467aU,
  0x3dc2cf503dca6adbU, 0x3d8b0c5dbd223929U, 0x3c5b05da3e1f0536U, 0x3c1294a83e1fedcfU,
  0x3d8c9b36bda2c9baU, 0x3f0500223e8c1504U, 0xbe34d102be0f2748U, 0x3d56022c3e517048U,
  0x3d20a0d6bd8c4268U, 0xbe024c1f3da8d70dU, 0x3d3f86a33de2fa9dU, 0xbde1ea513cbbc885U,
  0xbcc6b37cbe15c576U, 0xbe07057f3d3b6715U, 0x3dfcd760bd2d745fU, 0x3e1a3a88bd07f186U,
  0xbe0072e23d815ad6U, 0xbd17f7533e4cacafU, 0x3e57a51abd3f7892U, 0xbd56f9fbbd9d4958U,
  0x3ba1f6b2bde47abaU, 0x3d2491bfbcf9050eU, 0xbe5bc63a3d4a9640U, 0xbd2721553d8c4bd4U,
  0xbe6c1083be5ac324U, 0xbee638783de1c97aU, 0x3d7dc98ebe46b9bcU, 0xbeb2c899be0eb54aU,
  0xbec4088dbdfa68b5U, 0xbe062293be183c8eU, 0x3d40e150bdf6b5d0U, 0xbebdf5e9be3b1280U,
  0xbd857f68be01520eU, 0xbe4fcc60bc1b08cbU, 0x3d121842be106c80U, 0xbb4ca3a0bc56e9a5U,
  0xbde4629cbd95273aU, 0xbe59bdeabe351359U, 0xbe052f41be399d7fU, 0xbe1a6d19be1368efU,
  0x3dd264073e54e1dfU, 0xbdea7261bd9d0a71U, 0x3e0579843e2ad36cU, 0x3e3718003d6bf562U,
  0x3e2b94f23e2480fdU, 0xbe4e3bc13d7a4546U, 0x3de1a62f3d8d09adU, 0x3e0fee6fbbdb5fa3U,
  0xbc63a0943e0ce281U, 0x3de252763d0469b7U, 0x3e91b1ecbe244740U, 0x3c4ae9403c2795c8U,
  0x3dc16f7b3d9a0582U, 0x3d8fe8e83e63e51bU, 0x3d857850be6c9df5U, 0x3df4d63d3d4720c0U,
  0xbde2bf5c3e2ef659U, 0xbe9fbc803ddf7445U, 0x3e0e64d33dde0adbU, 0x3d4b15503d9b2b40U,
  0x3b7f3c58bd905d24U, 0xbe5f3cdbbc8e912aU, 0x3e35159a3e19ebdeU, 0x3da9d2a43d4c8b78U,
  0x3d190c263d9de3d9U, 0x3d9e9bc53dbb46bdU, 0x3eb1a710be6fff3fU, 0x3d433e86be31aa17U,
  0x3dcebe833c930404U, 0xbced77f6be836076U, 0x3e2e1c77ba921aedU, 0xbd1b8925bd419535U,
  0xbdf73a94bd9991dbU, 0xbe33e6243d6dcd23U, 0xbe4fcf39be2d03a3U, 0xbe6b8960be06189aU,
  0xbe0f2c54bdc667a6U, 0xbe8b1917bda465b7U, 0xbd710227be5f3c5aU, 0xbe50c587be6c82a6U,
  0x3d0c508fbe1fd77cU, 0xbe0f699abdcd0645U, 0x3e04fbfdbf19d283U, 0xbd597570beaef3dfU,
  0xbd09209cbd284c67U, 0xbea94db73d2966c6U, 0xbe3d0989be0a726eU, 0xbe018613bdb8199fU,
  0xbe153e5dbe35a78bU, 0x3e1f4cdbbd54406dU, 0x3db8a89e3db25098U, 0x3b23014b3dd0984fU,
  0xbdde4282bd3c9e14U, 0xbe1aae79bc4a6b6dU, 0x3d535a93bd11140aU, 0x3dd517a7be1a4d53U,
  0xbc90545abd373befU, 0xbc8f56fcbe6a2aa0U, 0x3da3722fbd8d34b7U, 0xbc973834bc075d61U,
  0xbddd182dbd5af55dU, 0x3daf3b353d892273U, 0xbe161c7c3dfd5201U, 0xbd3c2681bc9656e7U,
  0xbe4f269fbea39312U, 0x3e6717b9bdc3a314U, 0x3e3a2c4c3e60bb18U, 0xbde17ee2bda9f1e5U,
  0xbd88c52dbdea0a54U, 0xbe394f49bdc73c8fU, 0xbcc6ac3ebe7e8f15U, 0xbdbb40153d9f4f96U,
  0x3cb1c6b43d8f2b36U, 0x3d543a253dbb2ad7U, 0x3d8e4aafbe9fd58cU, 0x3d19139abeb9f23fU,
  0xbda08db4bddb0213U, 0xbdd650853d404494U, 0x3d1388f83b243d32U, 0xbda4cb353df1e7f9U,
  0xbdb54f64beda084eU, 0x3e000af2bd3c86e4U, 0xbc8a4e8d3e0d6517U, 0xbdfd928abdb7b6f3U,
  0xbe2ef2cabcc46d0bU, 0xbe8f97b3bd2a4988U, 0x3dca0ef2be08ec0bU, 0xbd7a94e43c2789c7U,
  0x3c446b363daeb53aU, 0x3d50625bbd945bfeU, 0x3dd80811be3adaceU, 0xbbfc7c80bd18b046U,
  0x3d2e5cd9be052256U, 0xbe0f7badbe2172bfU, 0xbca47b7bbdb6bd3fU, 0xbdc01b56bda8faa6U,
  0x3e83f8f13e3df723U, 0x3e58916ebe420ab4U, 0xbde8f3e7bdb22d82U, 0xbcee3fb0beccf38cU,
  0x3df2d0603e1d9b6bU, 0xbbc980e7be0734efU, 0xbcef20c53df4f354U, 0x3eb6ab143db88519U,
  0x3eb2e3c1bd4b9618U, 0xbe1b9c043e12b472U, 0x3e71cb6a3ce09903U, 0x3d9e3a61bd3080a8U,
  0xbe1314433d35b6e3U, 0x3dfdf7823e967a58U, 0xbdf84826bce878c4U, 0xbd64125ebd57fc4aU,
  0x3e22c45cbe6fa413U, 0xbd7f5e35beedf8e4U, 0xbe0af2913e642038U, 0x3d168ea7bbcdd85fU,
  0xbd83925fbe33a70dU, 0xbe00e4bb3d9622e2U, 0xbe3c1e9abe81e1a7U, 0xbe9bbe5abdf82e02U,
  0x3d6faf9c3da4ab62U, 0x3db86a8abe1e77ccU, 0x3d96ca483a87d2c7U, 0xbd7dff76bdf4f7beU,
  0xbe19d0d23cc07a14U, 0xbe8eeee7be0b1d33U, 0xbd5915b9be849d53U, 0xba3721983e3fe98bU,
  0xbd13c351bdca2071U, 0xbe2bc18cbdd6eef4U, 0xbdaba4803e696689U, 0x3d1f4a9c3d878885U,
  0xbde86055bdbbc484U, 0xbe9b36593d835171U, 0x3de6a72abe36bfa2U, 0xbe2c4bdabd59b540U,
  0xbbc745333c41f265U, 0x3db2519b3d15dd40U, 0x3dd39855be627086U, 0xb9c97500beb002ebU,
  0x3d3285893dcc8c84U, 0xbef90129be9d6226U, 0xbc93f7f7bd467376U, 0x3cd1e8333ebbee19U,
  0xbbae8010bd3e748cU, 0xbe4ecd56bdf40322U, 0x3e360454bddaecf9U, 0xbd47cb8abe422f38U,
  0xbcdd77c13e0ca197U, 0x3c8254eebdf6d0e6U, 0x3dfde0333db6dc86U, 0xbdf9ea2fbb13cd75U,
  0x3e4519853d299fcdU, 0x3bb146463e7f5425U, 0x3d24824b3e0490e7U, 0xbd335b163e5ebf9bU,
  0xbd0a9d1b3c810241U, 0x3e128c79bde3bc49U, 0xbdf91790bd1c64a9U, 0xbe221a38be0f053eU,
  0xbe9609e93d21ca4fU, 0xbe9bfce7bed7eb00U, 0xbe4969cbbd7bf3abU, 0xbd45a192be255c13U,
  0xbc1c05ba3e0977fcU, 0x3e678718bdf4a436U, 0xbdbfdf25be12c834U, 0xbcc41a01bd8361b0U,
  0x3c0b1f9ebd6be819U, 0xbddf3d93bbf600a4U, 0x3ceacff63e0b830aU, 0xbd75a55bbdfa6865U,
  0xbe5232e5bdda3bf3U, 0xbc617ceb3d703ea4U, 0xbe36c9f8be5277eaU, 0x3c854278be83a7fcU,
  0xbdd2b22f3e1dea4aU, 0xbe6673bcbf0e0b7bU, 0xbe0efd713da3c62aU, 0x3d93a158be436a04U,
  0x3e70d7af3dcd860aU, 0xbe502b493e0c6b21U, 0xbe4d51993df84dd6U, 0x3e3c2f39be39c8fcU,
  0xbedfde3bbb81f0dfU, 0x3dbd8627be5a84ccU, 0xbe8bb804be9bd26cU, 0xbb9cc1d0be391425U,
  0xbbcb47eebd3a7644U, 0xbdeda6f0be6f88c5U, 0xbd9c9f6cbe64922bU, 0x3df8ee623e76d006U,
  0xbde84ea0bdc10439U, 0xbdf89106be736dd1U, 0xbe87f0243da9e5fdU, 0x3d8ae052bd772347U,
  0xbd927e14bd9ef738U, 0x3d57305b3cbbd021U, 0xbe573050bcf3c012U, 0xbe38d89bbda22eddU,
  0xbe904b08bd41b4eaU, 0xbd093e8fbd5a14cdU, 0xbe316057bd993c5fU, 0xbbd82db0bdeec5a3U,
  0xbcd63e11bdc4ef20U, 0xbe83faf7be4ba4f7U, 0xbdea2386be44bf56U, 0x3d5feeaebc9c458eU,
  0xbe0100163dc1d41dU, 0xbe04cd54bea755f8U, 0xbe01b92c3d7c7e8fU, 0x3ce3b383be6fca44U,
  0xbd2270e63d836f55U, 0x3c60dc8c3d56568aU, 0xbdba36a83d0b346bU, 0xbdace792be3214b0U,
  0x3df0d0f5bcb21274U, 0x3d117344bd4714b9U, 0x3d2b9a693d16bbc7U, 0x3c711798bd823f61U,
  0xbdbb30c83d5b9b5eU, 0xbe2c236ebe888b52U, 0xbda98f13be453a6aU, 0x38adf6bfbd371013U,
  0xbe2d4118bc6ceca5U, 0xbe1951cdbe6d9744U, 0xbc0d5a0f3d8bb179U, 0xbdf0f36a3cd18d76U,
  0xbe0ee4d8bb5f3c20U, 0xbce91b71ba8c0644U, 0x3d5afcdc3e033e7eU, 0xbe32eb34bd2d0359U,
  0xbc0afca33d8a58aaU, 0xbcc25200bd28fdadU, 0x3ea9fed73c29df9cU, 0x3d863515bdbe74b0U,
  0x3def395abdaa9b59U, 0x3e0bbc64be916d0bU, 0xbe119743bd8e8c97U, 0xbe0b6635bd593963U,
  0x3d910f783d4c9e34U, 0x3dc862cebce1187fU, 0xbdea9c293e331660U, 0x3d973207bd88622fU,
  0x3cac0c3a3e25cc43U, 0xbab2ba02bb64ff36U, 0x3c66cfb93d4e9c01U, 0x3e19a923bc5547b1U,
  0xbd733de03d7cba00U, 0x3c9fc271bd5280a3U, 0x3e1d695f3c021074U, 0x3c6298283d951dd6U,
  0x3dcc3b0c3dc029a6U, 0xbe3e49d3be9e4530U, 0x3d05ceb2be9e80d5U, 0x3db567a33d1cdc7bU,
  0x3d5ed026bce2a3afU, 0x3e14d9e1bd3eb53cU, 0xbe020ab33e123b17U, 0x3d2d8639be1c307dU,
  0x3dd33ad53e33b4b2U, 0x3dd22ff63d1340f1U, 0x39218ed33d9e5b5fU, 0x3e9c4f3e3e050484U,
  0x3d10874d3c6be275U, 0x3d6452803da1dfcdU, 0x3ddd0629bd130067U, 0x3d13844a3ceab087U,
  0x3d72ae053d3896bfU, 0xbe97560abd3e19daU, 0xbcc982d43d6f7970U, 0x3dc0d3793e068a91U,
  0x3dfa8ddcbbb97bcdU, 0xbb122d263c8502e5U, 0xbe7123d33dcff81cU, 0xbc567e75be28b04dU,
  0xbe18563dbe104e62U, 0xbde88137bd284e21U, 0x3e2dbbb2bdb2e4ecU, 0xbdf1e051bc8fdf8aU,
  0x3b9f944c3d96831fU, 0x3c24f271bd82e511U, 0x3eff9eecbe7d5656U, 0x3d44a54abec96d2aU,
  0x3d5036113c976e5aU, 0xbee126b8be555f87U, 0xbc3b083fbdca32aaU, 0xbd38af803cab7f63U,
  0xbdcb3c273bdd5a4dU, 0xbf33b5cfbd3193ddU, 0xbe882571be1bbe83U, 0xbf64144c3db2e152U,
  0xbf20b59e3e19ed7bU, 0x3d3de696be7348dfU, 0xbe7ae03e3df0c0c8U, 0xbed75f9a3d3af048U,
  0x3daca7cabde47351U, 0xbe04f4bf3dc3124eU, 0x3d31fa7e3dc72f35U, 0xbd4abf8b3dbbbcf7U,
  0xbe3e79fcbe0c4948U, 0x3e83fb063d4c9612U, 0xbea515763de65185U, 0xbe9ae91ebe93ad4dU,
  0xbe11d88fbd33f2e3U, 0xbdf9c59c3ea48e15U, 0xbbb17510be6a6279U, 0xbf611c733e264234U,
  0xbf10b1303e1af1c6U, 0x3d52bf84beafefddU, 0xbe8608633e032f1eU, 0xbefec24b3db045c4U,
  0x3da5a59bbe32bd0aU, 0x3d86cab93e4e101cU, 0x3bc35f823e0cb0bdU, 0x3d1d2b063de475e7U,
  0xbe0fa2de3c23f66eU, 0x3eb5a3803e8670d6U, 0xbe208c593e51118dU, 0xbe9f329d3dd0c71dU,
  0x3ba0cd0c3cf90f42U, 0xbe1b73643e6f3adeU, 0xbe33ab7fbebf5c8dU, 0xbf141f553e5a47d5U,
  0xbeb71e9fbe2896dbU, 0x3dda735ebedccef7U, 0xbf2565a0bd601c05U, 0xbe0072fe3cd16c3bU,
  0xbd19faf7bea4cdd0U, 0xbd8be387bd3f2063U, 0x3dd124cabcee81acU, 0x3d9309e13d5cd3d9U,
  0xbd1f56eabdb0a6e0U, 0x3dad70bd3e1b553aU, 0xbc09ff523e06fda7U, 0xbeb803dcbe32cc0dU,
  0x3d84d00fbd425849U, 0x3dd0d1cebdda850eU, 0xbdaaa79f3d5c2ab9U, 0x3d665a29bcfe5c43U,
  0x3d30513b3b8e10ecU, 0x3d3ca9143d9c1abeU, 0xbd4e8d3ebd59b61aU, 0x3e47b936bdc755b8U,
  0x3e5338c53c54e69cU, 0xbd803db2bcbf65e7U, 0x3ebfda85be00cdaaU, 0xbb395500be438614U,
  0x3e24fa5d3c19b7c2U, 0x3e94f7483e8704a3U, 0xbe25fbdbbdf8e148U, 0x3d7fe7823d4328acU,
  0x3d6e2509bdcb2281U, 0xbe4db91ebec4a542U, 0x3eb63be8bdb1a8dcU, 0x3c6b01efbe34b656U,
  0xbd912a2ebd961677U, 0x3c5159a13ce30b78U, 0x3e06ce14b9808c5fU, 0xbd712a743de3f13bU,
  0xbd4bb5e83db1312eU, 0x3d2db74c3df3d858U, 0x3db1deca3db5d821U, 0x3bad5680bdc26eecU,
  0x3c9b86c4bc4e6202U, 0xbe71f86dbe65f47eU, 0x3e726989bda09651U, 0x3c16879fbdfad6dfU,
  0xbdf694a2bdb6e242U, 0xbe80ef5d3eb184e2U, 0xbc218981be2ba39fU, 0xbd6f3d2a3daa3696U,
  0x3c8322633d3fea1aU, 0x3da05fd4bdae35baU, 0xbdaba0593c59193dU, 0xbe178e18bda16c4cU,
  0x3cabba18bdd65da6U, 0xbe09e59f3e2d80dcU, 0x3d8d029f3e107d2aU, 0xbce88cd63cdd80e9U,
  0xbdb14ea4bd6f506fU, 0xbd12be033d4d6b81U, 0xbe0954db3d5465ceU, 0xbca017c4be9f28a2U,
  0x3c71edcabe8f942eU, 0xbdaf3cf2bda222c4U, 0xbe931d08be941678U, 0xbd82d673bdea197dU,
  0xbd3a1951be018ebeU, 0x3e2b8862bd2e4a9cU, 0xbd2689c6bc25c19bU, 0xbdb626703e2621f6U,
  0xbd65256cbe23c55bU, 0xbe9f69553dccdfc3U, 0xbded95c93e2cd3b4U, 0x3bf8d4003dcc783dU,
  0xbdf956cb3cf81023U, 0xbc576eacbdbc65d9U, 0xbd98fde6bd917e69U, 0xbc071f69bdacd784U,
  0xbc5f637e3dd4210dU, 0xbe901993bf0ba84fU, 0xbebe79c33e19fe0aU, 0x3dfe5230be54a9a6U,
  0xbd54c30abdf71e35U, 0x3e9ab4a23d0834ffU, 0xbe9a45b53c3bc6b6U, 0xbe62ef893ae4bec1U,
  0xbd8706c93da741f5U, 0x3e0f98ff3e9738ebU, 0xbd924f6e3dde3409U, 0x3cbb0e74be8746a2U,
  0xbd0932fb3daef1f6U, 0xbd869d9fbd679c2aU, 0xbd3cc050bc8e0837U, 0x3d3d37393de1a476U,
  0x3da84ce13e5d9faeU, 0x3e2b1868bf17f5fbU, 0xbe7042be3ea9fcf4U, 0x3da09588be3b69c8U,
  0xbd0be76ebe8d01a2U, 0x3e5335233d15704fU, 0x3c04ec55bd9b646fU, 0xbeda7074bc33223aU,
  0xbd3612a73c345af8U, 0x3cf31b053e7895a5U, 0x3c2bb4223da7338bU, 0xbda01fabbe399fceU,
  0x3d1658533d51c18eU, 0xbeea1155bd93dc35U, 0x3e06d8e4be3a840fU, 0x3d813bf43e6be9bdU,
  0x3e69a139be443dd1U, 0x3e196ee6bdda6851U, 0x3e94d3d9bd906be1U, 0x3d0678d5bc5ce455U,
  0xbd05ea41beaa3cc4U, 0xbe955a353c4add06U, 0x3e8ecf21bd8cfef7U, 0x3d951c64be29889bU,
  0xbe3870853acbc1d3U, 0xbded06ddbde27a1eU, 0xbe33d9a43c61d763U, 0x3a09de803d316f74U,
  0xbd9ba7373df3de8dU, 0x3e765fb63d19580fU, 0x3cc468d83da42fc1U, 0xbd63539d3e907542U,
  0xbaa82506bde91f07U, 0xbe956723bda0e816U, 0x3e7ab87dbe4669efU, 0xbe2c033e3cd38d13U,
  0xbe02511abe0670f7U, 0xbdf204dc3d09ffc1U, 0x3d643903bdcd30dfU, 0x3e018624be216521U,
  0xbe25f0aebdcea0f7U, 0xbdf57549bd88694fU, 0xbe5841783de4404cU, 0x3c9395ec3e239e1cU,
  0xbeb434663c6e19e5U, 0x3e9abcaa3dcb4f1bU, 0x3e3b07773c8edce4U, 0x3cceb4d7beb0ca3dU,
  0xbea0b6c33dd09596U, 0xbe69e211bd2b5023U, 0x3dfbefa3bdbf3021U, 0x3d6aae32be1f1235U,
  0x3d919db53e31d59eU, 0x3d3f9678bdc1c853U, 0x3d38e0dfbd15c2caU, 0x3e80bda33d46068dU,
  0xbc423fc73d90b4ecU, 0xbbfb95f03d285193U, 0xbe14fa0b3cc75efaU, 0x3d135c7a3e103417U,
  0xbd897600bd2de7feU, 0x3b64b2673d176220U, 0xbd76d91fbe1e4cbaU, 0x3d8393cabe096187U,
  0x3d0fdb1bbcb089f2U, 0x3dc4d22bbdf9fd55U, 0x3c92a4f23d680201U, 0x3d5c4c4dbdf16ed2U,
  0xbc4b3d233dddfb5fU, 0xbdc59749bd83e6d1U, 0xbd725df73df22edeU, 0xbde8fc50be0c449fU,
  0x3d95818f3ccd1f07U, 0x3d4b6bcdbdbf58f8U, 0xbcd9adfebd432576U, 0xbd9f12e3bd42a5d2U,
  0x3da1e392bd4d76e8U, 0xbe0c385cbead7378U, 0xbe29eafabd950c88U, 0x3b9059c03d2a7b9bU,
  0x3d95a0e83c4d60f9U, 0xbb5a8bf93dfc12d8U, 0x3e8444903e27cd71U, 0x3e61df0c3e2ebda1U,
  0x39e8b6833dee3d7aU, 0xbe320e903e197441U, 0xbd3f0f4c3ce6630aU, 0x3d9a5325be2ffba7U,
  0x3e362dfb3dfdfe9cU, 0x3d87250bbe0d7542U, 0x3ae8f3c5bd71f196U, 0xbd017ccb3e914514U,
  0x3de19daf3e0353cfU, 0x3d0cb8bb3e0bd635U, 0x3d5354593d97aefbU, 0x3dfafd653d351b86U,
  0xbe7217123d2762b4U, 0xbe169b2c3dac0e37U, 0x3d1844813e01a5daU, 0xbcfd17d93d86001aU,
  0xbe00e280be643fc2U, 0xbdedf8423dcefc62U, 0x3e779c62be15b66bU, 0xbe19cd3bbdf46e27U,
  0xbdac8b453e05860dU, 0x3ba54d1fbe09cdeaU, 0x3e8bb10dbe0b3758U, 0x3c8f318cbe3b964cU,
  0x3dda76343d6bf2bbU, 0x3d54525abdeac242U, 0xbd1308ebbd97e61bU, 0xbc5f32a53c60bc16U,
  0xbe62bbefbce9dda7U, 0xbe6e8a1ebe8fd129U, 0xbe37a9153e3fbf04U, 0xbd012d7c3ded49c4U,
  0xbd90e7cc3e1de7b8U, 0x3e3f24e9bbba2b76U, 0xbe08434e3e03beceU, 0xbd81d9953d3b04b6U,
  0x3e8929a2be75c06eU, 0xbebf64f33c3e4b1fU, 0xbc9228293e5bba43U, 0xbccb272c3c4debe5U,
  0xbe852a82bc8a18b0U, 0x3ce64d9cbe89dac5U, 0xbd3eb572bc8f2449U, 0x3c4980053c98830fU,
  0xbdb47eb23e15d00dU, 0xbdb8fc50bc9ea7e0U, 0x3d14e3c73e251b1bU, 0x3d7d13053df1f5bcU,
  0x3de0c86cbdcbadefU, 0x3e0845463daad543U, 0xbe1a95c63d9f6f40U, 0xbdd1533fbb8eb4a6U,
  0x3dcee00c3d35f4ecU, 0x3dca70dc3c969d9eU, 0xbe02dd8e3e2de53bU, 0xbd6930a63d87a270U,
  0x3bf4fd633d4887aaU, 0xbdd161503dca14dcU, 0x3ccef9c43dc9f16aU, 0x3e10b230be342652U,
  0xbe8dd1f5bd4eabd2U, 0xbcc10cbd3dfe42f6U, 0x3ddc231dbd02b93cU, 0xbe5f3397bd6ecf2cU,
  0xbe2f7533be930ff8U, 0x3bf59620bda3e8ccU, 0x3c9b9d77bd296484U, 0xbe8ccf72bd8b19e5U,
  0xbca07a5f3d0b6e68U, 0x3e581e0dbdad9f9bU, 0x3de5c29d3d781932U, 0x3d89d7d9bd30f504U,
  0x3d1e67debd6f7ee8U, 0xbde5eeb53dd6619aU, 0x3c6ecb313dcc27c8U, 0xbe2dd7bbbe15d0d5U,
  0xbe024993be241e09U, 0xbedb2ad5be9e811cU, 0xbee709263dde1116U, 0xbe6c7723be87cecfU,
  0xbe70cab8bc6c25d6U, 0xbe073de7bdc7f508U, 0xbe250a71bdb12294U, 0xbdb825a4bdeee32cU,
  0xbbd8efe8be569047U, 0xbe82838bbe10de5dU, 0xbe83b23bbcb8286bU, 0x3d4fd092bd6913bbU,
  0xbe1b0ff5be3d3f1aU, 0xbd7ef2c5be4fcd9bU, 0xbe6f3607be8045ecU, 0xbe2bef7b3e91518eU,
  0x3bbe76f8be149c62U, 0x3d08d5a0be6e14aaU, 0xbe1b36a53de02430U, 0xbe8881c1bd08a4aeU,
  0xbe587780bea3460fU, 0x3d485732bdb700beU, 0xbe0ccbc6bcbb3fecU, 0xbe396075be6e7804U,
  0xbe8bf6f4be2bf4ddU, 0xbdad7f9abc536011U, 0xbeb62dcb3d1ba160U, 0xbac0de003d8a9828U,
  0xbdd4a4263d057c73U, 0x3e300a44bc6ca57eU, 0xbe5330abbe960810U, 0xbe89dd543eae0ba1U,
  0x3e42fba5bdef30c0U, 0xbe526a45bd2e1a14U, 0xbe8d23d3bc1864e7U, 0xbe0f3f4b3dc6f8f2U,
  0xbe44172ebef65836U, 0xbe49f359be73ea51U, 0xbef9b2863c3b0942U, 0xbe1e25f9bd7f7e32U,
  0xbe879cbebd833ce7U, 0xbe288980be88b598U, 0xbe88a33bbe4a01d5U, 0xbda5a420be691621U,
  0xbd67e213be3a8dbeU, 0xbd4978c8bddcc093U, 0xbea2d8c2be867a42U, 0xbed46efc3df38526U,
  0xbdd3af493d5dd8abU, 0xbd97c1dc3e203ec0U, 0x3dc56e08be0a630fU, 0x3c1042a4bdbf91ddU,
  0x3d9285f93d0c0b7bU, 0x3e069c6abd80ba69U, 0xbe12ece63d70800bU, 0xbd859fc33d996dfbU,
  0x3d6db8483d43356eU, 0xbd9eee9e3dee1951U, 0xbd8e76c23dfddaedU, 0x3d3c79023b5b6f2fU,
  0xbdcc62f3ba02685bU, 0xbd7b49b73db50c86U, 0x3b056f023ca6f41bU, 0x3c746475bd488161U,
  0x3c1ba3983df367e9U, 0xbe8da6933caf5276U, 0xbcb6d988be229876U, 0x3d5ed68b3dc741d0U,
  0x3d9bd7d33d537b4fU, 0x3e8937c1bcd43204U, 0xbcdbb5f73dc23cc3U, 0x3d46d2183d27d08bU,
  0x3e716277bd987b05U, 0x3d4eb6de3d007f6aU, 0x3dc676b83e8dcc42U, 0x3da995913e190089U,
  0xbc8f74fe3dab2532U, 0x3e334f3f3e10ba10U, 0x3cd8d59e3d897b47U, 0x3dec23f13e0b2dd1U,
  0xbe1c39f33d814cafU, 0xbea964b83e21b82aU, 0x3dc00550bc0443c7U, 0x3d29963e3d96d6eaU,
  0x3d89360f3d4c6871U, 0x3e40e7bc3e0fdc5eU, 0x3d813ce13d804fb1U, 0x3db255e23d38b2dcU,
  0xbc08fbba3ca154d5U, 0x3da0f75d3dbc75b6U, 0x3d339df83e90fd26U, 0x3d8b719d3d92985eU,
  0xbd08118e3dee882dU, 0x3dfe8a773d6d5776U, 0x3e72d00d3dbb20caU, 0x3e07254d3d8ab091U,
  0xbe801870be0303bdU, 0xbd4a1dfcbd29c4e3U, 0x3e2c8b2d3dc036e3U, 0xbdd4f22b3dd48e40U,
  0xbd4ad7d5bc8721aeU, 0x3e98c6f8be38581aU, 0x3da86f743e14ce82U, 0xbe96f6cc3ce25e8dU,
  0x3ecd451b3c07d357U, 0x3c55caa63e9d6bd5U, 0x3e0a91733e67f685U, 0x3a7744003e525230U,
  0x3d988b9bbe3b26aaU, 0x3e5735cebcba7e96U, 0x3c55e1ed3d5e76ffU, 0xbe094963bda5f06cU,
  0x3ca56cddbd2579fdU, 0x3b9405d9bdf272b3U, 0xbc93791d3d83f2b4U, 0x3ab22fc43da95834U,
  0xbccb9d85bc998a13U, 0x3e52c535bd81e795U, 0xbce6a9513ea23ccaU, 0xbcdb73f6bbd74fc2U,
  0x3eaec8afbe214ef4U, 0xbe1933ce3e21d4faU, 0xbd6379c93eb7f7b5U, 0xbd8542ce3e858ebfU,
  0xbdfaec05bd3c3acbU, 0x3e5ab6bd3d3c0c0aU, 0xbdee4de03e4b58c3U, 0xbb30346f3b69e471U,
  0xbd1f2b15bc936970U, 0xbe7d09293d0407f7U, 0xbef8c8b8be7b5648U, 0xbe09807f3d39ca21U,
  0xbe00f32fbd7a8983U, 0x3d28e219bddebee3U, 0xbe65c8db3e6d0c2dU, 0xbe1586c4bdc3ad2fU,
  0xbccfd230be1a9011U, 0x3ccdc226bdbbc81eU, 0xbd79e0863dad5b3bU, 0x3cb412403e4fa7dcU,
  0xbe335671be158a2dU, 0x3dbebec93d4a0b87U, 0xbe0f4513bcd6b398U, 0xbdb0129cbe0487e0U,
  0x3e380b563d0ccc3bU, 0x3e14ddc0be846d80U, 0xbe00b17e3dd0eadaU, 0x3db5e3ca3bf48dfeU,
  0x3dbda87dbe6156cbU, 0xbeb279273da0bb52U, 0x3e19df82be646390U, 0x3d480ba3bc44c56dU,
  0xbdce24223d0e27d0U, 0x3dde3c84bc59e00cU, 0x3d5e07cfbe5abe49U, 0x3d7bb8e2bdc6d5f6U,
  0xbbb6c5283d1984d8U, 0x3e92a0c93e156077U, 0xbd4018f23d1d3297U, 0xbd9ed6513e75f93aU,
  0x3e6c8e2a3d42882dU, 0x3e7eb929be81cdd6U, 0x3d65a38b3e323835U, 0xbb933e7f3ca50c39U,
  0xbd047e99be6674ffU, 0xbea419a1bab2bfcdU, 0xbdbd24b5bdb5253dU, 0x3d84d13fbd8c8989U,
  0xbcc2e298bdaa142dU, 0xbdc8290ebc6df2b4U, 0xbc5677eabe60cdb1U, 0x3d967e853d04a5ccU,
  0xbc95faac3d767443U, 0x3e981a5c3e146bcfU, 0x3dd46d50be0af2dfU, 0x3d3ef7e83e70edeeU,
  0x3ce835e2bd915ec9U, 0x3e520a06be957099U, 0xbdf3a15e3beb701dU, 0x3d8fff71be4dba35U,
  0x3d0ff42bbe3bce08U, 0xbe559f183e126a6bU, 0xbe65f85abe68d8e3U, 0xbd2a1fb13d2cd7c4U,
  0xbe4ccd8bbe09d28bU, 0xbe2c1251be46f4c3U, 0x3c9b1105be85f4b1U, 0x3d29d066be6dabbeU,
  0xbe6695313d0d52dcU, 0xb9ff273c3df0e49bU, 0xbde15fe1bdcd732cU, 0x3d5cfaf23e1adbdbU,
  0xbdf142bebcf37f18U, 0xbc11ea26be284232U, 0xbca86b153c9dfe43U, 0x3be689e33dbc92eaU,
  0x3e0bc3a63e57dc35U, 0x3dbe0d92bda8825aU, 0xbd03645cbd2763c8U, 0xbc8160d93d2a8820U,
  0x3d7f00dd3ae025c9U, 0xbcd2476bbdebc552U, 0xbdb71ff63d25f173U, 0xbd7077d6be538579U,
  0x3d6b5624bd02d0f4U, 0xbe2182c4bd7c0f35U, 0xbe979cd9be6ee117U, 0x3d45f9c2bd86f233U,
  0x3e6be7ca3e476f6aU, 0x3e25318ebe2ec909U, 0xbdee8d0bbcda349bU, 0x39ad1dd73d19ce59U,
  0x3dbccb7a3e5e4387U, 0xbb83833c3dd6d0a1U, 0x3d8568edbd38e735U, 0x3e2f765d3c5061ecU,
  0x3e31aa5b3d34f1b7U, 0xbd54f37cbd8dfcdcU, 0x3e844d0d3e137f3cU, 0xbd948ff83e221619U,
  0x3d5a09123e00b755U, 0xbc02529abd0843e8U, 0xbd8923593df87492U, 0x3deb34fdbcfc7079U,
  0x3e21452e3e7b2305U, 0xbe853a3dbe6af14bU, 0xbe22369d3d2c316dU, 0x3dec8c053ce2e665U,
  0x3d6a5fb23c8843d2U, 0x3e1942043d860071U, 0xbd14214b3e0519e7U, 0xbe366a8e3dc95547U,
  0x3e58b9a93d2db406U, 0xbd25fcb63dfd87d1U, 0x3d95325a3e961c13U, 0xbc51a4c03d392f9aU,
  0x3de7ffc83cb1a349U, 0x3e94fbb0bdf0f299U, 0x3dd2d057bbe68bf6U, 0x3d9854c33e41f6f3U,
  0xbde644a23d02c87bU, 0xbd0b84b9be11f6cbU, 0xbd8a35743e58a1eaU, 0xbe51e9443e23536fU,
  0x3cffa1db3e5bc522U, 0x3d38887dbda00a3cU, 0xbe02c4e33d9b4b0cU, 0xbbbdc33bbafe9548U,
  0x3e63458cbe6fd081U, 0xbecca7213c1a8653U, 0xbd221b7c3e8762b8U, 0xbd4cd2bb3e59ff40U,
  0xbe208a7fbe073f84U, 0x3ea862e13d1488d6U, 0xbd060a3e3cc5be2cU, 0xbe2620f9bd931a78U,
  0xbc11fcab3e641f84U, 0xbc8a6481bc5fde09U, 0xbda3a6f73ed2673dU, 0xbdc269003e8d89e6U,
  0x3d444b883da971a8U, 0x3e4588a1bdeba7c6U, 0x3e1755ad3e42a0c6U, 0xbda266503e0f877eU,
  0x3e913a7a3db8cc44U, 0xbe0684d63e3288ccU, 0xbded67633e480846U, 0xbc9a7dd43cb7f1baU,
  0x3d9299cebcff4df6U, 0x3dba7a8abd067a14U, 0x3dd2a4f73e2d4b8aU, 0xbd90728b3cb60037U,
  0xbe695adb3dfe6395U, 0xbe31243ebc72119eU, 0xbed27a1f3cee10baU, 0xbd4e6842be3e7cc4U,
  0xbba7bbbebc0e4f68U, 0x3e708a93bc63721aU, 0xbea091913e521af8U, 0xbce9e9e53c436a7aU,
  0x3e498902bd9af347U, 0xbd6164b93d3ae6f8U, 0xbdb199ae3e398c60U, 0x3c4973003e6c4a15U,
  0xbe495fee3cdf0896U, 0x3d5fd2613d110cf0U, 0xbea59f27bd87b7d8U, 0xbd27e364bd2bb35dU,
  0xbe54733cbdb67a61U, 0x3df37ee5be7701d6U, 0x3d71ebd43ca647cbU, 0xbe8e145fbe4c81deU,
  0xbdbcda633ce44624U, 0xbdf39504be80b307U, 0x3ea40127bd8173cfU, 0xbda1abbebe02639bU,
  0x3eb8b157be81b2fbU, 0xbeab5c4c3d368883U, 0x3d8253d73b3b2474U, 0xbd8ee9bebe03d6f8U,
  0xbea3a056be931325U, 0x3dc414d53d967c56U, 0xbe5266ecbe45647bU, 0xbe8eff4b3e11e385U,
  0x3e47d31ebd3f283cU, 0x3e3ba162bd5f5f31U, 0x3d3845383c2a51d6U, 0xbd8221e8bd32d77fU,
  0xbbb18989bd609fc6U, 0x3d870118bdcbdaecU, 0x3d9f030f3d108513U, 0x3e65144abdfbd48fU,
  0x3da74ccabe9e792bU, 0xbe8370f63dd76084U, 0x3bd6452d3e378464U, 0xbcd330603def134dU,
  0xbe374aacbe33886aU, 0x3ea879c03f01250bU, 0xbdc7188e3a6912cbU, 0xbe203eac3e954764U,
  0x3e6fe111be0834a7U, 0xbe49c4603b9f852cU, 0xbeb41286bf12f308U, 0x3b459ed2be730278U,
  0xbe2453d2be3ffaa5U, 0x3d4d1e22bca42268U, 0xbde34edebd3c9b18U, 0x3d039171bd894a2bU,
  0x3da2468dbea7b656U, 0xbf0bf840be298fadU, 0xbe8e78233d2fb383U, 0xbd7323103c86ac21U,
  0xbf034234bcb3a429U, 0xbc17402f3d01681dU, 0xbd376cd0bdeb017aU, 0xbd94668a3e2e0b9aU,
  0xbd0a7cc9be45d85cU, 0x3df5cdd73d52773eU, 0xbdc52b6fbd83e3acU, 0x3c1afc6fbd0818d6U,
  0x3d9395333e01b614U, 0xbd046d98bc07a79eU, 0xbd180c92bd1f31d4U, 0x3df208ecbdad6be8U,
  0x3d14f5dc3d9d26e1U, 0xbd8885dfbdf37abbU, 0x3e50242dbd97a7c0U, 0x3d287a5abd1f83cfU,
  0xbd4caa86bdaeb3e9U, 0x3e4b4f223e1357b2U, 0xbe1cd6a0bd9e11adU, 0xbdaf7978bcb70a92U,
  0xbe1e81b33ce934caU, 0xbd78e0bfbbfbde83U, 0x3de95c01be06d9a8U, 0x3d4a5a7dbe0265c9U,
  0xbd842100bd0e7e0fU, 0xbccb069c3d87fd8dU, 0x3cffcdb3be5be106U, 0x3d9a0c70bd06a8e8U,
  0xbdb9a3103d7277e7U, 0x3dc87fa8bbb8dd2fU, 0xbdb1d33e3c8010b5U, 0xbc87d4ecbd1c7c4aU,
  0x3d67b9eb3ca93e6dU, 0xbe312d91bd8b6057U, 0x3e352a86bdca28feU, 0x3d9185bdbe12815cU,
  0xbdd6783abdd86161U, 0xbe8bc6c13ddbaf8aU, 0xbde6378dbdb5581bU, 0xbe5970c43e029f90U,
  0xbe86a6f93e1cd116U, 0x3b2fdf65be26809aU, 0x3c87ae553cd72564U, 0x3e2335ffbd4e196aU,
  0x3e6a5f8a3d496c76U, 0x3cd4fc7ebd77084eU, 0x3d43ab963db30d34U, 0x3a266a803d7df36dU,
  0x3d817fd63d4d1cd4U, 0xbd8e4304bd20111cU, 0xbdfe6369bd8d461fU, 0xbd62c61cbe33c0dfU,
  0x3e13bdd03b9e70e1U, 0x3e8a479bbe2e4b0dU, 0xbd7f45d5bd0f6d61U, 0x3d10dcdbbd6b8a58U,
  0x3d3d9b8d3e55f4b2U, 0x3e0a6920bdc5820aU, 0xbe0d776abd9ddd0bU, 0x3e7d05cdbd4aadcfU,
  0xbdc2a3f5bde69bd1U, 0xbdfa6a2a3d7a6b8bU, 0x3e6271a93e28c97dU, 0xbd5dd5e03dc6e31aU,
  0xbe77a21bbd029d1eU, 0x3e417db5bb1aabb8U, 0xbdc976b6be639adfU, 0xbb53a0da3d216ecbU,
  0x3e1aeebcbd65df7bU, 0x3e3ac6b63dc2c4ecU, 0x3d390ef23d56d7c3U, 0xbd3b8ac8bbf349a5U,
  0xbcfc13a0bd8da1eaU, 0x3df924a7bca7968eU, 0xbd12cf20bdf7252aU, 0xbe20c039be21913bU,
  0x3d308c553b307185U, 0x3dd05a2fbd33f44dU, 0xbd3b3ead3deedacbU, 0xbc9207b43d577bc2U,
  0x3d9e2b7d3dba2b45U, 0xbe351f73bcf8cf09U, 0xbdf85f82be853d06U, 0xbdffb5be3c8fc7d5U,
  0xbd14b3cebdea27faU, 0x3b8bb3edbd87637bU, 0xbe69d03e3e81962aU, 0xbc669dcdbd66c927U,
  0xbe1d25cabd0ff509U, 0xbd1e39d4bde8cc83U, 0xbe6665c4bde0e6b7U, 0xbe5713d2bd564481U,
  0x3ddfb0eb3dc77b4cU, 0x3dc18322be49e32eU, 0xbd28fdd3be6303e3U, 0x3d2c1666be5f32e5U,
  0xbd0b6641bcce9660U, 0xbe6245f3be108b52U, 0xbe2f3c01bcde4f5aU, 0xbe26f5043e134e55U,
  0xbe75b2c63cfe7b7cU, 0xbd0517a2bdcd162dU, 0xbe7f9acdbbbe23f3U, 0xbe8e73333df16ad4U,
  0xbdbfd744bce0a14eU, 0xbe3c5c50be102012U, 0xbe8a94173d843a3fU, 0xbd901f9fbe2eb9a6U,
  0xbda3d957bd355f75U, 0xbe63a13ebe66a870U, 0xbc2094f53dc57861U, 0x3d4b84623d8319cbU,
  0xbd93bb813ca86ef5U, 0x3e7abb7c3dc96eb0U, 0xbe7d081abe1015b7U, 0xbeb150d2bdacbd1fU,
  0xbdeeb263be24f040U, 0xbcc5d469bcd7aa4cU, 0xbe40141a3cf2fef4U, 0xbe99ae5c3da82554U,
  0xbe8ce4cbbe2cb4b0U, 0xbe117347be418422U, 0xbdf749c2be1ed732U, 0xbe3b33273d4b707aU,
  0xbd308746bc6186b8U, 0x3c97d58abe6ad101U, 0xbddcc035bd75cb44U, 0x3d80092d3bf3f284U,
  0x3d8d66d9bdef622dU, 0x3ad979ccbd06afe9U, 0xbdc7d2febd2eb08dU, 0xbe1e0b4b3da0acabU,
  0xbd85a5b9bc799d61U, 0xbead59373e2df70eU, 0x3d526614bdfaedbbU, 0xbdd624bb3d98891cU,
  0xbcf7fabebc8923baU, 0x3dacaf53be074d31U, 0xbe639caf3d96276dU, 0xbdf91d013e87625dU,
  0x3e892e6dbca7e97bU, 0xbe2609b43eac58e1U, 0xbcef3234bc8f306fU, 0x3da36ff93cd61d63U,
  0xbe1fdbd7bde66362U, 0x3da58e3ebd83a8b2U, 0xbe1a0c4f3ea8180aU, 0xbd3ef943bf010e41U,
  0xbe2be1053d868b9aU, 0xbd98938b3dc835fdU, 0x3da77b7abb488700U, 0x3da3efc7bd7d81f6U,
  0x3d006e0fbe1f81c0U, 0x3d3b745a3e24ff2aU, 0x3da1dd9dbda26a83U, 0xbe040dc2bd989838U,
  0x3e1686713e0d6696U, 0x3ddc1a993e06affbU, 0x3e8d4814bc234414U, 0x3d9975e3bd2b0e6cU,
  0x3e277b203dff9d69U, 0xbdd554ac3e1c2b2cU, 0x3dcb24ca3c89ae5fU, 0xbba13029be192bbfU,
  0xbdaf3e4bbe0d8d7eU, 0xbe92d97cbd78c4a6U, 0xbd8bb65bbe314d7aU, 0xbde84cb83d67bd1dU,
  0xbe01cb47bd18c290U, 0x3b3ecbb7be50b65eU, 0x3c9de31ebe22a53aU, 0xbe8cc4143c44b96fU,
  0x3dbc589bbcfc7fedU, 0x3df0b5c2be4d47deU, 0x3de3515ebcdceb14U, 0xbd5bcf86bde07142U,
  0x3da6a737bbe6a98fU, 0xbe27f16dbd43ea12U, 0x3dc55e383dd2315cU, 0xbdff76d4be4dcd9fU,
  0x3c9a3981be10ab41U, 0xbe06cd6abeb88678U, 0xbe24f4493ce49b17U, 0xbcb3eb82be26a058U,
  0xbdbe29d8bc8c5aefU, 0xbe033009bdd41a52U, 0xbdaf2a94bdf195c2U, 0x3d052d6bbe307224U,
  0x3dabc4f8be1d6905U, 0xbe117e63be0ecd99U, 0xbd8c0d31bda88a93U, 0x3da9b495be30c199U,
  0xbdc230eabdc4fe01U, 0xbeb03c33bde5fc24U, 0xbd75033c3d6fc886U, 0xbcf7a2a6bd65825eU,
  0xbe931d103cf918b3U, 0xbef106913e30228aU, 0xbce1afc2bebac4a7U, 0xbdc4d8f13d6c344dU,
  0xbd917fa6be7525e1U, 0xbe261f14bdb79801U, 0x3cd2a432bd238b53U, 0xbe9a81c03e1ad462U,
  0x3e3cd4903cd8e575U, 0x3da73654be118dc6U, 0x3d61d0b2be8d156bU, 0x3ccd2a40bdf0dbaeU,
  0x3e0e13323dd6e617U, 0x3d5108fe3d20a2ddU, 0xbca9dc29bc175ca4U, 0x3cb742f9be91fb0dU,
  0xbe5bdb2ebd0f0c46U, 0xbe80c7febe1e7b64U, 0x3de4516cbe893901U, 0xbde2e0bfbe0f57c3U,
  0xbd9937f3bde291b0U, 0xbdaa71b5be0ea094U, 0xbd5db868bc793728U, 0x3ccf1ab3bd86c4efU,
  0x3dc972363c6fc1d0U, 0xbd4886dabd817d9dU, 0x3d36cc44be1b0225U, 0xbd97a4debe819543U,
  0x3b83e904bd852602U, 0xbe2a3187be5ed0f4U, 0x3df9cc063c8a0e4fU, 0x3c0874dabe9c393fU,
  0xbd80777b3b21feefU, 0x3d9f8856bdba5b48U, 0x3d5848e2bd898426U, 0xbd25188bbd9a8400U,
  0xbd963de8bb89ed5dU, 0xbe6ecacdbda908c9U, 0x3de6326ebd67ef87U, 0xbdc1e182bc38ab7fU,
  0x3dbe25d93d1309d6U, 0xbd0327d7be4d6050U, 0x3d397282bd40a80eU, 0x3da27de5bb2f63d6U,
  0xbdd70a703caea80bU, 0x3d09561d3c6d1eaeU, 0xbdb1a979bcb0c0edU, 0xbe695026bd2c6d18U,
  0xbdfa0831be176668U, 0xbe8416f33d44bd4cU, 0xbce8481cbd796cbdU, 0xbd8043dc3de04384U,
  0xbe61b0b3be8d7533U, 0x3de3db68be0f0db0U, 0xbe820508bd6ad4f6U, 0xbe909d04bdbf93c2U,
  0x3c039798be1e6f07U, 0xbd627f133d8a90efU, 0xbc4564463e4532eeU, 0x3cd9cbd43da41139U,
  0xbdacebcabd75020cU, 0x3d94eee23e40eeebU, 0x3dba9e8d3d2d87daU, 0xbdf15ce2be67d9fdU,
  0xbc4baad63db8456fU, 0xbe0c1ea73de150d9U, 0xbd8e4679be67c287U, 0xbe38d21fbda56af9U,
  0xbd4e2783bdf4fb8bU, 0x3d1163b5bd917b40U, 0xbe437831bcc84a8aU, 0x3e1b72c5bd0bf652U,
  0xbe0e40dfbd98a37bU, 0xbbc9fdc9be0db4bfU, 0xbd042cb2bd014eecU, 0x3d278d40bcb61ef0U,
  0xbd620b0bbdeca606U, 0xbc9f17f83d4fd4b7U, 0xbe55a271bc4fdc27U, 0xbca29eaebe85daf5U,
  0xbda8bf39bd6ced91U, 0xbb35f86fbdcf2fd1U, 0xbdf7c2bfbd4adacdU, 0x3b8d05483c0f3da8U,
  0xbda09493bdc1c18eU, 0xbcc5f407bca83592U, 0x3cbe7352bcd25d19U, 0xbe026a6b3cfab9d3U,
  0x3e072529bdf11fc5U, 0x3cb3992cbcab1139U, 0xbc750c213db6236cU, 0x3da52b5d3e121512U,
  0xbd2fdb88bccb2278U, 0xbc66258cbe515353U, 0xbe563734be59f64eU, 0xbdea098fbbf97997U,
  0x3e32f4e83e14bb4fU, 0xbe4602eebe0485b9U, 0x3d01907bbe5a2a93U, 0xbd3c364ebe91cb1fU,
  0xbd36ed9f3d9c5ff5U, 0xbdc0ddd3bbef6318U, 0xbda65c9b3e74e792U, 0x3d9bb96ebd69b751U,
  0xbcd7f2a3bc77d176U, 0xbd4b3ea1bcf492b7U, 0xbd8f4f52bd7c1daeU, 0xbd84ecb0bcc9c455U,
  0xbe5eac2ebd0e851eU, 0xbe22f7f7be5acdfdU, 0x3e40326cbdbe80d3U, 0x3d45bf8ebdef1e3bU,
  0xbe04d195be41f616U, 0xbd0011a43e13836fU, 0x3e2011f5bd8d6605U, 0x3c131d6f3de199c6U,
  0xbd2ddd20bd9b7a28U, 0xbe3337d3bc9f53c6U, 0x3d2deba0bdd24f17U, 0x3dd8ec9abe011b71U,
  0xbe0345a63d9992b3U, 0x3e37e1b83cb2a4d5U, 0x3cef135a3db5caafU, 0xbda031763e54092fU,
  0xbd321772bcf2571bU, 0x3d35860e3d9d6ec7U, 0x3db65b683c074aafU, 0xbc4faae0be234fccU,
  0xbdfc597dbd62f5dcU, 0xbe934020be3600dcU, 0x3a89d1303d0ef58eU, 0x3bde96073e3722e4U,
  0xbdabba02bda3b055U, 0xbe6219673d049051U, 0xbda2686cbd5eeb4cU, 0xbdd657ff3dc287aaU,
  0xbd9379bf3d7f48adU, 0xbcc4c1cabde1fed5U, 0xbd2965c7bdcdf8d7U, 0xbc15ab98bda5c214U,
  0x3c755957bda27a81U, 0xbe67b48ebcfe938aU, 0x3d36ae2e3d123d86U, 0x3d2b30dabda90bfcU,
  0xbe2529aabdcbe24dU, 0xbe7d9a743d848f54U, 0x3d6441363ce4ed06U, 0x3d4040c8bd81ce17U,
  0xbe1b09f4be9a38eeU, 0xbe2549f0bd0f6b10U, 0xbcbd1fcebdfcd366U, 0xbed7eb00bd879461U,
  0xbe07d5dd3d12f945U, 0x3e137e77bda33871U, 0xbd593542beb0a6e5U, 0x3d9c9c89be22d27dU,
  0xbdb2459b3d021328U, 0xbf137915be52b500U, 0x3da262c0be35ddb5U, 0xbd9d81f2bd5ecb82U,
  0x3dbfeddfbd88590eU, 0xbd90a291bd45f5aeU, 0xbc827e40bdacdea5U, 0x3d98c9bdbde2dfcbU,
  0x3d8854843d053d37U, 0x3cf7e21b3c820c51U, 0xbd65d81fbdf02e5fU, 0xbbbf487fbd0852aeU,
  0xbab475d8be070354U, 0xbdad8deabe2d2927U, 0x3d916256bd1fce82U, 0xbd6aa406be396d11U,
  0xbdc14a4a3c6f4962U, 0xbdac375c3da0ac58U, 0xbc123244be4b97eaU, 0xbae76f433d61cd22U,
  0x3cfdb42abd71b762U, 0x3e199b613dea0f47U, 0x3da1ddfa3e3af917U, 0x3c4ea921bd34faa5U,
  0xbd54e884be334bafU, 0xbd9fa1993d670cc9U, 0x3d722cc0bd6d76c8U, 0xbe8d2ddabe0b8af8U,
  0xbdafe8493da3c2dcU, 0xbc63ddd3bd72836cU, 0xbe59793fbc8a25f5U, 0xbc7acb683de50bfeU,
  0x3e0e896cbd9d0483U, 0xbe05edcbbd6035f9U, 0x3cb325203ddb8966U, 0x3d7db484bd5d9c6cU,
  0xbdfdbb453a2dddafU, 0xbdc31468bdab8affU, 0xbd9b1717be16015dU, 0x3c14c692bd2585fcU,
  0xbdb6aae2be4f5e52U, 0x3db04301bdb9dbd5U, 0xbe734f483d44eccaU, 0xbe1ab9eb3d9b4493U,
  0xbe00065ebd9a9abdU, 0x3c8fe9ab3c4c8593U, 0xbdeb73383dd9b89bU, 0xbd17a4063e4892e0U,
  0xbcc67cf0bd59745eU, 0xbd3a9a7abd4e79dbU, 0xbc58bde83a4ff428U, 0xbdafd381bd82d06dU,
  0x3df578fabe1c91a5U, 0xbe3dc9f33ba27969U, 0x3e25b3cd3ce55db8U, 0xbc803cfe3de460faU,
  0xbdeb55d13c446a32U, 0xb7bdfddfbe172e72U, 0x3ccb9aa03e0afaa6U, 0xbe492870be0bb9f4U,
  0xbdb7bf083c2cb7c3U, 0xbdd5e4943d9d4492U, 0x3ca66b793e3acb47U, 0xbc2157183e692bd2U,
  0xbdc0fd65bdd22e9eU, 0x3d4a6559bdf80603U, 0x3ca0c81c3d048fd8U, 0xbd9153c73d0b2c72U,
  0x3ccac5623de5c530U, 0xbc5962653e150c75U, 0xbe1db0d83e1c1f8fU, 0xbd89ce313e442bc6U,
  0xbe2adbfabdbe734bU, 0x3e292bd6be2d693eU, 0x3c2c73593d8ca91bU, 0xbebf868ebdf0551fU,
  0xbe0e9406bd11e918U, 0x3e0a519ebe02966aU, 0xbe7f50d03e0e81ccU, 0x3b11ff603d928a27U,
  0xbc44cd8dbdc2461aU, 0x3d6dc5903d289b8aU, 0xbdecf3fc3dd783faU, 0xbdeb941e3d44d322U,
  0xbe19f260bd81b967U, 0xbd850a48bebdf800U, 0xbee61279bc7e32dbU, 0xbe2979f2bc7fcaf6U,
  0xbc3ccf82bb1cdccdU, 0xbdb61ac7bdd6dcc4U, 0xbe12c688bde84ce3U, 0x3cb989e3be72de4eU,
  0x3dd234cfbdd945e0U, 0xbe252c1c3c19fdb3U, 0x3e3484d1be68c6d7U, 0x3c88b1d4beace6ceU,
  0xbe042280bd7a1cc5U, 0xbd857654bd1bac23U, 0xbe88decdbe816072U, 0xbe3b35d0bd119242U,
  0xbdbdd5c93e527f8bU, 0xbbbd39c5be4e5eb9U, 0x3dd7c2e7bb0f0c0dU, 0xbdb84c6bbe1b1ef3U,
  0x3d8c97513dbe6e77U, 0x3c9be20bbdc330cdU, 0x3c123cb6bc5f19b4U, 0x3d4ca95cbe32226eU,
  0x3e521facbd0f7719U, 0xbe6ed0713e68bda7U, 0xbdef88edbc72b8bdU, 0xbd39cdcbbcdaece1U,
  0xbe36690d3d798d39U, 0xbd31f38ebe0a1065U, 0xbd79b285bc9e696dU, 0xbe047759bda47aeeU,
  0xbe8d1535bd91c09fU, 0xbeba66a23deeb082U, 0xbe2da6dcbe88160aU, 0xbe0ab12abe339f9aU,
  0xbe030af2bc0e2b48U, 0x3d58567dbd22fc28U, 0xbe24f6d8bdd451c4U, 0xbe0e6db83d01804dU,
  0x3ddf1965be9ac14eU, 0xbe6e5c9e3e5faebcU, 0x3bb34d383dd63861U, 0x3d63d056bc51a935U,
  0xbd3fa612bd22903eU, 0xbe0af3693d4d3e01U, 0xbdceb1193daa1851U, 0xbe01e583bea4e265U,
  0xbc1a6264befb431fU, 0x3e7b480bbe8ac4d5U, 0xbea791cd3e058bf2U, 0xbdb9cfebbe78c748U,
  0xbd8a1248be81a440U, 0xbddee5aebdb100ebU, 0xbd32f914bd6a9fc2U, 0xbe431a293b63b61cU,
  0xbbd76653be3b37c2U, 0xbeae980d3b803a9cU, 0xbdeae98ebd975aa1U, 0xbc44ab683d8fc4a0U,
  0xbdb3fa82bda19affU, 0x3d0d9456bddf07abU, 0xbdb8466aba94c414U, 0xbd956c8d3d3f6071U,
  0x3ddd357b3c62a54fU, 0x3eb59bde3b8bbfd4U, 0xbdcd9de93dcb128aU, 0x3b613f65bd7858f4U,
  0x3d8884b9bcdfe2baU, 0x3d9f0cefbc6b7f3aU, 0xbce9af36bb6b6dd3U, 0x3dd95bcabda76d6dU,
  0x3d8b35d8be20793fU, 0xbe894cc6be46e6e1U, 0x3c15ef203db3b40aU, 0x3cd9b30c3ee329ccU,
  0xbe2d4b82bdc6982bU, 0x3ea41e293d8ef28bU, 0x3b5f87883e266b9cU, 0x3cc8799e3e1ce19bU,
  0x3da03ec23e1556a8U, 0x3de394f13e02fb74U, 0xbceeaaab3e1825bdU, 0x3d64fe5abd161936U,
  0x3d12a161bd928f42U, 0xbce3d6103d6eee4bU, 0xbe3cc39d3b476869U, 0xbddd937f3bc5c2b7U,
  0x3e3c3f3cbde48082U, 0xbe4f3e8fbdbc9b11U, 0xbd123f993dde7e7bU, 0x3cd825c0bc8e0439U,
  0xbe11ef213bef7743U, 0x3dfd6c033cdf0887U, 0xbe4723753cdb2767U, 0xbd6c7ab43e718478U,
  0x3d25fa54bc852177U, 0x3de5bccebe7e37a8U, 0xbe5590ea3cbcb6a5U, 0x3d1612a3bc57aaa9U,
  0x3dac97263a1755c9U, 0xbe2c22263d996a19U, 0xbd71ebf4bda14a19U, 0x3e43254ebd5f18c2U,
  0xbe081ae33cb40e45U, 0xbe31b32fbe6d3fffU, 0x3e8f15a8be961cbbU, 0xbcf2176cbe592191U,
  0xbe19cf76bcc10b9dU, 0x3de363ed3e5be069U, 0x3de82392bdfcf829U, 0xbd9a36e73ceceb5cU,
  0x3df9e7f53e283dc5U, 0x3e5900da3e0e812cU, 0x3e09beedbd43dd54U, 0x3d9bff963ccb88c3U,
  0x3c6e9e22be3c082fU, 0x3cead55b3bdaa9caU, 0x3dfe23f3be3deff3U, 0xbceca3243d9249f6U,
  0xbbb8831e3c880754U, 0xbe88322e3dd759b9U, 0x3d71f4043de6d40dU, 0xbce717763d8ece39U,
  0xbd681a613e052e1aU, 0x3e0d7e9abe54a4a7U, 0x3d41dde13e3c0761U, 0x3da10a6d3d900656U,
  0x3e3dcc1b3e1873fdU, 0x3e15a2f4be87fd41U, 0xbe9eab8e3e0b0e2dU, 0x3db167823de94354U,
  0x3da00c68be78e6c1U, 0x3e10b0833da1ff48U, 0xbe9078d9bdb5d8c9U, 0xbe6be1163e236c8cU,
  0xbdad25dfbdf1eae1U, 0xbe63fc503da41034U, 0xbebc438b3ce508d1U, 0xbc121728bd592b10U,
  0xbe2753eabd231e9dU, 0x3dad34f43e42157eU, 0xbc7f20a13d239efeU, 0x3d548abe3e619cf4U,
  0x3be6342cbc59b2beU, 0xbd9ce0593d752a32U, 0x3cffa0ff3e4ee059U, 0xbb2f71433be07a68U,
  0x3a3364ae3db6fe6aU, 0x3c3e8f3d3de86ac9U, 0xbd931bddbd4b7a00U, 0x3e59f994bbb84415U,
  0x3eb3eeec3d1c97a9U, 0xbd1fadb63ca03328U, 0x3cc5ee39bcff80d5U, 0x3cb8eef43d99db46U,
  0xbd4580d7bbb70ff9U, 0x3d382cfcbc56b8eeU, 0x3cd6c1653c9729dcU, 0x3d9ff058bc2d3846U,
  0x3d36a9223db91e3bU, 0x3d954de9beb9476bU, 0xbea3e2333d25fe6eU, 0x3cca55cfbcc9987aU,
  0x3d7e0828bbdf8414U, 0x3df316d03b98b97aU, 0x3c1bc4893e234196U, 0xbdba487d3d0ca5f7U,
  0xbc883eca3c43cdefU, 0x3dffc33f3c99fda0U, 0x3cedfb803c56f9e9U, 0x3d404e62be19036eU,
  0x3d348fed3de1761bU, 0x3b77d5d0bbbb7416U, 0x3ca1be3b3dfa480bU, 0xbc0daea1bd4b82ceU,
  0xbdca07a2be948b4bU, 0xbd68efb4bf119885U, 0xbdec67183d45562cU, 0x3db129c9beb2a56bU,
  0xbbb81996be47594cU, 0xbd68e5a93dabd53eU, 0x3db19730be2210e7U, 0xbe56305e3d9e8d3fU,
  0xbe0811d0bd51d32cU, 0x3db7442f3dd50095U, 0xbe09b412bdfd11deU, 0xbd8c25d6be2cca26U,
  0x3d83d50ebdcce030U, 0xbea05447bdb10fdeU, 0xbc3b1f103e5ccd9aU, 0x3e534e423e5952abU,
  0x3b2f8808bc215a0eU, 0xbe336baebe42926cU, 0xbdebc347bba8a6edU, 0x3cfecdd73d14d90aU,
  0x3d5fbd663e0a2278U, 0x3e1ba2483c1aeacfU, 0xbdc68d0e3daf29acU, 0x3e105962bd78cf2aU,
  0x3d92f841be0172e2U, 0xbe2dc9753e1ff6a3U, 0x3dabe71a3d32f57fU, 0x3cf2322c3e1c3330U,
  0xbe6f2cd0bda0f7edU, 0x3e0c85213d8ad3aaU, 0xbd8ec2c1bcf9c88dU, 0x3dcebb4cbe792106U,
  0x3c2c4f9cbd01264cU, 0xbe3e3de4bf0e98d1U, 0xbe56bac3be03b3b2U, 0x3d45e39fbdf5481aU,
  0x3cf8414a3d1370faU, 0x3dc4873c3daf97eaU, 0xbd097c403ce5b97fU, 0x3d013b28bd4bc913U,
  0xbdf11d573be8315cU, 0x3d86201abe477806U, 0xbe2d4641bc9d0d33U, 0xbd5c034bbe70ec85U,
  0x3b9cf7673d8b5af3U, 0x3da287f63c5bd585U, 0xbdcad11bbd89706cU, 0x3d959a4bbe65290fU,
  0xbdbb2f80bebae7caU, 0xbdd4a9d1beaff42bU, 0xbd9c2b573d8ee005U, 0x3d307756bde1ab7cU,
  0xbd89f8e23d643e36U, 0xbcce7c723db80f9dU, 0x3d6c246cbe25c3d1U, 0xbdac7df0bdc5b389U,
  0xbe943dd33d302757U, 0x3e014a7bbe558651U, 0xbea642ecbd733456U, 0xbd7cb7e63d98fdffU,
  0x3e2331be3d3ac218U, 0xbe38590cbe8e392bU, 0xbd8688eabc3b3db8U, 0x3e3264363d9aa920U,
  0x3dbb76c33dc90cdaU, 0xbc0d68babed6c6f6U, 0xbed4c6d53d9d4524U, 0x3e0603713db3a39fU,
  0x3d799db63e0ea0ecU, 0xbe943edc3dedbc6aU, 0xbeafe335bd105542U, 0x3dac2b0dbe306fdcU,
  0x3dadbdc8be39f0e0U, 0xbe9eddb9beab3556U, 0x3c93faadbe4ca112U, 0x3d24826a3ca70588U,
  0xbe045b1dbcab4269U, 0x3e00905c3cb55dc4U, 0xbd65e2fabeb79c30U, 0x3d009b9f3e1b589eU,
  0xbe0757243d520179U, 0xbd96d3bcbe725004U, 0x3e2a758fbe7b499aU, 0x3e23ce61be958919U,
  0x3d9f0e323ddc4be0U, 0xbe66c9283dfb7fc7U, 0xbcfd945abcfeaf66U, 0xbc645a133dbb3d92U,
  0xbc7a98963c651e48U, 0x3c0aff5fbba28754U, 0xbe2fad81bda9d5acU, 0xbd381b26be739a0aU,
  0xbcc738ad3d404b62U, 0xbe2424b8be81da91U, 0x3d13ddc8bdf7e76dU, 0x3e4ba065be0c926aU,
  0x3d39e1e7be707fe6U, 0x3d1bc873bcc17fb4U, 0xbe17e9b2beb5b7c5U, 0x3e0066a3beb5bfbeU,
  0x3dbb75303d9e3869U, 0xbe1d175f3dd91bc3U, 0x3dfb84c9bdc30f41U, 0x3e094da9be3f7d61U,
  0xbe07b86c3cb1839dU, 0x3e430a9fbe08732aU, 0xbe4866f4be542380U, 0xbd8bbcdbbe0c3c01U,
  0x3deeab2fbd41ee16U, 0xbf2218a7be095ddbU, 0xbce9928fbe0dd740U, 0x3e0823d5bcde4e90U,
  0xbe8bb5843d44d03dU, 0xbe9c8f02bea077e6U, 0xbc966b11beab664eU, 0xbcbe556bbe653d28U,
  0xbd8efbdabe58ca3eU, 0xbb659602bd10ce02U, 0xbd7224fe3ce96f93U, 0xbe8c3569be080d3cU,
  0xbe53ab38be0525d4U, 0xbe1001d2be49cac0U, 0xbe8bc7aa3dcac87cU, 0xbc9a72543aafff1fU,
  0xbdab57bebd849320U, 0xbdf95aefbe13db7aU, 0xbdf24de3bd535161U, 0xbdec179bbe294b56U,
  0xbe6822ffbca8749fU, 0xbf2abee2bf0d480dU, 0xbe747447be84210aU, 0xbd9a5a583beaf81fU,
  0xbc23398bbdfd1474U, 0x3d607fea3c692d61U, 0xbd7b3f603d8d5232U, 0xbdbe34763cd23feaU,
  0x3c8aab4ebe071ecaU, 0xbc8623babe56b393U, 0xbe23264fbc7c60abU, 0xbd0d2bf63dbfdb8dU,
  0x3db5d152bcced77dU, 0xbe30201cbee685c6U, 0xbd0ea94d3cdd9a61U, 0xbdb4accabe592693U,
  0xbe9fb2fcbe0317acU, 0xbf18e693bda135a7U, 0xbd9d075bbdc6f447U, 0xbe6751723d9f007dU,
  0xbe3f8672bbaafac0U, 0x3d287dcfbbca4947U, 0x3d868e603e22bb17U, 0xbf0aa0a0bd503a7eU,
  0x3e026b51bcce3f20U, 0xbdb8728a3de142fbU, 0x3e8fcc943e023921U, 0x3c74f580bd5ca997U,
  0xbe149b20bd7a8c25U, 0x3dda6887be6aff02U, 0xbc9740ed3c88f747U, 0xbe1a5ee8be462bdaU,
  0xbc12f4da3cb05af5U, 0xbcb3cb493c4b1045U, 0x3de69d46bdb7b5b2U, 0x3e0ed1883e0a6d87U,
  0x3da320ee3de7f32fU, 0xbde6a361bc355d09U, 0xbd0c1b673bc5c0c7U, 0x3d46f6eabe2ebcb4U,
  0xbd8ed9e3bd85b17dU, 0xbdb36bd8be3b86c7U, 0xbdbbdc8fbdfef9d3U, 0x3d490f2abde668d6U,
  0xbd0f84ae3cda0dd4U, 0x3d9e1d31bd128ad8U, 0xbcae52e53dddf9e7U, 0xbc25c5373c507209U,
  0x3d2998403e8a1f34U, 0xbc5db8c8be154242U, 0xbdfeadb13c9c4307U, 0x3d3ec1903e0cd699U,
  0x3e1a0ca33d823d5dU, 0x3dac521b3ca5c610U, 0x3dafddb53dc44cb0U, 0x3df4c5213de3617aU,
  0x3ce6c85fbcb0fed9U, 0x3d6537e9bdd8e9e7U, 0x3ea7ec21beac7e1bU, 0xbd212e70be58fce0U,
  0xbb6debdb3cfcdaaaU, 0x3e40ab62bd5b2075U, 0xbd060c673e0f1543U, 0x3de2b37f3e041514U,
  0xbe8d8da8bd1dfc2dU, 0xbee58b6e3de5fcf0U, 0xbc1bf9bf3de66a95U, 0xbdffb81c3e10797eU,
  0xbea8ca363e5e950eU, 0x3bfbc627bde1a83aU, 0x3e666d43bd2dfa5aU, 0xbe2390a0bd57cb8bU,
  0x3eb970213d02d366U, 0x3dcd9f2a3bcb1d9fU, 0x3f02f1f8be0b1cb0U, 0xbd8047e6bcceba92U,
  0x3dcc7f51bd88ebdbU, 0xbe8903b8bf0282c9U, 0xbe817efabd1257d4U, 0xbe1e2a733dc32a51U,
  0xbd8064093d94392cU, 0xbd2326b5bd9316c4U, 0xbd0ecd3bbd482f5cU, 0x3d40c8c0bcaf5b99U,
  0xbc9505dc3e32124cU, 0x3cb1dafdbcc1c464U, 0x3d71ab663ddea48eU, 0x3e34e46ebd395dbaU,
  0x3e2b09ccbe1c6386U, 0x3d19fd5ebbdb0477U, 0x3dbcdb253d15ee71U, 0xbd945a733d5a9c91U,
  0xbc60731c3e0c44d2U, 0x3ca4fed83dbaa827U, 0xbd0a54dabe0d6bfcU, 0x3e120ba6be823799U,
  0x3c4f845c3e44cfceU, 0xbe523ed3be202fc2U, 0x3cf4bb903e7b64aaU, 0x3e01b4f83e1f36c5U,
  0x3e1f6cd63e751cb0U, 0xbd622bca3dad5528U, 0x3ca0c9a73da3809bU, 0x3dd37a943df421afU,
  0x3e0eb6203dce1668U, 0x3cc3f7203dc5daccU, 0x3ebba72b3d20223cU, 0xbccb97003de61ddfU,
  0x3d31951f3e032464U, 0xbe2dabf4bd4b6e06U, 0xbbc0e0e5be28e200U, 0x3e2de245bd845577U,
  0xbdc2d9c4be1bf470U, 0xbc92b90d3da7eabeU, 0x3dfe2299bd867a17U, 0xbdbf9a0c3c62f324U,
  0xbd8f2de2be550d5dU, 0xbda212f23d9bf441U, 0xbd80e56d3e24ed4fU, 0x3c8e2036be37d22fU,
  0x3e910cd83cd432d7U, 0x3dd3da42bd95c1baU, 0x3ec912cebe81f8c3U, 0xbbcd6f80be8749cdU,
  0xbdc9d9fcbd3df9f4U, 0xbe2dd713be4a1fa8U, 0xbe4beac83c40c7ecU, 0xbd4f2d833b575fa6U,
  0xbda7cf80bea49bb8U, 0xbd0152263bd35e32U, 0xbe4979adbe68bddfU, 0xbc8314323d776220U,
  0xbd503d19bda969a6U, 0xbe68b7e8bdeaa098U, 0x3be291dbbe5f78d9U, 0xbc40eb8fbdbe8e90U,
  0xbe444860be080467U, 0xbd952d4abec61885U, 0xbd388950bebbd640U, 0x38d9c000be8ba1a1U,
  0xbcb5c5f0be00bbbaU, 0x3d15affd3d8a61eeU, 0xbe2c55303d05efc1U, 0xbdbeaddcbe1c4ac6U,
  0xbce08dd1bdacb402U, 0xbd8d2222bdec4d69U, 0x3dcf164fbe56a5b6U, 0xbd7cfc29be1249f1U,
  0xbe01597d3d88a1a8U, 0xbda53a8bbbb7695fU, 0xbe04c904bdef66cfU, 0xbda394b1bcd2eec7U,
  0xbdbd67ad3c26f608U, 0xbc07f82abd62288aU, 0xbdc9763fbde97cd2U, 0x3d3bb45abdae147fU,
  0xbe08f8393d31d0ffU, 0xbba857e2be1168ecU, 0xbd47f1a13d81d92cU, 0x3cf8894bbe3da1f3U,
  0xbd9d7576bd8856e5U, 0xbd4148bd3d38d665U, 0x3ce26cacbe98c35eU, 0x3c781a783d71f11cU,
  0xbe045cf0bdde57b0U, 0x3cf9f508bd969115U, 0x3df0a4e6bd950f82U, 0x3ba6803e3c91c142U,
  0x3d10bb473d82ef51U, 0x3c0aa84f3db13dc2U, 0xbe15a1543cc4c045U, 0xba836000bce5fad5U,
  0x3dbfbf86bded5694U, 0xbce54b3c3c9f7117U, 0x3c3ecae33d485323U, 0x3cf45448be36fc2dU,
  0xbe204254bdefa3c4U, 0x3df9c1133e92da12U, 0x3d332b03be1ca098U, 0x3b69eb913d65d0b3U,
  0x3c7207033d546354U, 0x3e1e327ebdb9b04bU, 0xbdef54bebda0297bU, 0x3dfb029e3d7968abU,
  0x3de112a7bdab8ec6U, 0xbda3bdcf3e040c1fU, 0x3e8c0f393e80918aU, 0x3d01a2f03d1135ebU,
  0x3dc12187bdeaaa9bU, 0x3e9f62523e94be2cU, 0xbe1e6caf3e78ca70U, 0xbce23576be07c31cU,
  0x3e05de2cbdd85f06U, 0x3d8ce01e3e8d89f5U, 0x3c54e7c9bd53a622U, 0xbdcab6e13e1be6a4U,
  0xbd976008be279ae0U, 0x3d60a32a3c586160U, 0x3bc077633ce6284dU, 0xbc0c3a413e0e2903U,
  0xbd82f84eba60101cU, 0xbdc76e303dc4c75dU, 0xbe5e450e3e487b2aU, 0xbd43f0763df2cb7fU,
  0xbe69fabc3ddb9abbU, 0x3dc079b93e34106fU, 0x3d58f9ec3e6aa5ddU, 0x3cc1eaaa3d49241bU,
  0xbe00c1f53c4fe3c6U, 0xbe4823d93ce97d3aU, 0x3cac3c9f3d8bd3eeU, 0xbe1d92603d1d837cU,
  0xbc6774f8bd414902U, 0xbc6f5d17bd305ffdU, 0x3ded085fbc521c8bU, 0xbd21cdb33c663a43U,
  0xbdaf8017bb0eb7dfU, 0x3dab96cebe52ececU, 0xbdf316593d387b36U, 0x39aa63003d873111U,
  0x3d8317c43ca106b3U, 0x3bafbcc33e1d856bU, 0x3ca83a85bcfddb1bU, 0xbddc0de4bb3cc695U,
  0xbe2b4cedbe0296f2U, 0xbdccf71dbd6d8920U, 0x3db61ed13dc6e6b0U, 0xbe9fb9383e1e77d8U,
  0xbe0ca6813dcac320U, 0xbd49c9d5be1d9688U, 0x3d42e38c3e5b6cc0U, 0xbe131494bd795cbdU,
  0x3e5cea1cbdea3a68U, 0xbe73c767bdc6d851U, 0x3d23f6f43ddfe17dU, 0x3d6a08b63d8c3cf5U,
  0xbd231b3abd507fadU, 0x3e7e3073be580c6dU, 0xbe5c1d4c3d05ac71U, 0xbe390882be5a2098U,
  0xbe123f223ca53d31U, 0xbc7366f7bd6f482aU, 0xbe06a80bbd899911U, 0xbdbfe3c23e373e40U,
  0xbdaa3273bca34119U, 0xbe33e1d5be38d531U, 0xbe28cb02bb859d3dU, 0x3d9e806cbe1f9c45U,
  0x3d174c11bd5f9a6fU, 0xbe828b7abd124a44U, 0x3cd5ab1fbd1b0ea9U, 0x3d9e8add3d06ae6cU,
  0xbdf016a73db5a338U, 0x3e60cef53e0003e4U, 0xbb1e03d8bd6d3d7bU, 0xbe315507bceba09cU,
  0x3df2ecc83e1d7ba6U, 0xbd54e342bd35a0c3U, 0x3e4ec5e23da621daU, 0xbda0644e3c8cdb6aU,
  0xbd0bee2a3d5096beU, 0xbe41d2dc3c5b121fU, 0xbdc28034bd3a4201U, 0x3dca86d43d798b80U,
  0xbe2d1d6e3db45f5dU, 0x3e2fdd333e359cc9U, 0x3dc96ed0be5c31f0U, 0xbb3e2200be2f1298U,
  0xbd45399d3bdde551U, 0x3d029e883ddff8e9U, 0xbd975c01be0588b1U, 0xbd8a6c743d306fbfU,
  0x3e96fe093dcd5f20U, 0x3dcdb65dbe0003cdU, 0xbec453d73e38e1baU, 0xbc9c3451bdd01f51U,
  0xbda0e659be20af9cU, 0x3e18c4cfbb73f0adU, 0xbd69a695bc3151afU, 0xbd8285d4be274befU,
  0xbdb8f1f2bdce7ef3U, 0xbe37976c3e8befbeU, 0xbd8309b53e55a5a9U, 0xbc2d14e83e0aa463U,
  0xbe4bd3153d9b253eU, 0xbd890504bd4a6c95U, 0x3da806ef3e01cfd6U, 0x3da71ef43e6294efU,
  0x3d9caabdbc547e33U, 0x3d099d113cc2fce0U, 0xbd7cf26d3e283c66U, 0x3d8c54293e480a77U,
  0x3d0fded6bc34f88dU, 0x3d8228cfbb92f8c6U, 0xbdce87403c6c8f3aU, 0xbe01aafbbd693a73U,
  0xbd8e5d6c3d5692c6U, 0xbc604b6abda19cb6U, 0xbd0e26ff3dd75fefU, 0xbd7bf1563e23dd8dU,
  0x3c9702dfbdbbfd62U, 0xbebc5fd7bde7510cU, 0x3b9a260abd6195c6U, 0x3d0d0d0b3e0c7506U,
  0xbe5c2b64bda65e21U, 0xbe9f0ae33e656a83U, 0x3e2173273df08e83U, 0xbe146877bcd8ca25U,
  0xbebc1e02bd89ed89U, 0xbe6131c2bd571ffdU, 0x3daa5610bdcd3e91U, 0xbe56fb7abe42bdafU,
  0x3e50a24e3cc2cc2dU, 0x3d9a4a773c8d6bcbU, 0x3eddba16beb19fd4U, 0xbc8a552cbeb20c83U,
  0x3da3f38a3d50eb33U, 0xbec05800bd9412a9U, 0xbe7cb2763d728156U, 0xbe24d8023d29674dU,
  0xbe2f3004be797ce9U, 0xbe8dffbdbed9ea0dU, 0xbe1c3825be673323U, 0xbd97a6bebe4de6a3U,
  0xbddca512be65b361U, 0xbe48e5bbbb8bf2b0U, 0xbe893f1ebe34e453U, 0xbdf8d32ebdddef9eU,
  0xbbaa1a683da61d72U, 0x39eb49a0beb22589U, 0xbe11623cbd45f24fU, 0xbd2c2aa0be5a265fU,
  0x3ab777c83d2e14f8U, 0x3cad39fbbdd45ecaU, 0xbdc64d6fbdf5266fU, 0xbd99bfc4beab5776U,
  0xbe31e98cbd00ee49U, 0xbe3c77acbdea90f8U, 0x3c0793433d9438f4U, 0x3d95570ebcc6d60eU,
  0xbb0ecbe0bd37f8d8U, 0xbc8835443afdf907U, 0xbe34dfafbe0471deU, 0x3cafe2193e2b460eU,
  0xbdb1ae2e3ba6f791U, 0xbd395f1b3b3e3603U, 0xbda45b0bbd78f65fU, 0x3c5d1b00bd72e38dU,
  0x3bc772c53d411749U, 0xbe6b6e82bdcd8cdaU, 0xbc2a1fc33da414dfU, 0xbcc874243c2c5301U,
  0xbec65abebdf17a6bU, 0xbf03924b3eb60103U, 0x3e9d9bfa3e42fa5eU, 0xbe5a55493dc8d38cU,
  0xbdfedf50bc625fa3U, 0xbe4272cbbd905ec4U, 0x3e4b7cca3dd46018U, 0xbd97b1743c5289f8U,
  0x3ebfd33e3d387a90U, 0x3bebddb93d43907dU, 0x3f0750c2be733826U, 0xbd241c0bbe56cc36U,
  0x3c9885793d31889fU, 0xbe801b46bd8aba05U, 0xbdf538503e50a3cdU, 0xbe322694ba7e0257U,
  0x3d225464be7ba513U, 0xbd2c153cbd2e1a96U, 0xbd0637f3bd504ecdU, 0xbd0bf22fbdc739daU,
  0xbd88c36abdc57a0fU, 0xbe4c4f0abd840289U, 0xbd2b0d4ebbba6747U, 0xbb217ff8be0950a6U,
  0xbe3234613bb7575fU, 0xbd304f77be4b0af5U, 0xbe2e98fdbe62ef10U, 0xbd8e9538be11c8e2U,
  0x3dd77c87be088facU, 0xbd5a729dbd056bb2U, 0x3db91812bb6e69ecU, 0xbd0bdfafbd83ab36U,
  0x3d3852cdbb093d88U, 0xbe5a0f8cbbec03eeU, 0xbe645f81bcc1881dU, 0x3b6fb22f3ddc9cacU,
  0xbd857265bd8949b3U, 0xbdd6249ebd864a80U, 0xbe64e9bbbe73e205U, 0x3c887fff3d69f36fU,
  0xbe246f7fbd9c9bedU, 0xbdcb30e2be1a796bU, 0xbdb6a808bd9f43b0U, 0xbd9060b8be0c8832U,
  0xbd266cff3dd0a4a2U, 0xbc2e70edbd3deedaU, 0x3dd577e4be54e472U, 0xbb0e23c0bd96149eU,
  0xbdc7b2e4bd18df7aU, 0xbe59916a3e2bdbe9U, 0x3e0895383db9fc5bU, 0xbe51dfd83dfc7588U,
  0xbe88d633bdf10359U, 0xbe04e2bd3cb2a01eU, 0xbdce5a85be3f741eU, 0x3ca76d06bd52db22U,
  0x3e35822fbd850b4aU, 0x3d4f40863e0c3f79U, 0x3ea4f0babdd35e3aU, 0xbd82838bbd148217U,
  0x3d1094c1bdde9f7fU, 0xbc9f5e5abe0ac466U, 0xbebbcf693cbdc5aeU, 0xbe2b262abe3ac080U,
  0xbf073c9b3d1b0d18U, 0xbf39fb6abe835cadU, 0xbd917cdfbd606aa4U, 0xbe89d56ebe0008c7U,
  0xbcf88c923e3e6364U, 0xbc3437bcbe27e03dU, 0xbc24a5f93e18b65eU, 0xbc6dd8cabca2aa08U,
  0x3d94acf03ce35e2cU, 0xbd6ef3483d54ca1bU, 0xbccb71fa3d8d4a55U, 0xbce5e16cbd5470adU,
  0x399aa227bd9b7388U, 0xbda0ecafbe266706U, 0xbe81e784bccfd43eU, 0xbd96d7b5be79a6a7U,
  0xbe2942243e4ee7f9U, 0xbd873436be5f1eb4U, 0x3dc3de19be0508b4U, 0x3dbdd9423ccd43f1U,
  0x3e4d40a23df81607U, 0x3e13a9803db2671bU, 0xbe067d823e34b010U, 0x3d457e013d60ce6eU,
  0x3dea18e13d272d74U, 0x3d0cadca3d587f17U, 0x3cb7f5a43e42e830U, 0x3bc3d1b03e3efe21U,
  0xbd1c5da93bbeeedbU, 0x3e23cf693d5d4d62U, 0xbe04525f3d9f115aU, 0x3cfbe2ccbd8ebe6aU,
  0x3d9030d23cbb7edfU, 0x3d1eb21e3e19835aU, 0xbd812064bd3d3b38U, 0x3d77aeda3e5b67dcU,
  0x3d50af4bbdc76da0U, 0x3df391053d81e76fU, 0x3ccdd9e5bd86da7aU, 0xbdca65803d336668U,
  0x3e088f0d3d3cdc1aU, 0x3e3de2453df1fcf1U, 0x3e187736bd5defabU, 0xbd4cd67bbd823404U,
  0x3e070004bc88f2edU, 0xbae3317e3ddd7d78U, 0xbdd4dd2dbd5f9996U, 0x3d35af6c3d6db9daU,
  0xbe9d9db8bcd7cdb3U, 0xbe9528d1bdbeaf94U, 0xbe47d95cbd99970dU, 0xbe5ecb0ebed0cdaaU,
  0xbe7d67223dc74d33U, 0xbe39f8b6bc34e625U, 0x3db2e2d1be9ad4dbU, 0xbd26d0dfbdb4df85U,
  0xbe374c2fbb3e77ccU, 0x3c8edadabdd38950U, 0x3d56e2f3be9cf6bbU, 0xbced08a0be83fbaeU,
  0x3db37419bd7241d4U, 0xbec831a4be76884dU, 0xbe4f5d4cbe44dc0bU, 0xbe57ab9bbd456125U,
  0xbe35c9063d8f2d9aU, 0xbe8a5a4abec4f378U, 0xbd889f30be0653acU, 0xbdc218e6be5efc09U,
  0xbcba5b3c3e34c2f5U, 0xbd050b7bbde379efU, 0xbe4fe1003c8201d1U, 0xbdb4b530bdfd9f7cU,
  0xbdbf38303be0e2c3U, 0x3b1c2d5f3d176429U, 0x3c0674e63dd7af7bU, 0xbcac5b2c3dabc0eeU,
  0x3d6fdf6abdab08b8U, 0xbc884af9be800662U, 0xbe3fdd8ebeb7fed9U, 0xbdd34dc6bea82a8bU,
  0x3e30a201bd839b03U, 0xbe7a9611bcd92435U, 0x3d82d871be66e8fdU, 0xbc60945a3d199a0eU,
  0x3cf2ee47bd7aafbbU, 0x3d8f98b5be16de98U, 0x3e175ba53ce2df1bU, 0xbe84d3993d6caf42U,
  0x3d46c5043e0c2fddU, 0x3d93c08b3c9d7d8fU, 0x3e042bdd3e21ab04U, 0xbd771ab6bd3696e0U,
  0x3d63b5293d8b9f75U, 0x3d53ad9d3c438926U, 0xbd9206133ce3ce71U, 0xbdac3702bdbd122aU,
  0xbe6caeb7bd3ad547U, 0xbdb2ea95bd39e17cU, 0xbe03d0e03de3d41eU, 0xbdf35f2abdafd9cbU,
  0xbe9aa336bd41d45aU, 0xbd596ef43d2eaccaU, 0x3e124cdfbe8a4f61U, 0xbe6a2eefbc4faafcU,
  0x3d9828753e0699c7U, 0x3d05cd9cbdeea6d5U, 0x3df84c92be23cb4dU, 0x3daa0d5dbe12217eU,
  0x3e45937cbdfdc5beU, 0xbf005354be3ea98dU, 0xbe866328bd874cbeU, 0xbdd218673e2a329dU,
  0xbecb452a3e3fe25bU, 0xbe45f430be26ce1fU, 0x3c70fe303d7f9110U, 0xbef054793db37225U,
  0xbeb517b23c96cdb2U, 0x3e20c502be5b8cbcU, 0xbc6afd4e3d75c9f9U, 0xbef1f857be3f07afU,
  0xbcbc6191bd193720U, 0xbc80694b3e723657U, 0xbde05e733de395b1U, 0xbd9b13183e20d902U,
  0x3cc74cbdbe0567b0U, 0x3e18b74fbe3790a8U, 0xbe66fd1abea0df48U, 0xbe90f92b3de148adU,
  0xbe9615a6bd8405f1U, 0xbe47c4393e9a33a2U, 0x3cb316bd3d135b59U, 0xbef79f633e95e271U,
  0xbe36a3f2be6e6e0aU, 0x3ce31c7cbe8db8afU, 0xbef02cfcbcf19db3U, 0xbe4306cabe95289dU,
  0xbe2b1e4abdbea307U, 0x3c93e10abe0e007dU, 0xbe958fbbbd4f9bf7U, 0xbd787abbbd24587bU,
  0xbdf9f70ebe368ff3U, 0x3c3b75743e437c0cU, 0xbf023ec93df14771U, 0xbee1daed3d59e7afU,
  0xbda59fca3d9dd634U, 0xbe31986abe8bbcf9U, 0xbcec88a0be314bdbU, 0x3ce407b0bda6498aU,
  0x3dc752173dfca49fU, 0xbdf46716bc521617U, 0xbe23c106bdd55636U, 0xbd87fb4abd99a99fU,
  0xbe6c0bd9bd4cbdc7U, 0x3bb51d43be1a470fU, 0xbe961b3abe8655c6U, 0x3d2b693abe8ecc2bU,
  0x3d9b3d2a3dce6541U, 0xbdabd5f7be4000d2U, 0x3da06e65bdae694dU, 0x3c9498dfbd74dd85U,
  0xbd796c19bd1e6c8bU, 0xbdd294703e5fc712U, 0x3d17b380bc593a60U, 0xbe720eda3e1c0ae3U,
  0xbe66755dbda1f9bcU, 0xbe0b3ad0bdc46d28U, 0x3ced3c64be54277aU, 0xbddbdce2bdf117e0U,
  0x3e1be9e7bd07cc8cU, 0x3e0f82bc3d959986U, 0x3e5d365cbd7f2c5cU, 0x3d91c061be549aabU,
  0x3db4f9d93df2e5efU, 0xbe6a1c14bd80a14cU, 0xbb353a533c4eb06fU, 0xbdb7038e3cebb024U,
  0x3d910ef63cff853eU, 0x3e589709be9f5e3eU, 0xbe06fec2be482fbdU, 0x3dc0a74ebe1d4ad3U,
  0xbbde9b6d3dc6610cU, 0xbb3afc6abd7ddd70U, 0xbe2cd793bca4f0a3U, 0x3d039edcbd108b1bU,
  0x3dd62c81be43936cU, 0xbe4663463d42ff3aU, 0xbc2fa4c0be36699dU, 0xbda213aebe39c9d4U,
  0xbe4314f5bd9b316cU, 0xbbda02453d1afd2aU, 0x3d318315bc7fb1f0U, 0xbd8bcfd13c5cde6eU,
  0x3d0a1a5bbc0994a1U, 0xbddd841f3eb9963bU, 0x3e19fdd3beaa6762U, 0xbc445513be3f6f01U,
  0xbd870afcbbf4cd43U, 0xbe8c9566bc63257eU, 0x3d754082be0a9752U, 0x3c8f96ec3d508446U,
  0xbd04d0233b1c0c86U, 0x3d9be96a3d829ea9U, 0xbe2801debdec42fcU, 0x3d87f661be33461fU,
  0x3d1da9f9bc4c3e15U, 0xbe9576d1bd79b9f3U, 0x3d724bf5bd941474U, 0x3d9b94a6be8eb55fU,
  0x3bda5e1c3ce3938fU, 0xbe9de0403d1f6a5fU, 0x3d49da28be8c9716U, 0xbe20119dbd5a71baU,
  0xbdd9b1b43c8266fbU, 0xbda46f2fbe6b1fcaU, 0xbe8b0b3ebbe761f9U, 0xbd9aaf44bcb622f7U,
  0x3e4823f7bdaa9b67U, 0x3b4fd6f63dbc9ddbU, 0x3d3befb6be1fb7caU, 0x3cfc7a00bdd4b500U,
  0xba9b029a3b52d9d5U, 0xbe63ecba3d77c2e2U, 0xbe18efa63de16d86U, 0xbe48f91bbee02dbfU,
  0x3b0dda10bc996443U, 0xbcc1cff0be4abc25U, 0x3d3f85f1be0cc1b4U, 0xbe27dd5ebe9af236U,
  0xbde31d8cbc87ec60U, 0xbe0707653d0b84b8U, 0x3db70946bd8b986dU, 0xbd50a9663d3ded7fU,
  0x3e11b83e3c984b58U, 0xbe2928b93d7b18a0U, 0xbe59cd6b3db4032aU, 0xbd4c1c5b3ddb0f5cU,
  0xbeaef6d93d2dfba6U, 0xbe7fcd91be24ea1eU, 0x3d828d1cbe2be2d7U, 0xbd67a29c3d559c1cU,
  0xbdfbc153be06e9c3U, 0xbdd5c2d73e95f62aU, 0x3d738507bc6ac26cU, 0xbdfe89783d9ae763U,
  0xbe49d96ebe53e56bU, 0xbe06ad4dbe39287aU, 0xbcc3ae69be3fc9e7U, 0xbba61676bdc6542cU,
  0x3e83f96c3d956b09U, 0xbdc2ec19bcde8a18U, 0x3c1b5c0c3dca5499U, 0x3d6a7e323e15befdU,
  0x3d97b7a2bdc421adU, 0x3c91c8493e2ed2aeU, 0xbd8fb0abbcea4e39U, 0xbe459c8abdfb7246U,
  0xbe47b658bd831d26U, 0xbe004720be89e761U, 0xbdb26c1abdef9407U, 0xbe25b4f63d778940U,
  0xbe167e40bc0cd30cU, 0xbe1f3510be56a632U, 0xbe372f58bd021618U, 0x3d5717fabdc61eebU,
  0xbe021c19bde1d6b7U, 0xbe1abf5cbd06648dU, 0xbd956623bddfbc7dU, 0xbd6730cbbe4c23e7U,
  0xbe4613133d727a1aU, 0xbda43029bdcdd407U, 0xbcce2beebda60741U, 0xbe158cf5be4f3998U,
  0xbe4200d0be1cc69bU, 0x3cb94939bcfe757fU, 0xbd4fdcecbe42c3d7U, 0x3d0a78393ce524b2U,
  0x3df0c340bd985a23U, 0xbd77dc89bc07a938U, 0xbc3406be3d8267c1U, 0x3dd162a3bd9d474eU,
  0xbe11a09e3cfe9e7cU, 0xbe4c8a313b59dc7dU, 0xbd0a9bfbbe41d246U, 0xbd92b878be33767bU,
  0xbd9f3ee33be970e1U, 0x3e0afa063e58ac78U, 0xbd1cc3f63d16f1e4U, 0xbe03ec0dbd3a9d6bU,
  0x3cbbcedc3d5cb803U, 0x3e51d0f93ddeb57fU, 0x3c081621bdfd1f0aU, 0x3dd96a62be168a66U,
  0x3d8aecab3e1640f2U, 0x3d350a183cd2c797U, 0x3e8bb5aebb9a0458U, 0x3ea52b0cbda07d33U,
  0x3edd4e58bdd4f893U, 0xbd8306423e811a0aU, 0x3eb74ba3bd50bd0dU, 0x3cdd11ec3e235b8fU,
  0xbdb7ff943d4db1baU, 0x3f11b8b83ef87c85U, 0xb909791cbc9547fbU, 0xbd317aabbc468ba8U,
  0x3d585c283e1bd101U, 0xbc1879eb3d089661U, 0xbd34d414be884a46U, 0x3c2308253d4cbb2bU,
  0x3da4804ebdd570a7U, 0x3d19d3043e2b749cU, 0xbe04c3aa3db75974U, 0x3d8b72513d39dfcbU,
  0xbc2062253d29c4dfU, 0x3c0b21293d7dcfffU, 0xbdab0517bdb28366U, 0x3da9afb93db08c09U,
  0xbd7ce5ae3da75849U, 0x3e1409283e1d9c7bU, 0x3d435fa7bc729a9aU, 0x3d8cef52be14157eU,
  0x3dac89983d86b2d5U, 0xbce6bc9b3e20d1f8U, 0x3e38d9d2be6f2edeU, 0x3e25e2213cf40dbfU,
  0x3d9aeee7be07319bU, 0x3e3ac8f43c7225faU, 0xbda272263e12ccfaU, 0xbdba6b103eb8cf4aU,
  0x3ddf25343e11d451U, 0x3e19b2df3e842808U, 0x3d83d82cbccbc2d3U, 0x3d8e3a793d40853eU,
  0x3df8e00b3b0709f5U, 0x3df3aa243e0f71afU, 0xbcd785973e3485d1U, 0x3de86ebbbe67cf6eU,
  0x3ba662b2bd77dcb3U, 0x3e16d2843e513040U, 0x3e62471ebe2945caU, 0x39ab48f2be28cf4eU,
  0x3d62d05a3d4da837U, 0x3d5536543d7091ccU, 0xbddbdafebd1a3a89U, 0x3e958713bd59b693U,
  0x3e2442d2bdc2ba52U, 0xbcf02c4f3bf76863U, 0x3e3290adbd0c11c9U, 0xbc93e6cc3cc851c5U,
  0x3d31e7a53dcdece2U, 0x3e934f3f3d4ab2e0U, 0xbc57653e3e2ec6cfU, 0x3dc3fe7fbe5a9e09U,
  0xbc4156813e0dd990U, 0x3e4adcf13ea2aea4U, 0x3e48590dbe81954eU, 0xbdad89603e034ca1U,
  0xbd9a9d03be807fb2U, 0x3e58dfc03da49cb2U, 0xbdd640163dba9e54U, 0x3db96fed3d01cc4aU,
  0x3dba77183c102650U, 0xbd4b9bd73e38256aU, 0x3c3113063c250be6U, 0xbd86599e3ceafc76U,
  0x3c93df313d5df60aU, 0x3e8d9bbc3e9d6c12U, 0x3da8154a3e0400f2U, 0x3c992f34be85ae60U,
  0xbdae0236be1b1ce2U, 0xbd8a66383ed47074U, 0x3e9773fdbe8efca4U, 0x3ce764673e19baaaU,
  0x3d398d04be4d0c35U, 0x3e5900303d4340c5U, 0xbc9118a73d234801U, 0x3d33065e3cdc6f14U,
  0x3e8921143a306a95U, 0x3d85948d3d5f678eU, 0xbe40b2af3e245c2dU, 0x3d5c89a63e4da341U,
  0x3d2d19303d8c21dfU, 0x3e7868b83dacbd6fU, 0x3e4071713e53c615U, 0x3df1e0e6bea2086eU,
  0x3b64e1a23ddfc94cU, 0x3e7536983eb011b9U, 0x3e7a4e50bd1b7c6bU, 0x3de504e43bed2657U,
  0x3d8d4376bd11c13fU, 0x3e427891baa175b7U, 0x3da775cfbd1efdadU, 0xbdc57be13d1df91fU,
  0x3e1a3a21bccb34f8U, 0x3d61a70e3e070756U, 0x3e22dbad3dde879fU, 0x3d265f1a3db1c781U,
  0x3bc25a153c3afeefU, 0x3e0f49553e121c15U, 0x3d2978b43e899240U, 0x3d8e5073be2dce28U,
  0xbcbd0db0bdecba51U, 0xbd8273973ed08317U, 0x3e96c16b3d17b197U, 0x3ccb75c73e72216eU,
  0x3c6dc439be3ec2bdU, 0x3e8533e23d499fa3U, 0x3d8c2e4abd6e6b4fU, 0xbd2850ac3e08b47fU,
  0x3e57ab363cb83cabU, 0xbc5a2d973da8ee12U, 0x3d9a63c33e6715aeU, 0x3d84751b3e7f1404U,
  0xbd3f3794bbee822fU, 0x3ea652283dd5fab7U, 0x3d8e9fc33e5f800fU, 0x3d2daa193caf529fU,
  0xbddc3929bde69690U, 0xbc514de73ec7b0dfU, 0x3e7e7341ba86b692U, 0x3e1a90773e6ad25dU,
  0xbba2662f3df560dbU, 0xbe2a75eb3dc7e762U, 0x3e80a9493d554f39U, 0x3e85f5c93c233deeU,
  0x3e82fa7c3ddc7e54U, 0x3df2252cbde4fcfbU, 0x3dc9d04cbdb8f7c3U, 0x3d8005833d8b3347U,
  0x3d0ef5c03d1dee9aU, 0x3e6a1e2d3ea8aff6U, 0x3e5a7c4a3de103a1U, 0xbac64b42bde1d05cU,
  0x3e4b719c3cd747b3U, 0x3ea8e97fbe90b40eU, 0x3d8b189ebd7ae38bU, 0x3dc04cdfbe786cf3U,
  0x3cf234ea3e19a20bU, 0x3d006957bdade9f3U, 0xbbf9030a3b37adb4U, 0x3e899d8e3dfe74aaU,
  0x3d9388d3be1d4926U, 0xbdf760d33cae87bfU, 0x3e098e2f3d9a1e08U, 0x3da509813e013facU,
  0xbd967917bca80864U, 0x3e846d38bc41c8fdU, 0xbe4369423d1cd2bcU, 0xbd5b75483d548d2fU,
  0x3e94481a3db26edcU, 0xbdd1081f3d1d4f35U, 0x3e11a8543d0fdb6cU, 0x3c9ef039bdb06d29U,
  0xbcabbaa7bee41e5aU, 0x3e0c7a193ca9d5e0U, 0x3d65bd26be29f7a8U, 0xbe015c363cecfc07U,
  0xbe8ee5e23dc38c7fU, 0x3cff05a73d041956U, 0xbf65612a3d90f73dU, 0x3c6933e83e0a1889U,
  0xbd9b3da1bbdafad6U, 0xbe6529ecbe3aa30dU, 0xb9f662b33d78d0deU, 0x3da6e00d3e5822eaU,
  0x3e42ff873e500ce0U, 0xbe0a27d83dc3b78bU, 0xbd2651b43e43e224U, 0xb88ad6503d642d83U,
  0x3d014cf6bd2f9eb9U, 0xbdb465d63ca4d9afU, 0x3e8e131c39953959U, 0x3da269a2be649b5dU,
  0x3eaab55f3d17e410U, 0x3e2581b9bdcdbc7cU, 0x3f07bd45be0798f0U, 0xbc66f298bdb8f8d7U,
  0x3db64f823daf2211U, 0x3e3442713eb3460aU, 0xbd3f25b6bd4184ccU, 0xbd8e36843d07ddb6U,
  0x3d1fbf7a3c801f86U, 0xbd9879e7bd618645U, 0xbc2f1ce9be1f052cU, 0xbe2cd5a43dba4971U,
  0xbe36191a3e0879fcU, 0x3be4faefbd3cc225U, 0xbbaef8aa3d7e4422U, 0xbdaacb03be01a109U,
  0x3dff0cae3c234259U, 0xbc6a4d4dbe2fc0fbU, 0x3dd1f5853dc0e777U, 0x3d0590ba3c89ebf2U,
  0xbdc5c0adbc7da91fU, 0x3e1c6b1dbd9baa41U, 0xbe041965bc4b6a11U, 0xbdf9e10dbdfe100bU,
  0xbe5e39d6be02e650U, 0xbf6d5fc43a4d3effU, 0xbdf9b726bd93f6c2U, 0xbe18c3d43dc92889U,
  0xbe3cd8cabe9af7caU, 0xbe18e84cbdc158b1U, 0xbd4118cdbdae84baU, 0xbe7db085bde22a96U,
  0xbda71b96bd42249fU, 0xbd073515bdb8d70aU, 0xbf4ebcb83da5b1d2U, 0xb90400003d8b1508U,
  0x3b6dd4a9bba6b222U, 0xbe71d42bbe904ac5U, 0xbdb8145cbdb0e0a2U, 0xbda6e6f2be4e9036U,
  0xbdfcef563eda433fU, 0xbdd2c7f1bdcab639U, 0xbe3d8c54bd1d3092U, 0xbd04d6eabe078d6bU,
  0x3dd1c4783d49d55fU, 0xbdd491a73d0e20a7U, 0xbcf189403e699456U, 0x3d1bce033d8110d0U,
  0x3eb169a83d1430adU, 0xbd3db605bd2a314eU, 0x3eeaece1bd8debe6U, 0x3cf1de803d770ccdU,
  0xbd65cef33e30678eU, 0x3db703333e9848b1U, 0x3e42ea133e9b3f6aU, 0xbcce4b9abe2057fbU,
  0xbacc9051bcdd8d34U, 0x3d94df6fbe8473e2U, 0xbe2911d63e4c81c2U, 0x3d0939b7bcfd5086U,
  0xbd2ae6bdbd95e82bU, 0xbe7f31813ad00488U, 0xbe38a8fabcded2a0U, 0xbe405452bccb052dU,
  0x3d00365c3c7e718aU, 0xbda4af33be932af6U, 0xbdee74a8bcad33faU, 0x3c324018bdd12b95U,
  0xbde5619dbdbb2904U, 0xbe32e9e2be47cbbdU, 0xbdeaab02bdecddd7U, 0xbb3d0e513e0785e7U,
  0xbdf98c76be1e4bacU, 0xbe8f6d0cbe1612b5U, 0xbe2923ed3e1c2468U, 0xbcc625b03d3f9273U,
  0xbe97e488bea56d0cU, 0xbe818ee9bd0d7229U, 0xbd11ae613d45588dU, 0xbe58503dbe3a4bddU,
  0xbe93e7883d257656U, 0xbd80deb3be8cadc7U, 0xbebe5948bd234847U, 0x3da66899bd32995dU,
  0xbd8633cfbce23dedU, 0xbaeb9877be7ba82fU, 0xbd15dbacbe83e3afU, 0x3c5ccb6d3e6a6817U,
  0xbeca7a3e3e286efeU, 0xbede1c67beb54070U, 0x3d8ff1883cf6c0b3U, 0xbe06efc23e1ca7c6U,
