/**
  ******************************************************************************
  * @file    network_data.c
  * @author  AST Embedded Analytics Research Platform
  * @date    2026-03-30T14:14:42+0530
  * @brief   AI Tool Automatic Code Generator for Embedded NN computing
  ******************************************************************************
  * Copyright (c) 2026 STMicroelectronics.
  * All rights reserved.
  *
  * This software is licensed under terms that can be found in the LICENSE file
  * in the root directory of this software component.
  * If no LICENSE file comes with this software, it is provided AS-IS.
  ******************************************************************************
  */

#include "network_data.h"
STAI_ALIGNED(8)
const uint64_t g_network_weights_array[112582] = {
  0xbd4eed1d3de1bfbfU, 0xbe00aa423d719798U, 0x3e4539303e375f4bU, 0xbd803c363e23d6b4U,
  0xbe3bc5b53c23c659U, 0x3dacad7dbd907748U, 0xbccf72ddbe8b6b43U, 0xbe7193843e7f5e94U,
  0x3e6b12e63dc3f3e3U, 0x3dddc0a23ce2856cU, 0x3e4413c9bd72c65cU, 0x3e3611e83dba607aU,
  0xbd0213c9be152a65U, 0xbd37505d3e0b1674U, 0xbe5a5d343d870411U, 0x3e237cfa3e011ddbU,
  0x3d3c0b89be3339b9U, 0xbdf87c5e3e0a3d80U, 0x3dc5152b3e26090cU, 0xbcc915613dc4f345U,
  0x3e122cda3e782ed1U, 0xbe0d20f2be6be5c4U, 0xbe3e14453e29cb86U, 0x3ceb7f40bddfb4e8U,
  0xbe038da9bd93ebc6U, 0x3e0839f63e02c680U, 0x3e5227fc3e86b230U, 0x3dd096943e67c0c6U,
  0xbe2a03a73e83b0b5U, 0x3dc9b0be3cff9a27U, 0xbe703bfbbe065cc2U, 0x3e6130babe82b517U,
  0xbe0a8819bd4fb922U, 0x3de6d3073b403b6eU, 0x3df3a7a8be24aa12U, 0xbe826a263ca619d4U,
  0x3e0832d63cf74e98U, 0xbd0bd9c1be22731bU, 0x3e37d6153d04d016U, 0x3e02538d3e18e019U,
  0x3da7691b3e38baf5U, 0x3d5d791bbe1b9488U, 0xbd9172273d0c7175U, 0x3e102ca1be38d85cU,
  0x3dd7f18f3d89b7b7U, 0x3e4bac44be42ebebU, 0xbd5c1feabd4a1ab9U, 0xba7e9696b93d1384U,
  0x3e1899edbc806c18U, 0xbbc9c24abdfc5b45U, 0x3deab9d23e07bca8U, 0x3dc0472fbe2d1044U,
  0xbd06910fbd3ed488U, 0xbe68a6ccbde89159U, 0xbd1b30fbbc3ab135U, 0x3d1b8545be55d70aU,
  0xba2dbe4abea6090fU, 0xbd89fcecbe77f0aeU, 0xbe24e2663e3bbedcU, 0x3e035a05bd931d32U,
  0x3d7c8237bdbecc05U, 0xbab3eb1a3e72719aU, 0x3e172fd33d2d0cecU, 0x3c3d6e62bc05449cU,
  0xbd9da2ee3e990e9eU, 0x3d0b1ae3be88d571U, 0xbe23029c3cc72835U, 0x3e05f00cbd826bb5U,
  0x3c3c84e63e0fbee6U, 0x3d3c24f63e322e20U, 0xbd90a8c83e1cccbdU, 0x3e27fd8bbbeaa156U,
  0xbe324be4bcd77cd0U, 0x3dbd99a63e0fec9aU, 0xbd7128c33ddd00bdU, 0xbe0846943e1f5f6fU,
  0x3b61764dbd87147fU, 0xbd08db2bbdaedb2dU, 0x3e7313b63dafac25U, 0xbd9db8ca3e1797b0U,
  0xbcbb55373e6372c0U, 0x3e99a9c63e546728U, 0x38aba2863e3b5f31U, 0xbc8c00993cf0a1fbU,
  0xbeb1af5dbe99eeabU, 0x3c874300be0f9346U, 0xbe8613a1be3166c1U, 0xbdd23bf4bd413672U,
  0x3d83a21cbc94a199U, 0x3e866ac93e85f1a9U, 0xbdca55863e42ee64U, 0x3d6a48d3be1f6f22U,
  0xbe2afdbabdb6617cU, 0x3e28415e3e4822e7U, 0x3ea5beefbdd26573U, 0xbb6d46183e9a7c67U,
  0xbe2ca47cbc541855U, 0xbe823c09be5c32acU, 0x3e07f0a9be843416U, 0x3c8a1de63e4b4346U,
  0x3e40ac2ebdd830b5U, 0xbe4a4035be300f83U, 0xbda58d093e3d6e15U, 0x3e27d6e63c862aa7U,
  0x3d62d4ce3c58f652U, 0xbd9ead2c3e3039b6U, 0x3d6d173f3e1d9bf8U, 0xbe46fe07be6fe49fU,
  0xbd80dabe3e5a752bU, 0x3e5366d3be109c67U, 0xbe73f2833c01c1d1U, 0xbcca699d3d84d2d7U,
  0xbdf9f406bc31e3fcU, 0x3d718062be1dbf46U, 0xbd3cecb43e38716cU, 0x3d6d2265be74b5a0U,
  0xbda919f43e39c0e7U, 0xbe7a04903c788a09U, 0x3e4370acbe95cb04U, 0x3dfc87713d9da8e5U,
  0x3e7006e2bd72a0cdU, 0xbcb618a03e3aba21U, 0xbdfb91403d9faf0bU, 0xbd2cbb493d694817U,
  0x3e77e0efbe0f7839U, 0x3d007fd0bd921182U, 0xbe8336af3bbdb7d9U, 0x3e1046b4be22c639U,
  0xbe182119bdb9182cU, 0x3e5daca33e6afd19U, 0x3deb91a43d95457eU, 0xbd722d4c3dfdb877U,
  0x3e0989e23e335fd8U, 0x3e269889bdf5b10aU, 0xbdd04e563dfccaf8U, 0x3d3954d7be1ed27fU,
  0xbe13921c3c7b4f4dU, 0x3df431343e16cefdU, 0x3e44591f3d388344U, 0x3e3ece4a3e44039cU,
  0x3e2963d03d7148a9U, 0x3b0b0e2a3e1aa921U, 0xbcd653c3bd8a06cfU, 0xbde754803df9ba48U,
  0xbb5b1547bd10fac1U, 0x3c979e47bd2f7ff1U, 0xbc4fef86bce86e99U, 0xba237a2ebb853b10U,
  0xbd4db9babcebbf98U, 0x3d88ba97b99cd72aU, 0xbc2a2e073dcd99a4U, 0xbd1067b5380cad7cU,
  0xbd1c0032bc1b274dU, 0xbc143ef53d64305aU, 0xba9413b3bbd2457bU, 0x39c575e0bc3a2c68U,
  0xbbcbe0d0bba2b5ecU, 0xbc1b0899bca7ab5dU, 0xbce06d74bc835c01U, 0xbce36487bca15addU,
  0x3da165033d1efa43U, 0x3dfa8e013b46b6bbU, 0x3c24cbe4bcedcb64U, 0x3e3cbe91bda1f051U,
  0x3dce3a6f3d38b5f5U, 0xbe1cf07c3ceef798U, 0x3d47cf3dbdc27231U, 0x3ccfd57d3df97d7dU,
  0x3c859ebf3de161feU, 0xbde801d0be36a9e9U, 0xbe741c613d31bbf4U, 0x3d53ba903e0017b2U,
  0xbbb374ba3d504a8aU, 0x3e20ccff3d881d6dU, 0x3d78083d3d0a727aU, 0x3d05f2fabd37aa60U,
  0x3ca64be83d8e4edaU, 0x3d8da2af3d50c1efU, 0xbda0fcbb3d878607U, 0x3ca8ec193dbcf395U,
  0x3db1edd03db5e88dU, 0x3d2bfc5c3e01f2e0U, 0xbd807786bd6649e6U, 0x3bd5fc803cdf9996U,
  0xbd56009b3da50bc8U, 0x3dbc1ba9bdb07a2bU, 0x3cde6c653d19ab07U, 0x3d3d80853e03a654U,
  0xbd566b023d91a3edU, 0xbc000d503dd55a26U, 0xbc93854f3df16960U, 0xbbd57ad5bd1d76f1U,
  0x3d798370bd5622feU, 0x3cac93493d418ef0U, 0x3cb347543d3b71f8U, 0xbc2b50163d1b865eU,
  0xbd7b3adabc805334U, 0xbdb043de3dd3cd8dU, 0x3d3b88ffbc71c1d5U, 0x3cb05e313cbba5b5U,
  0x3db49a143d48a56fU, 0x3dec5536bdbc6375U, 0xbd947f993cd05d49U, 0xbd6f9566bc9a4061U,
  0x3d93e0a63d5ddacaU, 0x3d8047003dc1d636U, 0x3cd56bb93da3d902U, 0x3d04f60f3d4e012eU,
  0x3d9309f93d8e7e7fU, 0x3d6d5f9d3d755d92U, 0xbd23a4533da431f2U, 0x3e09ebd4b94f0d1dU,
  0xbce442583d953b57U, 0xbe13e7b7bc648ac2U, 0xbc7a11aebe06d7f9U, 0xbb383de03cfecf03U,
  0xbd8eaf74b9f50551U, 0xbe2decc3be2a7594U, 0xbe4171303d882e5cU, 0x3d9c45d03ceea692U,
  0xbd03134b3dd29fc0U, 0x3d0a007dbd614d15U, 0xb9acc0b4bc75cff8U, 0xbd7f745c3da00dfbU,
  0xbd291e923cc84b62U, 0x3b950c1fbd093fb1U, 0xbcd40404bdb0c84dU, 0xbca5a81f3c4ad95eU,
  0x3d1cf02cbd22dcbcU, 0xbcca7b2abd121095U, 0xbd076a4dbd9f9119U, 0xbc95efeabce218b6U,
  0x3cce5ced3ac27738U, 0x3d0057bcbd60aaf2U, 0xbce362c13dcf48a8U, 0x3d474e163d3b3fe8U,
  0xbbc479823d287ed9U, 0x3d2fb9363ca36154U, 0x3d8ffb6b3d0c0532U, 0xbd03c4453d25b398U,
  0xbd9360dfbd98c4e0U, 0xbdba8c7bbcf10318U, 0x3d4035ed3c4c5e1bU, 0xbd8bc1203e0ec72cU,
  0xbb98515abc0490d9U, 0x3dd258043e0c670fU, 0xbcbff836be037476U, 0x3d4f1f993ce8f80cU,
  0x3d22a013bd5f9041U, 0xbdb0dd8a3dcef439U, 0xbd7a6a1bbdd4c947U, 0xbcd970a33c5fdf98U,
  0xbd90acd4bd035e99U, 0x3d45aa57bd95d14cU, 0xbc85bbe9bd4189ceU, 0xbd5b11e7bcfb0472U,
  0x3d979646bbf2339dU, 0x3cc162e7bce73142U, 0x3d096a643d7975b0U, 0x3cde25953c5a9611U,
  0xbd4870e33d4cdb65U, 0xbd456d7a3dbdc8dbU, 0x3cbb8463bd4807f9U, 0xbda30a8ebdae3740U,
  0x3ca17ce13d1ea235U, 0xbe34dd6ebb894756U, 0xbd111d553da6d758U, 0x3d86a606bca3dd8dU,
  0xbda4717c3db5530aU, 0xbb3cf86abdfea8ffU, 0x3c8d2fc4bdf0054dU, 0x3b72992c3d91d9bfU,
  0x3c3aba62bb3410b2U, 0xbd0d5fc2bd3b2315U, 0xbdfeade4bc220da8U, 0x3d7014eebde1e747U,
  0xbdb375b3bd96199dU, 0x3c7dce813de79a6dU, 0xbdc565693d802cfaU, 0xbd97faf63d4970d3U,
  0xbe1b49eabc9080a2U, 0xbd9fc1343c0fe166U, 0xbdc0a6333894e430U, 0x3d9a5e353daf7f5aU,
  0xbdc5a79a3d81b341U, 0x3b3baf4bbd03accaU, 0x3ccc64e7bdb54e1eU, 0xbdc27ef7bd8e5f7aU,
  0xbdf42a3fbd21ab92U, 0xbcc947e1bcc41317U, 0xbcfffbfdbdfbf4f3U, 0xbdbe08023d21b8aaU,
  0x3bfd2d14bdfe60c6U, 0x3da1f1783ddd80c5U, 0xbd7e3ad33bdf27caU, 0xbd0ceb44bd36c03dU,
  0xbde67973bde3dcd0U, 0x3d278b3ebd69fa29U, 0x3d056ba8bdabf295U, 0x3bb1c53bbdbc0a18U,
  0xbdaa58b7bdef42daU, 0xbd6ca0643c31d6b9U, 0x3c736d23bdf52f77U, 0xbde16464bbbcce9dU,
  0xbdc45a5cbd321480U, 0xbe14e57abe0e1165U, 0xbdc451a8bde0e118U, 0xbd2bb9bebe1f3077U,
  0xbe195d6dbda1af39U, 0xbc11cbacbd489012U, 0xbced3e14bd6d16acU, 0xbde66272bb05741bU,
  0xbe0ff1aabc84d1ffU, 0xbd92e28bbe34edfeU, 0xbdb8e180bdc580f9U, 0xbe287137bd952d3eU,
  0xbd1a222abdde7a4bU, 0xbe2c09e5bcfeccffU, 0xbd6ddad3bdc9239fU, 0xbe52c1e7bdd320aaU,
  0x3d92dc2abd78f24aU, 0xbd4021d8bb9154b1U, 0x3c50c540bc9232d7U, 0xbc140c603d0043c1U,
  0xbb8d525fbe1b5561U, 0x3d7c1d9cbe0a2c07U, 0xbd80a95c3c1be0b8U, 0xbd0ea9503e0f91e3U,
  0xbd03f6fcbd312751U, 0xbdb723c13c837e46U, 0xbe0e437bbdb069f1U, 0x3c8087b83aa7d664U,
  0x3c5a4f333d0b58beU, 0xbe217faebce79842U, 0xbdaee2acbd819c3eU, 0xbd4bba703cd40dd2U,
  0x3d5b7f86bd4a00eaU, 0xbd7408103d71a9eeU, 0xbdc801fb3b45ce55U, 0xbd1cafe53cc2dbeeU,
  0xbddff7c13ce3f63eU, 0x3da6af80be03025dU, 0xbcedb17f3cdca5b8U, 0x3c8d8b0b3d2ec39aU,
  0x3d7ac242bd993cf3U, 0xbe07e7673e249477U, 0x3cfddae3bd75ef12U, 0xbd3f3d84bde7bf58U,
  0x3c003336bae933d7U, 0xbdbc9869bc96478dU, 0xbd94e5dbbe0cb7bdU, 0xbc937589bd060897U,
  0x3cb80596bd2e217cU, 0xbdff919dbd89b4cbU, 0x3b0cb730bc921cd7U, 0xbe6eb600be066c80U,
  0xbd1f3464bddbfe05U, 0xbdf707a3bd3b28faU, 0xbc6721d73d37ad8dU, 0xbd8f466abdefdb1aU,
  0xbe0cbe29be327e8bU, 0x3c211c68bdeb5041U, 0xbd087713bdeb69beU, 0xbdbcdb0cbe308434U,
  0xbe182c3abe15f5e4U, 0xbdcec5c8bd941ebaU, 0xbd60336ebdd1124cU, 0xbe28b9e6bd9d0714U,
  0xbdab9dc8be174a1fU, 0xbd562c8bbcf55943U, 0x3d5b4b07bc9080b0U, 0xbc111f443da9cb09U,
  0x3d2f7681bdb2cbcdU, 0xbca2efb5bca1f74cU, 0xbdfe87d0bb48cf95U, 0xbe1b93623ce298e1U,
  0xbcf04217bc8f810dU, 0xbd0e7cf03d768eb1U, 0xbd49f9353c39897dU, 0xbd62aac33cbce45fU,
  0xbc3f1bbfbd6d353cU, 0x3d25b7c7bd92308eU, 0xbd13ffa5bd340a9aU, 0xbdee1e663d1df2eeU,
  0x3d1984d3bd60edc1U, 0xbd8fcd86be010e56U, 0x3d2e700bbde1830bU, 0xbc94398f3d87b1e5U,
  0xbd5dba17bd92c71cU, 0xbd715546bdec4c35U, 0xbdb56decbba3dffeU, 0x3c86fd603db3a7d7U,
  0x3bff1aa9bd3d9d1cU, 0x3d9bb6183da3c126U, 0x3d827e3cbda34d3dU, 0xbd90c5983cc1eadeU,
  0x3d2d23a8be0fd1e5U, 0xbc8e623ebd9a3ae0U, 0xbdabf8f53d88f61eU, 0xbe06195f3c399845U,
  0x3d1e3ee93d591c27U, 0xbdb8456e3d86bba1U, 0x3e231a52bdd5b066U, 0xbdd074a2bd0103f0U,
  0x3dd78a343c1099e3U, 0xbdd25ae23d87b84fU, 0x3c00947c3e038cc4U, 0x3d6e1914be413364U,
  0xbcac500abd910dd2U, 0x3e71f337bd0297beU, 0xbd8138613d1d4c8fU, 0xbbc6addebd5254f2U,
  0xbe0b0d37be03d1cbU, 0x3c6fde293db2747eU, 0xbd054c463db996faU, 0xbd3939ff3e0ec3f9U,
  0x3d47e0d43d05d561U, 0x3db791e83debc6a1U, 0x3e58f388bc1c4f6aU, 0x3d9e81f73dc19eeaU,
  0x3dce92543e3a0e6cU, 0xbdb84545bdd215e9U, 0x3d562c603dddeb21U, 0x3de92325bcc38af3U,
  0x3dbf2da93d7f8c4aU, 0x3e2b13133c015045U, 0x3dc88edc3e08d05cU, 0x3cde7b11bd6b6af1U,
  0x3db737e1bd864748U, 0x3dcfc4c33d443ca8U, 0xbd58d3033ddc2878U, 0xbc8d9d253dcd7989U,
  0x3d2c099a3dcd5186U, 0x3de0c0443ce5aa4aU, 0x3d968ecc3d1476b0U, 0x3e2a9c803d2b76a1U,
  0x3d8ceeef3cc3e931U, 0xbbcfef6d3b858f0fU, 0x3e05e9b4bcbc04a9U, 0xbd1fd598ba3df496U,
  0x3e424a423e0cca25U, 0x3e0bebb03c4643b1U, 0xbdd7becf3e2ab789U, 0xbc7dbb193cbcfb51U,
  0x3e640dc93df9a2faU, 0x3e3c70433d92daacU, 0x3dcce55f3e3a94e8U, 0x3dd53a953d73c570U,
  0xbd4e3c0d3da375e3U, 0xbccd49343c984c10U, 0xbd7eac5bbcadf0cbU, 0xbdb2f5dcbdd147c6U,
  0x3d2b44ce3dc7e543U, 0xbd8ed9ecbc9ea4bdU, 0x3daa67c7bd3980acU, 0xbd1d5fdbbdfef0b9U,
  0x3cf7f1653dc43398U, 0xbdbb8bb7bda80064U, 0xbd87f931bd11f453U, 0xbd4e37fabca4e11cU,
  0xbd1962eebda428abU, 0xbdad50bd3cacb815U, 0xbb26c3513c65c9fbU, 0xbd9805173da5549dU,
  0x3cb5d8de3b670fdfU, 0x3d5d98ad3b62b4c7U, 0xbd185ddebd13d1edU, 0xbd847afbbdcc0e2aU,
  0xbb3ab2aabccdfc2eU, 0x3b5ce7bf3d221ad8U, 0xbd98f4bcbd290853U, 0xbcc34d5cbcbe5a11U,
  0xbc60b5a7bc81da5eU, 0x3da22611bdbaa8f5U, 0x3cadb8e1bcd7342dU, 0x3d8ccef53dbf8b75U,
  0xbd242f13bcc24e2bU, 0x3cbc91333d964294U, 0x3dc49a62bd6122f8U, 0xbd0ac5b23cf25e2dU,
  0x3d02e74fbcf56cc3U, 0x3c9807e0bd754f99U, 0x3db4bfefbc95b627U, 0xbc01f96ebd2ac989U,
  0xba7a13bcbd2d2148U, 0xbd88bdb6bd3138abU, 0x3c8f8bafbced002cU, 0xbde8ef913d3343bbU,
  0x3b4d158c3af2ea87U, 0x3c62c26f3d80d922U, 0x3d7efed03d9968a8U, 0x3cfd731b3bc51b32U,
  0xbd8db8c5bc8c8f5bU, 0x3dae9227bceb2964U, 0x3d342019bd0f3649U, 0xbda23866bcd03894U,
  0x3b7b46623d9d4987U, 0xbd9860f6bd0e8801U, 0x3b9d50dcbc43a98bU, 0x3d5f93bcbe06c292U,
  0xbbf3aff53d3cfee1U, 0xbe3a0e20be07bdbbU, 0x3d4675f2bd45793fU, 0x3b0aaa82be1ee2e2U,
  0xbc00ec7a3d4299cdU, 0x3cb4bba2be3661feU, 0xba1c7c973cd75bf5U, 0x3d5b1564bc2639e2U,
  0xbdce89da3c80b101U, 0x3d0a4a4ebdc1211eU, 0xbd5f347bbd012bd2U, 0x3da858f6bd4d81c9U,
  0xbcd33043bd90630cU, 0xbdced3b93d331961U, 0xbd809f54bdc4b89aU, 0xbd670e35bda9aa48U,
  0x3d66e4503d89aeb6U, 0xbda130a0bb93742cU, 0xbda3b5e7bc8626acU, 0xbca2b8503cd8459fU,
  0x3d922cd0bd29cd8dU, 0x3d9660adbdf68109U, 0xbded91ce3d019b78U, 0xbdb2b43b3d4950b7U,
  0xbe01792c3d43438eU, 0x3d55de0f3cd56002U, 0x3d56f84cbd5fde09U, 0xbc841db6bcbb33f8U,
  0xbd0d88133cc7c450U, 0xbdc06a103cafac23U, 0x3d306705bba9e011U, 0xbde770b73d1aed2bU,
  0x3dbfa67f3daabd63U, 0xbc172dbf3d952473U, 0x3dd758afbd1e9566U, 0x3d706595bdca5101U,
  0xbc6a38893d6421aeU, 0x3dfb0179bd21dee8U, 0xbc88afe2bdc83624U, 0x3d95ac45bc38e587U,
  0xbe0232433ca0be3fU, 0xbd450c593d2758c2U, 0x3d8fb891bd84694bU, 0x3d6349a03dbf241bU,
  0xbc9f4cb6bd07f36eU, 0xbcb00a393d6e214cU, 0xbc9dc53cb84e9cfdU, 0xbc9321e5bdca24d5U,
  0x3da491443ccb822cU, 0xbdeace8bbdf987b4U, 0x3d2c1c9abcdc3e5eU, 0x3d4455c0bda9107fU,
  0x3d819a6abd748be1U, 0x3dc63bfbbcb4352dU, 0xbd73b4cabd20ac20U, 0x3cb9c4f7bdabced0U,
  0xbcd002edbdfb1e19U, 0xbda1ffc8382439d9U, 0xbbfe43babda94c44U, 0x3cb32a1fbc86f32aU,
  0xbda3ae1f3d8ea70eU, 0xbdb4635bbce60922U, 0x3b9e0b993d69cdf7U, 0x3d2b5e70bdc8135bU,
  0xbc8061513dc6522bU, 0xbd95de3cbcd6aa4cU, 0xbd551c5cbc7bd92cU, 0x3d8bc4173d911c5aU,
  0xbd4538fbbb99eabbU, 0xb944c1433d7e082cU, 0xbd101915bdc2af22U, 0xbd6262343d702383U,
  0x3cc62565bddaef38U, 0xbcee11a1bd1637c2U, 0x3d37009d3b3842d2U, 0x3d7a5c713d010500U,
  0xbe26c2fb3ddbb485U, 0xbdd6696b3d624252U, 0xbd754816bcabf0abU, 0xbcadd2f03e265dbcU,
  0xbd099f5fbc887ee4U, 0xbd0f4417bddb13c4U, 0xbcd506a4be0c9830U, 0x3d741dcc3dadac74U,
  0x3d4737193ce7fffdU, 0xbc71fb3c3e0a99bdU, 0x3e136820bd81866fU, 0x3a5ddde23d4f325bU,
  0xbd0d2c1bbd08a8fdU, 0xbc42d4b5bca8eaabU, 0x3d648ff8bddb3499U, 0x3db1f00bbccd6f92U,
  0x3c49614d3d16ff17U, 0xba3417d3bd2244f2U, 0x3d91948fbe153d52U, 0xbdb17c19be16416eU,
  0x3b8d3b06bb4f3800U, 0xbdbd3e753c497984U, 0x3d80b0d5bccb0a82U, 0x3c66333ebd751835U,
  0x3c901ee63c88551eU, 0x3c985aa0be2319c7U, 0x3d71616cbc0c0cadU, 0xbbc47498bdaa662eU,
  0xbcf19f983c8f5862U, 0xbdd642f9bc1c26f4U, 0xbd220eb4bd34f0efU, 0xbdbbec5d3d5ec6ccU,
  0x3e0f64243c986633U, 0xbd16749c3d371605U, 0x3e0fa8623d6bf50bU, 0x3d1a9b0b3db33646U,
  0xbd66a94d3dbd83a1U, 0x3c4171ef3e339d5eU, 0x3d83de3e3d377288U, 0x3d634edf3d31c48aU,
  0x3e046bbc3d25958eU, 0x3dd683da3d921da6U, 0x3e0940463b8a5698U, 0xbd8f16533cd2f809U,
  0x3d7abe713d139f9fU, 0xbda3c8a1bd6e0e36U, 0xbd3b0ec33cf4490cU, 0x3d2cfb763d99a488U,
  0xbc3601f33c9624f9U, 0x3dcca8423df7bbbaU, 0x3b6ed1343dd77f0fU, 0x3ce1c1b43becb48bU,
  0x3aba5783bd33e114U, 0xbd92681d3d44bd5cU, 0x3cd31cadbd3b766eU, 0x3d9bf17b39565677U,
  0x3cf4265a3da57fd3U, 0x3c981d873da73c74U, 0x3e30761ebc9b8118U, 0x3e1b424abca9651cU,
  0x3c116baf3dfc9196U, 0x3b516ef5bd411392U, 0xbc610fd1bd44c2d1U, 0x3dbc8f7dbceda65cU,
  0x3c6a8c5f3d8dcaddU, 0x3d5d90c9bcec0679U, 0xbd36feddbaacafd5U, 0xbd12ded9bd27019fU,
  0x3d291cc53d3c0680U, 0xbc032766bdeb90f0U, 0xbcfc7e383d7a42ddU, 0xbd520c54bdbc3fbcU,
  0x3d69917b3d741e17U, 0x3d6eb012bc4d9104U, 0xbcc146633d24ffdfU, 0x3c9bf18fbd0f9db2U,
  0xbdbe098d3d82437dU, 0xbd432eb73d07aeb4U, 0x3c7dbd08ba8a1999U, 0x3b51b7163b8eee56U,
  0xbc81b32fbc5eb258U, 0x3c68c4c83d71cddfU, 0x3cf64aac3d251dc5U, 0x3da02b423d3d6b5aU,
  0xbd1186953ca7e242U, 0xbda1052ebbb28932U, 0x3d4ab8c4bcf01970U, 0xbd48193f3d74e91dU,
  0xbc464db53d97335eU, 0x3e09d5943d9ecce9U, 0x3e08cfc93da4437eU, 0x3daa8bb5bd6dda73U,
  0x3d94f165bd2c9e5bU, 0xbd559fd0bdbeab94U, 0xbd3037e63b46e7d7U, 0xbd87efef3d89c077U,
  0xbcb3d201bcb41812U, 0xbdba6c873d9d35daU, 0x3d6225ae3dc4ddb9U, 0x3d8522853e017625U,
  0xbd1d727a3d86637fU, 0xbdaf85843c5afe4dU, 0x3d217186bdcfacafU, 0x3d65e7323d81b88cU,
  0xbc12775dbd9f2d9bU, 0x3d9242ba3df4cc1aU, 0x3df6155b3db28552U, 0x3bc967cabcad0d94U,
  0xbce64b113dca43a1U, 0x3bacfb35bdb9cd5aU, 0xbcf6d0f33c3b3996U, 0xbcc22e9fbb74a6f3U,
  0xbe2381e43bdde6e4U, 0x3d397f19bd815391U, 0xbdf0911d3cfcd70aU, 0x3d8623e73e192568U,
  0xbd266e8dbdd152ecU, 0x3d41d28ebe13f644U, 0xbd9ad299bd5a11b7U, 0xbc9a6ad03ca8eaeeU,
  0xbdbb32edbd1d33dbU, 0xbd08cb953dc1f416U, 0x3d0377253da832cdU, 0x3c62cc31bcce25d0U,
  0x3c846d14bd0c8fe5U, 0xbcb33c62bda00c4bU, 0x3c1043b4bd11c7a7U, 0xbbf91799bd46a88cU,
  0xbdd79268bcc0268fU, 0xbccbc4d3bdccbdeaU, 0xbdee22b6bc3722f9U, 0x3dd87e6f3de0a43cU,
  0xbdf834a7bd8a40c4U, 0x3d8c9c81bd8c93adU, 0xbe133373bd5d29e3U, 0xbdd6d9cf3c83845bU,
  0xbcb232c73d9e1822U, 0x3cfddf1d3e0c41a8U, 0x3da0feda3daee536U, 0x3d39ab45bce3579bU,
  0x3e3140d3bd32c3bdU, 0xbb47aa9ebd6c8e79U, 0xbdd37057bcbc784bU, 0x3c20c232be2124a2U,
  0xbda18164bde220b3U, 0xbdd3d5e8bd09d62cU, 0xbe12292e3ce42ec1U, 0xbd29e6843c926ac0U,
  0xbe0bbeb8be0d91bdU, 0xbbb607d0bd8e3bd3U, 0xbd71eb2cbc84996aU, 0xbd97ba243cce230eU,
  0x3aeb1804bcd38eceU, 0xbe006f7d3d6a3a8dU, 0x3d88f6c0bd8cfbbaU, 0x3d0d5920be09788dU,
  0x3d5ec296bc8784bfU, 0xbe0db43bbe135c62U, 0xbcfa0f5fbe243fceU, 0xbdcb6bdfbdc7722eU,
  0x3d990516bcdba91eU, 0x3d18a7803d8fe2eaU, 0x3d94c7743da58b0dU, 0xbd9530a5bcc10d32U,
  0x3d2360d33a55debaU, 0xbdcc2b963d7ae9edU, 0x3db61843bc00342fU, 0x3d4d34c2bc4e2728U,
  0xbcf22f5bb9f20055U, 0x3d9f2f09bd017c87U, 0xbd7c073ebced3da9U, 0xbc13b19dbdd8b2ccU,
  0xbd06c23dbd6c04a0U, 0xbdb38a223c03be8cU, 0xbce11c91bd0e0c02U, 0xbd0bb0ec3da11fe3U,
  0x3a3d1289bca86345U, 0x3d55f97f3d94a84bU, 0x3c9ee0b4bc0b8730U, 0x3de6d1523c93bac4U,
  0x3d8ca2483cf71246U, 0xbe0b5394bd72ff11U, 0x3c983960bcc0f253U, 0xbd13f439bd2896bfU,
  0xbc5ac4bbbaf90fedU, 0x3dac6485be32bcf4U, 0xbdfde1903dda191cU, 0xbcec351ebc451ac1U,
  0x3d5f420b3dc7839eU, 0x3da586b83db88384U, 0x3da12ee6bd11a25aU, 0x3dc834b13d992068U,
  0xbbe7ab1cbba402edU, 0x3d0078743d9fcc0eU, 0xbb2ae1943dce1619U, 0x3d87d6b93d0003a6U,
  0x3db1028a3d16953bU, 0x3a1b03c23d067414U, 0x3db7012f3bc58b35U, 0x3dba332bbc8b353eU,
  0x3d766a06bd6b13acU, 0x3dc4cabdbcb0cf5bU, 0xbccd13c73d950addU, 0x3d48ab7b3d39b8d4U,
  0x3da60a763d77b9f6U, 0xbc801378bca7dd9dU, 0x3d81fb9e3ddcd049U, 0xbd2049fb3db661ffU,
  0xbcbe2b65bd342315U, 0xbdcc77eebc8b9a00U, 0x3a77c7563cd40b4fU, 0xbc2dba9fbdec6d8bU,
  0xbd682ed6bd77c6ddU, 0xbe3d0ba6bdab4205U, 0xbc9191babd697fe3U, 0x3da1e66fbbbce78cU,
  0x3bd3782ebc1710baU, 0xbe24200cbda9c11eU, 0x3b20478abe01c21aU, 0xbd9d9153bcca3b4dU,
  0xbc85c9a0bdc988a8U, 0xbc86050ebdabe064U, 0xbd3effd23bc2ad82U, 0x3c8a7c193da9059cU,
  0x3d3ed0083db66112U, 0x3cd59c763d95e471U, 0xbcb3c5fbbd9f8906U, 0xbd0c53dabe136be7U,
  0x3dbe0c2abd070ee2U, 0xbdcd77263cbe6180U, 0xbccd81e1bdebc3b8U, 0x3ca7b6b6bd121721U,
  0xbc150f753d1be06bU, 0xbd8d8b12be392142U, 0xbdbf3e77bd4381edU, 0xbd02b86e3d4c865aU,
  0x3d4909f3bd7e7f0dU, 0x3d3594d6bd919d49U, 0xbcfba2163ccc3b47U, 0x3d19d743bd95983bU,
  0xbd3071743d8701faU, 0x3d26dda23d10737cU, 0x3d858edabd3bac2eU, 0x3d73ea593c03bdc8U,
  0xbcb2a600bd8bc2e7U, 0xbdc908bcbc864635U, 0x3dae209cbda95034U, 0x3dce2ef43d483208U,
  0xbca78bef3d4831b3U, 0x3d0cba6abdb7e591U, 0xbdace1bb3ceff61bU, 0xbb11a4cd3d333fbfU,
  0x3d9025debbbbaf04U, 0x3d0404b6bd02edecU, 0xbca722b93d5eb793U, 0x3b3e4fdd3d09c87bU,
  0x3c68b2bc3c89d94eU, 0xbde2f7cf3cfae511U, 0xbce4cd93bd1b4a32U, 0xbdec1e1fbca2c489U,
  0x3b46af183d9206eaU, 0xbde3ee56bdc13f55U, 0x3d746744be0502c1U, 0x3d3ff529bd0f34bcU,
  0x3d2993d93cfc0d34U, 0x39de3795bb010c81U, 0xbcc8f9323cf55e7eU, 0xbc2ead52bb8b6fa3U,
  0xbd3648afbd1a4610U, 0xbdd9748c3bb5100eU, 0x3d5dd9bdbdca1185U, 0xbcbb02173dc9b148U,
  0x3cac4f4ebc55d8faU, 0x3c8c57fe3da0d792U, 0xbd4dd74dbd420739U, 0x3d9685e73d0ebf48U,
  0xbc31ccdfba628457U, 0xbdf0f76cbcdf383cU, 0xbbad3873be074b15U, 0x3d28702cbdb2e5f2U,
  0x3da7f8083da8de4cU, 0xbdc68800bdbe8263U, 0x3b634828bda8db5dU, 0x3d0a5ea8bbc007bbU,
  0x3d29b40abd303da1U, 0x3ba6d3233d2378e1U, 0x3db8d76fbdc78405U, 0x3da4ecc03da0c5e1U,
  0xbd63b7b03db39d35U, 0xbc3342ac3d98c815U, 0x3bae29ba3d879e54U, 0x3d85ee8e3cf8bb6aU,
  0xbd0313003d29fb41U, 0xbd2fb967bd99b758U, 0x3bfaeb7fbe21ce4bU, 0x3db6d2433d7678d4U,
  0xbd50e9cb3ac580d9U, 0xbd1a50b7bd3e9681U, 0xbd8de252bcc800d3U, 0x3d9471babcdfa06bU,
  0xbdac50a53d577864U, 0xbd8220a13c2af866U, 0xbc8e4bc7bd58d2f4U, 0x3dad5d633d88257bU,
  0xbbef6f8bbc299770U, 0xbab41cf53ca5c210U, 0x3dcdce8c3dacbb75U, 0xbc05bbc5bd6cf07dU,
  0xbc598e433c23544cU, 0xbd7724d93cb21ab0U, 0x3dd052fbbd18f40bU, 0x3d1131b33d58e2eeU,
  0xbd75e2e23c103749U, 0xbd80ec46bd19a412U, 0x3db31753bdada5a4U, 0xbdaec8cfbdb3b47aU,
  0xbda61caebd377f3aU, 0xbdad15e8bd4917ccU, 0xbd322327bc65efb7U, 0xbd3d29df3da783d6U,
  0xbc405fe03d6821a5U, 0x3cfff26e3d7e9ddaU, 0xbb2ef8ba3d2f1ccaU, 0x3de7e8bbbe168db5U,
  0x3d0d1b3c3db998d1U, 0xbe5ddc9b3d6129b6U, 0x3dd01fa23c31df19U, 0x3d5ff0b9be43fc83U,
  0x3a897fc53cd26736U, 0xbd43e1d4be5c050dU, 0xbd8244513dd4aa3fU, 0xbc4da4d3bd8bfbf4U,
  0x3e17d6d33d62ffd7U, 0xbd06caee3db4a323U, 0x3d68db253dd8ec20U, 0xbd669d6d3d7945c8U,
  0xbd46481b3d006e4cU, 0x3bb1cda6bd2a562aU, 0xbd3e323fbc2c8f54U, 0xbc4b48c2be62960eU,
  0x3d83892a3ca4c8afU, 0xbdd4da6dbdb53426U, 0xbbe3b8b9bd2c34f1U, 0x3d7f2d4cbd35612eU,
  0x3dc9d7a8bd0128c6U, 0xbdcc2fc0be885418U, 0xbe5fb1e23e090b81U, 0x3c9cf14e3c49bf17U,
  0x3e0212e43dafd25cU, 0x3cc5da7abccd3e12U, 0x3caf94d8bcba6ce3U, 0x3ccfe5a73d098cd6U,
  0x3d7fadd03d139d91U, 0xbe33b4eebd45bb0cU, 0xbc918ce5bced5896U, 0xbdda9092bd93eb9aU,
  0xbd979661bd541a81U, 0xbe3632f2bc939c1fU, 0x3dbb5eabbdd08a61U, 0xbb319defbdeed841U,
  0x3da5276e3d0be604U, 0xbe1d9bdcbdfab7d2U, 0xbc27921dbe32ecd9U, 0xbd1216dfbe2bd5b0U,
  0xbe25932ebd996f4bU, 0xbd67c8d5bd981468U, 0x3c0b9fb1bd2c7721U, 0x3d67577a3d60f18dU,
  0x3b971f6a3d47e543U, 0x3c7742d53d4edf03U, 0x3dbc37feba34d162U, 0x3bd5fb9cbe87035bU,
  0x3d0e005d3e01f901U, 0xbe4af23d3ce9c746U, 0x3dcfb4e7bcdeba2aU, 0x3dc59b70be02adf4U,
  0x3dc2d3c8bd3d3132U, 0xbe43ecaabeb1a608U, 0xbe900a4cbd928a1fU, 0x3cd028bebdb9276bU,
  0x3c887f66bd6710e5U, 0x3c17c749bcd74052U, 0x3dca90f0bd7f087eU, 0x3da943923d117a47U,
  0xbb3a4e533b5cc937U, 0x3d86fc80bd5ac1b3U, 0xbd8089a43c2caca3U, 0x3e2192dcbe3a7c5dU,
  0x3da5cfc33dcb52bbU, 0xbdbd18bbbdac39fbU, 0x3d3569813c023e66U, 0xbcf21db03cd2da8cU,
  0x3cf25ef13dd877beU, 0xbe2eb252be4be058U, 0xbe4eafd33d4de821U, 0xbcb4dbb03d6a82b7U,
  0xbaaae21a3e0e5725U, 0x3d93a66d3d60105fU, 0x3d510fe3b911a402U, 0x3c15dd4bbda2d7ecU,
  0x3dd18c9a3d377598U, 0xbe431ae13bf025b3U, 0x3de945ca3d5bd72dU, 0xbda63fbebe2cb254U,
  0x3d82e1243ddced1cU, 0xbe5460ff3c5c2f0eU, 0x3d57aaf33c5a5fffU, 0x3ddb277ebe458d90U,
  0x3dce003e3c38768fU, 0xbda93a20bd4e609eU, 0xbd99338bbe4e6652U, 0xbd63af64bdbf871eU,
  0xbe3144e6be540021U, 0xbe6db3f83cc367f3U, 0x3da49d0fbd57e626U, 0xbcf9ed213d70d82dU,
  0x3cc2ff1dbc818327U, 0xbdc564c2bac24b74U, 0xbd458163bd78f128U, 0x3cfe261fbe2cb974U,
  0xbd0c5fec3ad55b81U, 0xbe345649bdf3f2efU, 0x3d43d880bd9e8cabU, 0x3dabdd72be7cdcd1U,
  0x3dca48b13cd47aafU, 0xbe1372efbe46f07cU, 0xbd150ac6bd5acb2bU, 0x3cca4d713d5f3a82U,
  0xbe4d26c43c8698cfU, 0xbc4fa5dcbd691aa1U, 0x3db428a0be1ae242U, 0x3dd688ebbcb9e031U,
  0xbe53d8d3bd8d6646U, 0x3db3eec43d72ed9fU, 0xbe66e81fbd4f670eU, 0x3dbb549cbdee9ae9U,
  0x39dc07e53d0447d4U, 0xbe49b559bdde9be2U, 0xbdffcead3d04b554U, 0x3d8caa7ebdfa86ddU,
  0x3c5d50d9bc2bd752U, 0xbdf57ac4be1cb8acU, 0xbdde57133d4ca60cU, 0xbd0f0c233de3ddcfU,
  0xbd2e75973de5df90U, 0x3d81dbd0bdfca899U, 0x3de87f86bd8e8cc4U, 0xbd1e895cbd0bc1dfU,
  0xbc95faebbb451604U, 0x3d207fb5bdaf1899U, 0xbdc2f5b4bd86f060U, 0x3d5c6e51be13869fU,
  0x3b7d95c3bcd31173U, 0xbb9b1c7d3e050409U, 0xbe0bb01f3cb8c2b0U, 0x3b496a6b3be1fbf0U,
  0xbdd8c5c3bc52fa0eU, 0xbba06b123d148faeU, 0x3cb551683dbc8eebU, 0x3daca26f3d576353U,
  0x3dd749a73c8ae22cU, 0x3d7f0accbac95c46U, 0x3d8c16db3ca796f8U, 0x3d7aded2bd83b532U,
  0x3d83ac8a3d9241aeU, 0x3d15f3c5bce330d1U, 0x3e15e18e3b5111fbU, 0xbdbe9b81be18f856U,
  0x3bce8adb3ce277f0U, 0x3beab67d3e6e3942U, 0x3d61e3a33d98e4f1U, 0xbbefa559bcb6a240U,
  0x3cda9958bdb9f075U, 0x3ddfdd40bdb49cb4U, 0x3d4b837abc89a02aU, 0xbe2676ed3b9c953aU,
  0x3c4dae83bdd06d72U, 0xbcec5d9f3da2f1b4U, 0xbd82cf783d436f1eU, 0xbcf153503d5d7acfU,
  0x3dd30733bd2f44e6U, 0xbcae26e0bdb7e27fU, 0xbc3f496fbdd22277U, 0x3cefc9fd3c8daaa6U,
  0x3c21bdac3d3ee86fU, 0x3cfdd6b33d91baf0U, 0x3d429523bd8e53abU, 0x3d53fd223d190b4dU,
  0xbd8c78073e38b271U, 0x3de78139bdf96a67U, 0xbd0bff7a3d404476U, 0x3dcc0def3c52debcU,
  0x3d977c343d8ddef5U, 0xbd07fa9c3d2c39e9U, 0x3d333f85bcc1b08bU, 0x3bd8e8933c9c161aU,
  0x3d1dc0f93db6e3bbU, 0x3ddc01433d497e46U, 0x3cf7411e3c627fbaU, 0xbd6926a9bdfde30bU,
  0x3ca9e36e3d9d2146U, 0xbe175d4e3de668afU, 0xbbd2dce8be100f91U, 0x3d144b3ebde3a251U,
  0x3da401463d9c76d2U, 0x3e0a5e8cbe37cd49U, 0xbdbd3723bd5c5a9cU, 0xbd6173713d9d8079U,
  0x3d8bfe883de3bd7dU, 0xbc924c1f3dd1f80aU, 0x3d4c89183dad685fU, 0xbc23f015bd85c92bU,
  0x3de721b23d51b597U, 0x3d8991d03d256ebeU, 0x3daa873fbd980cf7U, 0x3d82da5bbcb6d0e4U,
  0xbbc70e123d883198U, 0xbe0ae30a3e038ecdU, 0xbc0101a1be0c8339U, 0xbda50ebfbdaa02e1U,
  0x3dcabe7a3dddd3a7U, 0xbcbc0440bd171fb3U, 0x3d4418b4bdc6be6eU, 0x3c504a803dc4fb7eU,
  0xbd00341c3b5c3c53U, 0xbd4513ed3d5563e3U, 0xbd5dea22bd92edb4U, 0xbcaea08d3d5ebc21U,
  0xbd21e8fabda34ef0U, 0x3b7da67abdf007aaU, 0xbd5734afbe084e4dU, 0x3da8b54abd9f66bcU,
  0x3d5bf514bc9e094dU, 0xbe17b1793c1abc89U, 0xbddc30903ad62c2cU, 0xbd3ddf253ddbb3c7U,
  0xbdb0ed953de66baeU, 0xbd98cbe53cfb8f28U, 0x3e332db03da2e281U, 0x3da4a28c3dfa8066U,
  0x3ab96dec3e153f58U, 0x3e10b596bdbbecb2U, 0xbcc2133b3d4b2315U, 0x3d441e703c32d3e2U,
  0x3d9a0408bd589fbbU, 0xbd439a243d8a2fa1U, 0xbc5ecec83cfcfeb1U, 0x3d3f496cbd8bc877U,
  0x3c8239653c679b47U, 0xbde0f8ecbd10fdf0U, 0xbc90f04abd862f58U, 0x3d1a16c1bca89a6dU,
  0xbd36b180bd6175eeU, 0xbd5f8ad3bd61ffb1U, 0x3d2c18b93d15599fU, 0x3d1829903d68f3f1U,
  0xbdb07c4e3db05863U, 0x3d27e308bd5e3d62U, 0xbd59f29abd832fd9U, 0x3b8aeae1bd3b3e8fU,
  0xbd4eeee4bd86386cU, 0x3dd1a0bfbbd5f015U, 0x3d6e8ade3da0b8c1U, 0xbc9c6542bc168099U,
  0x3c5d58223d6aee6fU, 0xbc3377a13d170474U, 0xbc5591c4bdd54beeU, 0xbd7b106ebcf6f789U,
  0x3d3d7647bc1fe1e6U, 0x3c075d863d05a1a3U, 0xba2136edbd12146aU, 0xbca461113da07fdfU,
  0xbcc3484a3bc51404U, 0x3c1d2118bdc5c1b0U, 0x3d37e35dbd353352U, 0x3b25e708bc3e1e71U,
  0x3aa36efabdb7a181U, 0x3cf112e4bda763a1U, 0x3d4f5d95bd64c377U, 0xbdd88930bcc6c60eU,
  0x3d7deca6bc6aff8eU, 0xbe131545bd49655fU, 0x3bf7862bbe0436aaU, 0xbdb2f6e9bdb625e1U,
  0xbd01c9e43cab85c6U, 0x3e3c1115bdcf1ea6U, 0xbdc0fa7ebd0cfbddU, 0xbd98a132bd57e809U,
  0xbda68545bd7f1229U, 0xbd6383df3d8facd1U, 0x3d860c0d3d02e304U, 0x3d2d87fd3d028bcdU,
  0xbd220222bda29be4U, 0xbd10f3a3bddc03c5U, 0xbd98cb3dbc4e69d4U, 0x3c8143bebd61c2b5U,
  0xbd21e2c0be13eaa5U, 0x3bc6c490bcf6d6e3U, 0xbd72218dbd824a9dU, 0x3c8da5c9bd7faee4U,
  0xbd2189abbda102a1U, 0xbc9654e6bdbb1a13U, 0xbddff666bd01a310U, 0xbdac9051bc60357cU,
  0xbd8c00dbbc97d897U, 0xbd1751f8be1bead3U, 0xbe1e705fbd356caaU, 0xbdf8d063bd5a1e7cU,
  0x3c895d7abdce06bfU, 0x3e02d863bcca8f4bU, 0x3cf4ea7cbc60182dU, 0x3d8cb01bbd2c361aU,
  0x3cb92bc03c5c84e2U, 0xbc9a77153dc32fd8U, 0x3d62a3d13d4c739dU, 0xbd5fbe01bd4ddb29U,
  0xbd16c7003c279119U, 0x3d58e427bd8d2096U, 0x3cd8e8353d19ebdfU, 0x3c7f8e683d26b700U,
  0x3dd620df3d95a8a6U, 0x3bc140cf3d82a958U, 0xbd13f23b3db33e66U, 0xbd216becbc85dcb4U,
  0x3d174cfd3c277c94U, 0x3dd2e6ebbc523823U, 0x3cfa707ebd3ec498U, 0x3e0e67a0bd73a22fU,
  0xbc8707a63be44e60U, 0x3c4489e03dc6cf64U, 0xbcb739993d13a9a7U, 0xbda655513d72c4ccU,
  0x3d801fb63ca2e067U, 0x3ddaf472bda5c869U, 0xbddb1fd23dea966dU, 0x3daf25903ddb6d89U,
  0x3cb34e243e12b345U, 0x3c8f9009bcc9b284U, 0x3da25c743dc7dd3aU, 0x3d6cc1693c3200e7U,
  0x3cbc6ef2bd597cbaU, 0x3db6ab08bd857378U, 0xbcec24bd3b9970bbU, 0x3d07a1adbdfec226U,
  0x3b55152ebded46e7U, 0xbdb2ca3ebc1eedd7U, 0x3cd9089a3da426f4U, 0xbe08b7d03c62c72eU,
  0xbd46f89dbdffb54aU, 0xbdebef07be445f25U, 0xbdaf0abe3d693e93U, 0xbe114065bd3dc139U,
  0x3d53e7673d42d688U, 0x3c068e5abdf6a685U, 0x3cd38d2b3cf362b2U, 0xbd53a415bd880f1cU,
  0x3dc3bbfe3d9b5d8dU, 0x3daed0a53b4534daU, 0x3ce1816b3da37aa9U, 0x3dec5ea7bda1e605U,
  0xbdab143f3d4fc55aU, 0xbcf66da93d8dd89fU, 0x3d8a87f7bbf3c3f8U, 0xbdb9fe19bd251c31U,
  0x3bcd952ebd4280fbU, 0xbdf0650bbe021892U, 0xbd2563ac3e047076U, 0x3cba2dd83d8c6cf9U,
  0x3baf1e293e014f81U, 0x3c351897bdc08ab0U, 0xbd8c4cb83c8e6596U, 0xbd5aee33bad82331U,
  0x3daa39bbbcd2a054U, 0x3e37ce44bd5c3858U, 0xbc69d0d53ca161b8U, 0x3e328264bd8ba816U,
  0x3de2b335bdb51561U, 0xbd910e4c3e09f07bU, 0x3ca7a616bd1b48e7U, 0xbd1b36873d0614feU,
  0x3d8efc3e3d5706d3U, 0x3cc78c6cbd8120faU, 0xbc6d37403d522d8fU, 0x3d182ce73dec0658U,
  0x3e33be873d4f70e0U, 0x3e26b9493ac2d4d2U, 0x3e034f743daae563U, 0xbd85b3333da73896U,
  0x3cb98df33cf82820U, 0x3e2231513d105f88U, 0xbd24ab4abcb49208U, 0x3d9171e8bd5627b8U,
  0x3c08e2f43d6b23faU, 0x3d67aa9c3db53d98U, 0x3d06d4c7bd72863cU, 0xbd4e64a73c4a781eU,
  0xbbdf58e6bd36ee29U, 0xbc45557fbe323f1dU, 0xbde6b3c93dc9201eU, 0xbc2b64a13d950c8aU,
  0xbc0419ff3e11f39dU, 0x3dc6c2e3bd76ccbfU, 0xbd69ccb53d9ad37fU, 0xbdf3bc2cbd3bfef1U,
  0x3dcb70933d36aecdU, 0x3df3bfe93d29fa05U, 0xbc992a7b3d88c03cU, 0x3cb7af46be1f2297U,
  0xbd92b5e1bcc10746U, 0x3cf45db73cb962a1U, 0x3d5efd67bd12b3f5U, 0xbca373463c2bd3c4U,
  0xbd74c9c53da60349U, 0xbd50f990bd8b7d93U, 0x3cf252593de83d41U, 0x3d472e1c3e104926U,
  0x3c8882be3d9500a5U, 0x3df3d508bdc7430dU, 0xbd83d1fbbc90ba35U, 0xbdbf975b3dd56abdU,
  0x3c907d123cbef07aU, 0x3df2d783bcaabb81U, 0xbc0871dcbdb023b1U, 0x3db869e0be3120a8U,
  0x3dae1518bd80114dU, 0xbd4498eb3e4a86e4U, 0xbc80b0bbbd4c2837U, 0x3c84c2733d16a3f0U,
  0x3ce013bf3c265a51U, 0xbc8c0edebde70f89U, 0xbe074e333bcd8032U, 0x3cbe6b4f3dfe71ccU,
  0xbdcf71eb3dae90f9U, 0x3d22f0e93d9d511cU, 0xbc7face7bca9fc39U, 0x3d16573f3caddf67U,
  0xbdca230cbe5fdc7aU, 0x3daece02be274991U, 0xbb23017cbe5d2eb4U, 0xbd7c0296bd554c17U,
  0x3cef80aebdf8b5cfU, 0x3d95e5573d66e9d0U, 0xbce8661a3dc170b6U, 0xbd2abbf63c185899U,
  0xbd689d73bde90823U, 0x3e18ed79bd954464U, 0xbcca364bbd27aaaaU, 0xbc082565bc2d7433U,
  0x3d2f5aad3d56ba2aU, 0x3e09d2233d8d2630U, 0xbe28d40f3d8a198eU, 0xbe5eed26bda17581U,
  0x3e733f693d453637U, 0xbe1765be3d65409fU, 0x3de5e7a23cbe204bU, 0xbd3ac67bbe3f4943U,
  0x3c203af8bca6e7c6U, 0xbdb574a33cb2f3f2U, 0x3e31ad703e576a4fU, 0xbda78eefbdfde8faU,
  0x3dde9b183da2d2e6U, 0x3e6ee526be7f516eU, 0x3e20f6d1bdc85258U, 0xbe59bd2dbdbfd729U,
  0xbce962e8be17ab41U, 0xbd8089243df4f87dU, 0xbe31272b3d8da587U, 0xbd0909e23e121523U,
  0x3d36fb233de9d888U, 0x3d41b459bd861061U, 0x3e0b6b9cbbb39b3aU, 0x3de5a9cf3d86badfU,
  0x3c77558d3dceee83U, 0x3b8adaa23dda294eU, 0x3de56187bd90a6ccU, 0xbc75c48bbd87614cU,
  0x3b38cdc23de09224U, 0xbd69b3323d7b7690U, 0xbc8ec535bdfeb089U, 0x3d4d7d4cbdd0d56bU,
  0xbd2953fd3babe107U, 0xbdbbf4ecbdaf3183U, 0x3bf7fffbbd3decceU, 0x3e00bd193ddf221aU,
  0x3d2c0be63cb3cec2U, 0x3cbb3d023cc088dbU, 0x3d2de294bd86cdd5U, 0xbd3dd5abbe1da8bbU,
  0x3d4267653bc7b92dU, 0xbdeab632bd6a8b69U, 0x3d6b93063e17de86U, 0x3cfcd209be63f0e5U,
  0xbbd6e4043b7221b6U, 0x3d86e53dbe3a2735U, 0xbdd6110dbdbcba30U, 0xbcdc2ae2bde2987bU,
  0xbe1f3441be183b06U, 0xbd60bc3a3dd03c06U, 0x3d52c5723b4c4048U, 0xbdd60e2f3d8f35bdU,
  0x3e363c9e3d8f06e2U, 0x3dbdd6ad3d625568U, 0x3dab206abccb7bbeU, 0x3d8e6532bb4b8277U,
  0xbdf818e5bcfdb6e8U, 0x3df74a1e3e64f0fbU, 0x3e19132c3dedcbe2U, 0x3d441e4cbda48f20U,
  0x3d4769243dd669f4U, 0x3d50c7c0bc7e10b0U, 0x3d109407bd9fc628U, 0x3e00a942ba080c06U,
  0xbca3d90a3d73b4c7U, 0xbd56520f3d8a84e8U, 0x3bdf85f4be0b6111U, 0x3c8822513e150ab3U,
  0xbe05f589bd131c63U, 0x3df65ed9bd74ba36U, 0xbe43a3a6be020654U, 0x3e1677eebd22f182U,
  0xbd8ac0d0bc52e07dU, 0x3d52e04ebb11ffbfU, 0xbdab21b1bd803897U, 0x3d4b4cf9bdd162e6U,
  0xbe169ea63a9616d5U, 0xbe9a0e713ce64245U, 0x3ea6dbdc3d4640beU, 0x3e0499923d93e897U,
  0xbc8f3d2f3dea1f88U, 0x3d05f3c5be88105dU, 0x3dadff3abe1e0cf6U, 0x3c9dd33ebe06e6feU,
  0x3c41ceae3dca99f7U, 0xbd73c4b33d31b78dU, 0x3d839bf73cbe2e65U, 0xbc460ca6bc0d3b64U,
  0xbb023d8c3a12fd80U, 0xbd96e2553e046fd2U, 0x3df5ff7e3d4934cbU, 0xbbcddcfbbe10b970U,
  0x3df8204f3dbe280eU, 0xbd250d9fbc7115e1U, 0x3d0938b5bde68ea1U, 0x3db97eb53d547e87U,
  0xbe3ca6c7bca207ddU, 0xbd3ae9923db89424U, 0x3e071de53b2d6d09U, 0x3cad7090bb893357U,
  0x3d5758d6bda0a689U, 0x3d5a86cdbd1a4098U, 0x3d6270d83c90377bU, 0x3ddf5a393dd8d9d5U,
  0xbcd55c2abd2f9472U, 0x3e007b673e32549eU, 0x3d791f753c010b77U, 0x3d5a345dbd5e1e3dU,
  0x3bf280263da71271U, 0xbe31bf243e30e557U, 0x3e7a32393b538849U, 0x3e13da9a3d91289bU,
  0xbe292f413d8df290U, 0x3d0c978fbd8d031cU, 0x3dd82c17be4c5c42U, 0x3ba8bedcbb4488aeU,
  0xbe786a0cbdddc57fU, 0x3d82a829be44eaf6U, 0xbea83e30be5f3b97U, 0x3dcfc51cbdc34b98U,
  0xbe205c68be04fba2U, 0xbe061e34be0623c7U, 0xbe9a7ada3c50c6ddU, 0xbdd852ffbea29f24U,
  0xbe816a47bbdf8f5aU, 0xbd810f34bdca1d85U, 0x3e24b8de3c164726U, 0xbcc9d55c3da1eb2eU,
  0xbe2bb4353e0e4d7fU, 0xbbf059f8be2f11feU, 0xbda1de61be075b21U, 0xbc965ac7be7d2911U,
  0x3d97a5693c982f19U, 0x3d516436bcaa3c93U, 0xbcc711e43d9a4d15U, 0xbd20f042bd915a49U,
  0x3d80ed843dd13e5bU, 0xbd404d51bdcc16fdU, 0x3dbafd943b93b47eU, 0x3d1b6983bcee6b90U,
  0xbc538fdb3d9da480U, 0x3e1643d2bdd9e86bU, 0xbc041ab23d4b0472U, 0xbe00d7133cd46decU,
  0xbbc75466bda1653fU, 0xbca90ea23d441b16U, 0x3da34dce3da25d81U, 0xbd188b763d5b35b5U,
  0xbc856c5cbd00e353U, 0x3a97ddab3ce918dcU, 0x3d9b1401bd8b6211U, 0xbd8c81d7bdecd956U,
  0x3ded6e5f3d5f4bbfU, 0x39fb31ca3e2ae426U, 0x3d535451bdf4cd5eU, 0xbdd2ab3ebc021789U,
  0x3c7e74663ceb558eU, 0x3d224c0cbd85e8b3U, 0x3dca2f2ebc6ea988U, 0xbc32b07abccc0702U,
  0x3e2a7199bcfda4cbU, 0xbbc79e533bb1ab64U, 0xbcbd0da7bc2d06d5U, 0xbd0fff723bcdf892U,
  0xbce60cdabcd5c63aU, 0xbbdea47fbc546648U, 0xbd00ce95bdb6ade7U, 0xbd3c8243bd874569U,
  0x3db7ffb2bd8caebdU, 0x3bd7e93e3d74b37aU, 0xbd7ea1623d239011U, 0xbdf9f217be1d8e31U,
  0xbdb5c8dabd19cef4U, 0xbc0cc030bda52053U, 0x3e13f2353c2bc954U, 0xbcf5c4b73df2a7a1U,
  0xbd0c177cbd59fbcbU, 0x3cdb18cdbd8b1c44U, 0xbd9bf5f13d402692U, 0xbd1d5f953ccc9b22U,
  0xbd1397f13d27bcebU, 0xbdcf62143d15f3b5U, 0xbc9f501a3d11ce1fU, 0xbdd195b0be0b20ddU,
  0x3c890527bc390688U, 0xbda61939bd957091U, 0xbd1da852bdf24e6aU, 0x3d80bcabbd111c25U,
  0x3da102533d5f30d6U, 0xbd9d953fbd2517c5U, 0xbd0bd074bd22b423U, 0x3ce8859f3ce53dfeU,
  0x3dcb09b3bc1e03f2U, 0x3cc816043d08c7f8U, 0xbb9dd23c3c045632U, 0xbd013f5c3d391e40U,
  0xbe1a1e7e3cfa96b6U, 0xbd3809d03d804f3bU, 0x3d21aa093de6e203U, 0xbd1037efbbeb5422U,
  0x3d936a51bc444c36U, 0xbd073ce33d42e247U, 0xbcf9609fbdd37702U, 0xbd279e5d3dd576c7U,
  0x3d693eb4bcc40969U, 0xbc35545ebd9abaefU, 0xbdb975e1bc45402fU, 0xbdc43a74bc009043U,
  0x3cf6f7193dacaa63U, 0x3da868fd3d0af5a7U, 0x3c50d9c13db7bb41U, 0x3d554d7fbc242533U,
  0xbd97ad46bd07b26dU, 0x3d6c1a2a3d5c5ff3U, 0xbd4e03be3c17aeb0U, 0xb9a194aebe716efcU,
  0x3dbd4a43bd33479cU, 0xbdb24e0dbda424ccU, 0x3d5ee44fbd034fd1U, 0xbd649756bd0264ceU,
  0xbd059bfa3d04f017U, 0x3e03fc03bdd6d91bU, 0xbdd36fe03d4a098fU, 0xbdeba5f13cecb09bU,
  0xbd50533cbd4fa57cU, 0x3d0f9ed03cd49558U, 0x3d92413a3dcd9adfU, 0x3d956e843c824905U,
  0xbbc9d8e13da8d460U, 0xbdd997583d11998aU, 0xbd7cff693d887dcaU, 0xbc0387323d273ea8U,
  0xbce70fce3dbe9c52U, 0xbd7fa0d1bdc8eb4bU, 0xbdb5ee85bdc4bd5bU, 0x3d314e7ebbc3db75U,
  0xbd7c4fa5bc7919b6U, 0x3c7765233caa358bU, 0x392d038dbb516d1eU, 0xbd2070363d3a209dU,
  0x3d945e1d3c8f9a74U, 0xbdd02545bd79da12U, 0xbc401c75bdec0f1bU, 0x3cda5247bd46c6c5U,
  0xbd825fc0bd283995U, 0xbdc9a64a3da3c293U, 0x3cc160403dfd6bc3U, 0xbd8ed05cb9f1132eU,
  0xbd19d2f13d6d268cU, 0xbd262749bc861e98U, 0x3d8fb427be51ab13U, 0x3d3497af3cab22ddU,
  0xbd0df55dbc956202U, 0x3d417ed9bd656530U, 0xbda19bbb3d87a3a7U, 0xbd2a4edabd8a3830U,
  0x3ced7220bd7129acU, 0xbdd28b153d02e374U, 0x3d8eb6243d36a680U, 0x3d0686e9bd7bf877U,
  0x3c019d6e3e083d07U, 0xbe03fd59bc3f04ceU, 0x3dcf99093db016f3U, 0xbdae8cedbd0fc465U,
  0xbcae12ee3dfd5b37U, 0x3aeee5bebdcc2db1U, 0x3d897ea7bdbd0821U, 0x3d9b82523d3c3d3aU,
  0x3cf85b103d690d47U, 0x3d73546b3daea5a5U, 0x3d01337abdbb51ceU, 0x3da12c26bdcb037eU,
  0x3da078243c544971U, 0x3caaf744bcbb5fc1U, 0x3da89c9ebd4d6487U, 0xbce1e922bd575ed1U,
  0x3d0839943c537bc3U, 0x3d108f34bd288754U, 0xbdcd1d8bbda20746U, 0x3d6c6e9dbde7ebb5U,
  0x3d1750cfbc63a113U, 0xbd3702ea3d8d2bceU, 0xbd378d383d58e767U, 0xbbb1cee1baab505fU,
  0xbd1891ba3ba8370aU, 0xbc7404d5bd9206e1U, 0xbcf831bfbc4bc723U, 0xbd958d5f3db1dda9U,
  0xbd179e1d3dc05384U, 0x3dae8e223cf48eefU, 0x3a87da563d65f4e8U, 0x3d3a11b6bce02607U,
  0x3daf2694bddc7bb1U, 0x3df65867bd82fa90U, 0x3ce7553cbd6267e7U, 0xbd9f8c6fbd475491U,
  0xbccc24a13d2f130fU, 0xbd5d99b13da93cd4U, 0x3d32274e3d5243b5U, 0xbd3e2cbfbcb23314U,
  0x3d3681fbbc67f62dU, 0x3e3da234bded82e5U, 0x3d9c5e2f3dbbf099U, 0x3c815065bca56f67U,
  0xbde1560fbc26b3e9U, 0x3d647b6c3cb0df51U, 0xbdc212ec3e0745ddU, 0xbe04802fbd33edbcU,
  0xba806ff6bd78c5caU, 0x3caaae18bdd7a1b5U, 0x3d8dc660bb696f38U, 0xbb00853bbe1ae781U,
  0x3da55f103d43ab72U, 0xbd8d32653e3bda79U, 0xbd4eb63f3daf674dU, 0xbdcd1f50be1ac75fU,
  0xbcd300323d816e5bU, 0x3e4b3c5abe167760U, 0x3e53703e3dc260bbU, 0x3d66273e3d669eabU,
  0xbd8938863cd63408U, 0x3df578c43d172f91U, 0xbd0fcf553de58068U, 0xbe054cfb3cd570c6U,
  0x3a1a38283d4b6eceU, 0xbcc23c233d69afbeU, 0x3b5466e53c1cc66eU, 0xbd9caf5dbda13b98U,
  0x3d86bb1d3d84fe5fU, 0xbce2b6cabd7488d3U, 0xbd94e57abdfc51b0U, 0x3d88d583bd29e41aU,
  0xbd8aa15fbdab5415U, 0x3da94d69bcd5c4a9U, 0xbe4d5bb9bd372166U, 0x3bab4c6dba46a1abU,
  0xbcb8ab8d3cd38032U, 0xbb5732153e0c6b72U, 0x3d5fa427bd0b33a5U, 0xbd256aa3bda7ca08U,
  0x3be7c95d3dd71da4U, 0xbbb044a83c3153b8U, 0x3de8ae3bbc3e1087U, 0xbd5d13563d8e55aeU,
  0xbce4eec03ac9468dU, 0xbd24840a3d29a157U, 0xbcb9eca5bc30d2c1U, 0x3cbe3b683d0aec46U,
  0x3c1db1af3c950135U, 0x3df6a4f03d0188a5U, 0x3db5ade6bd004ffcU, 0xbd5a66bd3d27b786U,
  0x3df3a313bcfffa71U, 0x3cc361f83e20921dU, 0xbdab1870bbd909adU, 0x3d2c41433d1fa6d3U,
  0xbc8411573e07d79aU, 0xbcf99ba33d51a3cbU, 0x3d9ec3833cf0039aU, 0xbd48dabf3dfc2f57U,
  0x3da49a733d6ebafaU, 0x3db092d23c894cd7U, 0x3d872e783ad8f1deU, 0xba31dad83e2cf76dU,
  0x3d2743623db18f27U, 0x3d440e503e03c340U, 0x3e3208a13d4b3b86U, 0x3e08876fbd6ba3cfU,
  0x3d902f11bdb6182aU, 0xbd7be07f3dfef597U, 0x3d7a12793c0601bbU, 0x3cf2e6f5bc5c45b4U,
  0xbe094e33bc357df5U, 0x3c1d763f3dbdb786U, 0xbc37201a3cebb624U, 0xbda13a733c756b41U,
  0x3b891ebebdb06d9aU, 0xbd25ca9dbcaf87b5U, 0x3c3262a2bd3ef54dU, 0x3cbb450cbb9fdb72U,
  0xbd1b6eb6bd7614d0U, 0xbd6368aabd19b6a6U, 0xbe429cb0bdc01c48U, 0x3c3623a2bc8f351aU,
  0x3d6bcc8abd88e904U, 0xbda3c4f2bdcfecfbU, 0x3d338e7e3d72d5e8U, 0x3d1ed0633d0054deU,
  0xbe1e47953d7b0377U, 0xbd5fe2babd8753daU, 0xbe26af7d3c23aa67U, 0xbb773a1a3d910998U,
  0x3d0d3479bdd87da2U, 0x3c496745bd6d44adU, 0xbc557218bdbab576U, 0xbd8c82d33c5dae5dU,
  0xbce346c9bcf4588eU, 0xbe2c7e0b3d8f633aU, 0x3dd7d950bcfa37e1U, 0x3beb7861bcda106fU,
  0x3da9366ebc565812U, 0xba198800bdd45a7bU, 0x3d81477a3d68d49cU, 0xbd579ea7bdad5cb4U,
  0xbe1697e5be069853U, 0xbe09f78a3cbc9f29U, 0xbe1101483d862c1bU, 0xbdda1bf53e15c2f8U,
  0xbc01b2bdbe2bc8faU, 0x3dea73d0bd95c248U, 0xbd93ed883d1f05faU, 0xbc4d95d63cf17e23U,
  0xbde91c40bc3dad86U, 0x3d9b70d53d99197bU, 0x3de58181be081f77U, 0x3d3a06c3bda26347U,
  0x3b040bf8bd89ef8aU, 0xbd939975bd7009dbU, 0xbd341717bdfb882bU, 0xbd6bf3a8bcfb7004U,
  0xbcc64110bd96fbbdU, 0x3df40dabbdad7a00U, 0xbde390813d7b8641U, 0x3da3b4babd4c3fc2U,
  0x3cc683e7bc2c541bU, 0x3cd5eb853d758cacU, 0xbd88233dbcac69c8U, 0xbd8463f73c38765eU,
  0x3d0e395e3d5f86ecU, 0xbdee5ddabe19c812U, 0xbe3dbce03dea5359U, 0x3d2617673d9d999fU,
  0x3d9549093e0ac376U, 0xbc6ca45f3d39baf8U, 0x3db50ca13da6a956U, 0xbd42a549bcaa351cU,
  0x3de120623d6fabf3U, 0xbc30ebe63d9a1b38U, 0x3ba48e093c9b8068U, 0x3cbf6526bd53aaf1U,
  0xbdc2fff43cca0b3aU, 0x3ca5250c3cce315aU, 0x3d343ac93c328fd1U, 0xbc08abad3ddc160bU,
  0xbdb07f88bd8dcc2eU, 0xbdfd196dbdc90ce4U, 0xbbdc18ebbd175a90U, 0xbdb8f077bd8d7016U,
  0xbd90a55f3c5bddbbU, 0x3cc5c9d3bd236fc4U, 0xbd8323ec3c145f12U, 0xbcc72d2dbd3736c0U,
  0xbc5366dc3d4bfcd3U, 0x3d87a2bcbdc3a3faU, 0xbdac4645bdd7146fU, 0x3ab58bfc3c1524b4U,
  0x3d62d8b5bd45aee2U, 0x397b09b43a5d43b0U, 0xbd9882b83c4b5981U, 0xbd890a6a3c4adb56U,
  0x3d00aebd3da1ded2U, 0x3d20bbd6bd303c95U, 0x3d08fa233e10fcabU, 0x3d9ff0643e0b763bU,
  0xbd5abc9e3e168066U, 0x3d757966bd0b13eaU, 0xbd4200e3bd13835aU, 0x3d725ee0bd0d8370U,
  0x3bc83e303d4ab85eU, 0x3cd1a230bd2c5c44U, 0xbd135a12bd596472U, 0x3d4a6679be386f1cU,
  0x3c829c87bda7b7f7U, 0xb9c8131c3dee4b33U, 0xbd03415ebcd09a49U, 0x3ba992fb3d95a259U,
  0x3d0611113dc887b5U, 0xbe31c7acbe2f3f44U, 0xbe211b283d177a40U, 0x3db1042c3d5efd29U,
  0x3c991f213ccd3413U, 0x3c9d296ebd811c67U, 0x3d8796673c611db4U, 0x3daebdc93d5c6f85U,
  0xbbabcf39bc47a1aaU, 0x3da4b4e6bd664d07U, 0x3cfca7cc3d1c3f39U, 0xbc5be722bd08cacdU,
  0xbbbc980ebd7dff86U, 0x3c982b7fbbf11ab2U, 0x3d0ea9cdbdc1e574U, 0xbd03d4b33dea6fc9U,
  0x3d8cabc73d87f24cU, 0xbde57251bc7d2a39U, 0xbdf5d590bd65dac5U, 0x3bc1ac9abd9ded58U,
  0xbd580949bd4969c4U, 0x393c47c0bd399859U, 0x3ac5c52ebce65c1fU, 0xbc8d07403d3bfa9cU,
  0x3d511bbd3b0002a1U, 0x3c9e46abbd8406b0U, 0xbdcdb7e53d6528c6U, 0x3dec60923ce76461U,
  0x3d28b3553d88e11eU, 0xbd1900a23df06b7eU, 0xbd6f3f1fbcd52a20U, 0x3d4209023dc12ec8U,
  0xbd0099893db97fe6U, 0x3d0869f93c503278U, 0xbdb8c475bc09ab4bU, 0x3cf495093c915a40U,
  0xbd5cd2a73db8c74eU, 0x3def342c3d88ca12U, 0x3d26710d3d07a448U, 0xbd81d62c3d5681d2U,
  0xbda9bab73d688486U, 0x3e00849abd0ff118U, 0xbc96b5c8bca139efU, 0x3d1945a5be056cf6U,
  0x3d374309bd097ac6U, 0x3d3eeb513e133ae1U, 0x3d6614a1bce25c0bU, 0xbd897ddf3b2cd1dcU,
  0xbda4c0e13d85a105U, 0xbe0fe863bdf57fa5U, 0xbe1c29843e28f783U, 0x3dcff5103d61ba69U,
  0xbb9bed6d3e3f4027U, 0x3d1bf3f1bd90cafdU, 0x3de743f23c6c62c2U, 0x3c8e38303cc46d5cU,
  0x3dfd0fd13ae2da31U, 0x3b8c7016bc4c5da8U, 0x3d3aec7e3d8056deU, 0xbced3aa33d831f2fU,
  0xbdb93bfcbd9cb237U, 0x3da899223e106598U, 0x3daa2fd3bc3a33dbU, 0xbcec5d693ca42b6dU,
  0x3d81a3f43d809088U, 0xbdc49dedbd5f1401U, 0x3c5382ad3ba4989aU, 0xbc714753bd48f2ddU,
  0x3b328b9bba8818ccU, 0x3d7e40313c2c7a8aU, 0x3cc00f6ebd0cc913U, 0xbce0f0723d674947U,
  0x3a3a061fbdb926daU, 0xbb87b8a7bdafb782U, 0xbda74a06bdcd98e5U, 0xbb181dabbd8f929aU,
  0xbd0b1cbebd043f4fU, 0x3db116493d4866fcU, 0xbd01e6d4bd582731U, 0xbc1909ee3c6a6bb6U,
  0xbcbbced93dd2f624U, 0xbd97dd503c515fbdU, 0x3d4da5573d1422c0U, 0x3b378077bc726693U,
  0x3c9f47263d1760f4U, 0x3d8240423d860606U, 0x3da82faf3cf324d7U, 0x3cfbae8dbd541debU,
  0xbd06553d3da75cbbU, 0xbcf3c515bd58afa0U, 0xbc5b5b0f3c1b50d6U, 0x3be7eb0cbd184686U,
  0x3de834ccbcbe8628U, 0xbe3659d4bdac3e4cU, 0xbd2e074ebdf1e6eaU, 0x3dccbbfe3da059e6U,
  0x3cd40bb3bbcdefe6U, 0xbd3fcb5ebe56beceU, 0xbd71cfb13c2b7d81U, 0x3cecf9623cc0a4b0U,
  0x3cffa546bd5a994dU, 0xbc9ca1003c87a5aeU, 0x3d7d26483daddf60U, 0x3db574c63cbea9f1U,
  0x3d1af3f4bd468e66U, 0x3d9446fdbceb2991U, 0xbd91bb83bd820cc4U, 0x3d8c8a5bbdd1b5b2U,
  0xbc7e34e1bd911abbU, 0xbda9516bbd33db16U, 0xbcc2c658bd0e8bf5U, 0x3d45c202bcd46a3fU,
  0xbacb5e27bd0c505bU, 0xbd8b9c49be3b476bU, 0xbdef6fff3da0b03cU, 0xbde71b0f3ccd7ef0U,
  0x3cdc5639bd68091dU, 0xbd586840bd062041U, 0x3d6f61a93d4bcf07U, 0x3cdea1a33dab89f4U,
  0xbdf4e3f4bd94c627U, 0xbce1f171bcc1bc6cU, 0xbd35c8cebdd081a7U, 0x3dcafe24bddf9c4bU,
  0x3d2ac671bda94960U, 0xbd871e33bd99ea3fU, 0xbdc61359bdb0521bU, 0xbd1b4effbe159fb4U,
  0xbc87173b3d30833aU, 0x3dee2324bdadb449U, 0xbd46a85c3e05592bU, 0xbd0b46c33bd1c1ebU,
  0x3db995283da64de0U, 0x3ca7c41cbd1c03e3U, 0x3c9198eebb6b4b2eU, 0x3c8587cabdd6154cU,
  0xbde10bc03db87dc7U, 0x3be0c70e3db72468U, 0xbc181faf3cd123f4U, 0xbccb00cbbd7b9a17U,
  0xbd75e8d03d442074U, 0xbe317561bd34ea80U, 0x3c714235be540856U, 0x3db99438bd7f3e5dU,
  0x3cabac0f3c8956feU, 0xbde922d4bcb0d731U, 0xbe2f1badbd040ab8U, 0xbdbb2b76bd027ba6U,
  0xbdcf9b3ebd604740U, 0xbd9b9a68bbdf619aU, 0x3d5641a93d9038baU, 0xbd82f536bdb70d75U,
  0xbd5cd0de3d8e5f0dU, 0xbce8137cbce44314U, 0xbd4410c13dc481deU, 0xbc4ce69d3c933e25U,
  0x3c963ce23d319957U, 0x3d68c86cbd132299U, 0x3c39c911bdfdea9bU, 0x3db4147ebd38caf0U,
  0xbd2d1063bb9f0994U, 0x3d31124bbe220f78U, 0xbd8b2b073d402999U, 0x3bd7ec713d83786dU,
  0x3d845e02bd9aeb92U, 0xbd22e61a3d934759U, 0x3d8a5c67bcc46fb1U, 0xbd10a1d53d620138U,
  0x3cb94f403d46ff36U, 0x3d4b4b763db61c23U, 0x3c9566793d83e0a8U, 0xbbeed5babd30ad4eU,
  0xbcd62bb63ce72dc1U, 0xbd0b57c63d7a4e59U, 0x3b5dfd4bbc2b8256U, 0xbcbe0090bdf7ae00U,
  0x3db1e5f93d1df95cU, 0x3a864429bdde85c8U, 0xbd3924253c8c4173U, 0xbd08ce6c3db72052U,
  0x3cea03b33b44820fU, 0x3dca67e9bd1d28d5U, 0x3d39e98e3c81cf85U, 0x3d544d7d3d3071cdU,
  0xbda3e16cbd240929U, 0xbc29ea673d87a727U, 0xbc8edd723d37da0bU, 0x3d88dc29bcf6f354U,
  0x3c139e803d7ce6aaU, 0xbdc701f3bcfc6635U, 0x3b8ecb19bca303c3U, 0x3dab7f66bd23b913U,
  0x3d4ae207bd87dcffU, 0xbd5753d7bcc0193cU, 0x3d3ba78abcc5dd72U, 0xbd2ef6073cb47532U,
  0x3c75564dbca0e0b4U, 0x3cecdcdcbca7edcaU, 0xbb94d89c3bd01444U, 0xbd6d40523d76b28eU,
  0xbc2818893c9d55a0U, 0xbdb97daf3d823f3cU, 0xbdb896c83da04013U, 0x3d529b7cbd4e35d2U,
  0xbd39621ebd82c590U, 0xbc9345bbbdffcb1eU, 0xbd8e4f6bbdd67462U, 0xbcd507633da3236aU,
  0xbdb596c93d4553b0U, 0xbe04d8233ca3cc9dU, 0xbd8e01163d564897U, 0xbd061d9d3d2ec4dbU,
  0x39064006bdbdff91U, 0xbc29a5bc3aad4b10U, 0xbda7c0e23b5bda75U, 0x3ca814a0bcf06e3bU,
  0x3d8311743d7b4842U, 0x3d262634bd4d171dU, 0x3c64a14abc3e4c42U, 0xbcd1007c3d11adf4U,
  0x3d8f8334bd357e55U, 0x3d23b878bd9bb44dU, 0xbda0727bbcd1c2c2U, 0x3d2b8428bd16b2bdU,
  0xbdaf59e0bd645553U, 0x3dc2bd59bbdea1f7U, 0xbcee6fe53d9f8d95U, 0x3d1027783d911aaeU,
  0xbc881f56bbf37e6bU, 0xbd4e043abc545d5aU, 0xbd39815c3d4c6c1fU, 0x3d8968e2bda67159U,
  0x3daf87b53c914f53U, 0x3de9705dbcb56990U, 0x3dce0200bc396914U, 0x3d9fae11be0122afU,
  0x3ab873a33d26ba3aU, 0x3d872bae3e161d64U, 0x3e0555dfbd439576U, 0xbd0d01d93e071a85U,
  0x3df634da3dc68dccU, 0xbbe46d413c7acb01U, 0xbe07b2ac3d74beb5U, 0xbdb5f08b3d764953U,
  0x3d876cc83cebfbbfU, 0x3c0041513c34bc79U, 0x3d93302a3e13f931U, 0x3d5ac6353dd7ac9cU,
  0x3d99bff03d035205U, 0x3d95a2aabd21e9eaU, 0xbd8dfc05be0074f1U, 0x3dd5b31abde8b7ceU,
  0xbc8c24a5bd965f4fU, 0xbc6b2aafbd9af600U, 0xbca540663d65bcffU, 0xbd6da228bd55f4c3U,
  0xbd61b8e73c9014a4U, 0xbdfafd29bdc8f245U, 0xbd974ae63e13129eU, 0xbc677b0dbb3c69c6U,
  0x3e24c4193da77a16U, 0x3e37309abd92320cU, 0x3ca46b973b312214U, 0xbd757dd7bd179061U,
  0x3d7387f33d3bb09eU, 0xbe58ecc5baee1dacU, 0x3d7345973cbe2ff6U, 0xbdf50fdebe336984U,
  0xbdca4b573d46065aU, 0xbc43e5623d82ae8aU, 0xbbf80a393e062eb4U, 0x3c3b6615bddb4b1aU,
  0x3d025a76bd8498d9U, 0x3c2f750fbdff5733U, 0xbce6ffdabdc84cfcU, 0xbcd1eab9be003b28U,
  0xbe1b3de5be437bf7U, 0xbe5e9d173cb1cb49U, 0xbc3844bbbe30be1aU, 0xbdfa2151bcab1d0dU,
  0x3cc919ad3df59272U, 0x3e1735aa3bf52a3eU, 0xbc4c36e73daaa0c9U, 0x3dd7c0503c646addU,
  0x3c0ddb173db2c9f5U, 0x3cd811013e5d1e47U, 0x3df097803d067f56U, 0xbccbf37a3c7ff91aU,
  0x3daaf4463ddf0671U, 0xbc129e773d10a776U, 0xbcc9de76bc0df844U, 0x3dd6e08d3de28e8dU,
  0xbcce2a9b3d9490a2U, 0xbc5c03cf3cb9ed80U, 0x3ad651363dc30f02U, 0x3d9aeb863e0ddbcbU,
  0x3dca39143bfef3bdU, 0xba732050bde279d4U, 0xbddb2267bdca2f27U, 0x3dec13b63c4a71f5U,
  0x3d65db8bbd9c9309U, 0xbd3bf9d63cb4c9a9U, 0xbd8236013d4081deU, 0xbd3d395ebd07edc6U,
  0xbe1becef3cc0e3acU, 0xbe82da04bdbec301U, 0x3db3e0513de0ebf9U, 0x3dd205923e1b8a90U,
  0xbd48628c3e164dafU, 0xbd91ee78be003c40U, 0xbd45a1aabbf95159U, 0x3ce84750bdb5e927U,
  0x3e5048ac3dda0dc4U, 0xbdeb28ee3dc92088U, 0x3debf3a03d060822U, 0xbe713ca1bdd69ef7U,
  0xbd8ef2e83e13a6ceU, 0xbe0d23443bc8cefeU, 0x3db96b4f3d8d816aU, 0x3cf3389abd5877ccU,
  0x3db6eca6be2e249cU, 0x3d93fe66be4f2a25U, 0xbd2a2a1dbe84daccU, 0xbe0d65f3be577f9eU,
  0xbdd44dbbbe815196U, 0xbe7e86643da79a83U, 0xbdf536ecbe435305U, 0xbda0bb263e204404U,
  0xbd7507d8bd776fe3U, 0x3d18722d3d44e39eU, 0x3c5d3a463cab61f9U, 0x3d191eaf3d5d02ddU,
  0xbe135ee0bd59eb6aU, 0x3d7474933ca3b63bU, 0xbd87a2833d8bae8bU, 0x3c21a06bbd689a41U,
  0xbdb79e19bda4a590U, 0xbe56ab4f3ca60dd9U, 0x3dbd024c3d4cad00U, 0x3d3df4823dcddd09U,
  0xbe87391d3d4a3849U, 0x3d0bf2f4be063c62U, 0x3db264efbe4064c0U, 0xbb8463e6bcecd4b7U,
  0x3df10d33bdf15302U, 0xbd9f2324bdb6b095U, 0xbd616f413c10c5c0U, 0x3cfd7834be48a04dU,
  0xbdb04954be20c306U, 0xbd329ca7bcdd42b4U, 0xbdb5bdf13dc2ecb3U, 0xbdb0ec5d3c96180cU,
  0xbe123bf9bdecf1d1U, 0xbdef1ab1be2dcebdU, 0x3d7f5db83d8b8375U, 0x3cd504f03dbfc773U,
  0xbe1ee29b3d284a8dU, 0xbdecb603bdd08d0fU, 0xbde18452bdd565d2U, 0xbe0585cfbde35e2cU,
  0x3e6332323cd7b126U, 0xbd88d9033cb12b84U, 0x3c983b393d0f8974U, 0x3d5315cabe4d0602U,
  0xbdcf3c1e3dbc1fc4U, 0xbe01e4913d7116b7U, 0x3d6abe403b888be5U, 0x3da0b9eabd89c0b5U,
  0x3ca5843b3d1586beU, 0xbe35d083be734046U, 0xbdbcb074bdc7c5fdU, 0xbe426238ba82d71cU,
  0xbd2f053fbc892ebbU, 0x3a941f0c3d3addc8U, 0xbd3271b6be273c19U, 0x3c672e063e33b2b8U,
  0x3db72ca4bddb5e14U, 0xbdfea64cbe0cb50eU, 0x3c9d83aebdcef745U, 0x3d3e6cc43ca9dd1bU,
  0xbe1b1643be251a45U, 0xbd43d4893c661bceU, 0xbdad56853e0d3a97U, 0xbcfe18ad3dcbce75U,
  0xbdca0d65bd024eaeU, 0xbe1b5dc1bd261914U, 0xbda50c4cbcbca824U, 0xbd8e3b89bd9546fcU,
  0xbe04e25fbded502fU, 0xbc417a11be24cf8eU, 0xbe0d59e8be5f0db7U, 0xbdcd12a2bd926363U,
  0x3e17bc31bd1923fcU, 0x3de1ea003d434a7eU, 0x3dd78fd03ca73d77U, 0x3c5ac8eabe14d346U,
  0x3d44b7d73d9020c8U, 0x3c3c8ad03e567cdfU, 0x3db6cb8c3ce95194U, 0xbcd4b293bd26f541U,
  0xbccad892bde58b48U, 0x3dc0cd8fbd45c072U, 0xbd376da93d5557f7U, 0xbdcac078bc975dabU,
  0x3c9d77d2bda05b96U, 0x3db54465bd4b3608U, 0xbcb123cb3ce25eb1U, 0x3d99d1c33e15c571U,
  0x3d89604f3dc9e6d4U, 0x3dcea6b7bce974f6U, 0x3da5242fbaef73ceU, 0x3d8f09b8bb296ad9U,
  0x3dc87e473df6cceeU, 0x3ceaf7263dfd8c37U, 0x3c6230ae3d8481f3U, 0x3dbad6553d33a0d3U,
  0x3db354ccbc732447U, 0x3e2bed50bcddbdcfU, 0xbbdc5fed3e28da54U, 0x3deb70a03c18db1bU,
  0x3e32d57f3e04c187U, 0x3e3ca1a83dc13418U, 0xbc20afb43e0d450cU, 0xbc3a57cf3d0e1c31U,
  0x3c368241be10afefU, 0xbdf54f04bdd62c48U, 0xbd0978a03ca924b5U, 0x3d045092bcd5d7a3U,
  0x3b72a8bfbda66b8aU, 0xbde530aebc5fdcdcU, 0x3cff333e3dcab49dU, 0xbd1f67cf3c418d58U,
  0xbde994efbdbd2a23U, 0xbd345d4cbe325d4eU, 0xbdfc4dfcbdceeaaaU, 0xbb4beadabdf19aa3U,
  0x3bffcf55bd1930bbU, 0xbe098dc4bc683a8bU, 0xbe41e6efbe4268b4U, 0xbe6d22f63c9a81caU,
  0x3cbb66093d70ffb6U, 0x3e2cf1ea3d9ea318U, 0x3df124903a2f7630U, 0x3d95061bbe05a778U,
  0x3d30f7cc3d1ddbb6U, 0xbe1a36ca3de4c8a4U, 0xbc0f7bae3ce7376eU, 0xbcb7755b3c371f02U,
  0x3c82a2ddbc741917U, 0xbdf9a152bdcde1b4U, 0xbe3bc028bc372b8dU, 0xbe21acb43c977a24U,
  0x3e1553273d33afdeU, 0x3d0f21d4bce4ad8dU, 0xbbc28946bde3f45aU, 0xbd46d6c93e0f3b92U,
  0x3cc387f7bbad9eafU, 0x3d9d46a3bc61d07eU, 0xbd54b5ab3d3cd695U, 0x3ddd0f06be0f4e94U,
  0x3d6027e93daa634fU, 0x3c918df5bc3d00e6U, 0x3d973bf33c8b9ff8U, 0x3cd453a93c4937ceU,
  0x3d90559b3d7dac72U, 0x3d1b6ba2be12d461U, 0xbd39dcc83e2dbef4U, 0x3d0a5e0b3da9bcb8U,
  0x3e325aff3e4ba143U, 0x3d20a1593d165256U, 0x3dc48a333d185aabU, 0x3ddb66263c3182c2U,
  0x3e08a85ebd4e4182U, 0xbd5555d1bcf18befU, 0xbccb883bbd560f84U, 0xbd092dce3c7bd951U,
  0xbe0dc37fbd9b28a7U, 0xbdb6da26be01a42fU, 0x3d2b74eb3d8dd922U, 0xbe01bad0bd289e0eU,
  0xbdf940e2be2167b9U, 0xbd9ffc22bdaa5464U, 0x3cb8da9abc87b3aeU, 0xbe180dcebe158926U,
  0xbd036f03bdaeda72U, 0xbe350dd1bca816bdU, 0xbe44312dbded4c1bU, 0xbd97fc2bbd767e38U,
  0x3dd324313d8551fcU, 0xbcd799a9bd04b6c1U, 0x3cd9c4873d4100b3U, 0x39f80aa1bdc5ceabU,
  0x3c8afc4e3dedba20U, 0xbc92ef3d3d589e8fU, 0x3cd949a9bdf67b0fU, 0x3da3a69ebd40c7ddU,
  0x3dc8ff2abd250c0cU, 0xbe2d97e8be1e4b5aU, 0xbd9143a13d9d9ba0U, 0x3d15d5cebdaa85a7U,
  0xbb7ccd00bd9722e0U, 0xbcccb6a4bb9d0a39U, 0x3c4c2758be2f4477U, 0xbc795de83d80b5b1U,
  0x3cf761e13dbd2e9dU, 0x3dfcb9653d88f871U, 0xbdb35b663a92a1e3U, 0x3df3dcbfbdf65ed6U,
  0x3d0a4756bca28192U, 0xbdf81bcebdc384adU, 0xbda2e5be3d25452cU, 0x3d8fc89cbe0349f2U,
  0x3db438bd3e038832U, 0xbe24d04ebe13f193U, 0xbdaa8b313e2e1d2cU, 0x3d53441d3deb59deU,
  0xbcd64e813da244baU, 0x3c7466b9bceb454cU, 0x3c965ab1bd2b19eaU, 0x3d8401503c322900U,
  0x3c6d34dbbcbcb314U, 0xbe0539d23dc2f738U, 0x3b304efc3d6d24acU, 0x3cde0f49bcd8fc38U,
  0xbd4a9f2eba591906U, 0xbcefffb1bdedb44dU, 0x3c3d9addbc838013U, 0x3c851b1f3c159383U,
  0xbce1be533dc16bd6U, 0x3dc1654ebd4c4a74U, 0xbd7185dcbcd3de64U, 0x3c92de36bca49638U,
  0xbd856c603d0ae89aU, 0xbd93afef3cb7448cU, 0xbdbe2d923cd68659U, 0x3d4127743c5e90edU,
  0xbdac710d3d8d2efdU, 0x3cfec1a73dcc618cU, 0xbce11e44bca08e3eU, 0xbd1b65433be7d4d9U,
  0xbd0d4aa2bce1853dU, 0xbcc3a05cbd73943aU, 0xbc973299bc2ddcc6U, 0xbd0ad189bd597c6fU,
  0xbd136168bd591a46U, 0xbcd9c5473d8bad68U, 0x3cbaf3223d4e3cd9U, 0xbbffc5dc3d17d49fU,
  0x3d2ef6cabd3087efU, 0xbb0e15f5bd865e4aU, 0xbdb4121fbd368ee4U, 0x3d87ba8ebd31abb3U,
  0x3d8ffa123de1c469U, 0x3d6bea983dc7a5d6U, 0xbc02dcbf3df443dbU, 0xbd020318bdc76a6aU,
  0x3c94bcdd3df3dcbeU, 0xbd04577f3c36f239U, 0x3db379beba96ec1dU, 0x3d647220be1b1d41U,
  0xbd5c2d3f3d0c3449U, 0x3d7af4933d1d5b75U, 0xbcf25defbd6aad23U, 0x3d0c489bbd8160c8U,
  0x3ccd52cbbdac7c83U, 0x3b868500bbab6e70U, 0xbbcf8a293dadd94eU, 0x3d93c7c63d5ed332U,
  0x3c0e4d5aba4172f5U, 0xbdfd3913bd73ef41U, 0xbb990b9abd764d03U, 0x3c1246823d2dcc82U,
  0xbbba73df3b83af4bU, 0x3afd4a48bddfa570U, 0xbd3cd7643c8d4ec5U, 0xbd390dc7bd7e7fb5U,
  0xbd4b8c89bd4a7284U, 0x3ddf19443d92bcd7U, 0x3d2d5fd1bddc2931U, 0xbd833b943d8cbc24U,
  0xbd30e026bd455e8eU, 0xbe05cb25bd04f512U, 0xbdca8ccdbc75cf80U, 0xbc39f3da3ca05e3aU,
  0x3d81c50a3d4deefeU, 0xbdbfe6253d7c044dU, 0x3cc0e33d3d916f8eU, 0xbcf7e3c43c08224dU,
  0xbd40879e3cd0e3aeU, 0x3b32b71c3d9685a5U, 0xbd5b0a413b38597cU, 0xbd9b6609bdc92a8fU,
  0x3d638173bd3d2122U, 0xbd3ccb3ebd893467U, 0x3d9e6708bcb7c452U, 0x3d92c2a63c952fa7U,
  0x3b9d9c3b3cc784d3U, 0xbd57744e3caef125U, 0xbd39d92cbd80ed8bU, 0x3d1c4259bda0fcaaU,
  0x3dfffb2e39cea5d4U, 0x3daa0b5c3d5eb745U, 0x3c278fca3d9b22b8U, 0x3dbfc9ccbdef0b8fU,
  0x3d224de7bd6b5f0bU, 0xbe3b3846bd5e211eU, 0x3d279863be1828c9U, 0xbd4a917ebe293328U,
  0x3b1feecd3c01d962U, 0xbd34825b3ca40831U, 0x3dd216c0bd76cc61U, 0xbc47b9ef3d10731cU,
  0x3d82a8f1bc91eb13U, 0xbc7a6b17bd416862U, 0x3d8bb628bd90ef72U, 0xbd5b60e9bd3415a3U,
  0x3cdb5c0c3d52b75cU, 0xbb9c527fbcbb78d1U, 0xbc72221dbcbaa45dU, 0x3d261160bd89ee1aU,
  0xbcdebfa53d98f74dU, 0xbd32579fbce4c255U, 0x3dbd4a633d644572U, 0xbb070c07bdc6ae67U,
  0xbd46d82a3d380875U, 0xbc22af263cb0c992U, 0x3d8b943cbdee4f68U, 0xbce420d5bd57e550U,
  0xbda87a56bd8a300eU, 0xbd3ea13a3d644818U, 0x3cba510dbdb03a91U, 0x3c9ca5593d26f068U,
  0xbcfc0a56bd407797U, 0xbdab6332bd475cbcU, 0x3d9044f13d05ad7aU, 0xbd0471b33ac59963U,
  0xbd5dea8a3c9ca76cU, 0xbd8c9c50bd55087eU, 0xbd4f4adabdab1dc4U, 0x3a333a1abd47cd52U,
  0xbda38bcf3dcbb3e0U, 0xbdc3bdb9bd991948U, 0x3dd942e83c1fec2bU, 0xbd8445ffbd1a895aU,
  0xbd0917603d58b7e0U, 0xbd91ed48bde0493dU, 0xbcffbe45bdf41548U, 0x3ca56a62bda250adU,
  0x3e19e3a8bc537613U, 0xbda69c393da99158U, 0x39ec9d38bcc84e3cU, 0x3db459a13cde2869U,
  0xbcda02b33ced7ba5U, 0xbe2bf1653d5865f1U, 0x3dbbda4dbdc85371U, 0x3cc60e07bcba744cU,
  0x3cb1149f3d1f0987U, 0xbd5d76abbd7d0feeU, 0xbd6b9324bceecd59U, 0x3d07d7ed3d8ee7c5U,
  0xbbc7244d3a511954U, 0x3c86ac01bda92b8dU, 0x3d5a59dcbd849556U, 0xbc17c2da3d42dcb4U,
  0xbd75ab393d1b7e82U, 0x3c8bd240bbe366c7U, 0xbd27a5f0bdabdb47U, 0xbcb48b333da9c005U,
  0x3d935cb2bd047823U, 0x3dd11e48bd656862U, 0xbd8ebb9abdf63167U, 0xbce6b3973e191529U,
  0xbd04a5d13d022a75U, 0xbd4449cc3d297509U, 0xbdc10afdbd9836a8U, 0xbcfd5bdf3c924627U,
  0x3df247edbd0e039aU, 0x3c494aa1bcce5cffU, 0xbc3718153d995935U, 0xbd8ef7afbda572f7U,
  0xbd028bbbbd9a1c90U, 0xbd44d3abbd026acaU, 0xbe3af2633d27557aU, 0xbbc39ca43d1672baU,
  0x3c94c72c3a6a32d9U, 0xbd50249b3ce23379U, 0xbe0628863c244046U, 0xbd6f14bf3d5d1638U,
  0x3bff4a243d54b988U, 0xbcb8a3dd3d5f0fe3U, 0x3b4a4d72bb1a6051U, 0xbd517a74bd843d40U,
  0xbcff9cdfbcb037e1U, 0xbda71c5ebcea8fefU, 0x3c69cb26bd9156caU, 0x3d26b391be06883eU,
  0x3dcc56febcabb066U, 0xbd9b6be2bd987178U, 0x3c8a15f63caaef04U, 0xbd639a1e3d9a99acU,
  0x3c4b443cbdd579c5U, 0x3d4b85723dbf0781U, 0x3c1b763fbde6c792U, 0x3d8642b9bd87f03bU,
  0x3d3592f7bd9fad06U, 0xbd4ae1d03d66b789U, 0xbe0edf0839c763c2U, 0xbda1775d3c5417b0U,
  0xbbc9e9913c08085cU, 0xbe2997cebdde5215U, 0xbd89cb4b3bf0cff9U, 0x3a8136d3bd61bd28U,
  0x3cf1800cbd52cf62U, 0x3b548ec6bd892b85U, 0x3d770bb7bd200de0U, 0xbc21d174bb652f3bU,
  0x3dd97561b9d87a9aU, 0x3ca361e53df7eafbU, 0xbcdffa0bbcb114abU, 0x3d03b0a0bd2a5951U,
  0x3bc425ca3d407879U, 0x3d9d2a56be32395aU, 0xbde5aa9dbc55c6deU, 0xbde0bf2fbd42d80eU,
  0x3dc15ece3d41ba5eU, 0x3dd91d263dea6809U, 0xbc8a0a9a3da9dea8U, 0xbceaf6903d11666eU,
  0xbd845309bd43a48fU, 0x3b350f64bdc98559U, 0xbd90b47ebe01c380U, 0xbcf896363bc06548U,
  0x3d31f4c9bdb7b653U, 0xbbb45959bb001615U, 0xbd80097fbd88c842U, 0xbe15610b3e5827ceU,
  0xbdeebb553dd338c2U, 0x3db8d1eebdacdb1aU, 0xbe24c7093e217259U, 0xbd6c2d9c3aa8ffb2U,
  0x3dd6ecbbbdb0e928U, 0x3cf905423d9b648cU, 0xbda1f1fd3e19d285U, 0xb93ed235bddd8170U,
  0x3ce7ab97bca306daU, 0x3d345a8cbd6cdbf6U, 0xbe0778513d66780dU, 0xbd88db943dba4641U,
  0x3d1c5725bdf71f61U, 0x3d89ac2c3b5b31b8U, 0x3c7aa395be4f48b5U, 0xbdde15543e292458U,
  0xbe2e7c80bc7c098fU, 0xbe162e0bbd2df16cU, 0xbddb0ca0bd74b5b6U, 0xbcec0287bd99d2e8U,
  0x3d9458eebe21785bU, 0x3c9d0bbdbe0c10c8U, 0xbe01fad9bc436fceU, 0xbdabbe86bdc6bdd4U,
  0x3d313e183da81144U, 0x3d58f1f13d0b0034U, 0x3db244f23cc67210U, 0xbdbed8e6bb6a6c25U,
  0xbdaa680e3d8ac250U, 0xbbecbb123d0dd4a1U, 0x3dc87edebce734c4U, 0x3d9fc798bd508f2aU,
  0x3cfc0bc7bdc9c5e5U, 0x3c5de32ebd88b416U, 0xbdb224f3bc27f4d4U, 0x3c451ecebd6e7b7aU,
  0x3d824ef6bc6438b7U, 0x3a093aa23dacb317U, 0x3d181a88bd0ecba5U, 0x3cd61c733db8fb3bU,
  0x3d55e3123d769098U, 0x3e3bddd63de35c92U, 0x3d06e7453c046c9eU, 0x3dd44d1ebe30e235U,
  0xbbedb66c3dfa3755U, 0xbe4e45933e43c696U, 0x3c8a84edbe04bd32U, 0x3e0152f6bcf42fd9U,
  0xbc9bac6fbd3dbd75U, 0x3b7314f4be29e234U, 0xbdfffa7a3d1c010bU, 0xbd524cef3ddaab5cU,
  0x3e4b673a3d5a9cbfU, 0x3e5657423dc1c4b2U, 0x3df2a3773e3846fcU, 0xbc2b28c83d988576U,
  0xbd1b67c6bd60346cU, 0x3d985b0d3d83e2cbU, 0x3d82d8173baffc22U, 0xbcd1580ebdb0cda2U,
  0x3c8f8f643dca0049U, 0xbe0dac643dc6eecbU, 0xbdb55e40bc4b8897U, 0x3c100cc53c061cadU,
  0x3da48fd83d1cb638U, 0x3d05ef38be0d2d6bU, 0xbe8d056b3df1c45fU, 0xbd91dcacbc6775eeU,
  0x3dea93aabd8de12cU, 0x3e41f0e03d2b1c45U, 0x3cc8196b3dfcca24U, 0xbd4605643c25c4deU,
  0x3dd9a7a33ccf5a3eU, 0x3dd570d7bd87d24aU, 0xbc9c461cbc2bc360U, 0xbd94ef73bd26cac0U,
  0x3d7716debb664424U, 0xbcbaef8b3d8f780fU, 0x3c55d1f83b2bb426U, 0xbd0b04a93c6e81eeU,
  0xbd11a6f13c908adbU, 0xbd40c52b3d89b297U, 0xbdbdf1223bbe41a1U, 0xbdb3c19b3cdf265aU,
  0x3d4ef3ef3d8f802fU, 0x3d3f36d33ca4e993U, 0xbd90821bb844e879U, 0xbd87f9b53c946b79U,
  0x3e343a623d7d3e1dU, 0xbc13ece43d2a059fU, 0xbd02a29abc6aec39U, 0xbb295e36bd904800U,
  0x3c42381f3ddee3bbU, 0x3a1585fa3ddebb65U, 0x3cdf11983c25358dU, 0xbcf2629f3dccda93U,
  0x3df655333dbf5590U, 0xbdb9dfce3da4d89dU, 0xbdd019ff3bfb2c57U, 0x3cc446ecbd3c766dU,
  0x3d13387abbee9e63U, 0x3c83a83ebd991ccbU, 0x3d73e74e3d6ee673U, 0xbcd626113e0ee30fU,
  0x3bb9a32bbda482f7U, 0x3d14f1b2bc625eb9U, 0xbdff38f43cbf1bbaU, 0x3df33a4dbd6f7be8U,
  0x3d67ec23bdb0b3eaU, 0x3d133d043c4921caU, 0xbded1bb13df17e1fU, 0xbd27ccf4bd31f1e9U,
  0x3bf12c233bda5c7dU, 0xbea4a5a7bbee2205U, 0xbbf2e2c9bc76661fU, 0xb9fe0c9a3da55710U,
  0xbc209b343e2c89d2U, 0x3b2d550bbd225d05U, 0xbc555b88bce99dafU, 0x3d03bf77bdf6b817U,
  0x3d235556bd96b66aU, 0x3dc3a4563dad0940U, 0xbb55a0583dc1b4b0U, 0x3d48fb5b3e0d503aU,
  0x3bde28fbbd858cb7U, 0x3d827e5abd0bb51eU, 0x3d221bff3ca89d71U, 0x3da572403d2988c3U,
  0x3d2e5644bd6d38f4U, 0xbd8afc283decc7e6U, 0x3c316ab1bd8c7727U, 0xbd5f93773d459035U,
  0xbc77ee4e3d6314c1U, 0xbddccf093d017d82U, 0x3d743e84bc8fffc9U, 0x3cf00c07bd7855fcU,
  0x3bed4a44bca55885U, 0x3e0912263d4f0f20U, 0x3cee6e543da4b72fU, 0x3c7cfe303d1c2941U,
  0x3c2c849cbd47cf03U, 0x3d639caa3df6e1dfU, 0x3dba4fe03d068e4fU, 0xbc8c2bd6bd11b421U,
  0x3d78f7eb3db7d849U, 0xbe3cb3ef3e19a388U, 0x3e14394c3dbc5f72U, 0x3ceb840bbd3dd80dU,
  0x3b28664e3d7ea44dU, 0xbd60230bbd038f62U, 0x3cd5e3a7bcdbc48bU, 0xbcdcda553c802b93U,
  0x3ddcece2bccbda4aU, 0x3dc791c6bbd3015bU, 0xbe225950bdf90b93U, 0x3db660e9bdf04cb2U,
  0x3db3b5d6bd046dccU, 0xbce38bde3d91482bU, 0xbd41b6f43dccdd85U, 0xbdd1643bbd96c459U,
  0xbdef09e93d98b0f6U, 0xbe7233103d942562U, 0xbd1e4e0e3d9d4843U, 0xbbc8a86a3de846c9U,
  0xbe01288fbb2a78c5U, 0x3d1b25f9be0b5514U, 0x3d0d81c9bd93c124U, 0xbd249a23bdc73a30U,
  0xbe15022ebe083907U, 0xbdfa356abe05f4daU, 0xbd9dbe45bd101c7dU, 0xbdd3f8dc3e11413bU,
  0xbd974f11bd7ded90U, 0x3c1802733d157f78U, 0xbd7fe5fc3d47ffa2U, 0xbd732e613c07010eU,
  0xbdb1f3bc3ccea34bU, 0xbe17e1943de4303eU, 0x3c312aadbe14f8c0U, 0x3b331653bdde9235U,
  0xbd71b9debdfac0e0U, 0xbe097e43bd44a677U, 0xbdcb8fccbd0f5d6bU, 0xbde988f6bdbcbfaeU,
  0x3d8ceed93c07e2d7U, 0xbce0ce6cbde194faU, 0x3d88cb67bda5b990U, 0xbcf18b3e3d8a471eU,
  0xbd9a5fb5be0474a8U, 0x3db5d4953d787459U, 0xbad469aebc2694f6U, 0xbd9f293bbd986f5bU,
  0xbdb6e380be010ab5U, 0xbdf129c3bc974b3dU, 0x3ddbfafa3d521d99U, 0xbe0a1e6dbbfad446U,
  0xbdf30e5f3d46b33bU, 0xbbd9e188be127db9U, 0xbccbf1cdbdf5146dU, 0xbcd242d0bda11092U,
  0x3a9e6306bdc147f4U, 0xbcb900c8bd1db27aU, 0x3da83c40bb441f03U, 0x3ba301e7bdcd05efU,
  0xbc1b89d23ca3bef4U, 0x3ce263a6bcdaec81U, 0xbd58275f3de5ef82U, 0xbd8e6b78bd8d9b8cU,
  0xbd2958d13cc6e01aU, 0x3d59215fbd1aaff9U, 0xbd94f74a3d0973d2U, 0x3b2489783d743c6fU,
  0xbde668443ce0c30dU, 0xbd093b8dbdc6e13aU, 0xbdbfc643bdc44c5eU, 0x3cc294b8bd06cf65U,
  0xbe17e134bd8cd3a5U, 0xbe369a67bdbc22d4U, 0xbde81fcebd601c03U, 0x3b1db32f3db5af6aU,
  0xbd5f96d2bdfabdd8U, 0x3da5e0ffbb995850U, 0xbe26418cbcb6de14U, 0xbdcef4443d437e69U,
  0xbe5a192fbdf78c35U, 0x3ceeda5c3e32e36aU, 0x3deff1eebe208c90U, 0x3d9baeccbbc88bb0U,
  0xbe5e97fabdc2d043U, 0xbd597dcabe57a208U, 0xbe208874bdbe364dU, 0xbdc8e952be4af369U,
  0xbd5d4e63bd2b5b55U, 0xbd982d9ebe1d397dU, 0xbbbba014bdbd1c8aU, 0x3afc34cb3d9ead7bU,
  0xbdaadf32be2098c7U, 0xbd1a7f19bd5cbf98U, 0xbd662f473d8bfa97U, 0xbdee1234bd92eba5U,
  0xbdce3c2abe52b608U, 0x3d7ba4fa3d83bf2aU, 0x3e2b22c7bdb094b1U, 0x3cc9b38e3c74b13cU,
  0xbcefd4dabd75f1e8U, 0xbdd36929bd5b9c2bU, 0xbe133e6dbd9a899bU, 0xbda28fe0bdb30dd8U,
  0xbdda1af1be556f88U, 0xbde7ec7abe7bd411U, 0xbd57d52fbe1d3f17U, 0xbd56899c3e65b817U,
  0xbc00af54be24ef10U, 0x3d52ae2dbda3dde1U, 0xbe1d4828be084899U, 0xbdb66de73df5fb65U,
  0xbe53ac24bdc9d5a8U, 0xbc8e350f3dcd72b5U, 0xbd28cbc23d323086U, 0xbe1538103be4f975U,
  0x3df13cd6bd47437fU, 0x3db23b29be6d5164U, 0xbe1966233c250af7U, 0xbdc2584ebdfe2d55U,
  0x3c6d2f983d44b327U, 0x3c2cec6dbdbdc0feU, 0x3e1b618ebdd0a86fU, 0xbe273a5cbe1578c3U,
  0x3cf49347bd194d95U, 0xbdade4e1bd512fc1U, 0xbcb8a3063e049cbaU, 0xbdc5f54ebe8463b8U,
  0xbcb68687bd5051dfU, 0x3e88c235bde09bf8U, 0x3d1d908abd6e0cf4U, 0xbdf017f93cc7b8cdU,
  0x3d2f732dbde3b8f1U, 0x3d77377c3caf43b1U, 0x3ccd789c3e17e7b7U, 0xbe07705c3dac254aU,
  0x3d634b84bc4e2421U, 0x3d89f3dc3c4dd321U, 0x3d3969bc3c903c1cU, 0xbda4676b3d69c467U,
  0x3c2d09f23da49aafU, 0x3c84bfb8bbcb8caaU, 0x3d8b90283d0348f5U, 0x3c5838e83c2258f3U,
  0x3bec5eb1ba03769dU, 0x3e4c2deebd31269cU, 0x3a3aa8943da9770dU, 0xbd7837d13cf28fbeU,
  0xbd8ce70dbe053dacU, 0x3d9a17cf3dacdec3U, 0x3c82439e3db34970U, 0xbdd07a6bbbfe0ef9U,
  0xbe11eb41bd172ed8U, 0x3dbadb2a3d5cfd83U, 0x3e0a272fbdcff662U, 0xbe3393a6bcb882d2U,
  0x3d4bf9083c5ae079U, 0xbd7b59a6bc3959eeU, 0x3cd1f5ed3ca56d23U, 0xbd6a613dbb2ae28dU,
  0x3dc3b6d5bc99e568U, 0x3e38f8b9be0f89ceU, 0xbe4329393cea21f4U, 0xbdd76e6e3d153d05U,
  0x3e1feaa0bcdf13b9U, 0x3e45ab0f3d549ee3U, 0xbd2c11ec3e610194U, 0xbd1374933dde1558U,
  0xbc7848d83cb94166U, 0xbcace52dbc3f6accU, 0x3da5dc553dfd385aU, 0xbdb789863d8f320fU,
  0x3d7059dfbb3542afU, 0xbdf0b5423d9f5829U, 0x3c154394bdddc86fU, 0x3d8d83a83d0ec617U,
  0x3e01cf943e21d753U, 0x3db150373e10f59dU, 0x3dee377cbd2bac97U, 0x3dbedfd33cc892cdU,
  0x3c3b94b6bd1487d5U, 0xbd2a492a3da4c13eU, 0x3c5cda973d0ddd82U, 0x3dadf304bbd43634U,
  0xbd81bed63de00f14U, 0xbc6d739d3e213549U, 0x3d9508773e36edb1U, 0xbcc789ff3e24b519U,
  0x3d6fd2723d77f99eU, 0xbd9f176e3d1f2347U, 0x3c3a5c81bb2ca6d7U, 0x3e1ff7683e5b3f7bU,
  0xb9946e543cdd1b31U, 0x3d5fdb2e3ddb83c3U, 0x3d5d78083d19f0b5U, 0x3df3e62e3db7b6e3U,
  0x3d74163abdeb1e48U, 0xbc80db2cbce6d111U, 0x3b35bf4a3d9f8351U, 0x3dfcde193cff7373U,
  0xbd24e0f13dfb76c7U, 0x3aab18a53d6d42a9U, 0x3dba139f3df3658cU, 0xbdf3d10f3dacde34U,
  0x3db26fba3cf9fcefU, 0x3d041b5abbfe238fU, 0x3dc817b4be251ebfU, 0x3df9f7ae3e0df50aU,
  0x3da3db5a3da763cfU, 0x3d11447e3dfc86e5U, 0x3d830325bdb4403aU, 0x3e00c7bebdda385bU,
  0x3c603e6dbd2617c2U, 0xbde4f3d53dc204f8U, 0x3d5fede13db2e003U, 0xbbd7671dbd16b792U,
  0x3b180da1bc959af0U, 0xbd677c4cbb0859a7U, 0xbd2d74d0bd450b43U, 0xbd847d923e108cc0U,
  0xbb8c8dce3cc11318U, 0x3c9b304abc3675caU, 0xbdab3d69bc9e5f33U, 0xbb1094473df3d79aU,
  0x3d80b3fa3d934b6eU, 0xbbfab59a3de84262U, 0x3d3f771e3b5fe05aU, 0x3db70eefba80f860U,
  0xbcbb3ef23d5c2a42U, 0xbd47dc4e3d96b360U, 0x3c4aba673dbda398U, 0xbd4dabbbbc9260ebU,
  0xbd64f0fdbda90c56U, 0xbd10cf6cbc385b97U, 0xbdc1bd013d5f46b3U, 0xbddfcb353ddda831U,
  0xbd5dc9d8bd19d00eU, 0x3d2b19b73c97738cU, 0xbcfdb4e2bd626cb7U, 0xbc2db497bbfbcd53U,
  0xbdc154f9bdb4750cU, 0xbd74040a3dc046f0U, 0x3d90b7873d838b00U, 0x3d3eb55a3d03adb4U,
  0x3c4d2ab4bb1632baU, 0xbd9e75083ce29a05U, 0xbb6904f3bd81b398U, 0x3c57628c3c3bb65aU,
  0xbd3839ecbc928d9aU, 0xbd4430b33d281aaeU, 0x3bba76f63c798a5cU, 0x39ba5f0f3d0b950cU,
  0xbdbd7cf2bd5b4b26U, 0x3c5ef9babd9c8ea6U, 0x3db73d0f3d24bd61U, 0x3dad89cabc9cdab3U,
  0x3da12fa1bd094f2dU, 0x3ae4cdb0bd5ab2b9U, 0xbd5a0ea3bd905c73U, 0xbbfc8300bdb34f94U,
  0xbddd4d7c3ccdf399U, 0xbe28e08ebbc87e46U, 0xbddad9f6bd6f8717U, 0xbd864428bbc59c68U,
  0xbca5725cbd2a9945U, 0x3d979bc5bc13fad6U, 0x3c0a32e53d76be65U, 0x3d84c8543d08a700U,
  0x3c77426cbdbc17a2U, 0x3d2f1e773ab0f6b3U, 0x3bccbfb33d9b14feU, 0x3da377273e0f34feU,
  0xbb474b43bd1b3b8bU, 0xbcc8b1f7bcd95819U, 0x3e12a9e63d23c275U, 0x3d403b113d4235c8U,
  0x3d4854343cb3f69fU, 0xbc46023bbc006f85U, 0xbdb3c0bc3c86fb17U, 0x3d4ea2ccbd9749e2U,
  0xbd978e68bde824f0U, 0x3dc0f690bdf3192aU, 0x3b4a62ec3cc771c4U, 0xbcc0b3f63d08e60fU,
  0x3ca8e332bd3c1409U, 0x3cb6bff43d5a4124U, 0x3d13ca89bd8eeca6U, 0xbdc181c73d4f775fU,
  0xbd8111563d4cff40U, 0x3dc9d296bccb8261U, 0xbdacbdbabb9a33aaU, 0x3d638226bb969805U,
  0x3e39a591bd6acce4U, 0xbcc63d593d670971U, 0x3d8312773d4de820U, 0xbb6cb225bd88d518U,
  0xbdc33680bcf4e359U, 0xbd9bde2fbd91b287U, 0x3a538b8a3da8cff2U, 0xbdffc00a3dcf1ecdU,
  0xbd88d253bd79e933U, 0x3d83f7d7bce494e3U, 0xbb20ecfabda18321U, 0xbcf196253e29d2a1U,
  0xbd4927183ad134d9U, 0xbdee7563bc944de9U, 0xbd6b2daebd84d26eU, 0x3cc63731bd97595dU,
  0x3dc9aa3cbd859b04U, 0x3d671004bde0fb19U, 0x3c7d36c23cd1cbecU, 0xbd08f980bde8ff88U,
  0x3d90b4183cef1c74U, 0xbd8309863c9177faU, 0xbd14abf9bd5107b4U, 0x3d8830d03d0b88f6U,
  0xbd043a133c6dff57U, 0x3dbdfdf23d1d900bU, 0x3dc691133dd406d1U, 0xbd28847a3c942f37U,
  0xbd97c35dbd643cb9U, 0xbd524058bdbae0eeU, 0x3c8f79393d5f8bf2U, 0xbd8e80aabda3b9fcU,
  0xbdaf5ec8bdcc2f93U, 0xbd33484bbc9ded8aU, 0xbdd6c6af3d42af7aU, 0xbdcd5ff03d44b9a1U,
  0x3e1a9e363cc2d105U, 0x3e109d343d63b575U, 0x3da2d52a3db04f07U, 0x3dd34a90bcd4c3e4U,
  0x3dc5c4273dc8b4f6U, 0xbdab7dba3e273c9bU, 0x3cb201373d6df56bU, 0xbd74908a3d444415U,
  0x3dcceaac3daee0ddU, 0x3d0f0fd3bd55f50eU, 0xbcf97cae3cf8b529U, 0x3d6bbd133dc818f1U,
  0x3e28d0023db1c392U, 0xbcfb01153bf3f4a1U, 0xbd0167213d76886eU, 0xbd4b511bbd0a326aU,
  0xbd8b0616bc8f479dU, 0xbcd19eddbdd31a48U, 0xbc5b7316bdbc10bbU, 0x3be1d55bbe14125eU,
  0x3db7152bbd955fa8U, 0xbb46a9c53d9ecb69U, 0xbca5df49bda47de0U, 0xbda777993dc86de1U,
  0xbdaa3f573d3de53eU, 0xbd9a3de0bc970014U, 0xbdde03a73d7ea772U, 0xbd8d81a23ddd4284U,
  0x3e0c1af23d626d04U, 0x3b4738de3d87a223U, 0x3d3422873de02268U, 0xbd9e1e7f3d9c4220U,
  0x3e010473bc8291d1U, 0xbe5c97a3bd6128b2U, 0xbbcfa99fbd60900aU, 0xbdd463f8bdb68301U,
  0xbd851090bddb84b2U, 0xbe36a42cbd88749bU, 0xbd687349bce1aedaU, 0x3d1e2d9fbcade4aeU,
  0xbdb51684bdf1d114U, 0xbe046597bc70a46cU, 0x3dbaa020be167295U, 0xbd2e27d6bddc00a1U,
  0xbe6ddc12bcc8edf9U, 0xbdcda719bdb36430U, 0xbd9fe594bd45a605U, 0xbb9fa9b03d0bb47bU,
  0x3d4e7e693c5ba5ceU, 0x3c33655a3de17d49U, 0x3ddabc703db7d7e1U, 0xbd618fc9be67ec7eU,
  0x3cb350ef3d45643dU, 0xbde94c3b3aa89c72U, 0x3df4cf48bd9effa8U, 0x3d740457bdff0142U,
  0xbced7b93bdd2e2d0U, 0xbd9bc492be5ba176U, 0xbe211d5cbd9eee3bU, 0xbde8c3823d090722U,
  0xbcbfa7b43c85d8a6U, 0xbd8ca6ba3d9b01ddU, 0x3c0e9b33bdc12006U, 0x3db6145b3d5c0dc4U,
  0x3d5c4f0e3b156b0cU, 0x3dd35264bbcb2ce9U, 0xbd8377fabd172d30U, 0x3e1b6872bd96f2cfU,
  0x3c0687d6bb30422cU, 0xbe192e1fbd73b226U, 0x3d138058bdb7ccdbU, 0x3d0832893c53c19bU,
  0x3d0e81ee3d457f47U, 0xbc01af6dbe3ba469U, 0xbb8fc0bd3e059e56U, 0xbc06f9ff3d817990U,
  0xbcab1ae53d7fe870U, 0x3d82031f3dc22e7dU, 0x3d8fc2a53dbdac53U, 0x3dfc49a43dc8df51U,
  0x3dbd1ae63d804c5dU, 0xbdbc2705bd89fe4bU, 0x3d940d2fbd91c3c5U, 0xbe4be7c0be0960bcU,
  0x3c6f1e6fbdbc2eecU, 0xbe9da21ebd312dfbU, 0x3d11bb213b80193fU, 0x3d6a81a5bc9f255dU,
  0xbd5191bfbd663b7aU, 0x3d7ab750be60fb3bU, 0xbe1a5240bc92e418U, 0xbdaa8757bdbf3507U,
  0xbcefdf25bd6bc943U, 0xbd81c8ccbd557aaeU, 0xbdb2357bbc1a71ccU, 0xbe09ffe73d8afb43U,
  0xbd1587383c2e3edcU, 0xbd6f1dc1bd6fc9e0U, 0xbcd9606bbdb85ee0U, 0xbd05075cbe7c8810U,
  0xbd9cea833c8e8709U, 0xbdc3aa2ebb93db2fU, 0x3d9aef4ebe5fe2c1U, 0x3d9bacb2be08a93bU,
  0xbd6772993d8b9aafU, 0xbd6ea755be85cfbdU, 0xbe8b806abd594e26U, 0xbdc9efd3bd33897aU,
  0xbd28a89f3d4974d8U, 0xbd224972bacb4ca6U, 0x3d249d56bde38383U, 0x3c32bd5cbc8f2500U,
  0x3dab0c473cbf0171U, 0xbc1a48db3c42baa7U, 0xbcf4325bbc8dee16U, 0x3b0f26dbbdebda44U,
  0x3d9d017d3d92fb9eU, 0xbddf103cbd4ef33aU, 0xbd333994bde3fc9bU, 0x3da4e0aa3cea1242U,
  0x3d8490b2bd1f935fU, 0x3c58802fbe445f4bU, 0xbd89eebb3e15aa55U, 0x3d2bf18d3def2e1cU,
  0x3c66f7533d18d0c8U, 0x3d96bf113c4b253aU, 0x3d949baa3dbd515dU, 0x3ceca8fdbd739702U,
  0x3d86cd423cdb6688U, 0xbdb7e732bd8cb817U, 0xbb02efa13d38aa82U, 0xbd4a7af8be1db8f8U,
  0x3cc8b2cf3c73efbdU, 0xbe1e54e2bde4c6f6U, 0x3cb60b68bd91eb1dU, 0x3d8ed927be2eab10U,
  0x3ca425323d3dcfb9U, 0x3d3ecbd6bd68753fU, 0xbe03a7203ccedae3U, 0x3c862baabbe6d429U,
  0x3d244aa8bdf0df67U, 0xbe236bdfbd937089U, 0x3ca52fdc3d410019U, 0xbd42fa0b3d99d683U,
  0xbdaca31d3dab2d09U, 0xbd565d353d4eac6dU, 0xbb6a20d6bd0662a7U, 0x3d6eab59bd5fd200U,
  0xbd1a0a88bd4bd581U, 0xbdd2e805bdad9768U, 0x3d8e0d37bde98aedU, 0x3ce4ac2bbda6bda6U,
  0x3b764d6f3cea985dU, 0xbad76142be1ae340U, 0xbc0e7d093d07d828U, 0x3cd8bf7d3c469e6bU,
  0xbdde67cdbd0f0743U, 0xbce705cf3d31a174U, 0x3c9b5b9dbd327756U, 0xbd85083b3dad5a10U,
  0x3d13efaabc89c54aU, 0xbc9af1bbbbd715eeU, 0x3d82885e3d519e75U, 0x3d1d8d8bba69e564U,
  0x3d36434ebd6f4760U, 0xbdc496123c30c71cU, 0x3de3447abca8355bU, 0x3db6a08abc5ab553U,
  0x3d9e96dcbb87ab0aU, 0x3cbe3a393d42561bU, 0x3d280eb93d84a66bU, 0x3d33980d3de328eaU,
  0xbda8c4b63d94e435U, 0x3d6f406b3d3a673bU, 0x3ca72f873d65e566U, 0x3d94399c3cbbde94U,
  0xbdd185bbbce4199dU, 0x3d368ad13c289b8cU, 0xbdaf9ced3cfa3ba8U, 0x3c8ed49c3d9d313fU,
  0x3d12222dbdcad351U, 0x3cb9e2293d82358aU, 0xbdd8621bbd45c52fU, 0x3d01fd0a3d18b5feU,
  0xbdb78ef13d08d4f7U, 0xbe182bd53c91d858U, 0x3dd38a07bda9bf4eU, 0x3dc754563c9310ddU,
  0x3ce379493be3e7e5U, 0x3d8ccc9cbdf723f7U, 0xbd4f03f4bda8a778U, 0x3d704109be07a72fU,
  0xbd2c9d99bda9b4c8U, 0x3e00daeb3dc378f1U, 0x3cf10a8d3dc8a507U, 0x3bfd20893d90f0dbU,
  0xbd4167b73d84c229U, 0x3d819bcb3d5f9b7aU, 0x3a17a696be30754dU, 0x3c3dbbf93c4169aeU,
  0x3cb902553cfb2ce0U, 0x3ddb01e43c5f230fU, 0xbd9c40023d5bf8daU, 0xbd66fe663cd7dd24U,
  0x3e1fcb223d8748cdU, 0xbd1663f13de70f91U, 0xbd3381983d8b4d0eU, 0xba90f3153d43f01dU,
  0xbd949606bddac5b9U, 0x3e055704bd52ba54U, 0xbd8bcdcebde6cf5dU, 0xbd081149be2cb511U,
  0x3de8720fbc1c14e7U, 0xbd7b1f4b3dc856acU, 0xbe189e803b64e5ccU, 0x3ca9b269bcd60000U,
  0xbd172f793d6fc90dU, 0x3e117f47bde9b434U, 0xbdb94b053da94bacU, 0x3c8661abbbbb0ce5U,
  0x3e619a013e1e783fU, 0x3dc8f05239ef788fU, 0x3d441c013e2a6adfU, 0x3a41b291bcad8dcaU,
  0x3dc33ce1bbd05783U, 0x3b2c85743c9490bdU, 0xbd651778be0e8287U, 0x3cfe7a83bce168b0U,
  0x3cd754e43a943a38U, 0xbe0c93853ccc0469U, 0x3d1d9dc23d30e33eU, 0xbe0d95163d5382ecU,
  0xbda06d613d857c00U, 0x3d46678abdb64c43U, 0x3e0c914e3d0b64f5U, 0xbd95a4883de830d5U,
  0x3e306f3e3d22368aU, 0xbd1a4fbcbd019296U, 0xbd788cee3d18e2c6U, 0xbccfc75dbd9d8c1eU,
  0x3cc7e5ccbc2f02a3U, 0x3c16656dbd6e91d8U, 0x3bee4882bd377464U, 0x3e019ef23dc3bfa8U,
  0x3d50031f3d68bb2fU, 0x3de751503e1abb70U, 0x3dae7328be47c226U, 0xbcd329923da386c2U,
  0x3c66d4f83dbeb893U, 0x3d23c4a5bd408e45U, 0xbd9d77df3ca249b4U, 0x3cfd5d433c616b99U,
  0x3e5a10723cf6112cU, 0x3dedca11bc898497U, 0x3d3ce2bc3d9f2b3fU, 0x3b9aab13bcce6425U,
  0x3dcd9aa13d16c1e6U, 0x3ced694c3db1ad6cU, 0xbcc5c24c3bf27205U, 0x3d05ff563d9a1f02U,
  0x3d03590cbc0fe12cU, 0xbdef2cd33b60c5c4U, 0xbdc74b0dbdb1e551U, 0x3cec4aad3d95d24fU,
  0xbd332cdd3d5f8816U, 0x3dcc49c3bcbcc247U, 0x3d9d775d3c760448U, 0xbd8720e73dda212bU,
  0x3e15b49c3dcff256U, 0x3cc1bf273dcde890U, 0xba328eee3d3de17bU, 0x3a08d969bd310109U,
  0x3d8a51633d353e42U, 0x3c9d0dbb3c0d5459U, 0xbb80a2ddbdb19c09U, 0xbd361483bda23922U,
  0x3d33b4d53cf8ee17U, 0x3c8ce451bb465f91U, 0xbd7d6879bdc26ccbU, 0xbd89f890bd8434a3U,
  0x3d9c59ea3d1b3603U, 0x3dce0928bc0e2f8fU, 0xbd38adab3cf208e1U, 0xbc9ca5ad3d983338U,
  0xbc2b595b3d97ec4eU, 0x3da93438bd00cf42U, 0xbcaae9213da8fa36U, 0x3d1f4d12bd85ecc8U,
  0x3caf8610bd63ac28U, 0x3aa27eb63cdea694U, 0xba66837a3c8ef963U, 0x3dac1942bd998869U,
  0xbca295e4bdb04678U, 0xbd1611a03c988b88U, 0xbd880806bd832308U, 0xbdeff7423cf7908dU,
  0xbc7496893daf9fc1U, 0x3d8249e5bbefd000U, 0x3de2df6b3d216e54U, 0xbc2168c03db7067aU,
  0x3d6391ebbc025775U, 0xbcb67e7dbcdab898U, 0x3d919c713c0e3677U, 0xbc70d7203d6303bcU,
  0x3d668d723c71acdaU, 0xbe116fd8bda1961dU, 0x3d64c5233d039ebdU, 0xbc8dad573dd27d16U,
  0xbd80b937bda044ceU, 0xbd13c3623d8e0831U, 0x3d37fa78be30a8e8U, 0x3d83af763da1ecfbU,
  0xbd524b9fbd496d94U, 0x3d19585f3d8009a0U, 0xbd0e6ff4bdd59aebU, 0x3d17b195bda09002U,
  0x3da10907bdb2280dU, 0xbe3e039b3ca6fc1eU, 0xbe099d803b67ba94U, 0xbdbe74763d114259U,
  0x3c3a08003c84255aU, 0x3da47cf4b9de5fb2U, 0xbe12c17b3d7c52baU, 0x3d764b1a3e15935eU,
  0x3c2cb3f83cc6bc5dU, 0x3e21dae53dd72e38U, 0xbd94a2e03e00b2c5U, 0x3d0e63f93ca1d52bU,
  0xbd330babbd95cf9dU, 0xbe06a31a3e357d11U, 0x3d8be5d5bcbc42e7U, 0x3bc134b83d357affU,
  0xbde12bad3d987593U, 0x3cc1951b3c963aceU, 0xbcd8f75bbd8e33e3U, 0xbcd56e83bcf25b8eU,
  0x3d8c4e73bd74924eU, 0x3d7a91efbd3d958cU, 0xbd81bc693d25f972U, 0xbd13371dbcc39678U,
  0xbd42abddbd8e8734U, 0x3c0c41f23d2e332dU, 0xbcad5ac33dc4fc3eU, 0xbd716d3fbca56feeU,
  0x3cd3e24ebdaeed1cU, 0x3bf99ba33d815817U, 0x3deb82953d003bbdU, 0xba137c833d381124U,
  0x3cd9840f3b9cceebU, 0xbde12739bc93a042U, 0x3d7f7b23bd3d51a2U, 0xbb8d51733bb64bcdU,
  0x3da4acc8bda5504bU, 0x3dc271c3b9b39152U, 0x3b8f1ad53cc63844U, 0x3d9642c0bdfa0802U,
  0xbd85cb853cef5bb7U, 0xbd09ee6c3d8b0147U, 0x3cb327be3e04efadU, 0x3d3614e3bb93001fU,
  0x3c8781c9bc1f3241U, 0xbccac48d3cb2845eU, 0xbd8db18e3de73f4bU, 0xbd2dabcd3d8f082fU,
  0x3daec6f33c5c1c52U, 0x3ba6238abd647a3aU, 0x3d01a73fbdb7e061U, 0xbda9bea6bd21c56bU,
  0xbde1a32dbd9f78afU, 0xbd13755ebd9f919aU, 0xbde2ade63ca1abe0U, 0xbd990441bd9e844dU,
  0xbdacdd1ebcbeb84fU, 0x3c0463e63dcacb11U, 0xbde3e93b3d848ffbU, 0xbdc2d0dd3bf7c0f2U,
  0xbdf413b93d8a70a1U, 0xbd7941eebc3737abU, 0x3d45a21dba8a3fa2U, 0xbd0d7bedbb9b634cU,
  0x3b1ba1153cc6cf6fU, 0xbdd1329bbd84d5d0U, 0xbdb56fadbd8fbfb2U, 0x3d086e44bdc7b983U,
  0xbd0c2496bc0270eeU, 0x3cf3efc23d0e0fdfU, 0xbd8711c2bd5dbd2eU, 0x3d56656cbdc44bd2U,
  0x3d0c529dbdcc44f1U, 0x3cb1e8783c9b2c03U, 0x3da9d6d83da8c8efU, 0xbc77804bbd42407dU,
  0xbd559717bd74ad8bU, 0xbde6a259bd31e7ceU, 0xbd8eeb93bdcc86f0U, 0x3ab9ae39bc428c04U,
  0xbc733f9b3d435524U, 0xbc464d44bcc898a0U, 0xbdd33c2bbda9b8f3U, 0x3d09e26c3d8399fdU,
  0x3da2e2b4bd40041fU, 0x3e128da2bd3dea29U, 0x3d6d0cf3bd213022U, 0x3db0be50bd082d4fU,
  0x3d934a81bd8c4a17U, 0x3dd9fa843d9be5b9U, 0x3db65b0c3baa28dbU, 0x3d3b1f6fbdab319aU,
  0x3ca7531e39891fc6U, 0x3cc88c0dbdbc387fU, 0x3d251d373d87bdbeU, 0x3d1a9927bcc1618fU,
  0xbcc7dcdd3d8e59c2U, 0xbd586051bc2748fdU, 0x3da2b219bb9d1be8U, 0xbc8c8ab63b3fe112U,
  0xbdf9508fbd8b5268U, 0x3ca25a81bbbdf5feU, 0xbdf6f521bdd57213U, 0xbd4354debdc381d6U,
  0x3d09865fbd9c0305U, 0x3e091ae13cb4cf3dU, 0xbde88c8c3e0767c5U, 0xbd84b3e5bda35c23U,
  0xbda43f78bcf3edb7U, 0xbdf97e113d665a96U, 0xbe26ad0dbb9ef63bU, 0x3c9b38acbdae280bU,
  0xbbf07c203d7e5a6cU, 0xbdbb0d93be1baa11U, 0x3c7bf6cabc89d280U, 0x3d3e3908bdbe174eU,
  0xbda092abbde47f1fU, 0xbb5d334fbdce77acU, 0xbe1ee579bda667dfU, 0xbcb86cf43d25de3aU,
  0xbd2e15c1be1584a1U, 0xbc5c3a60bd8bc78fU, 0xbcfaca31bcab6321U, 0xbe0ed225bcc5e006U,
  0xbc29af103b9b1e3eU, 0xbe847cee3dbb8b9cU, 0xbd9efb17bd367a73U, 0x3caaeea83c1e0ea8U,
  0x3cc9a367bca7de72U, 0xbd95e454bdf67209U, 0xbe10cb36bdcd7bbdU, 0x3c4e3424bdb401d0U,
  0x3d77c5623d3a240fU, 0xbd3d6eb63dbd27d2U, 0x3d18e9cbbc38316bU, 0x3db7c4d1bd4208ddU,
  0xbce24fcebd893bc2U, 0x3dbfb18e3d5bb4e6U, 0xbc9f915a3da335bfU, 0x3ceabdc53dca930bU,
  0xbdbe41263c7a725fU, 0xbe341be23d9aafd9U, 0x3d9fc0ec3c1898ecU, 0xbd5d0a16bcdffaa4U,
  0xbd8a0d433db2ab5eU, 0xbe0a0db7bd653b23U, 0xbcae34e9be2e775aU, 0xbcf4d3f3bc060636U,
  0xbd2393e7bb49fa6eU, 0x3dc88f2e3d9bf8edU, 0x3d9133723d007cb0U, 0xbd10559f3dc10455U,
  0x3d929da8bb9bcb73U, 0x3d326bc33e1c7cfeU, 0xbd03367dbe4d3af8U, 0x3de0c3753e171f57U,
  0x3d61e0f7bc9309d7U, 0xbc6663a33ddd9198U, 0x3d8a49133c64c1f9U, 0x3de2b3443ce1753bU,
  0xbb7f3548bd953d01U, 0xbc913cc63de73153U, 0x3daf6f563d995289U, 0xbd57c4713d425dc5U,
  0x3e396d5f39a187efU, 0x3d4adaad3e25a695U, 0x3d2ad7eb3e1fbc2aU, 0x3d0259253db03763U,
  0xbc36a1233d8d585bU, 0xbdaf63f23db34df0U, 0x3d655da93ccb2f4fU, 0x3e044d663d94bd01U,
  0x3df4d7233d3379b6U, 0x3e1a1c193e15b265U, 0x3cbd96ff3dd2080fU, 0x3d6425ab3d33ed5dU,
  0x3dd01a273d87a535U, 0x3d9362e23cdb7972U, 0x3d86a44d3da4af92U, 0x3e04f30a3da7d5e3U,
  0x3c35c9633dfa133cU, 0x3d4a4b513d964d52U, 0x3e15b5e63d097950U, 0x3da425c2bc00bc63U,
  0x3d78dd473c89efe6U, 0x3caba6813d6567d9U, 0x3afcf782bdd0585fU, 0x3d78abe3ba55b811U,
  0x3e2f6fab3d383cacU, 0x3d4f344f3cc96408U, 0xbd01bb903d90e77dU, 0x3b8268b7bbee19e0U,
  0x3d93f1ad3c9a2555U, 0x3d98bd503da951a0U, 0x3c7c03a03e0c1f83U, 0xbcc8e6853de6085dU,
  0xbc90abf7bcc3cc49U, 0xbe16eebf3c89c5dfU, 0xbe2eee04bd019953U, 0xbcadf3f03e2cf1f2U,
  0xbd5e1d5fbe2497c2U, 0x3e0b78583daf6e6eU, 0xbdb56f86bc5b35d9U, 0x3cdff6353e61a55aU,
  0xbe0b7a4bbdc5d0cdU, 0xbdb9bf3c3d9904dbU, 0x3d0c2677bd8c70b3U, 0xbd851ca2bd3f6745U,
  0xbd1eb27fbdae08d9U, 0xbdac7d75bda2f911U, 0xbe2717bfbd42eceaU, 0x3cb8291bbe356a10U,
  0x3bb54423bd14c54dU, 0xbdf618403d862c51U, 0xbd0946083d303e7bU, 0x3dc3e81a3db41764U,
  0xbd9d5c603cdc70dcU, 0x3e624bac3e1b3233U, 0x3df9f676be0c6e56U, 0xbb9adf2e3e05952bU,
  0xbd6f8e56bd3ebb30U, 0xbd265a613daae225U, 0x3e0bfe3bbbe5fd53U, 0x3cd8f9c9bda199b6U,
  0x3e10b6563cd8d69cU, 0xbe21c209be0eefdeU, 0xbdaa9052bdc8f7a5U, 0x3dc042a4b9e6c599U,
  0xbddab9e83d969f4cU, 0xbb07aa5abcc9c435U, 0xbe3da12abc3fd043U, 0x3de62f5a3e7336a7U,
  0xbbe881cabd913f9bU, 0x3e5a5b693d4184a2U, 0xbe12bf1fbbfddbe0U, 0x3d7878cf3e2c2304U,
  0xbda490a43d6e580bU, 0xbe3c20663df3407eU, 0x3e6ddba2bd72b861U, 0x3e2e6c033dfcb7aeU,
  0xbdd4a7cf3b28e011U, 0xbd7c1e77bd7b4a06U, 0x3db162e7be5efd71U, 0x3e142ca7be1bfba0U,
  0xbd94ca7dbe1ea7b3U, 0x3bcd97eabdf6a9aeU, 0xbd8a8e26bdd7ca3bU, 0xbdbe3527be337535U,
  0x3d341704bdd97e75U, 0x3b7ebe16bd897b7fU, 0xbe06430c3d2b3dc0U, 0xbe161b923d5602c9U,
  0xbd8915febde10d14U, 0x3ca7dce7be1fea9eU, 0xbe8e45d5bdbd9403U, 0xbe4d5135be3d82d9U,
  0x3e496248be3a6b27U, 0x3ca3efa1bd9cba31U, 0xbdb8ec043d9c2ff0U, 0xbe15ef81bde6bc94U,
  0xbddd4275bdebb03cU, 0xbd140ec5be32e48eU, 0xbe251f68be1c9a15U, 0xbe2d204abca6faa8U,
  0x3d3bd970be0f37ceU, 0x3c2c4add3c8209c1U, 0xbe474460bdc6f65dU, 0xbe17c471bc1e2616U,
  0xbd927feebd3f81deU, 0x3cbecd09bda73af3U, 0x390f1f6bbda8c124U, 0xbd913dc3bdcd5c72U,
  0x3e652d6dbe1b339eU, 0x3d293852bdf09e2aU, 0xbe30d6e43d96b56aU, 0xbdf4cc71be41167eU,
  0xbe8f8f09be8cb6e2U, 0xbe6b6aaebe579f5eU, 0xbe277f94be2a4344U, 0xbdab9ef8bdf3eddeU,
  0xbe063a27be04161eU, 0xbc619666baac0534U, 0xbe3b8bf03d32a9f5U, 0xbe471519bd9ea56dU,
  0xbe592e06be242adfU, 0x3d4fe0e0bbdb6612U, 0x3e0a1c6d3ca9b44fU, 0xbe2b0d0f3c82b860U,
  0x3df3bbb2bd8ac936U, 0xbde068ffbe4c56f0U, 0xbe0a6405bdadef96U, 0xbdb9478abe063e20U,
  0xbd3141db3d93a04cU, 0x3d1a4510bd02ee88U, 0xbd5b0920bcf96f3bU, 0xbdb3a31fbd864937U,
  0x3c72271d3d4c2912U, 0xbd3747163dcde628U, 0x3d20c63cbdacc7e6U, 0xbd94eabfbdb0b73cU,
  0xbc0601033d0de884U, 0x3dfd635cbd7f6495U, 0xbddba439bd1c0ae4U, 0xbd52616c3dfaa4d3U,
  0xbd0f84d0bc7431eaU, 0x3e0376523c23f2d2U, 0x3ccf097c3cfadcadU, 0x3bda9721bd340742U,
  0xbe2f7ced3d4b3f2fU, 0x3b0f2071bdf1621aU, 0xbd36e8e6bb7a478eU, 0x3c7672553e32d3aaU,
  0xbd3fc491be05daa4U, 0x3cdcfc563d99e30eU, 0xbd89f652be04fe8eU, 0xbcaf5f813d89e692U,
  0xbdd7be693c597020U, 0x3d54cddf3def2ab9U, 0x3ceab8f7bd33b458U, 0xbc5a42c6bcf527aeU,
  0x3bf20ab63d7cc3b8U, 0x3dfeeefdbd1f72a0U, 0xbd216490bd2ab26fU, 0xbce400eebd16ea90U,
  0xbd0779d1bd9246e0U, 0xbde107173d78fe94U, 0xbd790a1abc5dd4d7U, 0xbcd7369f3e7306bdU,
  0xbdeae33fbbf8524fU, 0x3e1268a03dd02c85U, 0x3c096a49bdbe32bfU, 0x3b8dff9f3e559357U,
  0xbd7d16ddbde18240U, 0xbdc98d463e01f468U, 0x3df2d625bdcd572fU, 0x3cac00f7bd2c9f9aU,
  0xbdb9944fbd21116dU, 0x3cb28f82be34dfa8U, 0xbd8f92e8bd06e703U, 0x3d8a6e43bde5505eU,
  0xbd9ff6dfbb7cf989U, 0xbd2a3f623d8c84f5U, 0xbd48f9a7bcd7870bU, 0xbe490eca3dc80edeU,
  0xbc4fe9453d9e2b91U, 0xbe14ac2f3cfa7b0cU, 0xbd8884ffbcb70a3cU, 0x3cb91bfe3ca247c4U,
  0x3da66fb53c179aa5U, 0x3dc913393d119ae1U, 0xbd655e463c441e8eU, 0xbd02d024bd11ceabU,
  0x3cdc221dbd79e824U, 0xbd859d6c3db74363U, 0x3a54e31c3d00a939U, 0xbc1ad4bf3c97f1eeU,
  0xbe0ba995bd537b8fU, 0x3e0aef0ebd2ffb26U, 0x3d745a3abc984673U, 0xbd89dd9cbe8486d7U,
  0x3e0c87313d7049c6U, 0xbe2b28633b499807U, 0xbd0f102cbd469e8fU, 0x3da768b6be29772aU,
  0x3dc809823cae6cb7U, 0x3ddb6b15be667ef8U, 0xbd9549363de101b9U, 0xbd854df03b3056eaU,
  0x3e57305d3c9f082fU, 0x3ce996023d41d396U, 0x3d03a6943da88ab7U, 0x3c81d735bd0d2c9fU,
  0xbe3f39953bee4bb2U, 0xbd65f45abe106754U, 0xbd2836b8bdd049aaU, 0xbce48970bc6dac37U,
  0xbc0052763bd23244U, 0x3d73a4053e22bae4U, 0xbd446ac3bd808fc6U, 0xbdd196e93df2b000U,
  0xbdf24c46bd6e5123U, 0x3dac0ec5bd20d4ccU, 0xbc142e053e1680a8U, 0xbc4a3d9ebc14cc0dU,
  0x3e24bfabbdb8be45U, 0x3d47efdcbc54fbc8U, 0xbb4b2ab73e0778beU, 0xbe11aba1bdbd1418U,
  0xbd5ceebc3cd59837U, 0xbdc16af939fdc1e0U, 0xbc9f4e80bd03ae45U, 0xbd5dec563e7b1c2aU,
  0xbd3f8383bd0587ecU, 0x3db9de783d8d0a1eU, 0xbb8718b1be4e0ef8U, 0x3ba45cf83e073b46U,
  0x3d3ae9bc3ddd04b8U, 0xbd33a5413e677e9eU, 0x3df9049dbd95ec8dU, 0x3d8cd51ebd98de52U,
  0x3c8aef3ebd863e83U, 0xbd5cf9a63d7c9e52U, 0xb92d2ffd3bcad6d5U, 0xbc00ef7cbd636f5dU,
  0x3c33d6443e020b58U, 0xbc07b3383e155caaU, 0xbd1bf52d3e3f5064U, 0xbe093f3d3e86ab29U,
  0xbcd527163dae363dU, 0x3e146ca43dd75d8eU, 0x3cfdd667be0d95a3U, 0x3d976a2f3dfaa872U,
  0x3beddfe9bd6f7233U, 0x3c1dc8ce3e18a89aU, 0x3e40ec09bc352374U, 0x3b95011abd775280U,
  0x3dc3636abd5d7534U, 0x3c8df3013d5306daU, 0x3cf66347bba460b4U, 0xbd0318f33dc202e4U,
  0xbba85f953d43da18U, 0x3e160e0b3dff616bU, 0xbdbf5fca3d95802cU, 0x3c0b77073de6ce4aU,
  0x3e11bbcb3d96662eU, 0x3ba1a835bcc0ca8aU, 0xbddcee37bdc90829U, 0xbcb5b4bc3c0af3a3U,
  0x3de82c483dec42fdU, 0x3dfa35813ce2ccc9U, 0xbd863b023e139eb7U, 0xbd7e9fd7bcf65147U,
  0x3e63f5b83e01d6fcU, 0x3dab57cf3e12e24eU, 0xbcc6ab373e2c45eaU, 0x3db2c0aebdbbeed3U,
  0x3d73732cbd03f949U, 0x3de997423ccc22e6U, 0xbb86c8093d97a180U, 0xbd63e503bd5292d3U,
  0x3b8e2f4c3d7584a7U, 0xbdeae7ef3d977f7bU, 0x3ccc8b97bdcc7f61U, 0xbd727820bd98a845U,
  0xbd6daea43c2215f9U, 0xbc7217e73beb4379U, 0x3dcb31ca3e0a4fbeU, 0x3cc0b2473df4e6f7U,
  0x3e1fed2f3df6ac3dU, 0x3d9dd497bcc7a34aU, 0x3d77c9bdbce1daa9U, 0x3c9e11633d962b81U,
  0x3dcf24f3bda3615dU, 0x3e120bb53d04d074U, 0xbd46393fbd87dec5U, 0x3d398367bd81f061U,
  0x3da7a8f6bd48d2a1U, 0x3c8ef30d3e0d2cb6U, 0xbd9611a7be0fa414U, 0x3d5968dc3c05a757U,
  0x3dbd9466bd415019U, 0xbb27b7b7bdd08f54U, 0x3caf5df03d32015eU, 0xbdcfac7d3de73e40U,
  0x3e42cf6a3dd7a8c1U, 0x3df99ef83d981f0cU, 0x3ddf8ec93e13be33U, 0xbceb35843ca5add8U,
  0xbd93f2c3bd66c080U, 0x3cb3c089bcc94d29U, 0xbc88334bbd16eb05U, 0xbd6b66e53b8173d5U,
  0x3c9fe091bd5da779U, 0x3d4803e9bcf61772U, 0xbd4c9f77bd714582U, 0x3be286ab3d938e04U,
  0x3b2209793cfc8806U, 0xbdeef511bde60268U, 0x3cd48fdb3dd365b9U, 0x3d8ed2a1bc45a443U,
  0x3c084b9a3d912e6aU, 0x3d9bbdbabdb2a72dU, 0x3d0c2b963ddfb249U, 0xbd001bf5bdc328c3U,
  0xbd76e04c3d7e76a0U, 0x3d58f8d63cb8fd9cU, 0xbdefc5683dae10c4U, 0xbd1360993cb92c20U,
  0xbcca79f8bd502ab6U, 0xbe126cf4bd456e07U, 0xbdcbec18be17fc11U, 0xbce034493d09a6cfU,
  0xbcad3c7a3dd2b6dcU, 0xbc9c175e3c441e3aU, 0x3cffe033bc8702fcU, 0xbd68f6f73c9ac190U,
  0x3e41bb743ddaee3cU, 0xbb8d9085bcabf30fU, 0x3cc86ad7bd63c464U, 0xbdaff7c5bcc08057U,
  0x3dafc6413d2e705dU, 0x3e20e8a93cd2e067U, 0x3d6528933d3ce9eaU, 0x3d891b92be05156fU,
  0x3d3645b43c474023U, 0xba8f7f733d566087U, 0x3b017136be8bc3fbU, 0x3c9236ac3c7a3c7dU,
  0x3d7e07013d816bd5U, 0xbe03fd9abddb4c6fU, 0xbe1accb63ddc5ba9U, 0xbdb9705bbd6e5a96U,
  0x3e1a7a0f3d1ff06bU, 0x3c0e6a553bf34649U, 0x3dc7a9cdbd0d561bU, 0xbd60fdc73d93ac28U,
  0x3ddb998dbc851169U, 0x3e04b2afbcadd695U, 0x3da27d763b8b4096U, 0x3c4c68f0be4a4b19U,
  0x3df677c73d8cbe67U, 0xbdc32bea3d8f2eaeU, 0x3d3b2311bd2ead64U, 0x3d60e81d3d83ff72U,
  0x3d023bc4bc6e287bU, 0x3d824efabe3375e3U, 0xbdead4c03e45ca45U, 0xbcb324d13e1b6c27U,
  0x3dea539e3dcf52d3U, 0x3e28efb33b734fd0U, 0x3c06b19e3d49a752U, 0x3d7e7b08bd7ccd53U,
  0x3c485ac2bd3fd7a6U, 0x3c54446dbc7be08dU, 0xbd0854c0bdd021b2U, 0xbde09b1cbc9e75c7U,
  0xbc109fe8bd24bf31U, 0xbd592b39be0cca6eU, 0xbd7f4338be0e7cbdU, 0xbd9c8dc23dbbe201U,
  0xbdf8884e3d1666dbU, 0x3d423b08bd24c2bdU, 0xbc84a65cbca7dd21U, 0x3c8b57ecbdbe3022U,
  0x3dee45d3bd180e54U, 0x3d333ed5bdaa373bU, 0xbe0999393d9c9ecdU, 0xbd1158a5bda4f667U,
  0x3d872cd03d339907U, 0x3dc56e33bd3896aaU, 0x3c5999b13db4457cU, 0xbda6a5c8bd325623U,
  0x3d8252923cf50f89U, 0xbd1d4f9a3e1a8b26U, 0x3d8f418abe1764ccU, 0x3cf1ac6dbca1345bU,
  0xbd6494ae3d4d339eU, 0xbd510f08bc2bacbcU, 0xbde7ea9a3d7ea73eU, 0xbd9ec75fbcc061dcU,
  0xbc8a9de1bc540ee4U, 0x3c333571bd27ed9fU, 0xbcde5d403d88f7f6U, 0xbd7ca1ffbcc8f8e7U,
  0xbcdf30693de14fe8U, 0x3da9f9583cb50217U, 0x3d12bf88bcb22a1fU, 0xbd86a670bca3e643U,
  0x3d4bc3843dd92905U, 0xbe1f60963d3691f4U, 0x3db3c4f3bdee94e5U, 0xbd06caabbd89580dU,
  0x3d04d9753dc5f0a0U, 0x3dd0887cbdd3e686U, 0xbddbaa323b8b8a7dU, 0x3cd51bfbbd00b50bU,
  0xbd54299b3dc8f65cU, 0xbd201df93d9b9671U, 0x3dd4e3aa3e151848U, 0xbd3f439c3d919c76U,
  0xbd67e71abd456590U, 0xbdb6c028bd3ef0d6U, 0xbb096cd1bc163f91U, 0xbe29fbdb3e0b2756U,
  0x3d8fff61bd809ac6U, 0x3dc037623da140e4U, 0x3d944a5ebcee5663U, 0xbd21f3a53c8c872fU,
  0xbd338a4c3d96d08fU, 0x3ca8ce68bcc951a4U, 0x3d45c32dbdbdd891U, 0x3bd0ef11bceea486U,
  0x3daf354cbe2408feU, 0xbd297280bb6ea0f3U, 0xbd1978793cedc1fbU, 0x3c3ada59bd9af7d9U,
  0xbd63601e3d8081c4U, 0xbe0edd593dc4806eU, 0xbd8f6b303d65022aU, 0xbe14e8a83e9271dfU,
  0x3d57473cbd0d29c0U, 0x3e0336423cadd200U, 0x3d6d93ccbda0edf4U, 0xbd5a1ae73e4ba619U,
  0x3d8adcc6bc8cf0c3U, 0xbd9ab7353e60b3a6U, 0x3e037377bdd71b94U, 0x3dddd63c3bcb0f08U,
  0x3df9c35fbe23960aU, 0xbdb87a47bde35af1U, 0xbc82df0ebdb489e8U, 0xbd4a7daabd8c7c81U,
  0xbd7001213d93721fU, 0xbdb7e8743d7298ddU, 0xbe2afcbf3e551e88U, 0xbc137bd53e9135bcU,
  0xbdbd9cb9bc87c789U, 0x3da2b8f4bba72ae4U, 0xbd86e7bfbe851cf3U, 0x3e065a123e3a5335U,
  0x3d7ac10c3d13585bU, 0xbd5c44a53e6754d1U, 0x3e124c34bdfb65d5U, 0x3e2fb55dbcd72a03U,
  0x3deb528dbd1c3a67U, 0xbd4b0b92bd937520U, 0xbc135ae0bdead7d5U, 0x3e3261a93cb25be7U,
  0xbcbefa58bd26ad0cU, 0xbd31e8963d8527a3U, 0xbcb2a3b63d871b79U, 0xbda2184c3df7a8b3U,
  0x3cf1e38b3d403d69U, 0x3d0a34283c8b6e6eU, 0xbd4fa991bd5298a9U, 0x3d2650debb8b9368U,
  0x3c2c6dbbbdf9d434U, 0x3e0346cc3e05923cU, 0x3caa3b643c07505bU, 0x3dd3c373bda49fc6U,
  0x3c9465adbdeced11U, 0xbd344e83bc45f1a4U, 0xbd68a9853e0c1a08U, 0xbaa8aa70bd23bdcbU,
  0xbe4bbf99be1da05dU, 0xbd2922023c0f30f7U, 0x3c6c9c45bd156a87U, 0xbde812383dad98a7U,
  0x3ce036f5bdd4ca64U, 0x3d806f8b3df9a8f5U, 0xbe1ae5abbdf20ac0U, 0xbba8dcc43e2e6ef6U,
  0xbc301f323cc485b9U, 0x3e62205b3d22d574U, 0xbd20d8da3cba7f7eU, 0xbcca1909bd478838U,
  0x3e14888e3d81e573U, 0x3dd397fe3e167ccaU, 0x3cb318df3e31caf9U, 0xbd96d229bdd776fbU,
  0xbd592ca8bde98797U, 0xbd9f8d6fbd82c7e8U, 0xbd3477cdbe20b5d6U, 0xbe558dc23e7f75c3U,
  0x3d309518be04231eU, 0x3d073437bc8e313eU, 0xbe2e41b7bc27457cU, 0xbd71f07f3e3a739dU,
  0xbe2b560e3bb562ebU, 0x3d27a0a73ddaa433U, 0x3df5c214bd0a8c31U, 0xbe17609cbc094bf2U,
  0x3dfb7846bdfc0fbfU, 0xbbede5d6bdd6def6U, 0xbd5019223da9fc36U, 0xbe0c659bbd96867bU,
  0x3d106f1bbcf08e08U, 0xbd98a505bd25fcc3U, 0x3cc2765e3d24c5b5U, 0xbd5f18de3e3d62e9U,
  0x3d66a21abd5bb9e3U, 0x3d6a7bf33d81009aU, 0x3db4b98fbc2fa6baU, 0x3ca6c6993dc15160U,
  0x3c1cfd5f3dcd2410U, 0x3e21bd9c3db7868fU, 0x3d6e9c86bd76ac80U, 0x3b2087cabdb719bcU,
  0x3dcda2a4bdcb4c90U, 0xbc4bbc593dc26d25U, 0xbb5942a1bc816421U, 0xbdb5cff5bcbcee0bU,
  0x3c5978a53deb419dU, 0xbcd5f5ca3e066211U, 0x3dd441003cf305a8U, 0xbd7a287e3dbd8d98U,
  0x3dbfd9023d9310e9U, 0xbd58d8d03d909851U, 0x3d31317cbde8014fU, 0x3da5ea303c044768U,
  0x3db5f15b3daa4e17U, 0x3d982d383dcb2d44U, 0x3e3b5a7e3d760c59U, 0xbc953eb9bd90b398U,
  0x3dfc27033ce3acfcU, 0xbcc70e873e22ede6U, 0xbd1663a93d944f15U, 0xbd5b744e3c99f6bdU,
  0xbdc8023c3ddc961dU, 0x3dceaff639ebf7f6U, 0x3de9f2753ca99e9bU, 0xbd1d0a853b940148U,
  0x3c3bd4fd3db58fc9U, 0xbdab5695bd3a45afU, 0x3b387cf6bdba5738U, 0x3d9bbf44be931232U,
  0x3db6a9f33d80c088U, 0x3e66e9ba3c6d3a8cU, 0x3da7b7d83da092e6U, 0xbd2d4c80bd4df3faU,
  0x3e1fe090bc21d331U, 0x3d6c67213db1068cU, 0x3d815b1f3e410f29U, 0x3d01fce43c076ac3U,
  0x3d8866793db1ee10U, 0xbba4936e3d939417U, 0xbd023e8b3d6f0127U, 0xbdf8bcf23ca811b0U,
  0x3d5040e23d7e580aU, 0xbe0a44d93c547700U, 0xbd87f1c5bdee0245U, 0xbcb025293a24d8f3U,
  0x3d96543a3dd51832U, 0x3c7a85773cd85280U, 0x3cacd4293ccc0230U, 0x3d04fd2ebda139a1U,
  0x3b1d8ffabdc98272U, 0xbd33b0b83d004c69U, 0xbb31cb6fbd5dc17eU, 0x3ccf1e0d3d8bc6abU,
  0xbbfc90323d52e4e1U, 0xbc42b84f3c527cefU, 0xbcc785763d679a33U, 0xbdb5967c3e0c4fd2U,
  0xbc2633323d3b0634U, 0xbd18ae523d2d855dU, 0xbcf1b9f1be2e6384U, 0x3dcf1c923d340e50U,
  0x3d8cfe083d100b36U, 0xbc5be3283d988547U, 0x3dc7cf32bc01b534U, 0x3daaa461bd353aedU,
  0x3e093fce3c9b9a70U, 0xbd70e3ecbbf2991eU, 0x3daff79e3d28ba3bU, 0x3d2d24af3d9bdfdaU,
  0xbdb9cc693d28592fU, 0xbd64ac5d3dc97918U, 0x3995b9d33c014050U, 0xbd8e51da3c19db5bU,
  0x3d8e9d343db09f74U, 0xbd5274ffbd8812daU, 0xbd9cc4cfbdfe213aU, 0xbc0f9acb3c171909U,
  0x3d2230c9bc1bef80U, 0x3e2ad5323c926b0cU, 0x3d7be2ca3dc62bfdU, 0x3d6a537ebd0eaf67U,
  0xba5547edbcc22f94U, 0x3dbc574d3d97e5caU, 0xbd7aad403de9d4f9U, 0x3d3642cebdb79c41U,
  0xbcf617903d4790dbU, 0x3d1d1e9b3d42109fU, 0xbd93dcdabd9e16a7U, 0x3ad248573d9982d7U,
  0xbd288eb43c5dd73fU, 0xbd817086bd8792beU, 0xbd1b3dee3b140d8fU, 0xbda8af5b3dbfa2a7U,
  0xbd8402c63d9273beU, 0x3d0a84283dd5cdd6U, 0x3bbd87323cc7b06dU, 0xbd47b6cebcb17ce2U,
  0xbb0bf0fbbd51bf39U, 0xb97db9d4bd783c7fU, 0x3d0703ac3c84928eU, 0xbd546b87bc8fadf5U,
  0x3d40be11bcc09defU, 0x3d51eb62bd4ae625U, 0xbd8f1df33ca31e93U, 0xbd046009bd7045d4U,
  0x3d9d8a8b3cc8e4bcU, 0xbd329886bcb85491U, 0x3cec5b87bddf07fbU, 0x3d51fbb83d3f235aU,
  0x3ce1c093bd541adbU, 0x3bddea8dbb1f1605U, 0x3d8009183d52c23aU, 0xbca0b6d63d504cb5U,
  0x3d2c2c16bcd407ecU, 0x3d6f1480bc369f26U, 0x3c99369d3c57ad39U, 0xba1f31263c9e7ad2U,
  0xbdaeceb03c6b6d2aU, 0xbcbcc5143d8fa4c5U, 0x3d4f326b3d446ef8U, 0x3cb12a2f3d15a1a6U,
  0xbd8ae1993cf30788U, 0x3c2acd1e3b73ba94U, 0x3d512910be0220adU, 0xbcfa93a6bd2473efU,
  0x3d8a5de5bc3d7d8bU, 0xbd455074bda5003bU, 0xbd9ee8083d202d4fU, 0xbcd878fbbd76eaecU,
  0x3d894d923d82e168U, 0xbcafb8c23cf07dddU, 0xbca9ff953d6837feU, 0x3d5713a8bd412442U,
  0xbce51d6e3d37d035U, 0x3d0043fabcfb6f5aU, 0x3dc06938bc990778U, 0xbc0d07523c8dc073U,
  0xbd3ba8b0bd00c0bcU, 0xbd7afe60bd717680U, 0x3da6b668bdb1794cU, 0xbd8ecc95bdca9a32U,
  0xbd768d7f3c9079a7U, 0x3df0b9ff3bca20b5U, 0x3db560c9bc5faf9cU, 0xbd98b7a8bcc47cbfU,
  0xbdf47138bcb7677cU, 0x3a7fb7dc3d3bfac8U, 0xbd892dbd3d4a3a61U, 0x3c96caf03c3ef42dU,
  0x3ce51b443d42b72bU, 0x3ccc76ad3d3f5007U, 0x3d24b4033a414d76U, 0x3cb1ad79bd21696bU,
  0x3d5c89a3bc7f7ffbU, 0xbdddcb033d3bef33U, 0x3b8acc46be2bf5e3U, 0xbcee90a3bcc653b1U,
  0xbd185c443d8a3303U, 0x3c887946bd399c8bU, 0xbabb3deabce041b4U, 0x3d9b2a303cafe89eU,
  0xbbf384ab3d50eb60U, 0xbdd49325bd34f1b6U, 0xbcfd4b173d63ef59U, 0xbda2ce5c3d9df239U,
  0xb9eb6d64bd0c19caU, 0xbc87fe753d66fc6cU, 0x3cce99d83d05aec0U, 0x3d9d2081bac1d5cfU,
  0xbc91b418bda68f09U, 0x3cc2e0463cd61416U, 0x3c3e1322bdbe96fdU, 0x3d4a9ce6bd104e28U,
  0xbcfb05763d53929dU, 0xb9b96bb43b108e87U, 0xbc6fca263d81b398U, 0x3c7305c43d01d812U,
  0xbdf2558cbb7bfe30U, 0xbdc91bd3bd973ec3U, 0xbd13d80cbd9996a9U, 0xbbabe31d3c609e8cU,
  0x3d849a0dbd128369U, 0xbaeb193ebd8ac111U, 0xbdadf7bfbd9dea79U, 0x3d85f4c7bda72fd4U,
  0x3d7783d6bdaea319U, 0xbdb859883dfba0c7U, 0x3c8dd701bd6fb673U, 0xbcb4bcabbcdd3739U,
  0xbda349bc3d9baa08U, 0xbd91e3bebe1e0bf1U, 0xbd28dc993ccc936aU, 0x3c143bcb3dcded35U,
  0xbc80f0553cb53cb7U, 0x3d62cec23c0deff6U, 0xbc110ae63e0023a8U, 0x3dc70d53bd647dd5U,
  0x3d95d5dcbd4a6705U, 0x3d3db29c3ca93a13U, 0xbcafeb03bdc8dac4U, 0x3de55d553c817419U,
  0xbc40cb99bc617610U, 0x3db3db53bd8807abU, 0xbd6d84203dcd2cbfU, 0xbcbf67bebd02d33bU,
  0x3b8bda27bd04529aU, 0x3d838d7dbd3d8e31U, 0x3dd21df73c166084U, 0x3d17973f3df2a8c7U,
  0x3c7fc5a93de45455U, 0x3e1f8373bcefe427U, 0xbdadd3d23d9459b4U, 0xbdcaf57bbd24909cU,
  0x3dfe3e05bcb0122dU, 0x3d7e7d853cd32657U, 0x3d9d0dc0bda3b165U, 0x3a7ca0b6bdf1e10dU,
  0x3dc29e763cbedd04U, 0x3ba337c83e37e36cU, 0x3d96b22b3e170967U, 0xbd9b4bc83ce7cabcU,
  0x3d794587bc920cf5U, 0x3da33084bce04aa6U, 0x3e00f5373d22dba7U, 0xbcd641de3c1f3e8cU,
  0x3d4f37453d89592fU, 0x3d51407b3cce03a8U, 0x3c86ed7d3d79ae2bU, 0xbdb5327ebd24d300U,
  0xbb6c45a2bd4eedf2U, 0x3d8bf743bc93ba57U, 0x3c9804efbda7e451U, 0x3b30cf57be596b17U,
  0x3d233655bdcb20edU, 0xbde7f5303dd49b23U, 0x3d6773243c073718U, 0xbdc58a89bd842e7cU,
  0x3d84cf50bc77ba7fU, 0xbdc8f09dbe0d5251U, 0xbe052c553d529aa5U, 0xbc6fc5403dac23b8U,
  0xbd847c883d98e2a4U, 0x3d1828c13c462b2cU, 0x3d5b40c23d46745bU, 0x3cd358193d006d79U,
  0x3a9c6699bc77f2f3U, 0x3e1237e93d91dca1U, 0x3dfe3dbd3d967a15U, 0x3cffad75bdff8603U,
  0xbd7c019c3d44b6e9U, 0xbdcc1e203e26f183U, 0x3d06841e3dc168d6U, 0xbd722ef6bd0a1b29U,
  0x3c2ab3233d58badeU, 0x3d4f896fbe520daaU, 0xbd0d52e43b1ebc9cU, 0xbd2eb9a33dc6947cU,
  0x3cb80c7a3c84d047U, 0xbb3c86b33df0b76aU, 0xbd0d4eb8bd916343U, 0xbd2ffb183d67be07U,
  0x3e32ecc23caf5bdeU, 0x3db2b2963cb08949U, 0x3c6641ec3c9e0742U, 0x3de2094abdf13374U,
  0xbc97b0a33d44b0d5U, 0xbd3383293e43e94cU, 0x3d35b1553c85a944U, 0x3befadc0bdbc5e5bU,
  0x3d56d26f3c9fffb5U, 0xbca9bf76bddfa584U, 0x3cbc792ebd1eae7aU, 0x3de8a37b3e0992faU,
  0x3dbf7a553dde5944U, 0x3dea904e3d9d2f1aU, 0x3d9f596e3db6ea91U, 0x3d421da63b86378aU,
  0x3d0c4e133da6320aU, 0x3cf14ea6bdc47d61U, 0x3db16bfdbca0de6fU, 0xbd85eca3be15e96aU,
  0x3d4ab3b63db154a0U, 0xbe145f523e17c9abU, 0x3daa5b74bcf3ced9U, 0xbc2611d5bdc67b16U,
  0xbdb79de83d99259eU, 0x3dc9efcbbe690ea7U, 0xbe068955bcaa6b8eU, 0xbd7fd8703d790317U,
  0xbd9f0f223d71a22aU, 0xbdbc6fc7bda7527eU, 0x3d8ff92c3d3ea36eU, 0x3c99fbeb3cac8316U,
  0x3e03bd30bcaf0c96U, 0x3d8fce83bd21a1ccU, 0x3d364864bd937c7fU, 0x3ddedf74be1bc773U,
  0xbc9f38f53d8460a9U, 0x3d02f91f3e27864aU, 0x3d1707c1bd9c0001U, 0xbd09bb6abd2dda3bU,
  0x3d5fa5f53c169669U, 0x3d984a40bd170dd8U, 0xbd5f741dbc170ec6U, 0xbd22f9543d506b37U,
  0xbdb29f513c848e9bU, 0x3c773bfabc9d8480U, 0xbc4471b83bbdd845U, 0xbd70d1443d1e6eb6U,
  0x3d55b7f6bd8d1a81U, 0x3d72906abd0bd4f7U, 0x3cdc0d95bc9322dcU, 0x3d9520103ba2620bU,
  0xbd473382bdf286c2U, 0xbd8bc56c3d36a33aU, 0xbd7d830e3d465effU, 0xbd4b1904bd153cb3U,
  0xbcd67d3b3d3b2ad8U, 0xbde66953bcbb1557U, 0x3e0b8b63bb772576U, 0x3e0c66e93d5f6af1U,
  0xbd93e6a03e12e812U, 0x3da96fbabdb9c1d1U, 0x3d4c8816be04ed23U, 0x3ccce29ebd5779bcU,
  0xbd4e27f4bd1a7e2aU, 0xbc921aeabd64cbe8U, 0x3d2990d43d971bf0U, 0x3cc949da3d7bbe05U,
  0xbd81bd45bd4f2d58U, 0xbdca3a2dbe00a21eU, 0xba0a40e1bd49ef14U, 0x3dadb8603bced440U,
  0xbcb5e2663d877888U, 0xbd6db99c3cc59440U, 0xbbc242b0bcc65f36U, 0x3d4f6ceb3b707465U,
  0xbd02692e3d54dce1U, 0x3d25e6b1bd7d075eU, 0x3cb182b9bc4da2ceU, 0x3c3f2a773d927f81U,
  0xbc81d032bd9b4cefU, 0xbd5c0ee9bc81625fU, 0xbd24eebe3bc5ea32U, 0xbcc47ed0bbc0f2c0U,
  0xbd4737f23be23564U, 0xbe53bc4539564fdcU, 0x3c9642c1bda96942U, 0x3d8e47ddbdaa736eU,
  0x3d950c67bccff220U, 0xbe0936203c86e9aaU, 0x3d376ef43c53da2bU, 0xbda55610bdac3da1U,
  0xbc0bcb6abdf7f62bU, 0xbd52cc66bdaa0731U, 0xbd91957f3cc37724U, 0xbc5f12743dd7a1b5U,
  0x3dc3033e3d2505e1U, 0x3d96bb8f3d3bfa8fU, 0xbc6c783a3dcf9cd4U, 0x3e3770f6be73fa7cU,
  0x3dc858c73d669400U, 0xbe47ae21bdc0df05U, 0x3dca473fbda96727U, 0x3da00db1bd87422fU,
  0x3e0a5ace3d968f22U, 0x3cf8421bbeaf6092U, 0xbdf544d63e0ed41aU, 0x3ac230783dcf2da7U,
  0x3dc162b73db8200aU, 0x3d6c75263c1274c7U, 0x3de256a53d178850U, 0x3d49d7723c3b11c2U,
  0xbdc55401bd110fe2U, 0xbc9631ff3b90a373U, 0xbdf425b7bd8c84bbU, 0x3ca947d73db0f754U,
  0xbddd7d2dbe0f2c44U, 0x3d4476e3bcea8bfdU, 0xbd8ce5cdbda44b20U, 0x3d4d035cbcff68a9U,
  0xbd0eae43bd61393bU, 0xbce2e33e3deff62eU, 0x3d78bf4fbd20ffeeU, 0x3dacdbb5bc6c40cbU,
  0xbd270bb73d7ef765U, 0xbb2b07cdbe00757dU, 0xbd7c5e3bbe0e3c52U, 0x3c9bf4cfbd8ab145U,
  0x3d5aa3583c74b1e1U, 0xbd0802f0bd2262f6U, 0x3d33b2ddba14cb8cU, 0xbdceff67bd640b74U,
  0xbdaf5d873db9626dU, 0xbe80bcb5bd48a28eU, 0xbc1901d2bd9b72a1U, 0x3d528c8cbc8df280U,
  0xbd979f12bd72e60fU, 0xbe509853be04131aU, 0x3cd05a2bbe4f2e01U, 0xbe30b762bdcfa19eU,
  0xbe11a262bd739311U, 0xbe408971bcd0312dU, 0xbd3696ffbe032650U, 0x3add3090bd3567f0U,
  0x3e2b826d3df293cfU, 0x3db1c4703ab36b26U, 0x3de99d773d95b09cU, 0x3da116f6be0f143bU,
  0x3ce44dd0bcf82095U, 0xbe3866323d87426eU, 0x3d540befbded52e5U, 0x3dbcfd17bdd6857fU,
  0x3ca0846ebd5d5475U, 0xbe15dd2ebe8e87ecU, 0xbe24bb283d52d1f5U, 0x3ce3d55b3d0bbf40U,
  0x3dafe6633d507511U, 0x3da027403d14a0bbU, 0x3dcfbf313d04c444U, 0x3ddfb5c93d3e4d18U,
  0xbd0f308dbdb51e89U, 0xbe3cb48fbceeec84U, 0xbcc8ce70bde83d8dU, 0x3bc6c017bd277494U,
  0xbc59d2c33d0d07d3U, 0xbd98d86dbe07ec51U, 0x3d32cd8d3de74d41U, 0x3a9e313bbd844f83U,
  0x3b36bd26bd4886ecU, 0x3d37e5ee3c9a08b3U, 0x3e287b523b8a7b30U, 0xbd9d6a1bbd86c1b1U,
  0xbd77df54bd76fbc6U, 0x3bb216e9b7cc6c80U, 0xbd9c32d4bdab7f64U, 0xbdd59643bc896c7eU,
  0x3d19b814bc09358fU, 0xbd50d5913d12dc69U, 0x3d4ace0a3d01f794U, 0xbd0331c6bdd8bb9aU,
  0xbc495f233db63039U, 0xbe64676f3cae468aU, 0x3d929c4f3d899b7cU, 0x3d931489be697d38U,
  0xbd6d61073c9108a0U, 0xbd3f5a27be529897U, 0xbe2d1ce7bd1a0f6eU, 0xbe03dd16bddb8434U,
  0xbd697357bd8f428aU, 0xbd4add833cb6e672U, 0x3c47b157bded738eU, 0xbc3594f73c9f5429U,
  0x3e09af7c3d6981c4U, 0x3d54ef00bd169d77U, 0x3dc5a7743d258f99U, 0x3dade94b3b4c341fU,
  0xbc8e4c1e3d5361e4U, 0xbd7c10fbbd8224ecU, 0x3dd1120cbd3fa4ceU, 0xbc9ee25cbd0553d1U,
  0x3d93230bbc34d9d0U, 0xbe2517acbd9256d2U, 0xbd9223d73d5dcb06U, 0xbcecff4cbb17d03aU,
  0xbddfd9813c23cf29U, 0xbc8441f4bcd5690dU, 0x3de2106d3d597747U, 0x3db6bb8bbd112056U,
  0x3d9cfd7a3d055360U, 0xbd8b0f26bd90e59dU, 0x3cdb06923d80d793U, 0x3c335141ba885e16U,
  0xbd335a3c3d25ba53U, 0xbd52d4adbdc21815U, 0x3db38e3bbd768db0U, 0x3d8269bcbd0265d9U,
  0x3d90ef3abd26c97dU, 0x3b380899bd0527adU, 0x3db5d847bd42865bU, 0x3da9ddbabd022528U,
  0xbc83061fbd27890dU, 0xbd21c82ebd81d194U, 0x3d2d43f3bdc783bfU, 0xbda3d6ab3d557d08U,
  0x3d4d6ef3bd835472U, 0x3da408593ce4ef15U, 0xbdc8907ebc100823U, 0x3dc6b1ac3d18ce66U,
  0xbda1cf7abc8ebecfU, 0xbdfd1e383d2caeb6U, 0x3cec2722be155784U, 0xbceb643cbd7f62d9U,
  0x3cbd6f823cc45223U, 0x3ccb0e65be0917baU, 0xbe01f3383db526c6U, 0xbbcd67283d0c2024U,
  0xbd3f5dbb3d4b6cacU, 0xbd7b7a03bdad39dbU, 0x3d311cfe3da9cbc8U, 0xbc0c27083da3b394U,
  0x3bed96c9bc43ceadU, 0x3c907928bc349c28U, 0x3d309b14bda49c43U, 0x3cc7a301bd524c92U,
  0x3ce85a493d0d6ee2U, 0xbdc156753d4198c5U, 0xbca11767bda7fc84U, 0x3c950d35bb62df83U,
  0xbd05ec8e3d8f491aU, 0xbdc40847bde3870dU, 0x3d10b69d3c48d0b9U, 0xbd83d4123db19a31U,
  0x3dc0c9513db3e003U, 0xbd77789ebb02fd93U, 0x3c01aa5bbd8ed77bU, 0x3d9140313c8227cbU,
  0x3d8461b6bc8b23f1U, 0x3d6ed078bd9c94c8U, 0x3c414749bcd2458cU, 0x3cfc2b78bd41112dU,
  0xbb83fa33bc6ee2a8U, 0xbe2a2088bb4ad97bU, 0x3d7d2007bd17c6bcU, 0x3b1762b2be0b0fbbU,
  0xbd265d40bd5ba20cU, 0xbdb70159bd1930f4U, 0x3a82824bbd4e9d22U, 0x3aacd3b83d0c3d55U,
  0x3d1cb4bc3d8ed68eU, 0x3d2a776dbdc0400dU, 0x3d7a87773d465f9bU, 0x3d52b284bdb01146U,
  0x3cb150433d4037abU, 0x3d8e5a34bb1ac784U, 0xbd956abd3d714d8bU, 0xbbc765c7bd28e1dcU,
  0xbcef0bf53d084c94U, 0xbd6783493dd8ee65U, 0xbc82cc94be4f3632U, 0xbd1ca4623c1341bbU,
  0xbdb33171bc5389f6U, 0xbd4416c5bd5f9ff7U, 0xbe0f2e753ce9e2e5U, 0x3c83c92d3d45e4baU,
  0xbbdd468f3d840cc8U, 0x3db7fb713d5f3253U, 0x3c203890bd771401U, 0xbd345878bd13119fU,
  0xbc654f50bdb272a3U, 0xbd0bfd8cbdc009b1U, 0x3d25a60cbcdc9da3U, 0xbc6eee36bc216369U,
  0x3d114ddabcc38fb6U, 0x3cb1dee73d1e21e9U, 0xbd6b0db9bd0f8b00U, 0xbdc9a3e9bd138c32U,
  0xbd1da3cc3cf453c6U, 0x3e1a044cbe2cfca9U, 0xbdb0dfc23dfa6530U, 0x3da8b64c3cbdffe4U,
  0xbc6470a63d12ee90U, 0x3d9f495abd27832aU, 0x3abb0afa3c80c591U, 0x3cbe7baf3d768940U,
  0x3d8781d33d8ad5e7U, 0xbcf424a23d007bd8U, 0x3c9a8752bd9c4ad7U, 0x3dd033e9bd4757bcU,
  0xbdafe8513d353467U, 0xbdabb28cbda5fabaU, 0x3d69b758bddbd10dU, 0xbd9066393cf662e4U,
  0x3c8c2121bd4813eaU, 0x3db237babd9be40fU, 0xbc5923223dc9e142U, 0xbc5aeba2ba7832e8U,
  0xbdbf8fe6bc5556d6U, 0xbd1c38d4bdf55710U, 0x3a7c72943ce8fec4U, 0x3cd147e4bd959150U,
  0xb9cb2b92bd9c086fU, 0xbd203d643cd00848U, 0x3d79b86bbd02ed45U, 0x3c1ee8dc3dc2f0a5U,
  0x3ba966953d96cbf4U, 0xbddd0ad83d780da8U, 0xbcb85811bdcbb1c0U, 0xbd7813613dd907a5U,
  0xbda2054d3db1218bU, 0x3d5d7620bc56f2dcU, 0xbb4bdf953d74ddf0U, 0x3bf683fb3d6269ceU,
  0x3d2140dbbd9059b3U, 0xbd466b2f3d8365d1U, 0xbd6f1df63d3d413bU, 0x3d28fcf83c8b15bcU,
  0xbde12ed13d93e2f7U, 0xbc16b0053da0b8caU, 0xba83bc813d0efca2U, 0x3d0e95853da49c43U,
