/**
  ******************************************************************************
  * @file    network_data.c
  * @author  AST Embedded Analytics Research Platform
  * @date    2026-04-01T13:18:51+0530
  * @brief   AI Tool Automatic Code Generator for Embedded NN computing
  ******************************************************************************
  * Copyright (c) 2026 STMicroelectronics.
  * All rights reserved.
  *
  * This software is licensed under terms that can be found in the LICENSE file
  * in the root directory of this software component.
  * If no LICENSE file comes with this software, it is provided AS-IS.
  ******************************************************************************
  */

#include "network_data.h"
STAI_ALIGNED(8)
const uint64_t g_network_weights_array[112582] = {
  0x3e02f2b5be10dc83U, 0xbe4b3a70be69e545U, 0x3ba8ff343ea1cbfcU, 0x3e08433bbe3646ffU,
  0xbe7e5d08bd9a3fd9U, 0xbe0cd8d0be91f0d6U, 0x3e80aaa9be51417dU, 0x3d60cd9f3e2fb380U,
  0xbd14599d3c90b74eU, 0x3e06142ebcb32a01U, 0x3ee2ad95be256b86U, 0x3d613bd2be517fafU,
  0xc019e9d4be410c89U, 0xbec8fa4abf4f1d6dU, 0xbee272cebe5e7b96U, 0xbee7d1efbf1cee56U,
  0x3dcb2f7dbd8e8860U, 0x3ede5dcf3d75c06bU, 0x3cbf3321be8e99edU, 0xbddddd0dbf90f4a5U,
  0xbf2f0e8abd83845dU, 0x3e71b46b3e95a160U, 0xbe1c0eeebda84fadU, 0xbcf30e6c3db73022U,
  0x3ec26235be0f57dfU, 0x3e37a3d7be562a25U, 0xbfe0e00fbd9a77f6U, 0x3e6388b23e45c2b6U,
  0xbe93c3a2be68b41eU, 0xbfe6ef1bbe474c5fU, 0x3dff4afbbc0d7450U, 0xbc8af906bfaecbebU,
  0xbaf4086abc7f5f07U, 0x3d6021973cf44657U, 0xbb85a4013cc308e2U, 0x3eb9b5693df7327eU,
  0xbb3977d0be7a4754U, 0xbeee08b63e2d1174U, 0x3e35edcc3e2f070bU, 0xbe22ef90bf4bc4c3U,
  0xbdcc351c3e7469a7U, 0xbdaff5683cfb1daeU, 0x3bc2fb87bdd63d63U, 0xbde6f0633b292b43U,
  0x3dde1d9dbd4ba422U, 0x3dd94a40be16b944U, 0x3db290d03d48f089U, 0x3d61e5d4bdba8a84U,
  0x3bd580e33d5af0d8U, 0x3d0a3a123da21cb4U, 0xbda0fe34bdab5d9aU, 0x3e37c7a6bc437f50U,
  0xbdc5c5633e6e2bd5U, 0xbe247bcbbe1e2288U, 0x3deca53bbdc656dfU, 0xbe8853a73ad8128dU,
  0xbe250b453e706bb0U, 0xbde71815bdb1fa45U, 0xbe21cd6d3dd5e29eU, 0x3e165c7fbd25437cU,
  0xbdb3dd3d3dfcccedU, 0x3eaa3280bbfbba25U, 0xbde2ed70bed27594U, 0x3d5e95a13d8915e6U,
  0xbd7c5878bd22dd2cU, 0x3e578f7cbdf5b142U, 0xbc12775bbcd04d73U, 0x3d0975fdbe669058U,
  0xbd5c9385be2d0449U, 0xbdc131f3bf7d0a2cU, 0xbed881e83e598303U, 0x3d1a11363eb1fab7U,
  0x3dcba954bd4943ddU, 0x3c0231b7bdf3a3faU, 0xbdb2e0fbbd4a37e0U, 0x3daa1ee83d8869d5U,
  0x3db5ee59be3a3aa0U, 0x3e5ec835bead0cd3U, 0xbeb709ca3e036674U, 0xbd5493883ea2e7dcU,
  0xbec8c8a4bfcaaa08U, 0x3dbbdf343b8a5789U, 0xbe42d244be53ddcfU, 0x3e9cce693d68612aU,
  0xbe7046b43e5165a1U, 0x3dac7780be1148beU, 0xbe722877bb072b51U, 0x3e0a2ad73df12726U,
  0x3d8f9b4cbe998006U, 0xba43390f3ce338d6U, 0x3d96bddfbda08b14U, 0x3d9b5ed43e71687dU,
  0x3e3777e13df59fd0U, 0xbee04e61be827f5cU, 0x3ae9adddbea6d94fU, 0xbd386f26bfb385c6U,
  0xc01c571e3e51ccc3U, 0x3e4f0f5d3e67e4feU, 0x3e555489bfe04045U, 0x3da4efafbd8550a0U,
  0x3e0198ff3e8ce8d3U, 0xbebe5f62bdb52f1cU, 0xbe8fe25dbe773f30U, 0xbc089e503d55515aU,
  0xbbf016e0be0b4ea7U, 0xbe052c3ebdf683caU, 0xbc94528cbe072490U, 0xbda606f4bdb4bcc9U,
  0x3dda20cfbe4509faU, 0xbba01a5fbcfd8e15U, 0xbdd9f85e3d828ec1U, 0x3d3254d93c85a5a6U,
  0x3dc3adf9bcde1db9U, 0xbe550161be1459b8U, 0xbde507a23d46de23U, 0x3e60d993bdc491d4U,
  0xbe6ac7d6be16e3bdU, 0xbd67b55c3e0b9bc5U, 0x3dedd9abbd82918eU, 0xbe1b3c0b3ba07598U,
  0xbee2fb09bf0d41ddU, 0xbd2ead673e8bc413U, 0xbd1d63523e910080U, 0xbf09f54fbe199396U,
  0xbe3374a6bec3b9dfU, 0x3eccf2bbbe896e7eU, 0xbe9353b93e0e94d3U, 0xbbec97f53dd61866U,
  0xbd7948db3e916416U, 0xbcbd2b98bd231f9dU, 0xbe2ebb14bfae563dU, 0x3d778f4c3d849e4cU,
  0x3dbb79363d9dc1b9U, 0x3d2338863d977813U, 0xbe6c4a313e05044bU, 0xbf1d0a13bed278c3U,
  0x3e3e4cb0be65f96eU, 0xbdbaaedcbbef31c1U, 0x3e96d8d03e582816U, 0x3d77b5253df36d33U,
  0x3d9f0e373c45f6c8U, 0x3d85da183d3f71d0U, 0x3e0b87ad3de99da1U, 0x3e078a273dd1a0c8U,
  0xbdde848cbc9ee1e7U, 0xbaed8140bcddef51U, 0xbd8fff36bc372dbbU, 0xbc756a673c75656dU,
  0xbd5598343d47f2e1U, 0xbd83bb8bbd8fbc91U, 0xbda2dfd5bd313077U, 0xbdb18b78be0ff4b0U,
  0xbd46d01fbd3939f9U, 0xbcce6992bd389c73U, 0xbd0cff78bcea1f41U, 0xbd04fea3U,
  0xbc13c820bda1a51bU, 0xbd91047bbdb77a46U, 0xbe565edfbd8957c6U, 0xbdca2194bcca6081U,
  0x3caed747bdd55666U, 0xbe7201643ef4db57U, 0x3e962e61bddc2ab5U, 0x3db6ff723d8f7843U,
  0xbd123963bd0c5b33U, 0xbc585445bc148c2eU, 0x3e4288c73e0c0c88U, 0xbc803a5d3d655cddU,
  0x3d0d1debbc646372U, 0x3e01ef643e23154bU, 0x3e4ae5fc3e4f859fU, 0x3ad92d403e85590bU,
  0x3d6a2dd93c8222abU, 0xbc5b52953dbd403fU, 0x3e44267f3e90808eU, 0x3d8b92ca3c7e0ba4U,
  0xbcd72968bd0013adU, 0xbed857043ee8bb7fU, 0x3e6fbab8be5af206U, 0xbda185793e9a69dfU,
  0xbd3691bebe4d84c4U, 0xbbe28602bdf7a9cbU, 0x3d84d3143d5b2570U, 0xbd71a7863d8d4dd1U,
  0x3db9b699bc0fd61cU, 0x3de911f33d46cadaU, 0x3e1895453dbd3510U, 0x3d33ddca3e2673ceU,
  0x3d397a013e08a845U, 0x3ce4fb283ddc7250U, 0x3d38f3af3db0739dU, 0xbdc3c931bd28ed8dU,
  0xbcafc872bd9f083cU, 0xbea28bfd3e0c5da2U, 0xbcad3b11bc92ee5eU, 0xbda03aebbb2781b5U,
  0xbdaf6bd33e081984U, 0xbd2458fabe261477U, 0x3e25d725bd0b1969U, 0xbccfea25bce5f89fU,
  0x3e8d3eb43c5a23a3U, 0x3e4cd7a7bd85f68cU, 0x3e91df15be465a8eU, 0xbd48735bbd88d147U,
  0x3e1ea165bdda6803U, 0xbe3a6cbc3de1ab5fU, 0xbe5b7011bda881acU, 0xbddcbe043d1d7e92U,
  0xbe44348b3d18a3c8U, 0xbf173cb83ea59cc1U, 0x3d8a1acabe0a7babU, 0xbe2da65e3e924529U,
  0xbda090a4be3eaa83U, 0xbca1c470be20a619U, 0xbc31d051bcb73725U, 0xbe3dbdcbbd7f5f12U,
  0x3e436aa63d4cbca7U, 0x3d9cd55fbd0f91bdU, 0x3d40ea4b3d109221U, 0x3d91b4093e775b4dU,
  0x3de8b7c5bd83edd4U, 0x3e1ea5b63e38d003U, 0xbd92aefa3e40ee5aU, 0xbd12ebabbe560fddU,
  0xbebaad87bdbbf576U, 0xbf11f8d53dbb1caeU, 0x3dd83291be048921U, 0xbe95071b3e809fd4U,
  0xbe5f9e36bdf8cc12U, 0xbbbf04febe3cba1fU, 0xbcb423c2bb6b2343U, 0xbe50237cbc83332fU,
  0x3ccee0d3bc3b782cU, 0x3b870517bdd2d960U, 0xbd8049d5bd0d55bcU, 0x3d30070abd8b0cb2U,
  0xbc2d4256be033c6cU, 0x3da51c6cbd48b931U, 0xbe737fba3c93bb1eU, 0xbe1eb006bea88478U,
  0xbda76d90be2bf487U, 0xbe50e495be9d1080U, 0xbe94c80bbe2e1705U, 0xbde77ac3bdfe883aU,
  0xbdc548f9bd7efa1aU, 0x3e0771dabd6f7a23U, 0xbcb94f0fbe51a604U, 0xbccb21ff3e36cc31U,
  0x3e0d5c62be200cfeU, 0xbe6e89333d68e06eU, 0x3d83d18cbd99d1caU, 0xbd80bdf8bcc03222U,
  0xbe24b735be1729c1U, 0xbe34c281bd1e4a31U, 0xbdedf6b7bdab069cU, 0xbddf3954be699999U,
  0xbdd86e113b17e766U, 0xbc57d4d33db2a07bU, 0x3cd0cfc63de7876cU, 0xbaf936213e1adde5U,
  0xbcb68543bdee88fdU, 0x3d9426e0bd2e040aU, 0xbcfc9c0b3ceed397U, 0x3c7a0f033d3892c9U,
  0x3e6b1f26bb9be17bU, 0x3d85b4563e741a6bU, 0xbc789ac6bcb5dd15U, 0xbd3a4250bd0373c8U,
  0x3d96005f3d42d4dfU, 0xbd8e6ee83d5a9fa8U, 0xbdc6f9d33e2b7690U, 0xbdcc64dabdcc2236U,
  0xbd9dfc76bddf1d01U, 0xbdd76ce2bdeb191fU, 0xbe00b524be174bdbU, 0xbe575d87bdf4bb92U,
  0xbdff947fbea3c2daU, 0x3c5710a5be513655U, 0xbbc3bdb8be94e272U, 0xbdcbef3bbd3cc967U,
  0x3bce584ebda32d2bU, 0xbc1f1e4d3d148e9bU, 0x3cb168e9be4753d1U, 0xbd1b081bbde01cf7U,
  0xbc280d3ebd91642cU, 0xbe43ce913d5ac0d0U, 0xbe263060bb842318U, 0xbdcc6530be580b40U,
  0xbdcbb98dbc7a4b6cU, 0xbe84fc99be6dfcf0U, 0xbdf453ecbdc165b4U, 0xbe8e8fd3be20470cU,
  0xbda49d67bdc46b08U, 0xbdfe75abbe498f13U, 0xbda7a4263d569697U, 0xbdaaf442bd08be2cU,
  0x3ba146d1bd639392U, 0xbe568692be24ff0eU, 0xbde5686bbd0bb861U, 0x3da14f9b3d976395U,
  0xbe386553bd3c1f60U, 0x3dfc360abc2271c6U, 0xbe79ab93bd900fc5U, 0xbe2c12d2be50b3e3U,
  0xbdf5ef16bdc6e117U, 0x3dbbe13e3e10315aU, 0xbd90fd0f3dbf645fU, 0x3c34e3ee3d48693cU,
  0x3d3ed6b0bda7fd9dU, 0x3d50bdefbdf5da49U, 0xbd8ff112be79f3a9U, 0x3e0f49bd3c4f5c8dU,
  0x3d089c93be043189U, 0xbc8fc8c73bb5c5c1U, 0x3e44d38f3cdf0006U, 0x3d8920633cbc4501U,
  0xbd51a82fbe0db972U, 0x3e1b96883e853104U, 0xbe3031d93e34561eU, 0xbe030a203dab60f3U,
  0xba84acdebdb15ba8U, 0x3d2d22933e50d94fU, 0xbdc24a1f3e16a106U, 0xbdca9440bd846586U,
  0xbcf1987ebe9b17c5U, 0xbb4e3ce13d09fbbaU, 0x3d926854be0edae8U, 0xbd779bd6bdde027fU,
  0xbe8c02163d62aec2U, 0x3cc881b8bdbeb7b5U, 0xbe214fa1be5a03f5U, 0x3da4f0d5be71a6f2U,
  0xbcaf5f57bb715393U, 0xbd8171743d9a518aU, 0xbdd29407be7a2960U, 0xbce7c9f43dc4945eU,
  0x3df3d38e3deccd85U, 0xbcb506cf3d53d1e6U, 0xbda03557bcf3511eU, 0xbd571c68be55fe43U,
  0x3cf1efbfbb001b35U, 0xbe3a3757bdd52630U, 0xbae13855be2b573dU, 0x3dc2e694bdde16baU,
  0x3e2a52eebd73a92cU, 0xbdbadf33bb087606U, 0x3e8c48e8bd4c1992U, 0xbd08857bbd68d888U,
  0xbe283d593d02225cU, 0x3d82079c3da2c79dU, 0x3bbccce5bd696f05U, 0xbcf67fdfbd49a175U,
  0x3d615823bb8bc15bU, 0x3e0d350c3d6318d6U, 0x3e1380ca3e26481cU, 0x3d0a6b4b3e8ed093U,
  0x3d75bbf13e625d45U, 0x3db0c8f4bdbae311U, 0x3cd8707e3e1947daU, 0x3e6325663b98bc1eU,
  0x3e8adfe93d271ed6U, 0xbdadcd843e04dc02U, 0x3e29d8e33de2a5eeU, 0x3cbf944c3e944058U,
  0xbda37e853d5f5bcaU, 0x3ed04c373de17a15U, 0xbe03dea83db1fb10U, 0xbdce42b73e3666faU,
  0x3de68871bd81bea8U, 0xbe8a3be13bab24deU, 0xbd8049793e0fcc4bU, 0xbe23855dbda6d721U,
  0xbd9a1087beeb467aU, 0x3b3715f7bd933571U, 0x3de0d4a9bdb6c627U, 0xbe141e1d3c5cd384U,
  0x3decbf23bd32823eU, 0x3d8307003e140de7U, 0xbe0590a03d88f6d9U, 0x3d4adb923d642a75U,
  0x3e1f83d43cd85362U, 0x3d25041abdf7698dU, 0xbe007e233e15dd29U, 0xbe36fd1a3e25f5cbU,
  0x3d83ea653e749830U, 0x3d3caa1e3d2868adU, 0xbe44ec993ad6deddU, 0x3b88c41bbe0eaaa3U,
  0x3d18a36cbc66879aU, 0xbd3bd0aebcf70c63U, 0xbd0282e73d7e4229U, 0x3d47a6613dd002e2U,
  0x3ddf1d97bd7d6479U, 0xbe8c67753cf0c389U, 0x3ea3b520bdb60062U, 0xbc7b52403dab2688U,
  0xbe105358bc9cc826U, 0x3ebc88103ee80a24U, 0x3e1445fbbd407da7U, 0xbd887929bd4f7aa2U,
  0x3dd05ba53ca465e2U, 0xbbd5ea2a3d637b49U, 0x3e31bf823d577f81U, 0xbe397c3e3dd9793fU,
  0xbe102f5e3e2fc310U, 0xbd89fbd1bc1f60e1U, 0xbcb0ad6b3db33f38U, 0xbd12e71ebd5ad595U,
  0xbb8b3b4dbca059dcU, 0x3cede1b53da9273aU, 0xbabea5e2bc7c30d4U, 0xbcb2d7763dfad9dfU,
  0xbd2d42abbc250955U, 0x3e764dc93ce8ddcbU, 0xbd570091bce4cad2U, 0xbddc544cbc9b8eb0U,
  0xbd8b83a3be0122a0U, 0xbf5086bf3e2da927U, 0xbe0d054ebde150d6U, 0xbe602c943da013daU,
  0xbe14b72fbe5b7643U, 0xbd77a2b5bdfccba2U, 0x3d34c994bdbb6725U, 0xbd05a813bdca20f4U,
  0xbe2a992c3acd03f8U, 0x3d28f4b3bdcbc69cU, 0xbec08957bdbda6f4U, 0x3bf4b2d03abb0f7bU,
  0x3d2463aabd0f8a6aU, 0x3e05241d3da22c4fU, 0xbd803559bc72d7d7U, 0xbe6fe5e13eabb673U,
  0x3d4174523e754954U, 0xbe9e7cd3bd830364U, 0xbca29e213ca39ea4U, 0xbe28e3203db34eb7U,
  0xbd82998dbdc91978U, 0xbde25a4ebd93afacU, 0x3c0154a13e43a0b8U, 0x3d515eb5bd8377dfU,
  0x3dd7cbf1bd99394aU, 0xbdbad951bd7b68f9U, 0x3ebecec6bd6df436U, 0x3d8fac553cbf1f2fU,
  0xbe32359c3dea4a5dU, 0x3e85ce423e4621d8U, 0xbd7ece6a3d87f48aU, 0xbe2a72ebbe0b7ae3U,
  0xbeac0c0fbd1a73f3U, 0xbe210b20bd95de59U, 0xbca4f74b3c1d7311U, 0x3b02c455be05f6a8U,
  0xbe03c38cbe3ab364U, 0x3e1424f03db63893U, 0x3e9648d23a9f6df9U, 0xbe2c8c8b3e273733U,
  0xbc529902bd9995eeU, 0xbe2b20a03e8e5088U, 0xbd34fcb7bce3da7fU, 0xbc1f2818bdad5feeU,
  0x3d885d19bd7f87ddU, 0xbd6f4b133d8d1d02U, 0x3e476fc9bd11a0e0U, 0x3c4bd921be934ab8U,
  0xbc844ccf3de24cdbU, 0xbe523276be33d90fU, 0xbdf522993cb7cf5bU, 0x3d604969be220b3eU,
  0x3c69583f3d6a056aU, 0x3dedabc53d83e430U, 0xbddb919d3db2e338U, 0x3d370784bdd18656U,
  0x3e145e013c4c712cU, 0x3df8a6df3ead309fU, 0x3e8855cb3d3a3276U, 0xbd82c3283dc0e921U,
  0xbe29c062bd99fbc2U, 0xbda1ebdc3b521cefU, 0x3d5ec03ebd6ba594U, 0x3a71a6f53c8aa102U,
  0xbdcd75fabe39a758U, 0xbe0f28b1beca5e61U, 0xbe89dc783e3d33cdU, 0x3e00856fbeb71672U,
  0xbd64e9f0be252ba2U, 0x3d6d97233c19a690U, 0x3e293b39be0e169eU, 0xbe4a9e903ce4bbb4U,
  0xbeae9ec43dba77c3U, 0x3e33da40bd0a1db7U, 0xbe6814d43db9fbf7U, 0xbc3052a83cb0140aU,
  0x3e0d95c83dc5a171U, 0xbdf150613e28bd50U, 0x3da276573e292796U, 0xbd77c0f63e9d8987U,
  0xbd38cb0c3e6c31b6U, 0xbcb19e2fbd9b5fb4U, 0xbe673bdf3da1fbdbU, 0xbd0a6da43daaaba8U,
  0xbe04ed07bd27bc36U, 0x3db0543c3c1b5b39U, 0xbe130f27bda91125U, 0xbe3b4e4dbdffb86aU,
  0xbadb85d4bdf53b02U, 0x3dae08e0be20eb97U, 0x3ced333abd7ddcd7U, 0x3cedf940be07ff94U,
  0xbe0daa253d3392b5U, 0xbca7b9d33da51983U, 0x3d386528bdb62657U, 0x3d1e63b83d3d5d28U,
  0xbded6018bc6e05faU, 0xbe80d5a63d7ed76eU, 0x3ebcfe6dbe6e00b7U, 0x3ca8626ebdcc7be4U,
  0xbd96cc7abc9e238eU, 0xbe9c97a6bd97ede4U, 0xbdd30181bdae3b11U, 0x3bc2a9c3be179820U,
  0xbe2fc2503e014921U, 0xbc8348d1be6de5e3U, 0xbdf1069ebd7bd17dU, 0x3d3bac5abe3634dfU,
  0xbe316842be08d592U, 0xbe5217a0bded7cfaU, 0x3cb49481bc883c02U, 0xbdc63587be6781e9U,
  0xbe3c8f393deb028bU, 0xbdf254313debc2cbU, 0xbddc7072bec2cd18U, 0x3d319878be371246U,
  0x3d2f65d43db3124dU, 0xbc9298dabe07b2b5U, 0x3e39dae3bdd534b1U, 0x3c6eded8bc18d9eaU,
  0xbe955920bd23cfd7U, 0x3e184f0c3ddb8ce3U, 0xbeeeffe8bd88fa43U, 0x3cac568cbce531f7U,
  0x3df206cabcb054f9U, 0xbdd59caa3e2c95b0U, 0xbdf5cb79be1c4d3dU, 0x3d7498d8bea0bf4fU,
  0xbd1568983a4a19b3U, 0x3d6f9efdbe2fdfa7U, 0xbdbb94fabd82c331U, 0x3da3602bbe291e30U,
  0xbd883919bd0ad3d3U, 0x3d7088a1bc9c0b47U, 0xbe5479363e3646adU, 0x3df9b4b93df334bbU,
  0x3e52c522bdd966c3U, 0xbdf416e03d45cb84U, 0x3d4d6e943c9c0ebfU, 0x3af40ec0b959c83bU,
  0xbe478b07bc50452dU, 0x3cfb7f8f3d7d5af0U, 0xbe2183c9bdfa3328U, 0x3cffa17abe135c77U,
  0x3d5728d4bcca564aU, 0x3c5140113d398eeaU, 0x3df1f61d3d5e1041U, 0xbd91fe4d3d61549bU,
  0xbd1eb844be92963dU, 0x3de02b743d1067f5U, 0xbd93e9afbe25f6e2U, 0xbdc21051bde78a5fU,
  0xbe4a584f3e0b77dfU, 0x3dceb1a83cc011b7U, 0xbe9d42e23e171e5dU, 0x3d850311be097ffaU,
  0x3dfece39bb1a46b1U, 0xbdfc79aabe0f8505U, 0xbd33eca03df98ae5U, 0x3d43b6c5bbd2aa81U,
  0x3ced7ea8bd7a5868U, 0x3cf77b6a3e967879U, 0xbd703005be2f2e58U, 0xbd6427a1bdb004a4U,
  0x3cf1618e3e4be2e5U, 0xbd97a56abe0f981bU, 0x3e5acf4fb911dbc4U, 0xbc2b6016bd9becbfU,
  0x3e44ba1f3cb6f19eU, 0x3b873640be9817c0U, 0x3ddfa22e3dbf1893U, 0xbc63f400bbfa59e1U,
  0x3e58a8063d8991a7U, 0xbe8531f2bc295e87U, 0xbdc2d23f3d20c5a6U, 0xbd26cd69be06559cU,
  0xbd00e0583e3d0072U, 0xbcc77997bee58502U, 0xbe8a28993dddd7beU, 0x3d15c48fbd13de0dU,
  0xbdd9970ebe57c862U, 0xbc5e53c93cbcbdafU, 0xbd3f6d2d3de72b21U, 0xbe18404f3c9fa225U,
  0xbdeb391f3cb5aff3U, 0x3ce739993dc9a100U, 0xbe370f26bdaba01fU, 0xbd7b3d66bdcc25a4U,
  0xbdb0d7b5bd445222U, 0x3c983526be147c41U, 0x3d228a773b90ff77U, 0xbc9fb4363e3fe06dU,
  0x3e757d0c3e81c06aU, 0x3d934f85be8f52e6U, 0xbd38a3e53e1930bcU, 0x3bb3e3343d62f246U,
  0x3d03d8ce3bd9acc2U, 0xbe907049bcbea65bU, 0x3db7bdb4bd084fd3U, 0xbd9de89bbd956727U,
  0xbe669308bbf4438dU, 0x3dc7a55fbb489db5U, 0xbd4ba39dbe3f56faU, 0xbbf701b03c035c81U,
  0x3db8a4df3dde5cd5U, 0x3eb4225d3e32cddcU, 0xbe08e0d93e1a6155U, 0xbd1e63733e91f59cU,
  0x3d04a644be01994dU, 0xbdc7f883bd8b5a5dU, 0x3cfe848fbd554f35U, 0x3dd15d7e3c6a8362U,
  0xbe031ca9bd22c8f9U, 0xbe2544753d07b9f7U, 0x3dd3ad81be8dee60U, 0x3c8595b13d15c9f9U,
  0xbde4f9bf3e0cc3feU, 0x3dc044b03de2b220U, 0xbe40afa93e14558dU, 0xbcca55763c5aa35dU,
  0x3e1d0718bd264c09U, 0x3d396c7d3d857684U, 0xbb81af123e08475bU, 0xbd096be13e09cfa5U,
  0xbd21abaa3d901228U, 0xbbef203d3c9521d5U, 0x3e057aa1bd86b01fU, 0xbba1224a3d115b56U,
  0xbe2cbc44bec988b7U, 0xbd796e913e0c3947U, 0x3d403119bcc5d18dU, 0xbd63e28b3dc3a145U,
  0xbe0fecb63d22f77bU, 0xbe8272113d61e9f7U, 0xbe547e04bcf62be3U, 0x3d8b41a93c0bb740U,
  0xbe44892a3e0d6751U, 0x3e2723a9be289b9eU, 0x3e8bd928bd9aee0bU, 0x3d46e63abe44c710U,
  0xbe8a9ff53dec79a5U, 0xbe52981bbe752b9dU, 0xbe6b24a0bea59890U, 0xbb09b3b1bd89ba9fU,
  0x3db74c9dbde73512U, 0xbd684a1cbd96230cU, 0xbdc5d768bdd06beaU, 0x3e1d3bd63c1b0a23U,
  0xbe71fff9bced241fU, 0xbcc9210bbd811ce3U, 0xbe443897be744b93U, 0xbb31fba0be252f8eU,
  0xbdca4923baa3cac8U, 0xbd1f4c59bdaccb89U, 0xbe0654aabe83d6aeU, 0x3cf4dd76be6dba41U,
  0xbdae595a3dbf30acU, 0xbeaa9a1cbee0aee9U, 0x3ddc555bbd97384eU, 0x3cfc0ae4bd879ab5U,
  0x3dd2a7bfbe07ec5fU, 0xbe229420bdb2e4a2U, 0xbd6a1263be169db9U, 0x3be688e23b90ea45U,
  0xbe37e3be3dcff46cU, 0x3dc87c12bb8e9c91U, 0x3b574bacbe817790U, 0xbcb36420be8f050cU,
  0x3e12e132bd6ba2caU, 0xba96764cbe486303U, 0xbd8b09f5bcc23a7dU, 0x3d394035bd67f227U,
  0x3d5ceb123df0a8faU, 0xbe342cf03d64c195U, 0x3db46b88be54843cU, 0x3e17d1653d6afdf8U,
  0xbccf7edfbec14c28U, 0x3d8a85383da35d71U, 0xbd58f16fbda1e70bU, 0xbe1896ea3cfb5238U,
  0xbe48b9db3ddf64bfU, 0xbd51508fbc7236ceU, 0xbe844a2dbcefe859U, 0x3d9e8001bc32f002U,
  0x3d322bf33c2f313cU, 0xbdde3d8a3d3c9a40U, 0x3e39354f3e0c0597U, 0x3e7c9af73e09bfc5U,
  0xbdba82583df57881U, 0xbe74acb5be173ed0U, 0x3e0a7878be34f817U, 0x3dd7736ebe4dba50U,
  0x3c8643abbde71c7bU, 0x3ddfda273cfe1112U, 0x3dd559863daec2b6U, 0xbd1435d53e417505U,
  0x3e57a136bcdab612U, 0xbda3e17d3e023e63U, 0xbd9f06ca3deb23c1U, 0x3d6a2666bd5d6ffdU,
  0xbc4886883ddcf1a5U, 0xbdbfd2a0bdbcec58U, 0x3e170dbabd93f80aU, 0x3d840641be4b3b61U,
  0xbeaed15f3e704d25U, 0xbe08113bbe1857c6U, 0xbd05a9613bb1def6U, 0x3d4e1a54bdbe851eU,
  0x3d3e5ce2bd83f8f3U, 0x3e5020a73d7eb5c3U, 0x3e4e9b89bcde1e2bU, 0xbe482e7a3dd97f69U,
  0xbe20769abd17e340U, 0x3e023cdd3e31efddU, 0xbe54906e3e028e4aU, 0xbca08ee03cedc807U,
  0x3e49446abcde01e0U, 0xbe1b80803d1ae57aU, 0xbd4f799e3e5e2ff5U, 0x3e2d7a6dbc9817cbU,
  0x3d369c16bd986b52U, 0xbeff5b523dd6b1b9U, 0xbda91692bd91bab2U, 0xbdedd13b3c934908U,
  0xbe47d4f8bee55c53U, 0x3def7c87bc44ea2eU, 0x3e8142c7bc177ecfU, 0xbf1dcbacbaa2b5aaU,
  0xbeb64be43db4a43dU, 0x3df521aabd0ec56bU, 0xbe41dc763e419035U, 0x3d67030a3e5376c5U,
  0x3e107ee6bd015e2eU, 0x3c841237bdce0904U, 0x3d9345973caadf02U, 0x3d5edefc3c8cfec5U,
  0xbd5aab1fbe7d0043U, 0x3e4662c2bd80b67bU, 0xbe503ae1bd970ed2U, 0xbe4a254e3ab18ae5U,
  0xbe0968b4be6a329bU, 0x3c939576be496143U, 0xbdda9ea6befb4f4cU, 0xbc3550d03dd2c1caU,
  0xbf06e467be192db7U, 0xbdc7f3debd2385e3U, 0xbd666142bed37726U, 0x3d4e37e2bd6bb49aU,
  0xbcedde93be608596U, 0x3e0fefde3e4dba77U, 0xbefc9af53d83caaeU, 0xbe8d0496bccc9743U,
  0xbd0685afbe60d78bU, 0x3e2a8b72be6a1bcfU, 0x3c0f1de33e69ce3bU, 0xbdb45bb7be0bca16U,
  0xbdfe5f28bda10fe9U, 0xbe2631a4bc6f35e4U, 0xbe172266be94d330U, 0xbd629bd6bdcdbf9cU,
  0xbe83cc32bd700bf2U, 0xbe5498f5be21633fU, 0xbebfe3d9bea83e78U, 0xbb931a30bd6ca2b0U,
  0xbd1ca0953d8de4e0U, 0xbb7081e6be402ba2U, 0xbd8eb85cbd19d153U, 0xbdfed1b03dc8d6b5U,
  0xbedc31c0bd853648U, 0xbf41cead3e2af4e4U, 0xbc938a123b86e9a8U, 0xbe8ec49e3e441c37U,
  0xbe9e6fc0bf48b44fU, 0xbe070878bea5dfffU, 0xba7925e1be172eadU, 0xbef461a5bd5c2ef1U,
  0xbe00bb6abdcae456U, 0xbc94990fbe2338f2U, 0xbdc43837bdaf2536U, 0x3da8e9113d4f94f7U,
  0x3df53911be05bcd4U, 0xbe95e4febceea8c2U, 0xbd080d243e5dc391U, 0xbe757f3fbe1f9f8cU,
  0x3e4e25d23d9469ccU, 0x3e64db693d9f4888U, 0x3ecf61af3d078f72U, 0x3d4ba19e3ce7f1ceU,
  0x3dd0bd983da35490U, 0x3e0234e2bd35dd37U, 0x3e3713e6bd90a413U, 0x3e9ed77fbd9b147dU,
  0x3ea94bf63c873571U, 0xbe2b3c8a3daac212U, 0x3f1c2d81bd5d28f0U, 0x3cbcccac3e017096U,
  0x3c26ef533d67ad59U, 0x3f1a81d03f1744e7U, 0xbecc0f4fbc2d53e1U, 0xbdb21b14bd6224a0U,
  0x3dec15fbbe3c129fU, 0x3e8d90e23e920640U, 0x3dbed3c83dff2a41U, 0xbc7d14d2bc96e103U,
  0xbcb8dd75be190bb5U, 0x3df14be73d83fc52U, 0xbdd3a17ebbae62e4U, 0x3e06c5103d4aaebcU,
  0x3dbd1b0bbca154d9U, 0x3c203d333e224149U, 0x3d4c97723e870a64U, 0x3cfa3d803e99c02eU,
  0x3e1e9dafbdc40a63U, 0x3dcc68bd3dfe949eU, 0x3e49ad553db4f4c3U, 0x3d0119153e4c383bU,
  0xbe93c856bc8e7f43U, 0xbe698dca3e0f54eaU, 0x3e3aeb323e0a5cdfU, 0xbe29a19f3d340d63U,
  0xbdbeff61bea09810U, 0xbe994bd1be9af06cU, 0x3df2e54bbe4521fcU, 0xbdb59f09be4dea60U,
  0xbeab40753d4b87caU, 0x3d3df039bd733cbfU, 0xbdcf23c3bec906b5U, 0xbcec4aa0be852c2bU,
  0x3cb0d6203d415099U, 0xbe262d403d1f309dU, 0xbe0292a539ec91f4U, 0xbe8c2e37bcb41518U,
  0x3e143aea3dd28d64U, 0xbd3aba13be8cd471U, 0x3d6b99953e080820U, 0xbe092959bd8f6927U,
  0xbdd8a49f3d7d37caU, 0xbdb5f922be2f1d54U, 0x3d2258183e168badU, 0xbdca7133be5b7774U,
  0x3ec4c342be1e7b93U, 0xbde536f33dc2835aU, 0x3f181fac3e5fd112U, 0x3d8c8f513e16566fU,
  0x3ce71b33bda79b8fU, 0x3e9981a3bcbcbf51U, 0xbe8284273e1ebe0fU, 0xbe59d61f3d6fbe6eU,
  0xbb6550f4be245a74U, 0xbc4e60633e0ea25cU, 0xbe4777f33e198e17U, 0xbe051bb23e10167eU,
  0xbdd70bf43c77a7f4U, 0x3ddeff1539cbcd99U, 0xbdf4e52cbe12eb27U, 0x3d509c5dbe3e6a46U,
  0xbdd800acbd9b5d9eU, 0xbd0fead4bd3cd5afU, 0xbe4ad6fc3dbcf7f9U, 0xbc719dd83d9f0662U,
  0xbe494fefbdb17f76U, 0x3e1fba673dde6920U, 0xbe604f59bd35f61eU, 0xbe300fe33e5246b1U,
  0x3d7175733d892d28U, 0x3e725e0d3e0741f6U, 0x3c886c1f3d00cd01U, 0xbe296221bdaa0b39U,
  0xbcc91c003cd81d39U, 0xbe1fdc32be48b3dcU, 0x3d8355033b7b1a67U, 0x3a81ae7fbdb57b54U,
  0xbb346c6bbc9bff98U, 0xbe48020ebc958a2eU, 0x3c54b5f9be099f0bU, 0xbba1e4503d038f17U,
  0xbe273f1f3c6b2bc9U, 0x3c4e44bbbe74b6faU, 0xbdd60632bdb627d2U, 0xbdb188a3bd14758eU,
  0x3db9f0543e1d8059U, 0xbda27c38bdb64a5bU, 0xbe2e9d89bd3d8b42U, 0x3d31b329bc1da38aU,
  0x3d3fe5373e27a3eaU, 0x3d2b7bc1bde297efU, 0xbdc9edde3d1358ebU, 0x3d09b3f3bc8e6379U,
  0xbc14dc0fbd67faf3U, 0xbcdcdf6fbde7d217U, 0x3e070549ba865963U, 0x3d334d02bda98340U,
  0xbdbec63c3a85126bU, 0xbdcab15f3c5097acU, 0x3cda2669be7df04bU, 0xbda274c83d7a8948U,
  0xbcc4440fbc9876cbU, 0xbdb56d7f3ceff33fU, 0x3e400c433cf40e76U, 0xbdb3a5503d7a6e05U,
  0xbdae0d983d5a6b6fU, 0xbdd732cdba5b191cU, 0x3e3195e0bddc7242U, 0x3d8930cabc162b8eU,
  0xbc9662473dccdcb5U, 0x3c5fe2003bf943daU, 0x3df54551bd93a23eU, 0xbda3f930bd7d18f2U,
  0x3dfaf7fb3da336caU, 0xbc544333bb9a5d70U, 0x3de4a2a23d86b278U, 0xbe0ac730bd182cc9U,
  0x3d1ef22d3d2ab8aaU, 0xbd6ea1c6bd11a06aU, 0x3b252712bd9787c2U, 0xbddfe61bbd77bc2bU,
  0x3dd84fc93de96bf1U, 0xbd8d608ebde09356U, 0xbe1e3f743c127cb0U, 0xbc857eaabe324bb8U,
  0xbd54adf23d1a54bcU, 0x3c59de7fbddfcbd7U, 0x3dc2fbae3c70fb06U, 0x3d247e90bd1ad0a7U,
  0xbd6d5cb63d3b073aU, 0xbd61e45e3d97602cU, 0xbd19db04bdad95c0U, 0xbd1a66f4bdfd8ea4U,
  0xbdba9b09bc29aff3U, 0xbe48a71bbcc453f1U, 0xbe2c0ae7bc9dc41bU, 0xbc3ae2cebd7bb53fU,
  0x3d8455fa3e231af0U, 0xbdbf06aebd311222U, 0xbd42251bbc9064bbU, 0x3cccae703ce97c3eU,
  0x3d8614ad3cd8e1ceU, 0xbdba4355be1cf366U, 0x3dcb7bb4bd7e0316U, 0xbd871743bd9f9a8dU,
  0xbdcd0203bd495ea3U, 0xbdba9e03be6f0282U, 0xbd34ba6ebdd07c4fU, 0xbcd91b2bbdf49524U,
  0xbdeb215c3d251439U, 0xbd14550ebe601ea8U, 0x3d17e0763d00a598U, 0x3dd0fe7f3c822cf5U,
  0x3c347a833dcfe487U, 0xbe5692b73d1f3240U, 0xbd47efec3d284446U, 0x3d36ff353b1833c1U,
  0x3d7cbedc3d9f37feU, 0x3ddbdb06be15ac00U, 0x3de8d6ebbe0ae1aeU, 0xbd981616be897026U,
  0x3d8794343d7e18d7U, 0xbe82b8bbbeb73eeeU, 0xbe22c5e43d2f3fceU, 0xbd83965b3cf8d675U,
  0xbda976103b8bf9ccU, 0xbdd2bf483cc7449cU, 0xbe7b50c0bd966f80U, 0xbd4b5e25bd013554U,
  0xbdf4cabe3db82c5eU, 0xbdcbd8cdbe17e9efU, 0xbd5ae0ee3d86bf9cU, 0x3d56fd24be6760a1U,
  0x3dc05f8abd6ba8bbU, 0xbe0026e0bd3130a8U, 0xbc540886bd5df14fU, 0x3d6a420abc61881bU,
  0xbd66e3cb3c33b9c9U, 0xbe3333b7be8051eeU, 0xbd2f32d6be1d7312U, 0xbdad6e44be186bb9U,
  0xbdcf62b3bdd835ebU, 0xbde9d856be3f6400U, 0xbed88b0fbd278487U, 0x3dd56308bd645f7cU,
  0x3dd2f2eb3e0dfd11U, 0xbdf8c0743db2c76cU, 0xbe3dcc5e3d9e52beU, 0xbd9926e8be158062U,
  0x3e030173be41b162U, 0xbe274a91bdd63ec8U, 0xbd81ef8bbdc82060U, 0x3d75a87abe376cefU,
  0xbde988e1baceed7aU, 0xbe817ad1be90a944U, 0xbdd3e986be4ea13eU, 0x3db3bc00bcd72ba3U,
  0xbd960f18bdb902a2U, 0xbe1c3e66beb1d3a2U, 0xbdcecc97be9c09e5U, 0x3e89707abdbcffd1U,
  0x3e0cce1dbd751434U, 0xbe6dd2093e1ed45cU, 0xbe6d4c2bbd8c7594U, 0xbc9127c7bdcdd485U,
  0xbd8536e1be1e9970U, 0xbdbd7402bde9ce6fU, 0xbdb5a2f7be899e68U, 0xbda339f3be1c0137U,
  0xbe4615d4bcf529d0U, 0xbe2f5ceabeaae74bU, 0x3d062f4dbe4a6177U, 0x3e0c1eec3c1b0647U,
  0xbdbcfcc33ce02d4dU, 0xbe3d983dbde9f6bbU, 0xbd569fe83cb58d32U, 0xbd3603c4bdce87d4U,
  0x3cc2b1aebec11e89U, 0x3dd08bda3de9e05dU, 0x3e2200353dd046c1U, 0xbeb509793b956d84U,
  0x3c4a1d23bcee8ba3U, 0x3e00b69b3c947544U, 0x3bc313ea3d05eb79U, 0xbd5ea2d0be02b0deU,
  0x3d99dac7bda0c308U, 0xbdbb9971be7b7113U, 0xbd0245a2bb3d3296U, 0x3cc5d8babd0dbc32U,
  0xbee5c239bebf5a3cU, 0xbe3faa743da96eeaU, 0x3e898aba3d572191U, 0xbe9c67383e63915fU,
  0xbe8555813de3fe1fU, 0x3d14252ebe43a7e3U, 0x3cd20e71bd12316cU, 0x3d9d19babdb37eeeU,
  0x3cb422ff3d413920U, 0x3c9d6537bd6db2d1U, 0x3e5d9aaabcc825c4U, 0x3d23f3aabca9e659U,
  0x3de44635bdd91fd4U, 0x3e0339473d824e81U, 0xbdde8dfa3d2348d9U, 0xbe272025be01e25dU,
  0x3e0f933bbc89b337U, 0x3f0a17b43e35cfe8U, 0xbc810feebe4e90e2U, 0x3d2ff1b83dad6b16U,
  0x3e31f7923dc07f2cU, 0x3dec6f80bd870a78U, 0xbf035ebebdc460eeU, 0x3ea5bcb2bdfa92eaU,
  0xbe4cb875bdca7462U, 0xbe989d78bf0122ecU, 0x3e6b1eb3bec9a2bcU, 0x3d876f1bbe35e46aU,
  0xbe1d4ce2bdad4f6dU, 0x3ecf3a593e7f1f37U, 0xbde5027abe1bfd26U, 0x3bb3b9c2be8a4989U,
  0xbdfa8388bd53ce58U, 0xba0be4303dcb7585U, 0x3cc3ef98be648097U, 0x3b2d7f7b3dceb442U,
  0x3cc2a73abe3370dcU, 0x3d9a01b23d4c11f9U, 0x3cefb6fe3cc65c21U, 0xbe36502d3e847c8eU,
  0x3c9c812d3c930420U, 0x3dec05903e32d742U, 0x3be43c51bdd19b78U, 0xbd60aa6b3c64d011U,
  0x3daf82ffbdce77dcU, 0x3e078c873bb159c3U, 0x3db5f54a3cda1d0eU, 0x3dbaa6e0be1be567U,
  0xbe7e8b9fbeb01c34U, 0xbd49436ebd1e3202U, 0x3e2b0a05be2fa909U, 0xbe50bd70bda46ea0U,
  0xbe061e443e48840dU, 0x3c549074be464096U, 0x3e2ae83fbe5c814dU, 0x3dc3edfabdcca2faU,
  0x3e1a13c939aa4e22U, 0x3ce9762f3d67c58dU, 0x3e700711be294505U, 0xbd64ac16be2dbaf2U,
  0x3e0824a4be95c453U, 0x397209b13df42e2eU, 0xbdcc9399be0c24deU, 0xbe6e2507bebb3685U,
  0x3e6efad93e8c9266U, 0x3e14d36bbedba36cU, 0x3e245ba8be86b35aU, 0x3d0a54f43d05cec5U,
  0x3ded40793e92579dU, 0x3e1152f03dcbed13U, 0xbd6e12e23dcac5c2U, 0x3e920294bdbf9ba8U,
  0xbe46cffc3e243f19U, 0xbdb658e3beaec059U, 0x3e232ed7be703c75U, 0xbbf6dd30beb5c9c3U,
  0xbe035b323c601b20U, 0x3e95ec0f3dcac366U, 0xbd049c0abe15b6aeU, 0x3e28fcbbbc9d9d86U,
  0x3d474a98be143bb2U, 0x3c9095973e7653d6U, 0x3ee08b3cbe8272bfU, 0xbd650dbb3cc324a6U,
  0xbe383817bee41121U, 0xbcd02a723c3c3a78U, 0x3d845a9dbe9385ccU, 0x3d890829bd0938fdU,
  0x3d863db33dc3e6e9U, 0x3e38f9aa3c0f4bb8U, 0x3e1497a6be8b34ebU, 0x3d4e98563db73425U,
  0x3e059fe9bd324c29U, 0x3d5132b13da9c6d0U, 0x3e62d1a33ea17d13U, 0xbabf95c8bea78fc7U,
  0xbe03404cbd94798eU, 0x3d130ab43ecc2761U, 0xbe0c78d7bec8b07cU, 0xbdd351ec3e27679cU,
  0xbde3949b3d4b258eU, 0xbc916a0abe262807U, 0xbb8462eabea749d7U, 0x3d459b51be8d9b97U,
  0xbd39cd28be01005aU, 0xbcd98d55bf012c02U, 0x3cbc4c96beab7888U, 0x3d7abb86be852f69U,
  0x3d505c2bbe288852U, 0x3d8cf5a7bd1bbbfdU, 0xbe5b571f3e619102U, 0xbdcd68d6be50107fU,
  0xbdb2e50e3e20add0U, 0xbdf3b528bea7f952U, 0xbd8083043d89b6bcU, 0x3db311803db0d066U,
  0x3e6a39fa3e90c35bU, 0x3b26eb753e100edcU, 0xbe29ab5d3e3257f9U, 0x3e3fe0aa3c2a04f3U,
  0x3e8ab2223d559595U, 0xbd12b35ebd725c85U, 0x3d2b01da3cc34ec1U, 0x3d4e7c8abe5407a0U,
  0xbded99f73c3d1978U, 0xbda16b683dce0000U, 0xbdcf48cbbe13dbc3U, 0x3dea3b0cbe0f7832U,
  0xbdf702b1bc491feeU, 0x3d8b412bbe6eb877U, 0x3d02b42f3e4a3591U, 0xbdb1efa13cb23a07U,
  0xbe02d238bcf9a505U, 0xbdc0bcc9bdb56e56U, 0x3d3d99cd3cb05e1cU, 0xbe1044943d92af35U,
  0x3d97b9dbbd8b605aU, 0xbddb4563bd007d00U, 0x3c20f12a3c787067U, 0x3d65ee723d1e4208U,
  0xbd89e0543bddfdddU, 0xbd0693263db335b9U, 0xbe22dbf7be098581U, 0xbd4706693d58c7e3U,
  0xbe7f20e4be858a1eU, 0xbc1a7e3fbe81f121U, 0xbcde1e1f3d341085U, 0xbe766a83bcc16958U,
  0xbde04f6ebd9c3d19U, 0xbe2f1db5be42b439U, 0x3de558cdbdcb65dfU, 0xbe8362713d751067U,
  0xbe4a0e5bbd0c781dU, 0xbde552b73cccce06U, 0xb98cb478bddd402cU, 0xbd6b05c63e05e83aU,
  0xbd950a50bbb08bdbU, 0x3dfb19f63d5c8e69U, 0xbe1832e6be5e754dU, 0xbea199103d7ffe04U,
  0x3d8cb5acbc4e7e4eU, 0xbbad8511be9fdc40U, 0x3d98d7c5bcbbc36eU, 0x3b04a675bd9d7177U,
  0x3d7c051b3d67c21aU, 0xbe48918bbc6d32e9U, 0xbd4ab928bd17ef19U, 0x3ba9091c3c2548ceU,
  0xbe9d5208bdce9256U, 0xbd98c993be4f9738U, 0xbeeef012bdc1f456U, 0xbda0669bbe2dd627U,
  0xbe947781bdca8f0cU, 0xbd095026bdbc04c6U, 0xbd9c506fbc8f9528U, 0x3d081725bd922e0eU,
  0x3d20a4b73d45e317U, 0xbd99eea3bebf4c82U, 0xbbdbb4393e024c7eU, 0x3d1294d1bc275a8cU,
  0x3d58eea93d519c15U, 0xbdd75944bd7087baU, 0xbd09ad263dc58f6fU, 0x3d907644bc79162eU,
  0xbe4b55563d384f1eU, 0x3e0c4569be03cc26U, 0xbdd47eb7be3d91c1U, 0xbd2e1fa6be1d8475U,
  0x3cd7dbca3dc3389cU, 0xbd7d9ed53cbd7135U, 0xbb3f4257bc4e2f52U, 0xbdf5bf283c82f08eU,
  0xbd499887be189ee9U, 0x3d54f0293da84b27U, 0x3dcaea683dc58ecbU, 0xbdc866363e1aa64fU,
  0xba1596353c005f8aU, 0xbe70e427bd45642dU, 0x3e54734cbf017e1dU, 0xbc8f900d3cf6a2bbU,
  0x3a26d1e9bd34590fU, 0x3c92cbbcbd8c171cU, 0x3eab4182be84ab41U, 0x3cf87dccbee150c5U,
  0x3d5946c8bcc56d79U, 0x3b6ad8203db5c058U, 0xbe19c30c3df54491U, 0xbe3f903dbd6ce42dU,
  0x3b159082bcbb0762U, 0xbc8c6d1dbe994121U, 0xbd5c2b77be830a6aU, 0xbcbf28c9beb96776U,
  0x3d5a19b83e12cc7bU, 0xbc5df89bbe0f1eefU, 0x3bcec922bbf86267U, 0x3e38a78c3d8fc7faU,
  0xbe7a8c99bd7f1838U, 0xbe4ed870bb99b8f8U, 0x3c5ef46d3d8bffdaU, 0xbcf0d080bdb65675U,
  0xbdece99d3e129220U, 0xbb6b8c5c3db3d294U, 0x3debb7a0be3a83afU, 0xbcc742d8be1be32dU,
  0xbd6e7a893ceddd8cU, 0xbeede98b3dc1bd83U, 0x3da42268bdd8ce9bU, 0xbec8f8b53e750475U,
  0xbeaa2ea0bdbfbe81U, 0x3d96b97fbe995e1eU, 0xbd1368a93da8d889U, 0xbe6bf980bcfedcdaU,
  0xbc9043ffbd057852U, 0x3df01ba43e176aa3U, 0xbe9105b73e2e819bU, 0x3d2461103deef85fU,
  0xbd3551f1bd49ac74U, 0x3e179f9f3df632f4U, 0xbd9d3bb6bc74bb54U, 0xbe84ac8cbdc41d62U,
  0xbce526c13d6068f2U, 0x3e4960a73e334ab1U, 0xbc884402be42311bU, 0xbbd32d9a3e2f8eb5U,
  0x3c17a75f3ddf0a71U, 0x3e23e9d1be11f8a7U, 0xbe245d223dd27bf9U, 0x3e02f30d3d8361afU,
  0x3e9e929dbe671c84U, 0x3dbacf373d5c8560U, 0x3f2f5f0e3dda9aa3U, 0x3d81239b3dedc13fU,
  0xbdc429c3bd2982b0U, 0x3e9f76b93f0ae973U, 0xbe5319b23d81a2e1U, 0xbdfb614cbd9010f8U,
  0x3ca298ddbe38339dU, 0xbdaa7f85bd2deb4fU, 0xbe4f815bbdfe1d66U, 0xbc72e5643d3b4ef5U,
  0xbc5a25903dca2990U, 0xbd2295663d0c2bcfU, 0xbce5c8d4bd984787U, 0x3dc9930a3d84aeb9U,
  0xbe32313abd4e772dU, 0xbda938a9bd6ff0b8U, 0xbe4b2712bc896ef5U, 0xbd6f2f70bd84983dU,
  0xbe1b02ac3e0626b3U, 0xbd388ddfbe1d153cU, 0x3e327949bdadd229U, 0xbe04c6543d814ba6U,
  0x3d609e30bde0c67eU, 0xbea6d3d3bdd842ceU, 0x3cf0b012be9596f3U, 0xbd584d003e22797aU,
  0xbe0a6818bd16eb26U, 0xbe098cc2bdbec4d6U, 0x3da97339bd912bd3U, 0xbd02b730bd6f6de7U,
  0xbea6a285be0e4745U, 0x3c808c5b3d845cb0U, 0xbd9b8e9ebe29102bU, 0x3cfa4760be73709dU,
  0xbdb1f3043cc1bf59U, 0xbda29661bdf42255U, 0xbd5b31de3dbf4637U, 0xbd45966dbea64abcU,
  0xbc5315873dbadec3U, 0xbe5dea303e19a7d3U, 0x3e807974be16ebe3U, 0xbdcd24563dd208cbU,
  0xbd9f2b50bdb3cafcU, 0xbe27167abd9bac93U, 0x3d907d0bbd2e4f5cU, 0xbd8a89adbca9df30U,
  0x3d269adf3d0abc0eU, 0x3d05f1f4be564d46U, 0xbc8ca04bbea74620U, 0xbd7c5280be8960bdU,
  0xbcfe1d1cbc94e36aU, 0xbe4a62afbd830804U, 0x3d06c14c3d9d4c7aU, 0xbcb445b4be61b60eU,
  0x3dfb0bb7be87054bU, 0xbed0def23db54ee4U, 0x3d40f708be5f9db3U, 0xbe4a2b283df5e8ebU,
  0xbe62d2f9bdfac253U, 0xbe2d1466be35da7aU, 0x3d25a762be117f7dU, 0xbe21a36dbc1cbef8U,
  0xbcaf3c5b3c3fdc0aU, 0x3c5539663bd357ceU, 0x3cf63b8bbe64ccbdU, 0xbd5bbba0be30696dU,
  0x3e01e482bd4a7cc4U, 0xbe5c82ee3e10f7e1U, 0x3b45d4f93c660e0dU, 0xbe091270bec55aa9U,
  0xbe3b59833d2e6194U, 0xbe7f28003e464348U, 0x3dcea153be732153U, 0xbba103533a8193b2U,
  0xbdad5586bd2f67b3U, 0xbe07bcd9bdfcca49U, 0x3dc162233c5c9150U, 0xbdd19b9ebe544fcbU,
  0x3dee6b71bcb0a33eU, 0xbd01ef23bbaa87fdU, 0x3e877bc8bdbb302eU, 0x3d0a6716be3236deU,
  0x3e0e91f7bc00ce97U, 0xbe14a722bde6cb6eU, 0xbe2a2502bb254ac8U, 0xbe0040f4be6526a5U,
  0xbda1e6513e1a0716U, 0xbca58adebdf36b92U, 0x3d8608d03d67ad72U, 0x3d8772173daf09d5U,
  0x3d197c463db2ed8dU, 0xbe0f8878bd94daa1U, 0xbd8707913dbff65aU, 0x3d9e61b2bdbc7c92U,
  0x3de67d2fbc4b7bf3U, 0xbb919a38be6c8df0U, 0x3d343f653d09cb78U, 0x3c0548683cb903d0U,
  0xbdc91bd63d549bc4U, 0x3dbd4ba9bce6f9e8U, 0xbe1e5a26bdb307b0U, 0xbca3f4ab3cf9a801U,
  0xbe6a6786bd9b8ef6U, 0xbd99eeff3d73e632U, 0x3d2430363e035e44U, 0x3d8a13f93c310e91U,
  0xbdca3c7abd587cc7U, 0xbdf14057bc8a7902U, 0x3e0837ffbb9cb546U, 0xbe4c48c5bcc3da32U,
  0xbdcd2d373d223646U, 0x3cd5bfd3be91ed31U, 0x3e2481bebe643535U, 0xbd43a350be23859fU,
  0x3e72e4cb3d1e5ec2U, 0xbe811e26be38bccaU, 0xbe41d23b3bf25787U, 0xbd888a133e3340c2U,
  0xbceefae63d46f64cU, 0xbe2e863a3d628afcU, 0xbcaf90c6be2bb5ddU, 0xbdfffc41bde1fec4U,
  0xbe365bddbcff757dU, 0xbd46effabd76f4d6U, 0x3d48ab15bc79e9c4U, 0x3daba46cbd5a6739U,
  0x3e420ef83cdf5ddfU, 0x3d642678be4f1f91U, 0x3e0b44a13d0ddc68U, 0x3d42f346bca19ca8U,
  0x3deba5e2bdc1598dU, 0xbe7298a6be282b7aU, 0xbe4c74bfbd4362d0U, 0xbe02de7cbe2c58d5U,
  0x3d7a0b533e346c4eU, 0xbe15d3e6bdd9fedfU, 0xbc671d673da90619U, 0x3de0072dbde69001U,
  0x3d9a651a3e085aecU, 0x3d21b9233cec35d1U, 0x3dc1c0763da7fc9dU, 0xbd87b96dbe053101U,
  0x3e4dacc93ca38662U, 0xbdd54b143dbc3b51U, 0x3d3469533e2a94d3U, 0x3bd83230bdb40ccdU,
  0x3e0214803e0cd27aU, 0xbe4700edbe8e28f5U, 0xbde940fbbdcb3612U, 0x3ce88735be25caa7U,
  0xbbe349e73e0e78b3U, 0xbe010c67bc87328aU, 0xbe1ddc3d3d802d85U, 0x3c6bf3363c73fa92U,
  0x3dc99bce3d45367fU, 0xbe15790c3d8a63ddU, 0xbd5314003d2b654eU, 0xbd8e03d9be4326e8U,
  0x3dca2feebd34d8f8U, 0x3d811bcdbe8e0543U, 0x3dfd61b4be6b0cc6U, 0xbcd3e8acbe81f6d7U,
  0xbd8ab1b9bc59872eU, 0xbe8f0208bd664ea4U, 0xbe0db338bd9cfff8U, 0x3cfc83593e2dae2bU,
  0xbdeebd63be513986U, 0xbe4b9feabdb728aeU, 0x3cc5233bbde458bfU, 0xbcdf4922bdc50c92U,
  0xbda84519bd227e1aU, 0x3e3125bbbd0bdd55U, 0xbabd54cdbd811e62U, 0xbc8179bf3da93e6eU,
  0x3d812e3c3db1c707U, 0x3e2d3fb43d9cfa49U, 0x3e2060243c37d904U, 0x3d83e2ad3d80546aU,
  0x3e159ed03d9a9574U, 0xbe53aa623c611181U, 0xbc8f1ee2bb645b7fU, 0xbd141107bd314696U,
  0x3cc650cbbacd4cb4U, 0x3d3f94523d4b04ddU, 0xbe253838be777a69U, 0x3d836912be124906U,
  0x3df2172f38eba018U, 0x3dd5cedc3dd54a0bU, 0xbd433b35bdf0b4e9U, 0x3e4a49b23dd46445U,
  0xbe2c0092be047c0aU, 0xbd511629bd0dca53U, 0x3e23c7f73d53e575U, 0x3c5b2a403e0fbbfbU,
  0xbd80e9cd3d51bb92U, 0x3d2a75e83d7e05edU, 0x3dfcf80bbbfde6d5U, 0x3d8578d73c96078cU,
  0x3e916f9b3e2ab255U, 0x3d3d7e253e5c7703U, 0x3e530e8bbe27cb2dU, 0x3df5dce33e02aa16U,
  0x3dedf82839fff2c7U, 0x3e00d0acbc821f4fU, 0x3e3fa0223d23d684U, 0x3dba92983c7b94c4U,
  0xbca673da3ddf228bU, 0x3d93d1563d891357U, 0x3e8804573dbb4a8fU, 0x3d93e633bd9f39f8U,
  0x3e237f6a3e30537cU, 0x3d6fb57f3e32a4c4U, 0x3e0720703d8722b3U, 0x3dcce576bb884ec1U,
  0xbd8ee30c3d0d674cU, 0xbe59beda3bb10116U, 0xbd4df28abd6c6c34U, 0x3cb23aedbbc9a91bU,
  0x3d8d69963eaa610dU, 0x3d1c091fbccdf8adU, 0xbe7585a73c8a6f4cU, 0x3e4b9f8bbd8c644cU,
  0x3e04aea53ccdf919U, 0x3d2f343ebe1a24b7U, 0x3e346819bd770e49U, 0x3d07c260bdd1dc48U,
  0x3c1e8f6b3d01a31dU, 0xbdd2ed053d594f0eU, 0xbe5d47f8bd87ccb8U, 0xbe094f07bd2f233bU,
  0x3e5abfc33ada3f5eU, 0x3e37f357bce3c81aU, 0x3e4d1a273c3af95fU, 0xbc5b5ef73d4be26fU,
  0xbcf0c98b3e84d5e2U, 0xbd7127fa3d965bc8U, 0xbc5ea0ff3de6eefdU, 0x3e8fc2d4bd646d05U,
  0xbd3fdfcc3d8e8694U, 0x3d8d64eebe522602U, 0x3e85ac13bd7ac744U, 0x3d198dda3e10e352U,
  0xbdf5f85b3dcd2a95U, 0x3dccca3e3e1a6fd8U, 0x3e4296bd3d7e9a70U, 0xbceb42783d938c26U,
  0x3e43e92dbca88dcaU, 0x3e501d4a3e1fb11cU, 0xbd965adfbdb1ea60U, 0xbe2849ef3ce20d97U,
  0x3d5b3cd8be0c9062U, 0xbdad6fed3d81707cU, 0x3de02827bd777c75U, 0x3e2e52ce3dcedbecU,
  0xbda465133df0c91aU, 0x3d017805bdc52898U, 0x3e12b5f0be06c074U, 0xbc4b78e83d27a3dcU,
  0x3e21c9ed3dd2db7cU, 0x3d2458de3e12cd87U, 0x3e1788f13dabaa7eU, 0xbd9e0f313bf2c362U,
  0xbe9a3ad5bdebf526U, 0xbe178bfbbe40568cU, 0xbe3bbb833f1a7cedU, 0xbf0f14fc3e08542cU,
  0xbeedb3073e977255U, 0x3d3469a4bed4008aU, 0xbdf6cb95bc621f82U, 0xbe837073bdecb2afU,
  0x3e08beb2be2462adU, 0xbe3dad873cc8278aU, 0xbdca4fa43de48462U, 0x3d507b16bd3c243eU,
  0x3c4f3207be6ecc93U, 0x3e599352be10ce10U, 0xbef4eca1bdbaaec6U, 0xbeee4a943d498d56U,
  0xbe66ddce3d2590b3U, 0xbd8f6bc73e4136b3U, 0xbca308543e7387f5U, 0xbf490f4c3e19da15U,
  0xbea60cc23dee10aeU, 0x3d7fb949beb5562cU, 0xbe0397143dcb4a6fU, 0xbea6dbcd3c8304ffU,
  0x3db47955bddedfe3U, 0xbde2fa043d399f75U, 0xbe82cb603e1749d1U, 0xbcc735363d47600bU,
  0xbd578fb3bddd4932U, 0x3e884ed73e05c215U, 0xbe52cd803cda5eaaU, 0xbeda670f3e41b816U,
  0x3ec4534fbcaeca59U, 0x3e0c4a1f3ed20dc7U, 0x3e863402bea2cc7eU, 0xbf8aa7583e96cf56U,
  0xbecd91c7be8caa67U, 0xbdb78967bf0c2c87U, 0xbeec1b1b3d16ef01U, 0x3d5b6028be3e8d98U,
  0xbe0421efbe84ad70U, 0xbdce16afbd7de174U, 0xbdb13e213da82290U, 0x3d4e111a3dd28bbaU,
  0xbe0ce873bdbc6d22U, 0x3e6dcf3f3eb687a9U, 0x3e0f1a423e5659a4U, 0xbf0f77ebbe3b530bU,
  0xbdc417c23d792e46U, 0x3dc091fdbc9f567bU, 0xbe1d77dcbe25cd81U, 0xbdccf55b3e724940U,
  0x3dbce493bde707c1U, 0xbd01439cbe390582U, 0xbcc7a834bdecfcb8U, 0x3e13fa10be10452cU,
  0xbe6c8487bdd8589aU, 0x3dad9698be95bb73U, 0x3daa7decbda965e9U, 0x3d8527213d2a5d28U,
  0xbd1a5b9cbe0c790dU, 0x3e5644563e00710aU, 0xbeab4d5fbd03ae1eU, 0xbe4915d2be3d4827U,
  0x3ddbb5b1bd3efb48U, 0x3da25e7ebe1f0fdcU, 0xbdf07b35bd86ffeeU, 0xbd8f695a3c8d5d2bU,
  0x3df54b733d6b1580U, 0xbe87656c3b49644aU, 0xbe636856bde63c46U, 0x3e75b2313b9143a6U,
  0xbd4acdf2bc9e439eU, 0xbe318c78be5fb756U, 0xbcae5e93bc4aa135U, 0xbd99a88b3dc2c8e1U,
  0xbd4fa1193c3fde44U, 0x3da3e6acbcfa1d24U, 0x3c1033f8be2991c5U, 0xbdbedba83da7138bU,
  0x3e1a6f7ebd5f4d1dU, 0xbe57261abd64dbb6U, 0x3da7fdedbe193003U, 0xbd82fb39bd013625U,
  0xbdae6398bda9616cU, 0xbab4abff3d0b547fU, 0x3de4ed853e1db8c8U, 0xbdb1c7d53d8eea09U,
  0xbe6915c03b90e233U, 0x3d26f11abd0025f3U, 0xbe9d23fb3e706f5eU, 0xbca9bcf43ea54b8dU,
  0xbd1e9e56bd671380U, 0x3ed8b4153e99d2d5U, 0x3d9125abbd9ad855U, 0x3dc329583bd59019U,
  0x3deef7cb3dbf3342U, 0x3e45f6ebbe15f513U, 0xbe1c7be73d045e92U, 0xbdab5f183c744770U,
  0x3d76cfcc3e0de7ffU, 0x3e0d1592bbaedf73U, 0xbe65a458bc2a3de6U, 0x3e1936193d92f1e0U,
  0x3e833085bc25552fU, 0xbe00cce03e5cd3b2U, 0x3eaab6da3b850f97U, 0xbcbedee0be0a7e4fU,
  0xbdd62dcbbd9fb2ebU, 0x3e928994bcba5623U, 0xbc1ba151be4b454fU, 0xbd8b5eab3bf1404cU,
  0x3df27bb1bb04cbd5U, 0x3daf14033d9e8c41U, 0x3e420057beb7771cU, 0xbc330b46bbc09ba1U,
  0xbdc267843c35e1d3U, 0xbd14177b3d474a6eU, 0x3da7382c3ca7712fU, 0x3dac91e0bde1d43bU,
  0xbe9d02d13d8e9e31U, 0xbcb35bcb3c494741U, 0xbe2ddb103dcb33ccU, 0xbd2a8ca03c607092U,
  0x3c3664783d824312U, 0xbc67e364be0254e9U, 0x3df188b7bcb0839bU, 0xbc6262b1bd81cf89U,
  0xbd6e1a2dbe6d93e8U, 0xbd1519fb3e48e5d3U, 0x3b9edd43be9fa9d7U, 0xbd298a553db3671bU,
  0x3be635343c533d76U, 0xbdaa38fabcb0b198U, 0x3d82f601bd9e7e8eU, 0x3ddbf820bdd5e795U,
  0xbd73b7863d29ba6fU, 0xbc6da03ebe5bf0d4U, 0xbd6f2acbbd76b6e6U, 0x3cb306a03c62d625U,
  0xbe1603a7bd52602fU, 0xba5244863de457a8U, 0x3c205bf7be5b8ef7U, 0xbdaae91bbe317867U,
  0x3c80b7efbd973f67U, 0x3d2b2cd3be2ca871U, 0x3e2e448bbea76c83U, 0xbd1dfd8abe62754cU,
  0xbe006360bdeef4aaU, 0xbdba4bc93c7133a1U, 0x3da8c55dbde58f83U, 0xbdddb064bceda9d8U,
  0x3d112e98bdb049fcU, 0xbd536be53c7f8226U, 0x3c8ed68dbdc14416U, 0x3d93c45d3d2bf194U,
  0xbead4852bd76a550U, 0x3ccfe242bd1767a3U, 0x3d89c11f3d47bcc0U, 0x3b5f322c3d048213U,
  0x3cc61229bdde482cU, 0xbc044f3d3e61d15fU, 0x3e489f50be5b8921U, 0xbe95d0713e5a0f21U,
  0xbde38dbfbe0920a4U, 0xbe1ab5d0be78d387U, 0xbdab37a53d936665U, 0xbdb8af1ebddd60b8U,
  0x3cc651023dc577beU, 0x3d83f0013a85e887U, 0xbd8649bcbc9bd14aU, 0x3d6b700a3dc12545U,
  0x3c288442bc36f949U, 0x3e2d3061bd777cecU, 0xbe20cda03cac0943U, 0xbe38c249be6b65c1U,
  0x3ad8075abcdb123eU, 0xbe0d21183d394273U, 0xbe5d9b3bbe27c4dbU, 0xbdc55e91bd98dacbU,
  0x3ba1b6223dcc5c7cU, 0x3cf4a0743c391475U, 0x3d9ba040bd035814U, 0x3d41bc91bbf88c15U,
  0x3e2f7737bd94ae2eU, 0xbe1e699dbd97db3bU, 0x3ebc1936bd2b823aU, 0xbd9a3508bda7a6c7U,
  0xbd72c776bc97d728U, 0x3d88698b3dcf096eU, 0xbe12f1213d05ace0U, 0xbd89e3ebbe8b39f4U,
  0xbdd28a5ebe327a4bU, 0xbdebfc6d3b93bfffU, 0xbd9f7dc6bc5e5eeaU, 0xbda983533c941885U,
  0xbe329881bb8430d8U, 0xbe01b37fbe23f4aeU, 0x3d37dd1fbe82c9dcU, 0xbdfc5dfebc90a9a6U,
  0x3dec62b5bdcdf2f5U, 0xbda21a1bbbbf2bacU, 0xbdd0e503bd62b4aeU, 0xbd53f57bbc071244U,
  0x3da015d23d095a4bU, 0xbd916958bc9fae36U, 0xbbb3c35d3d81b988U, 0xbe49790bbe021a90U,
  0xbd01aa083e5f1d20U, 0xbe5026f73c7aa977U, 0x3dce3bdbbc593360U, 0x3e0e5c95be01dd47U,
  0x3e0618843ea2bb6dU, 0xbdbac9c73d64d278U, 0xbd53b96d3e38f7d6U, 0x3e413240bdfc376bU,
  0xbda9a9ff3de0a943U, 0x3e1483633d8b494aU, 0x3e09afafbdac380aU, 0xbd8d4340be0c110aU,
  0xbd1af445bd26339cU, 0x3e274f6fbbf075c2U, 0xbdb43a4c3afac879U, 0x3d92cb0fbe734462U,
  0xbd898925bd8275edU, 0xbe88bdf7be5cff8eU, 0xbe33f691be17b3afU, 0xbdbfe06ebe2827e1U,
  0x3ba27fa2be05a2b5U, 0x3dd89bf23d814cccU, 0x3da5c7edbe2c2d47U, 0xbde8d45c3c99944eU,
  0x3e176ff13da6dae3U, 0x3e5425103d5daaf8U, 0x3c80f8a2be1c689dU, 0x3d7d5cc2be46b149U,
  0x3d92f3febc74bdfcU, 0xbe2ba7efbd498d45U, 0xbd98b82a3e2ee532U, 0xbc4fbd4ebdc24b97U,
  0xbcb786f8be4c5315U, 0x3c14d62f3df70471U, 0x3cf2e84d3eb43e29U, 0xbc214db83d582a27U,
  0xbdb74a9cbe52b6eaU, 0xbdf6a4ca3a3f72f6U, 0x3d9cdbdcbe7bc2a4U, 0xbe8cd5543a86ed78U,
  0xbe5b7760bc062266U, 0x3def9a3bbdcd40c4U, 0xbe2fd9bcbeb5fef8U, 0x3d814fa5be48189bU,
  0x3d657dcfbdc6e7dcU, 0xbce288183e09446dU, 0xbdb981143e0b60dfU, 0xbd589cb53eb25eaaU,
  0x3d5af5a63dad1f90U, 0xbe0bc3263c9ecf9bU, 0xbd54e402be10a7cdU, 0x3d82d45ebe24304cU,
  0x3cf42d393d5b4350U, 0xbe3f1e05bc1889b3U, 0xbda2e47d3d9e2cfbU, 0x3da33e03be39fd01U,
  0xbd671a8d3c367980U, 0x3d38ce8fbe1dd796U, 0x3d02b3bdbe2eb8c2U, 0x3d8f380b3d5caf4bU,
  0xbdc660183dad77bcU, 0xbe8eaf80bebafc2aU, 0xbdcfccc83ce192f3U, 0xbbff6c69bdbb42d2U,
  0xbdc99623bdc98b1fU, 0xbd9e6a36bd9e8b4bU, 0xbe421d9b3c940125U, 0xbd29a8f3be169a02U,
  0xbdeb802dbdff2fbcU, 0xbd094e8d3d4bf6f2U, 0x3c178e95bd26671aU, 0xbe1916e1bd8846a6U,
  0x3ce8115e3b024e03U, 0x3dfe8f3ebd928676U, 0xbc5b424cbd94af60U, 0x3d8ef94bbca0ee27U,
  0x3df6ab96bd543658U, 0x3bd84bfdbd9aaa3aU, 0xbcca1dca3d1acb43U, 0x3dd7e2cdbe3aea1cU,
  0xbc26d64f3dcaa0baU, 0xbe894e6b3daab91eU, 0xbdf882ebbd841a3bU, 0x3d95796fbc31adfeU,
  0xbd4221f2bccee3faU, 0x3e68e6b0bd9fe996U, 0xbde3c905bd68959fU, 0xbc9216e6bd8e4ea6U,
  0xbe189f573da16834U, 0x3deca9783d3077baU, 0xbddb735e3e4f6d79U, 0xbc5026283e5ed54bU,
  0xbbf9f8efbd8aac5bU, 0x3e26bbaa3e8115a5U, 0xbe3a1b383d95d2fcU, 0x3dac292dbdd33faeU,
  0xbe013f06be5c7869U, 0xbed42dcfbe0396c4U, 0xbe06af8dbe242a6aU, 0x3e12f742bddf5141U,
  0x3d270b8fbd972d52U, 0x3e071fd63d562902U, 0xba0abd56be2ebc96U, 0xbe3b7e653d12f0a8U,
  0xbda0fc51bdb6b2f0U, 0xbe660a14bd224f2eU, 0xbcd76d193d87fd6fU, 0x3d22c8eabe79e40dU,
  0xbd203c3abd957990U, 0xbec8f291bdbeb94cU, 0xbdc66955bdea3e6bU, 0x3d0608ccbda26a0fU,
  0xbe77c2e23d481c21U, 0xbe3a94e3bce71d45U, 0xbda486dbbe4812b6U, 0x3e5cef8bbe047f7fU,
  0x3bd06fb0bdaf4ed0U, 0x3e1ff975b7f63c3aU, 0xbb0e88cdbde5044cU, 0xbe63a47bbd4f89bbU,
  0xbd61647bbe3d7dcdU, 0xbd6076043d6ca44bU, 0x3c18ed353dc02735U, 0x3d961de9be3baf61U,
  0xbd727ab0bd8fc10bU, 0xbeb7559dbd5f38c6U, 0x3c30602a3d9b6017U, 0x3e47a450be2fb7bcU,
  0xbe89674f3cac73d8U, 0xbf0a0067becc9230U, 0xbeb67e6bbebb8e1bU, 0xbe8cfe7dbe7ab7f1U,
  0xbd31f0d7bd9f486aU, 0x3d83c348be87151cU, 0xbe2a5b243e25b56eU, 0xbe90814abd9b80e7U,
  0x3dc3cbeabe4c2d6eU, 0xbdcd32843c9b2d6dU, 0xbdb7c76c3de0c82cU, 0xbd96a35bbd9dc4ceU,
  0xbe780f12bd56750aU, 0xbe5587a93c17d833U, 0xbdeb2858bdc8c098U, 0xbeb40b17be848628U,
  0xbc46c405be209adeU, 0xbe89002cbdea961fU, 0xbe9c96e8be968f3dU, 0xbe4a141c3cf27f80U,
  0xbe038c61bcd3b15fU, 0x3e64e527be439dc2U, 0xbda7db943cd695cdU, 0xbe480a53bd080c3fU,
  0x3d23c166be661964U, 0xbe9563cbbd07b0daU, 0xbe0a77e93e0b8413U, 0xbcf5b1163dc2dfbfU,
  0xbe3cde8b3cee2437U, 0x3b13b3a1bdb3d1f9U, 0xbe085dcbbe0b0cd6U, 0xbe58af1fbe23d41eU,
  0xbe2cb442bdd7384fU, 0xbec23959be6ec39aU, 0xbd2b1620be5a2a93U, 0xbd98dccb3d649052U,
  0xbde20052be1cbe57U, 0xbc019d94be055d75U, 0xbe195aed3d0be9dfU, 0xbcd3c8b0bdf5838dU,
  0xbd5937b7be078cfbU, 0xbea04790bd8fe2efU, 0xbe31281d3da96bb7U, 0x3cdae2403d6e5657U,
  0xbdd849d6bd4e9064U, 0x3d40582e3d2f9bdaU, 0xbcb43e513d660b19U, 0x3c3eaed6be163264U,
  0x3d57bf1d3e0e4813U, 0x3d239fabbe5653bdU, 0x3ccfd20b3d991988U, 0x3dee99303d96dcbfU,
  0x3e3181073db90fa8U, 0xbbf2e7fbbcf32511U, 0x3c64b4493e0b99e7U, 0x3e751382bcf9bb65U,
  0x3dc7a1743da07e18U, 0x3d44e280bd4cc2b1U, 0x3c030e623e202f70U, 0x3c1294a83e1dc212U,
  0x3d423575bd963d9bU, 0x3f03708d3e8a71ceU, 0xbe374d27be112ebbU, 0x3d020e183e3a44caU,
  0x3d0ac203bd8d14a3U, 0xbe17b9cb3d917a2cU, 0x3d0359f93db01d1fU, 0xbdf7d8dcbb1b18a4U,
  0xbcea2f4cbe21f149U, 0xbe0527923d061dfaU, 0x3ddfe13abd2b7366U, 0x3e17a00fbd0b3df8U,
  0xbe03c4943d21e404U, 0xbd5539583e3fb3b7U, 0x3e493282bd448a7fU, 0xbd56f9fbbd9e1ff5U,
  0xbc8c6279bdede31fU, 0x3d16d03dbd04c1bfU, 0xbe60e3043d450cdfU, 0xbd4fcce43d44b03eU,
  0xbe6be0e0be5b3372U, 0xbeed8a343dd8cdafU, 0x3d6ab690be58e1ffU, 0xbeb2e95fbe2292feU,
  0xbec54655be10ed02U, 0xbe0509babe198924U, 0x3d1c1f86bdf5163bU, 0xbebf3757be35b005U,
  0xbd795366be0e8cc8U, 0xbe55b8e4bc930b17U, 0x3cb62b28be0d25adU, 0xbb4ca3a0bc320e2dU,
  0xbe025815bd926fe6U, 0xbe5c902dbe365672U, 0xbe054d46be395262U, 0xbe1c3057be1edb76U,
  0x3dc109283e4fe7a6U, 0xbdfd3b20bdafdf1dU, 0x3e0184263e201feaU, 0x3e24c8f13d38c2cdU,
  0x3e2ec55f3e227ef4U, 0xbe530c0d3d2a5b9bU, 0x3dcc45673d8992e5U, 0x3e0d9886bc0f9807U,
  0xbc61cfc83e04ccc7U, 0x3dc18b5d3cdfc97aU, 0x3e918264be29e715U, 0x3c4ae9403bbed065U,
  0x3da2a7db3da2cc46U, 0x3d8bb2733e62a7aeU, 0x3d70f59cbe773a66U, 0x3dc8dd333d055a31U,
  0xbdee066c3e2dd294U, 0xbea4da113dbdc919U, 0x3dfff81c3db4d532U, 0x3d1385143d69459eU,
  0x3bda7ed4bda1e4d3U, 0xbe5ebff2bccf9a8dU, 0x3e27fe843e1cbc26U, 0x3daa74833d3be3c7U,
  0x3cef366e3d662840U, 0x3d673d6b3db0e779U, 0x3eab1d7ebe73430fU, 0x3d433e86be346532U,
  0x3da39d8c3c813548U, 0xbcff0f7ebe896435U, 0x3e29e83ebc5d3afeU, 0xbd5c724abd8552b3U,
  0xbe02bb36bda1e254U, 0xbe414adb3d388694U, 0xbe5b850abe3da73cU, 0xbe7192c6be1a91f9U,
  0xbe185b66bdf0e132U, 0xbe8d362dbdaa3ec5U, 0xbd991a4ebe62f7d5U, 0xbe5458bdbe6cf270U,
  0x3cea4fe3be2b5cbeU, 0xbe1e1502bdd97146U, 0x3de0cf8abf1aa6baU, 0xbd597570beb109a9U,
  0xbd5edf62bd3af9aaU, 0xbeae0cde3d1bbffdU, 0xbe3fb38ebe130f67U, 0xbe08816abdd82fedU,
  0xbe17a26abe33951eU, 0x3e2b1b35bd21ff8cU, 0x3dc81cc93dd02ca9U, 0x3b303de63de7142bU,
  0xbde8f12dbd5d8152U, 0xbe1ad1abbc644ce5U, 0x3d5e190cbd01eb7dU, 0x3dca2562be1d3e2fU,
  0xbc42f0acbd20d789U, 0xbc1ac6acbe6bb32fU, 0x3d8bb7debd8c4788U, 0xbc973834bbd8285eU,
  0xbdc388cabd4aefe6U, 0x3db7816d3d914f86U, 0xbe1442503e09a630U, 0xbd38d324bc64d053U,
  0xbe4ab198bea25140U, 0x3e73250cbdb06872U, 0x3e40c50f3e6e6477U, 0xbde3fc9bbd8e1b44U,
  0xbd72653fbddfa2ceU, 0xbe37738dbdd138d6U, 0xbc9bff96be7d048bU, 0xbdaf031e3db0d7a1U,
  0x3cc46a683da1e984U, 0x3d68c0563dc47badU, 0x3d89b96abea22602U, 0x3d19139abebb4296U,
  0xbd833b83bdd2f7cfU, 0xbdc943ff3d553424U, 0x3d1581113c1c1010U, 0xbdaad6373dfd7b4cU,
  0xbdabb35cbedf71eeU, 0x3e0c6738bd1733a4U, 0xbc29725f3e217d8aU, 0xbe0240cbbd88bbe3U,
  0xbe2faeb4bcb2c2b7U, 0xbe8ed3f4bd3e68b7U, 0x3dd79b56be0bc3faU, 0xbd7bf1c03c383311U,
  0x3c4bcdfd3dc34279U, 0x3d3fc349bd89b3b6U, 0x3dea8504be395820U, 0xbbfc7c80bd0f569dU,
  0x3d71daacbe0444abU, 0xbe0882bbbe1e1d05U, 0xbca69504bdb4c3baU, 0xbdca3b2abd989e5fU,
  0x3e8a1dc13e45929bU, 0x3e688593be4190efU, 0xbdde83e1bd918886U, 0xbcc22913bed38349U,
  0x3dde299b3e17dfc3U, 0xbb90c3afbe00b472U, 0xbc9821313df296daU, 0x3eb671283db57503U,
  0x3eb47f88bd396ca2U, 0xbe0e83dd3e1a8eeaU, 0x3e682ac33ce6fc0dU, 0x3d9e3a61bd3233f4U,
  0xbe0b18543d3e4146U, 0x3e08930e3e99a93aU, 0xbdf76a2cbce2a258U, 0xbd490896bd27673eU,
  0x3e37aad0be674284U, 0xbd405896beeb44a2U, 0xbe06c4373e78e8d4U, 0x3d2f70133993ad94U,
  0xbd99d28fbe38463fU, 0xbdf8a6503d9e03e8U, 0xbe34d381be832d20U, 0xbe9d6f5ebdfa722cU,
  0x3d6f5d003db287f3U, 0x3dc9a441be1f63f9U, 0x3d89d0be3ba307feU, 0xbd7dff76bdf0c23bU,
  0xbe0a16df3cb0ee7eU, 0xbe8955b5be092273U, 0xbd46906dbe8446dcU, 0x3b6710083e4caa5fU,
  0xbcccb0e2bdcbcb15U, 0xbe1d0c2fbdbbadb1U, 0xbd81a7ac3e81b5a7U, 0x3d2df1773da99118U,
  0xbdf77f35bdbc3aa6U, 0xbe9c45523d849b1aU, 0x3df916bbbe38d4e5U, 0xbe239517bd49a589U,
  0xbb631d6a3d149f6eU, 0x3dca499a3d2ed02fU, 0x3df1b006be621630U, 0xb9c97500beaef27cU,
  0x3d89aaa73dd70e8fU, 0xbef81196be9b1726U, 0xbc4f2cc3bd33532aU, 0x3ce3e3743ec2a5fdU,
  0x3b6e801dbd253393U, 0xbe509973bded9e92U, 0x3e382726bddd7e44U, 0xbd2b26cdbe40b914U,
  0xbd27e8163e032e9cU, 0x3c8a08ffbde948c6U, 0x3e08a8cf3db74feeU, 0xbe08c740bbe8ffa8U,
  0x3e4798fb3d2f3952U, 0x3c88dbab3e825642U, 0x3cf854233e065344U, 0xbd335b163e5da777U,
  0xbccd649e3c8a91b5U, 0x3e1332e3bddde746U, 0xbdedb3b3bd144ef8U, 0xbe1836f1be0bb024U,
  0xbe94b76c3d24dd39U, 0xbe9e4267bed72b19U, 0xbe45cadbbd681f2fU, 0xbd29e9fbbe217507U,
  0xbcacb62e3e097813U, 0x3e699952bde8714bU, 0xbdb2c68fbe0dff26U, 0xbcdb90fcbd852635U,
  0x3c85b346bd707f41U, 0xbdca4bc8bb8d6a30U, 0x3c5e8f513e0f56a6U, 0xbd75a55bbdf48e0cU,
  0xbe554d06bdd67515U, 0xbc1fc4343d7b4c41U, 0xbe335edbbe4b901aU, 0x3cbc2534be7d848aU,
  0xbdca59303e230019U, 0xbe6892c2bf095c57U, 0xbdf3e1463dc9808eU, 0x3d9c328cbe32078fU,
  0x3e6c80203dcd68b3U, 0xbe4d84633e10ae35U, 0xbe43a8693e001dccU, 0x3e3e4134be390dd2U,
  0xbedb87af3c896703U, 0x3dd8f871be56a803U, 0xbe82f1c7be9a0984U, 0xbb9cc1d0be35f292U,
  0x3c8fcd8dbd290ff9U, 0xbdead08dbe6faaa8U, 0xbd9842d3be51c249U, 0x3e0237373e80afe8U,
  0xbdfb61cabdf4cacfU, 0xbe06ae4cbe775c15U, 0xbe8d0e083d946b94U, 0x3d4ca1f5bd8d31d6U,
  0xbda524f7bdc1a056U, 0x3d4bce7f39e5662dU, 0xbe62b090bd42ff1dU, 0xbe47df16bda6659fU,
  0xbe90ec36bd72928cU, 0xbd3fdaedbd6e2ed3U, 0xbe38ba9abda6c1a3U, 0xbbd82db0bdf6cdbaU,
  0xbd132a9bbdc4193aU, 0xbe881c63be54e9efU, 0xbdf632cebe4abc05U, 0x3d16c823bcf74d19U,
  0xbe0de4f23da1b67dU, 0xbe11d88ebeab8d5bU, 0xbe121c503d4b08a2U, 0x3c0e8586be7d1bb1U,
  0xbd5695343d657ad1U, 0x3c54ed1b3ce50396U, 0xbdd7f54f3ccf3f8dU, 0xbdc5a50abe3195f6U,
  0x3def6503bd21fa0cU, 0x3c766713bd60871aU, 0x3d01fda13d18544eU, 0x3c711798bd800f83U,
  0xbde2a6503d487bb4U, 0xbe37a9cdbe8bc7f7U, 0xbdbc9561be59cbf7U, 0xbc9a2779bd6a9c92U,
  0xbe4144dfbcd29823U, 0xbe287a7abe805c54U, 0xbce30c883d5e3704U, 0xbe0c7b103c30d45bU,
  0xbe1b7c7ebc68aab7U, 0xbcf12b58bcd8c62dU, 0x3d1683c43dff886bU, 0xbe434509bd2aa794U,
  0xbcd2b47f3d46ac67U, 0xbd3361f9bd4bc9b0U, 0x3e9b0e8b3b8ff253U, 0x3d863515bdcb860fU,
  0x3dc523febdab02e2U, 0x3dff6fdebe9b6b7fU, 0xbe1c3413bdb6a1afU, 0xbe1f37d2bd895409U,
  0x3d86561c3ce254f0U, 0x3dc1d0f6bd0235bfU, 0xbdfebef83e311c48U, 0x3d61c9fcbd9ba14dU,
  0x3c1f44e13e11c48cU, 0xbc98cfcbbcdda416U, 0x3afdc02b3cc80f12U, 0x3e0827f5bcbe989fU,
  0xbd968c993d661e8fU, 0x3c07622bbd89e6d8U, 0x3e1325c9bc10fc84U, 0x3c6298283d80f39dU,
  0x3dc274c33dbe5853U, 0xbe4ce31dbea1f6abU, 0x3cd88f7dbea76f04U, 0x3d9161543cff2d79U,
  0x3d367ad4bd2bd24eU, 0x3e0f4728bd7b4a9eU, 0xbe128f7e3e0ad8c6U, 0x3caf3cacbe2a09c4U,
  0x3dc5ba903e2c295eU, 0x3db98e0c3c1c4f77U, 0xbc69d3403d847c07U, 0x3e965a4d3df983f5U,
  0x3cda06acbb6da73fU, 0x3d14a77c3d808896U, 0x3dc070aebd53581dU, 0x3d13844a3c8a4e6fU,
  0x3d258beb3d2d7c48U, 0xbe9abcdbbd843d87U, 0xbd168b413d18d29aU, 0x3d96724e3df85216U,
  0x3de5a319bc79867dU, 0xbc00fb6cbb537e59U, 0xbe8102a43dbf5214U, 0xbcff7e97be359596U,
  0xbe1cee0dbe15d1bfU, 0xbdfa8233bd82adcbU, 0x3e1de0f0bdc7b377U, 0xbe032fb0bc8c0cd0U,
  0xbc700acf3d622aa6U, 0xbc1b699bbd96e5ebU, 0x3ef26dfebe864914U, 0x3d44a54abed0bd2dU,
  0x3cf4709c3c825930U, 0xbee54788be661f18U, 0xbcd3b111bdf46440U, 0xbd86aa2b3c25abdfU,
  0xbdd966b5bc03274eU, 0xbf3453acbd6ea3a1U, 0xbe8e98c9be20049aU, 0xbf6756c03d93e173U,
  0xbf208ef63e07eb79U, 0x3cc73f23be85d2cdU, 0xbe87a6203dca8676U, 0xbedb5db43c90e03fU,
  0x3d750364bdf3d388U, 0xbe11a29f3d78b406U, 0x3ce740af3d9ef33dU, 0xbd4abf8b3d935184U,
  0xbe47b964be0d5d1cU, 0x3e701a0d3d18e70aU, 0xbea89e563db9737aU, 0xbea3d8b0be9599ddU,
  0xbe1acf0cbd546ea2U, 0xbdfd98f13e999452U, 0xbc9b01afbe6cda77U, 0xbf633ea23e123713U,
  0xbf10511c3e0e01f0U, 0x3cde06b4beb86e7dU, 0xbe8d71c83dea17d8U, 0xbefff5a53d7a34cfU,
  0x3d874843be362b58U, 0x3d41a1213e32b36aU, 0xbbbcc5433deccdf5U, 0x3d1d2b063db817f1U,
  0xbe223e713be58603U, 0x3ea861203e79d8c6U, 0xbe2ddb9e3e34957eU, 0xbeaa59db3dc95cbbU,
  0x39bd86a63ceb5c3bU, 0xbe186dde3e554a24U, 0xbe3c3220bebd950fU, 0xbf14cff93e452f4dU,
  0xbeb72418be2e9e50U, 0x3db8268ebee0934bU, 0xbf285422bd6b4b17U, 0xbdfe3f8f3cd73830U,
  0xbd5eabf0bea661d6U, 0xbdb0dd2dbd4b20b7U, 0x3da26a04bd46308dU, 0x3d9309e13d09a4c2U,
  0xbd75ed6cbdb6544eU, 0x3d72d8f83e06d88fU, 0xbc8df3d63de080e8U, 0xbebf21f3be336904U,
  0x3d80f813bd39c8f3U, 0x3dddff1fbde033faU, 0xbdad7d5b3d721699U, 0x3d6520eabd09837eU,
  0x3d2db3843b28c52dU, 0x3d3ff9833d9e56adU, 0xbd44e4d4bd5bc3ebU, 0x3e465b6abdce3094U,
  0x3e4f75333c68944fU, 0xbd75eb46bcb4b53fU, 0x3ebb76cdbe031997U, 0xbb395500be494e0bU,
  0x3e266e3a3c2af266U, 0x3e933b093e850b6dU, 0xbe2c55fdbdfacd21U, 0x3d7b446c3d4e40faU,
  0x3d66842cbdc78a48U, 0xbe47a541bec609a6U, 0x3eb41a12bda501c8U, 0x3c61df2bbe365d82U,
  0xbd8aa8e2bd951d48U, 0x3c69f2263cea744dU, 0x3e042232bb00ebb2U, 0xbd6b07bc3ddeca28U,
  0xbd4f44713db3f9cdU, 0x3d2f61763df7bb4fU, 0x3db093c13daef9e8U, 0x3bad5680bdca2ce2U,
  0x3cc42801bc4a4ce8U, 0xbe71c43bbe686d1aU, 0x3e6c9c30bd9f12cdU, 0x3bf55807bdf340cbU,
  0xbdf6a32fbdad7397U, 0xbe7efe373eb09f7aU, 0xbbe4cdfdbe279562U, 0xbd76aca83daa6c9cU,
  0x3c683f5e3d43b231U, 0x3d9dcfaabdac3453U, 0xbda6aac33c48ffa4U, 0xbe16a829bda58c35U,
  0x3ca4ccbbbdcca8abU, 0xbe0921e63e2eb7abU, 0x3d9569743e0d38aeU, 0xbce88cd63cb19b42U,
  0xbda12665bd637c69U, 0xbd1c3b513d41075bU, 0xbe0b88833d6706b7U, 0xbcb22ddfbe9d7407U,
  0x3c758fb8be8fc3b2U, 0xbdb367eebda85a0dU, 0xbe94989fbe932cc4U, 0xbd7c9a0cbdf340dcU,
  0xbd4caffdbe048df0U, 0x3e2b314bbd1d42c8U, 0xbd2943c4bc73d9d2U, 0xbdb5978c3e223348U,
  0xbd7bcfe9be2374a3U, 0xbe9ce8643dcae9acU, 0xbe0125b13e29b8eeU, 0x3bf8d4003dc0e87eU,
  0xbe00af4f3d0deb03U, 0xbc8b1361bdc54238U, 0xbd9c9ed5bd929433U, 0xbbd206b5bda5fb75U,
  0xbc94dcb63dd169eaU, 0xbe923cc3bf0b9650U, 0xbebf69b13e18b895U, 0x3e00256dbe57d36eU,
  0xbd6d127ebdff7b19U, 0x3e9895243d20c6a9U, 0xbe99018e3bcd8ab3U, 0xbe673826bb89720eU,
  0xbd8fe15f3daa17fcU, 0x3e1196393e9491ddU, 0xbd9f56233dd22978U, 0x3cbb0e74be89b405U,
  0xbcf20a493dabcdcaU, 0xbd94cfccbd7a7a94U, 0xbd433c5cbc8eada8U, 0x3d40d22d3de4247bU,
  0x3d9e37a43e5f3d81U, 0x3e2979d8bf18540cU, 0xbe700a513eaaafb3U, 0x3da1c57bbe3bbf99U,
  0xbd0bf3fbbe8e8d25U, 0x3e4dba0a3d2170cfU, 0x3c2c4236bda2c834U, 0xbedc7fcfbc5ea8bcU,
  0xbd43e92b3c35d7cfU, 0x3d03d7c73e77fa42U, 0x3c88d46c3d9722a0U, 0xbda01fabbe3df63eU,
  0x3d2baf193d55f72dU, 0xbeeb3ae1bd931b4bU, 0x3e0294b5be3b094dU, 0x3d816ee23e6c904bU,
  0x3e66790cbe438f75U, 0x3e160888bdd830ecU, 0x3e9620cebd98c5d9U, 0x3d0dcf50bc65f12eU,
  0xbd19d43dbeaafd8cU, 0xbe972f1e3c94541dU, 0x3e8ee3c3bd918db5U, 0x3d919d3dbe2ab885U,
  0xbe3ae25b39ff7f78U, 0xbde5d518bdebc4e1U, 0xbe37cd0f3c5327bcU, 0x3a09de803d29480fU,
  0xbd9ec9f43dfa8bddU, 0x3e7434533d170434U, 0x3cb8ea1d3d9fa13fU, 0xbd58ee863e8f4b53U,
  0xbb9c3620bde0e7f7U, 0xbe970a9dbda4efe6U, 0x3e7a3289be48f29aU, 0xbe2980bf3cbc17bbU,
  0xbe01649ebe071919U, 0xbdf2e2683d18571eU, 0x3d6b8a33bdd32705U, 0x3dff0073be21f26fU,
  0xbe28ca45bdc8411cU, 0xbdf1805fbd882c91U, 0xbe58748d3ddfc7f3U, 0x3c9395ec3e1eb853U,
  0xbeb21abf3cbe1c20U, 0x3e98b9463dcbbf90U, 0x3e3965813c4e9150U, 0x3ce4b147beb2af6fU,
  0xbea445ae3dd574caU, 0xbe6dfd51bd366788U, 0x3e00c1dabdc0bfd9U, 0x3d7776bbbe238376U,
  0x3d8a71c13e31660bU, 0x3d4056e2bdb730a7U, 0x3d408764bd1f2ce6U, 0x3e7ed3483d3808d0U,
  0xbc414a953d9bdc68U, 0xbbca12de3d219168U, 0xbe1219bc3cb8742cU, 0x3d135c7a3e09e1c0U,
  0xbd6e3e17bd1b6a5aU, 0xbb9a7c383d0f1ac4U, 0xbd7f6b78be20df65U, 0x3d890d85be0c189eU,
  0x3d3001e1bcbe47c0U, 0x3dd83374bde8435fU, 0x3cbf54593d780976U, 0x3d841c9abdff9597U,
  0xbbce89bf3dfe3105U, 0xbdbb031bbd5e805eU, 0xbd5eaac63dff9954U, 0xbdcc2762be0b833dU,
  0x3d9fbde53cc1b666U, 0x3d6ae9e0bdbb77e8U, 0xbbc09876bd2c36edU, 0xbd9f12e3bd286229U,
  0x3da16a69bd5943b9U, 0xbe02f3b4beabb3c4U, 0xbe277a62bd8e2906U, 0x3c3af6f73d53f004U,
  0x3da6fb9d3cc1088fU, 0x3a994baa3e0049ffU, 0x3e875f303e2e7278U, 0x3e707e3f3e286a9cU,
  0xb91bdc003e00155eU, 0xbe2dd2273e2b397fU, 0xbd234d0f3d030252U, 0x3daa91f8be2c10f6U,
  0x3e2d11cc3dff2cd6U, 0x3d8d7b23be074d5aU, 0x3adbd64fbd7632c6U, 0xbd017ccb3e917c8fU,
  0x3dd6f37f3e0f64d2U, 0x3d1195343e0f3ee8U, 0x3d78b78c3d92c13bU, 0x3e08fdb33d6864f1U,
  0xbe6aa30b3d2927deU, 0xbe0b41193da34b48U, 0x3d23edea3e076299U, 0xbc8af4ae3d6806aaU,
  0xbe0293e3be65deb1U, 0xbde8ceff3de48e95U, 0x3e7e18c0be1bcfc6U, 0xbe17eb55bdf2baeeU,
  0xbdb3729b3e07d925U, 0x3c1ba289be0801faU, 0x3e867a5cbe0e7860U, 0x3c8f318cbe3b85c5U,
  0x3dcfc2293d82052dU, 0x3d50d1efbdee1441U, 0xbceb8281bd9c8028U, 0x3ac590373ceb907aU,
  0xbe5a0aa7bcc8e0ccU, 0xbe67516cbe8ef938U, 0xbe32da243e44c4e4U, 0xbcae24263de6d8daU,
  0xbd8fb5513e2c2b4bU, 0x3e49a02f3bc011ddU, 0xbdf6915a3e08bb18U, 0xbd6453373d671e5cU,
  0x3e8a771dbe72dd88U, 0xbebed04a3c91e043U, 0xbbed160b3e68e6e3U, 0xbccb272c3cc29836U,
  0xbe8190e3bc42cc40U, 0x3d1452e2be891f91U, 0xbd1ae711bc76e1abU, 0x3ca062ab3ce41272U,
  0xbdaf6dd23e2051d5U, 0xbdb39c04bc8cdc92U, 0x3d22ba7c3e18a9fdU, 0x3d9de65b3de557deU,
  0x3de5435fbdb88c26U, 0x3e14867b3dd28684U, 0xbe1244283da73cf1U, 0xbdc6e7923b19e5c6U,
  0x3dd901993d30e259U, 0x3dc7c18e3cc432a1U, 0xbe04e2883e3abc81U, 0xbd6930a63d9aa978U,
  0x3ba01db33d6cf629U, 0xbdca7a163dd35c25U, 0x3d148bb83dd18c9eU, 0x3e1ec648be2d0265U,
  0xbe8c36f3bd410defU, 0xbc938ffb3e03f664U, 0x3de90309bd11167aU, 0xbe518f33bd7ee93cU,
  0xbe28c04ebe90e1b1U, 0x3c8995ccbd8b7544U, 0x3cbb1830bd1ddce4U, 0xbe8a23ffbd85bb12U,
  0xbc66389a3cef8847U, 0x3e5d7d5abdadcfa7U, 0x3dca0b2e3d96041fU, 0x3d89d7d9bd0c062eU,
  0x3d072580bd6573bfU, 0xbdded6b43de05b11U, 0x3cb87e683de42bd5U, 0xbe1af831be0c8890U,
  0xbdf4284fbe1d3ac7U, 0xbed8f643be9eab43U, 0xbee448263de1096cU, 0xbe6497d0be88b734U,
  0xbe6d913fbbb62689U, 0xbe071283bdb5712dU, 0xbe180749bda93a7cU, 0xbda9ddfcbdea4f6fU,
  0xbb804f10be4f946eU, 0xbe7e832fbe0af599U, 0xbe8224cebc7d8d90U, 0x3d4fd092bd3f38e6U,
  0xbe173a60be39eb52U, 0xbd691a5abe4cacf4U, 0xbe65d957be827091U, 0xbe25ca603e93d932U,
  0x3c17383dbe0ba43dU, 0x3d0a8ef2be6fcac8U, 0xbe1f43a13ddc3897U, 0xbe841d61bd067ddbU,
  0xbe535049be9efd75U, 0x3d65d20dbd9acec1U, 0xbe052295bc8a155dU, 0xbe32b690be643a52U,
  0xbe89f1fbbe2da40eU, 0xbda9730dbb97d737U, 0xbebb86963d5fcd24U, 0xbac0de003dacdb2dU,
  0xbddc5cbb3d274bb7U, 0x3e3b4354bc1b6f72U, 0xbe4c7bdabe9b72cbU, 0xbe85a33e3eb05ce2U,
  0x3e487148bde97631U, 0xbe598266bd3de56cU, 0xbe8d9364bc2e1554U, 0xbe0f59d83dd62476U,
  0xbe3aedeebef3739fU, 0xbe3c22c8be705d6cU, 0xbef9ebf23c7942beU, 0xbe1d1be4bd688b94U,
  0xbe860bf9bd856845U, 0xbe252729be85a834U, 0xbe8bc194be3819efU, 0xbda5a420be56cc23U,
  0xbd7b91d7be3be0fdU, 0xbd1d2273bdd7ab94U, 0xbea16a23be864105U, 0xbecff3663df525c9U,
  0xbdf557f43d285b69U, 0xbda9a8153e192fe7U, 0x3dadebedbe164104U, 0xbc0be261bdc836bfU,
  0x3d81234e3c903315U, 0x3de898e7bda9d0b9U, 0xbe207f593d3f6404U, 0xbda5725e3d829179U,
  0x3d3c96293d24b190U, 0xbdb787ed3dcc1a33U, 0xbd9713b03ddd26ecU, 0x3d3c7902bc46704eU,
  0xbdda7315bbffa14cU, 0xbd9eeb123d9a908cU, 0xbc4ccf5c3c2321b8U, 0xbb0d579bbd885c04U,
  0xbc0c6a393dd98c71U, 0xbe9417483c80410aU, 0xbd0f7fd0be2dfcaeU, 0x3d17c2313dcb3651U,
  0x3d8ac3df3d10c817U, 0x3e8013d0bd3bdc2aU, 0xbd2bb4ef3da8f0e5U, 0x3d00b2203cfb9c80U,
  0x3e6594febda953d1U, 0x3d158a6d3c772007U, 0x3dc0e4c63e853620U, 0x3da995913e084704U,
  0xbcdc57373d95791dU, 0x3e2497ad3e036228U, 0x3c2360bf3d62097aU, 0x3dc899543df2464bU,
  0xbe2c8fb13d636114U, 0xbead8bec3e190897U, 0x3da28326bc9da5ebU, 0x3ccc88603d976681U,
  0x3d81b5b53d0ff7fdU, 0x3e2e7acb3df7aa28U, 0x3d3fef983d5b9476U, 0x3d99269a3d0f554eU,
  0xbc9e1e703c289a31U, 0x3d8260fa3d9f3fe7U, 0x3d33e76d3e87eb5fU, 0x3d8b719d3d5cedcdU,
  0xbd2817693dd9226cU, 0x3de00e0a3d36ac2cU, 0x3e60f87c3da38ae0U, 0x3deb5bf63d515edbU,
  0xbe874f46be0cd04dU, 0xbd5d04f2bd577253U, 0x3e20d9533daf5a6bU, 0xbdf1bba13dc9de68U,
  0xbd61d954bd097917U, 0x3e908aa1be4b8766U, 0x3d8d96673e07eb9bU, 0xbe9bc0583cb1edc9U,
  0x3ec6cc293b1ec451U, 0x3863d2a13e985f18U, 0x3e0be51a3e56bf8dU, 0x3a7744003e413b25U,
  0x3d85b530be45d2b6U, 0x3e48509abd0e362cU, 0xba64b7963d304d7dU, 0xbe19c4abbdbda609U,
  0x3c37bcefbd3b8b86U, 0xba9e9cbfbe058c72U, 0xbcf192ab3d6118d7U, 0xbc32543d3dab85e0U,
  0xbd02b0c2bd0e4156U, 0x3e4231f0bd99225aU, 0xbd2352353e9c7087U, 0xbd19663bbc88cb2cU,
  0x3ea9926abe26753cU, 0xbe27e2153e16a6ceU, 0xbd61af7d3eaf7f7bU, 0xbd8542ce3e79d3e1U,
  0xbe0822dabd556aa3U, 0x3e4ba1de3d0c06b5U, 0xbe028bfc3e431764U, 0xbc8f8840bc11e4daU,
  0xbd5689c6bcdee5f3U, 0xbe80a8243cc42ae8U, 0xbefbb511be82b317U, 0xbe198fdb3d443c94U,
  0xbe0794f7bd9e9629U, 0x3cd47b80bdfb88fdU, 0xbe6c808b3e621f58U, 0xbe24c983bddf650cU,
  0xbd0c9e3dbe214b0fU, 0x3c3e3751bdd675ebU, 0xbd82ad0c3d8d0993U, 0x3cb412403e3f1628U,
  0xbe3fbf2dbe198bcdU, 0x3d9d485c3d162178U, 0xbe18a106bcf620eeU, 0xbdcdff62be14a008U,
  0x3e29acab3cb0b81eU, 0x3e0fc657be8528cfU, 0xbe06fecf3db7c100U, 0x3d93d3f43bff8b10U,
  0x3dc72543be7227edU, 0xbeb8e03b3d72effbU, 0x3e0fe10ebe6ca6e8U, 0x3d0afe47bc9a34feU,
  0xbdd685323cde7109U, 0x3dc14602bcc22588U, 0x3d623b09be6738e9U, 0x3d7bb8e2bddf508cU,
  0xbc75c7c63cffae7aU, 0x3e8b3d6b3e0b2ac5U, 0xbd5efd163d08c0e1U, 0xbdbfe42a3e658675U,
  0x3e5cf7053d109b3cU, 0x3e765263be827172U, 0x3d4ca86f3e26992eU, 0xbcb4d09c3ca19daaU,
  0xbd098214be769d9dU, 0xbea9a574bca657fcU, 0xbdcf86a0bdc5f70cU, 0x3d4c91c6bd91b1bbU,
  0xbcf037e9bdbd4d2fU, 0xbde7ad15bca6630dU, 0xbc596f2dbe68ba62U, 0x3d967e853ccea672U,
  0xbcc474a93d61571aU, 0x3e9001c03e0921fcU, 0x3dc0e62fbe11fe4aU, 0x3cf1551a3e5fc58bU,
  0x3c326b25bdabda47U, 0x3e4c3b1fbe981832U, 0xbe0504cdbb63f3f2U, 0x3d54e3f5be4d8899U,
  0x3d18e351be4dd1bdU, 0xbe6525a43dfc7094U, 0xbe739cbcbe73c4e6U, 0xbd7489d23d108f7cU,
  0xbe5a0574be15f808U, 0xbe3c2689be56b70dU, 0x3c637a4bbe8d2beeU, 0x3d29d066be79ecbbU,
  0xbe703d3d3cfeb1fcU, 0xbc965dfd3dd8689cU, 0xbe005fd4bde3a51eU, 0x3d135a8f3e08b006U,
  0xbdfe6203bd1d629dU, 0xbb7e8f1ebe27d173U, 0xbcce12dd3c816b8cU, 0xbb0a0d0b3db47b63U,
  0x3e0c5e613e511335U, 0x3da7c072bdb7ca78U, 0xbd19a63cbd3be7d2U, 0xbcb490a73d137167U,
  0x3d7817aabb119d33U, 0xbcedab52bdfef8e5U, 0xbda922213cffe525U, 0xbd7077d6be5ddda0U,
  0x3d5ef163bd0a0a34U, 0xbe2a26cabd8a9603U, 0xbe9afe73be73563dU, 0x3d22b7c2bd98e90eU,
  0x3e61ab743e405d8eU, 0x3e236a11be2c1326U, 0xbdfb1b45bcceeebaU, 0xbc0f72333d0721d9U,
  0x3db269293e588f0fU, 0xbc7246503dc35977U, 0x3d6b6267bd4ad19bU, 0x3e29f9883bb4358fU,
  0x3e2d350f3d31ba8aU, 0xbd61e846bd9ebc97U, 0x3e87a2d33e090d7aU, 0xbd948ff83e153a42U,
  0x3d5bb4843e0059bcU, 0xbc8f756bbd256018U, 0xbd9f08ac3dee86f1U, 0x3dd84c00bd2543b3U,
  0x3e1828543e7adf69U, 0xbe82f1d3be6d435eU, 0xbe2a4f6e3d3ae7afU, 0x3dda588c3cee33d9U,
  0x3d63a3073c304c37U, 0x3e0cab783d6199bfU, 0xbd3ae66d3e0102f4U, 0xbe39d6743db98258U,
  0x3e51b6643d3d059bU, 0xbd2e7bfd3deac00fU, 0x3d9c7e2f3e8f7e6bU, 0xbc51a4c03d000a2dU,
  0x3df9ab263cbb1d55U, 0x3e8f2356bdfd7ff4U, 0x3dba30aebc3deb97U, 0x3d8532913e3a2106U,
  0xbdf4c6e83cc774b5U, 0xbd17869cbe12a910U, 0xbd9758623e56e87bU, 0xbe59505a3e2210dfU,
  0x3d0128813e52d1b9U, 0x3d1bd47ebdad0473U, 0xbe0750883d8a4a8dU, 0xbc5645aebbbdbb7eU,
  0x3e5d84b4be717bf6U, 0xbece3e313b4e4d74U, 0xbd25b7b23e835c89U, 0xbd4cd2bb3e5130eeU,
  0xbe225838be06bcbfU, 0x3ea4e1223cfc0625U, 0xbd1cd08e3cba23a8U, 0xbe2d5bb3bd9cc7d1U,
  0xbc875de63e5eecd3U, 0xbc36923ebc885a9cU, 0xbdb3ced43ed0f60fU, 0xbdccdaa83e8cd233U,
  0x3d60a98d3da09694U, 0x3e3df5bebdf67cefU, 0x3e11b1933e3ed732U, 0xbda55b4e3e0bcb8cU,
  0x3e9033293db4f81eU, 0xbe0cf0473e2f690aU, 0xbdd630663e3f9f18U, 0xbc9a7dd43c5f324dU,
  0x3d8c388bbd0810bbU, 0x3dad4639bd131d9cU, 0x3dbe23593e2cc6e4U, 0xbd9eb8683c8601a5U,
  0xbe6cfe183dfdcb6bU, 0xbe33ee75bc91d61eU, 0xbed412253cd7f886U, 0xbd6356f7be3b7902U,
  0xbbd0e79fbc5b1ee3U, 0x3e68e6ccbc79a16aU, 0xbea37a393e4f4181U, 0xbcec13353ba5c4d7U,
  0x3e461b03bd9d77c6U, 0xbd75ee263d25f4d3U, 0xbda81ee33e301b8eU, 0x3c4973003e60ef72U,
  0xbe4922553cf5c886U, 0x3d3a699f3cec7100U, 0xbea8051abd85eca9U, 0xbd3e5c17bd49d83dU,
  0xbe56d242bdbcfd3eU, 0x3dfd5268be7803b5U, 0x3d60393d3c992909U, 0xbe903833be4a236fU,
  0xbdaceaf43ca424f1U, 0xbdfd6510be813b9cU, 0x3ea2d7f8bd8b61ceU, 0xbda26cc9be041fd4U,
  0x3eb6a550be830a8eU, 0xbeac58df3d2ca10aU, 0x3d8623a7bb929e9aU, 0xbd8ee9bebe096dc8U,
  0xbea3af26be94ca54U, 0x3dbeb19b3d94e60eU, 0xbe57708ebe4a0b42U, 0xbe9011d93e0ecffdU,
  0x3e42e35fbd5b3857U, 0x3e3c583ebd653cf6U, 0x3d325d123bd6a8c1U, 0xbd8f768bbd26c639U,
  0xb937cc07bd71fb02U, 0x3d84efb7bdcf66ecU, 0x3da462713d03f36cU, 0x3e60f623bde9fd1eU,
  0x3dad58aabe9eb1bcU, 0xbe85cc253dda3b17U, 0x3c9386603e328ffbU, 0xbcd330603de43c86U,
  0xbe368b50be31870dU, 0x3ea518e73efff60dU, 0xbdc8a3053b3261b5U, 0xbe2533e03e91cd2fU,
  0x3e652239be0ce2f3U, 0xbe4ae1703c010309U, 0xbeb3da01bf13868bU, 0xbbacbd32be64b5b9U,
  0xbe2001ffbe423a17U, 0x3d477484bcc5e535U, 0xbdea9824bd3f540aU, 0x3ce8ae1ebd888a0aU,
  0x3d9a035bbea64d5aU, 0xbf0c730ebe2ce719U, 0xbe8bd5473d1ea4f6U, 0xbd7323103c37071dU,
  0xbf0307a4bcbecfd0U, 0xbc8e04203cdb948dU, 0xbd4530bfbde9286cU, 0xbda17e433e2340a1U,
  0xbcc9df57be4bc11eU, 0x3e00a10f3d7cef3cU, 0xbdc45481bd8a2f5aU, 0x3bca96b2bccf3146U,
  0x3d8fe19f3def74c8U, 0xbcd309f4bc36184bU, 0xbd11912cbd3b84eeU, 0x3de7da08bdaa0c11U,
  0x3ce9f88a3d998e9dU, 0xbd8875d6bdec3c14U, 0x3e3fea0bbd9c5f42U, 0x3d287a5abd052b84U,
  0xbd4808cabda94909U, 0x3e517c2e3e16b8baU, 0xbe1512adbd970f18U, 0xbdb0f209bc797f94U,
  0xbe1a27173c94992dU, 0xbd76ea41bb43fa34U, 0x3dffb7f1be0a645cU, 0x3d366f6abdf96d5dU,
  0xbd7e2ae0bd386e52U, 0xbca81f783d83330aU, 0x3d272e6bbe656478U, 0x3d8b8195bcfc69c8U,
  0xbdb72cd53d5eae57U, 0x3db53bb33b01d784U, 0xbdbe8b523c70012dU, 0xbc87d4ecbd17fd0fU,
  0x3d4cab543ce756ccU, 0xbe31b3d2bd7aebafU, 0x3e3bf296bdbc3766U, 0x3d888becbe12fa55U,
  0xbdd929c0bdf1aafdU, 0xbe8d07653de9d825U, 0xbddb1084bdbe6b21U, 0xbe66d1473e0fd633U,
  0xbe85e85f3e19ed6fU, 0x3c145316be303bdbU, 0x3c7f09fd3cb4a3ccU, 0x3e1cacbfbd4c4a15U,
  0x3e61bd083d3aac92U, 0x3ca3345bbd7e93e8U, 0x3d07ecbb3db47b80U, 0x3a266a803d8adb2dU,
  0x3d6bc41a3d594859U, 0xbd80db76bcecdd92U, 0xbdfa3ed8bd96afb9U, 0xbd80e2f6be3abcb5U,
  0x3e1af2133b5e1b78U, 0x3e8e18dfbe235863U, 0xbd4bd4bdbced4474U, 0x3d059f78bd5b88e3U,
  0x3d4763683e4a6decU, 0x3e08cfc3bdcd969bU, 0xbe019f1fbda8414eU, 0x3e776650bd52eb5bU,
  0xbdd6f93ebde2f763U, 0xbde6d73d3d6ff2acU, 0x3e56400b3e2677e6U, 0xbd5dd5e03dc99020U,
  0xbe735fd7bce07409U, 0x3e4729da3b94b063U, 0xbdb367c5be5be45eU, 0xba289f733d3cf4ebU,
  0x3e20f565bd88ba64U, 0x3e4337b23ddb91b8U, 0x3d5b43583d72b95cU, 0xbd67155f3b3b5c4fU,
  0xbd15e3efbda19609U, 0x3deb6ef1bcef023dU, 0xbcebbc97be03c082U, 0xbe1eb403be224dfeU,
  0x3d3283f73b88fd84U, 0x3dcc7e0ebd50e508U, 0xbd403e963de62accU, 0xbc9207b43d6be17eU,
  0x3da050043dbe3944U, 0xbe338f69bca9af7aU, 0xbdf70993be840a44U, 0xbe08190b3cb23933U,
  0xbd15c465be0065caU, 0x3be2d0b0bd8411e1U, 0xbe6c98b13e8324beU, 0xbcd0c49bbd4dc0baU,
  0xbe1eae44bd2437c0U, 0xbd2fcc96bdfec0f1U, 0xbe6d50c0bdfe7e0bU, 0xbe5a69f1bd5a2268U,
  0x3dd4b8bf3dcad763U, 0x3db97bc0be4bf124U, 0xbd4cc70cbe6ee645U, 0x3d2c1666be68a2afU,
  0xbd06df9abccd7211U, 0xbe663618be0dc076U, 0xbe354e4cbcf703a0U, 0xbe32a8053e10b54eU,
  0xbe72d0063d043904U, 0xbce30a8abdba972fU, 0xbe7aaa5ebb61fea1U, 0xbe8db2453e03f645U,
  0xbdbb883cbd15a8e1U, 0xbe3b0b5dbe10bed7U, 0xbe8911f43d7cf739U, 0xbd964d97be338043U,
  0xbdb65dd9bd25e292U, 0xbe58d58dbe6955e8U, 0xbc211dc53db4ed76U, 0x3d4b84623d743604U,
  0xbd82c64b3cc0bf0eU, 0x3e7cc3693de0f44cU, 0xbe78801cbe134b35U, 0xbeaf7fa7bda55d84U,
  0xbded7ac0be2c2374U, 0xbc889fb3bd0bf6a8U, 0xbe3e299b3d10c463U, 0xbe9baccd3da61c39U,
  0xbe8bb957be35b367U, 0xbe13e86dbe4c92a0U, 0xbdf23509be2c7595U, 0xbe3bbca83d2b2916U,
  0xbd5c7af6bc055fcdU, 0x3c80c848be74ddb9U, 0xbddd7996bd906a18U, 0x3d80092dbb0e3ad5U,
  0x3d93357fbde9edf3U, 0xbb88c884bd219390U, 0xbdc48b8cbd4f01a3U, 0xbe23f92d3daf298bU,
  0xbd873513bc915448U, 0xbeaabd4b3e22d2d4U, 0x3d499a1fbdf0aff1U, 0xbddeb0753d8a6a9aU,
  0xbccdf43abcd0c0b9U, 0x3d9d2b2bbe0da31aU, 0xbe69682c3d8cd3ecU, 0xbdf243193e82f55eU,
  0x3e8127c5bcb49dbeU, 0xbe2722c73ea7464fU, 0xbd11bf61bceb7e11U, 0x3da36ff93c7cb2c9U,
  0xbe24466cbdea9d4bU, 0x3d914eb0bd86222eU, 0xbe1ccbc03ea3bb13U, 0xbd5de2cfbeffca4dU,
  0xbe277c223d7f6554U, 0xbd93f06a3dc61c0aU, 0x3da3823b3bf76913U, 0x3d9ea23dbd7c638dU,
  0x3d078d1cbe1558fdU, 0x3d35135b3e27691dU, 0x3da625f1bdb3dacbU, 0xbe06a4c4bd98bb38U,
  0x3e159cc43e0a6b28U, 0x3dce36703e0b21dfU, 0x3e8d1358bc56d230U, 0x3d9975e3bd2e5c4bU,
  0x3e26e07e3dfebdc0U, 0xbdd39bda3e186d71U, 0x3dbfd5b83c8dd2afU, 0xbc208ffdbe0deb7eU,
  0xbdade084be0c191dU, 0xbe9158d5bd85939dU, 0xbd81a4aebe269be1U, 0xbddf9daf3d58cc50U,
  0xbe01cb47bccf4e1eU, 0x3c029ae6be4b26ddU, 0x3ca202abbe212f9fU, 0xbe8a23e53c65daf6U,
  0x3dbd5d30bcb0bf4aU, 0x3dea2e6bbe4ddf72U, 0x3ded04a5bd009141U, 0xbd5bcf86bdeee99bU,
  0x3da07aebbbd88414U, 0xbe2d8fadbd4b1451U, 0x3dd19af83ddb6d3cU, 0xbdfa1f09be44c6f5U,
  0x3c8d422cbe109303U, 0xbe0a370dbebbaa90U, 0xbe184f533d077543U, 0xbcb68598be2961d8U,
  0xbdc59736bc447bafU, 0xbe03d346bde216e8U, 0xbdb0097abdf0ddc6U, 0x3cd38f4ebe33021aU,
  0x3dae1016be189765U, 0xbe152ebbbe0e108eU, 0xbd79456dbda9764cU, 0x3da9b495be30b68bU,
  0xbdcfec7fbdb5c05fU, 0xbeb202c9bde3bdedU, 0xbd5eb61f3d8a1ce7U, 0xbd07832dbd51a618U,
  0xbe948a9d3cf291ccU, 0xbeee560b3e32b86aU, 0xbcceaa28bebb8445U, 0xbdc821a13d5d4ecfU,
  0xbd917fa6be690961U, 0xbe28b864bdabd00eU, 0x3d01b311bd2b36fcU, 0xbe9b97843e1a306aU,
  0x3e3e29b03ca8d7e3U, 0x3d9cf379be11c252U, 0x3d5a2251be8d241dU, 0x3ccd2a40bdf4dba2U,
  0x3e0c10503dd194beU, 0x3d549f983d2b8982U, 0xbca4e12bbc0830bcU, 0x3c9a98c4be8fa79aU,
  0xbe5f7fcbbd01518eU, 0xbe81ab22be1e8319U, 0x3de9e1e6be8ca644U, 0xbdd3ef8cbe0d7753U,
  0xbd97a537bdced1abU, 0xbdaa974cbe0f90a4U, 0xbd6725d6bc3a6ebaU, 0x3ce16197bd86c4efU,
  0x3dc583dc3cbdea2eU, 0xbd3c3a1bbd8fbcc0U, 0x3d3b2b53be14111aU, 0xbd97a4debe7d50daU,
  0x3b255592bd87a8e3U, 0xbe2aa399be591247U, 0x3dfd0f523cb11236U, 0x3c8b3ea4be9e14feU,
  0xbd7a92173bb36b3eU, 0x3da42327bdb4bb84U, 0x3d6306f8bd6e0df5U, 0xbd164aedbd793831U,
  0xbd9401663af7dfc6U, 0xbe742b7fbdb5caccU, 0x3ddded5cbd6c16c7U, 0xbdc5f66fbc4ccb8bU,
  0x3db4af2b3d333937U, 0xbcd04a9dbe503014U, 0x3d4ac6a1bd53caf0U, 0x3da27de5bba2ac2fU,
  0xbdce0e523cd9320dU, 0x3d0f8fb53c50fa6dU, 0xbdb0b78fbccb414bU, 0xbe6db230bd15bcfaU,
  0xbe0122d7be171d91U, 0xbe8772e53d4a6838U, 0xbd082e14bd902cbeU, 0xbd8b61883de23d73U,
  0xbe61b3f2be876c0dU, 0x3de4c06bbe0a01e4U, 0xbe845f60bd622a50U, 0xbe9006adbdc46416U,
  0x3c802d38be25615eU, 0xbd7919ae3d8cf77bU, 0xbc605d0f3e4aae86U, 0x3cd9cbd43dab2c14U,
  0xbdb26260bd84253dU, 0x3d9763253e46d665U, 0x3db3c40a3d252096U, 0xbdfeff57be71baccU,
  0xbc1ad5cb3dc9d1fbU, 0xbe0ce18a3ddf619bU, 0xbd8df5f2be6c4ed4U, 0xbe34104dbd99e641U,
  0xbd4385e4bde0baa8U, 0x3d1beb7fbd8e36d1U, 0xbe472f8cbc5c2cf8U, 0x3e1b9380bd0bf652U,
  0xbe0f533bbd839d31U, 0xbb2e0698be0a7a3bU, 0xbd09c562bcd508b5U, 0x3d278d40bc867845U,
  0xbd6d0bb7bdec868dU, 0xbc836c113d70883aU, 0xbe55a1bbbc01a106U, 0xbc58589bbe87ebbdU,
  0xbd904626bd25caabU, 0x3b9af235bdc4548cU, 0xbdfece27bd24d94aU, 0x3c8562733cba0afcU,
  0xbd80d6c0bda968a2U, 0xbccadef6bc7bae0fU, 0x3c8b04e9bc8866baU, 0xbdee29e03cb24e5bU,
  0x3e0e1630bde411ebU, 0x3ccc800abca59965U, 0xbb32ad0a3dbcbf92U, 0x3da52b5d3e123f9dU,
  0xbd1f66e1bcbf5e99U, 0xbbf2fa6cbe469af2U, 0xbe599ccbbe620ac7U, 0xbdd731a13b45647fU,
  0x3e3264cd3e1f1501U, 0xbe3a5fc1be07609eU, 0x3ce78b08be514c5dU, 0xbd134926be9127d0U,
  0xbd2d63473d9c5837U, 0xbdbbb8eb3ba4077bU, 0xbda312153e794b73U, 0x3d9e6d2cbd6151c8U,
  0xbcec980cbc7cbdbfU, 0xbd26020bbcef9529U, 0xbd8f5809bd82f075U, 0xbd84ecb0bce2b334U,
  0xbe5b7e7cbd16370cU, 0xbe24b5eabe5bd3fcU, 0x3e410966bdbed7caU, 0x3d7514d7bde35bd8U,
  0xbe054a72be317f17U, 0xbcb0d6283e155058U, 0x3e22292ebd705080U, 0x3c9ed5103dec51d8U,
  0xbd1c1d33bda09f57U, 0xbe30dfc8bc2891a7U, 0x3d3dddaabdd1c744U, 0x3dd81ae4be0017c2U,
  0xbe011cbe3da42166U, 0x3e412c033ce25816U, 0x3d141e583db1780dU, 0xbda031763e51da1bU,
  0xbd0bc9fcbd0ca3c5U, 0x3d30bfa93d990f96U, 0x3dbc2d193c349126U, 0xbb07ededbe1d802aU,
  0xbdf344cdbd35da52U, 0xbe8b625fbe2cc83cU, 0x3c39b29a3d5cdb30U, 0x3c74da6a3e452ea8U,
  0xbda76279bd9ff843U, 0xbe61f1153d243fe4U, 0xbd92bb41bd48bfc5U, 0xbdd120323dc56fd4U,
  0xbd8ad2a93d99cb8aU, 0xbc6a8baebdd65e78U, 0xbce8f87dbdca4efeU, 0xbc15ab98bda2bd94U,
  0x3d0a520cbd9cf140U, 0xbe65bbdabcfac99bU, 0x3d46cbb73d29dc0cU, 0x3d4f5a0fbd95995eU,
  0xbe241c69bdaf9717U, 0xbe74e0853d836793U, 0x3d5daaff3ce89a09U, 0x3d6dc35fbd8a6addU,
  0xbe1cdd74be98021eU, 0xbe254c93bcd35901U, 0xbcb5fe8dbdf1339dU, 0xbed6bac2bd87b6b8U,
  0xbe06d13d3d0dc481U, 0x3e1889e8bd9ee3b6U, 0xbd6cc642beae3f63U, 0x3d9c9c89be25e535U,
  0xbdaeebaa3d0dad02U, 0xbf13982fbe5936b7U, 0x3da248eabe3626ccU, 0xbd8415c5bd5b2196U,
  0x3dc793eabd5edbe7U, 0xbd8693a9bd25ecdcU, 0xbc5cdaf6bd9e8c6cU, 0x3dad6d32bdd7090cU,
  0x3d88efdc3d027e30U, 0x3d01ecf53ce247e0U, 0xbd44a61bbde7f0f4U, 0xbc081079bd04a1efU,
  0x3b23dec8bdfd265eU, 0xbd9825febe2a13f3U, 0x3d982f7bbd130f35U, 0xbd6aa406be3b5f11U,
  0xbdb2f19c3c6eb75cU, 0xbdac1e6e3d9becfaU, 0xbbfebad0be4469d5U, 0x3c2681fa3d73e6ccU,
  0x3cfef2b1bd3aceceU, 0x3e20b1dd3dfcd475U, 0x3db154b83e4557b2U, 0x3cb591a8bd0bf5aaU,
  0xbd526f6abe3368a9U, 0xbd96aa0e3d8900c3U, 0x3d896cd9bd4834afU, 0xbe8e3e8ebe07facaU,
  0xbda3f5fc3dbadd9cU, 0xba0be6aabd4dc6f6U, 0xbe4a5788bc6f2685U, 0xbc7acb683de0b0beU,
  0x3e24510dbd9ab5d0U, 0xbe0706b1bd55a704U, 0x3cd30ddd3df2dc4bU, 0x3d94ac42bd452bf1U,
  0xbdfc2d7b3c52cc59U, 0xbdbba280bd7e9be6U, 0xbd964538be13f604U, 0x3c911400bccef2a5U,
  0xbdb5f930be456981U, 0x3dbd73cebda68ebcU, 0xbe71c7aa3d7ae203U, 0xbe18c2ed3da594a4U,
  0xbde144a8bd9dd4a2U, 0x3cafbf613cb10c91U, 0xbe006bc23df57529U, 0xbd17a4063e4ffafeU,
  0xbcb58c09bd5276f1U, 0xbd123a3ebd4d6d8dU, 0xbc35d6533c8c153bU, 0xbd9a5477bd7808deU,
  0x3df422cabe1b0fe1U, 0xbe3c50b23cbd12adU, 0x3e2b56ff3d0da446U, 0xbc131a023e036b42U,
  0xbdee09ee3c6d14cbU, 0x3bdbbeefbe0a9375U, 0x3cf826613e0cd915U, 0xbe4c1b88be08f3c3U,
  0xbd9d6edc3c6edf35U, 0xbdc146643db2098eU, 0x3cacfd7f3e45b1ceU, 0xbc2157183e728036U,
  0xbdabe5e3bddabeb8U, 0x3d6f3064bdee3a36U, 0x3cb71ff93d5c64e8U, 0xbd7676413d14619aU,
  0x3cd94eac3defb469U, 0xbc424c1a3e2854d8U, 0xbe1a47c73e1ffedeU, 0xbd844b183e59afdeU,
  0xbe2b4479bdb84f2cU, 0x3e2d96efbe29bc01U, 0x3c6d7ac23d99c73bU, 0xbebe2e82bdede8a9U,
  0xbe00dd7ebd087bd6U, 0x3e135ebfbdf297d1U, 0xbe6fecfd3e1a4814U, 0x3b11ff603da9b0e6U,
  0x3b863269bdc15a8dU, 0x3d8c06b53d56f9e6U, 0xbdec674e3dfd442fU, 0xbddad9a93d413e9bU,
  0xbe1cf297bd825c34U, 0xbd968303beb81bc8U, 0xbee21211bc6fde59U, 0xbe2f9250bb87f52fU,
  0xbc2dc733bb755898U, 0xbdc07f17bddc5f52U, 0xbe13cf86bdee2c3aU, 0x3cb228bcbe74a29fU,
  0x3de13e0abdd7104fU, 0xbe28d8f53c0be0b0U, 0x3e3d56fabe692efbU, 0x3c88b1d4bead6155U,
  0xbde98495bd83bccfU, 0xbd90ebcebd28e7d6U, 0xbe8bac57be7f17eaU, 0xbe41ae3cbd253a0dU,
  0xbdc564ad3e508475U, 0x3b2d8e39be459ca0U, 0x3dd1e24fbc2bb7ceU, 0xbdc37598be114f42U,
  0x3d9fa72d3dc9e4efU, 0x3c50842ebdc9df20U, 0x3bc63b26bc734d31U, 0x3d4d26cfbe378bf5U,
  0x3e56eb59bd145b37U, 0xbe6f81053e63163cU, 0xbdcb08dbbc8e57e9U, 0xbd39cdcbbcf6db9dU,
  0xbe2f58103d6b0b81U, 0xbd395d38be06d0ceU, 0xbd884829bc7dd2baU, 0xbe09ddf1bdaf0537U,
  0xbe8c6faabd94c76dU, 0xbeb5a1f93dec62acU, 0xbe2edc33be87c2e0U, 0xbe0dceeebe2ad064U,
  0xbdeb07f73a96352aU, 0x3d403587bd2d61edU, 0xbe286394bdd41a48U, 0xbe01abd33ce59064U,
  0x3de5e4ddbe9c609cU, 0xbe72679d3e5c0c47U, 0x3cac6c0b3dce5d1dU, 0x3d63d056bc8d59b4U,
  0xbd2adf3fbd2c8b60U, 0xbe0b633a3d497d2cU, 0xbdd4a46b3db22935U, 0xbe0505d8bea4b115U,
  0xbc925e8ebeff4c8cU, 0x3e7f09d4be887fafU, 0xbea955b13e07181dU, 0xbdc9764bbe6c7a58U,
  0xbd854dbabe7b8bb4U, 0xbdf07258bdc6cd68U, 0xbd4c0ca1bd80e8d0U, 0xbe45d4ce3ac2557eU,
  0xbab07acdbe3bd11eU, 0xbeafc1cabb7ea033U, 0xbdc78664bd9c0c7fU, 0xbc44ab683d8ac62eU,
  0xbd9f195ebda5549eU, 0x3cfeec99bddce32cU, 0xbdc1bd93bb09dd1aU, 0xbda733f73d36adf6U,
  0x3dd2884a3c068f5bU, 0x3ebb21813b3a0955U, 0xbddb5a663dc8ed8fU, 0xbac0c75fbd603e0dU,
  0x3da81b6cbc9ae275U, 0x3d92909bbcbd0842U, 0xbd08014dbbc8b2c4U, 0x3dde5d7bbda9b5ceU,
  0x3d85a50dbe271321U, 0xbe8de9f3be4ee2ecU, 0x3ce8a32e3daad254U, 0x3cd9b30c3ee07cb1U,
  0xbe2db2d2bdc62ca1U, 0x3ea12c2e3d8f600cU, 0xbb040d223e21ef58U, 0x3c91d0303e1b54c9U,
  0x3d9b37053e11b3fdU, 0x3df4e71b3dfcf564U, 0xbd12cd343e161806U, 0x3d59b8c0bd1d6755U,
  0x3d4904b8bd8c762fU, 0xbd07eec73d64b001U, 0xbe461f523a9303faU, 0xbdcba2933b40b862U,
  0x3e3ab540bdf13348U, 0xbe577c4bbdcc86d9U, 0xbcddffd83dd325d1U, 0x3cd825c0bcaf5b31U,
  0xbe17159c3bdab895U, 0x3df3b7463cdcc0a1U, 0xbe4b1ebc3cb1266fU, 0xbd74b9163e6dfa54U,
  0x3d1c749bbcb3d4d5U, 0x3df98199be80dcd8U, 0xbe582e643caec2c7U, 0x3d05ef70bc0fbbf7U,
  0x3dbed9223b2f2f28U, 0xbe348b623d95c7f1U, 0xbd7c371abda77f4bU, 0x3e4580d3bd701943U,
  0xbe0b8fa63cc5c3e1U, 0xbe362e28be768e8dU, 0x3e962847be996cedU, 0xbcf2176cbe601b5cU,
  0xbe1bf82cbcf003b1U, 0x3de725213e5fe1e7U, 0x3ddc69c6be02912fU, 0xbda2e1353ced156eU,
  0x3df5123d3e265cb1U, 0x3e628eb33e0cd5b6U, 0x3e0553ffbd4b7137U, 0x3d9697743ceb9050U,
  0x3ced4bcbbe340b90U, 0x3c96e30d3ba0d7dbU, 0x3df1624fbe3e1dbaU, 0xbc85c06e3d8964b8U,
  0xbbe2b7c43c51496dU, 0xbe8a12613dc23b41U, 0x3d9673543dd3bd2bU, 0xbce717763d7fc3f9U,
  0xbd6a16fc3e026407U, 0x3e0a95d8be4ddff0U, 0x3d21ea2e3e3564e9U, 0x3d9e94363d8fd94cU,
  0x3e3ae0b33e179f16U, 0x3e172113be88ed46U, 0xbe9c76a63e0be146U, 0x3da9cc3d3df1dd67U,
  0x3da9abc0be74d0fcU, 0x3e062fcf3da3cef7U, 0xbe912e72bdb8bb11U, 0xbe6405663e21429fU,
  0xbdb5e9f4bdec6fc6U, 0xbe67dacb3d90b59eU, 0xbebe8cd83c9a24a0U, 0xbc121728bd79cc5eU,
  0xbe26e306bd29add5U, 0x3d9e52663e3ce39bU, 0xbca82ff53d0dd7a0U, 0x3d4f86253e5c19feU,
  0x3cb30b06b77d76e8U, 0xbdb1eeb83d722affU, 0x3d1c7b4a3e538472U, 0x3c7249833c61a00aU,
  0xbc83cf843dc9588eU, 0x3d07c6993e04c177U, 0xbd8245f8bd3740a2U, 0x3e61d5b23b7f80dbU,
  0x3eb997523d2747caU, 0xbcfe1ca73d20132bU, 0x3c825f04bc453fc1U, 0x3cb8eef43db3f22dU,
  0xbd3fca873b24c378U, 0x3d732b7ebba1a07fU, 0x3d1c39e33cbb67fdU, 0x3dc378f63b9c89a1U,
  0x3d758c4c3dd1e068U, 0x3d7db9debeb62b9aU, 0xbe9f52b53d358663U, 0x3d318a8bbc7cb7fcU,
  0x3d56fbcb3c05e219U, 0x3e0fa29b3cb34557U, 0x3c96a7fa3e2b4951U, 0xbda4358b3d36bb53U,
  0xbb2c21113c90b3f1U, 0x3e0aa6ae3d0d86a6U, 0x3ce4b32a3d0a8978U, 0x3d404e62be0613b4U,
  0x3d4aa0f93de96573U, 0x3c9865693bc9dfbaU, 0x3d086d633e074805U, 0x3c17983fbd04b988U,
  0xbda7fd9ebe8f8c71U, 0xbd7a4c73bf0f7134U, 0xbdd7e5bc3d5eecfaU, 0x3dd8faaebead7b47U,
  0xbc1c2aeebe34f29cU, 0xbd17a6f33dd4881dU, 0x3dceb4f8be183036U, 0xbe4698ee3dae79b7U,
  0xbdfee694bd2fddbfU, 0x3dcad4143df550e5U, 0xbe0cb9e4bdd2927dU, 0xbd8c25d6be19ced0U,
  0x3d8b8fd7bdbf545aU, 0xbe976236bd94b033U, 0x3ba4249a3e6c3d42U, 0x3e66a7303e6bd04dU,
  0x3c8ee2053a11e025U, 0xbe39b406be39c857U, 0xbddb76513afe4a02U, 0x3d43f9fb3d3384deU,
  0x3d3112db3e1551b2U, 0x3e2e778d3cce0cb4U, 0xbda725f23dbf387fU, 0x3e16b289bd6869d6U,
  0x3dabd952bdfdc0feU, 0xbe29f7d53e2f5d97U, 0x3d954b663d823a8eU, 0x3cf2322c3e314c6aU,
  0xbe6c70a6bd988dd8U, 0x3e1c7f003da3e14eU, 0xbd6d2fa1bcae66baU, 0x3df08747be67b643U,
  0x3cd4db93bc9e306fU, 0xbe4565ebbf0d4eb8U, 0xbe4b703abdfecb8dU, 0x3d88a384bde39f7cU,
  0x3cb359523d55442eU, 0x3dec61563dd4f5aaU, 0xbcafda603d2ab12fU, 0x3d39dbf8bd2d7a63U,
  0xbdd5c6523c3f0a5eU, 0x3d9600e4be353abfU, 0xbe314e053a8c0633U, 0xbd5c034bbe5b864eU,
  0x3c3ba0b43d95337bU, 0x3dc45d6f3cdb490eU, 0xbdaa6f20bd64eb79U, 0x3db9ea0cbe5308eeU,
  0xbd97895fbeb5fc6fU, 0xbdd33893beaa962eU, 0xbd7950e63da36a6bU, 0x3d7dbf1dbdcd93cdU,
  0xbd9051c03d978735U, 0xbb8e1b603de23189U, 0x3d973d40be1861d6U, 0xbd8f9052bdad8611U,
  0xbe8e71513d538dcdU, 0x3e0e9936be43a85dU, 0xbea50255bd1adad1U, 0xbd7cb7e63dc5041eU,
  0x3e29b6373d693ee8U, 0xbe26934fbe86d47aU, 0xbd4482fe3bcc99e8U, 0x3e4572df3dc00fd0U,
  0x3de1514a3de66a5bU, 0xbacfbbb2bed5189aU, 0xbed403bf3db5d88aU, 0x3e1980e83dbdd005U,
  0x3d5c05b33e19c50fU, 0xbe8be9103e0a520dU, 0xbeac98fdbcdb2ef9U, 0x3dc621c8be2ba0a5U,
  0x3db5e124be3caeb3U, 0xbe9c15ccbea4e20aU, 0x3c161cb1be3d3b5eU, 0x3d24826a3d150f59U,
  0xbe01d3c0bc969e5cU, 0x3e11bd033d1357abU, 0xbd246bf5beb746ffU, 0x3d4c6cfe3e3075b2U,
  0xbde9c28b3d81aad8U, 0xbd922995be6d87a7U, 0x3e3a70bfbe6e670fU, 0x3e37439abe923327U,
  0x3d9e5ba53df959ddU, 0xbe5581063e127c39U, 0xbc8b4230bc931790U, 0xbacc70333dc727d0U,
  0xbb96d8a63cb8fa0cU, 0x3cab6ed13c2124c4U, 0xbe34e133bd83c9e9U, 0xbd381b26be60e820U,
  0xbc854ac33d6b65cfU, 0xbe14a51abe794d0eU, 0x3d636f64bddfaad9U, 0x3e5e9b21bdf059caU,
  0x3d7effcdbe66ecceU, 0x3d3178f1bbe8b348U, 0xbe04ae5abeafc27bU, 0x3e1360bdbead8aebU,
  0x3dbec52d3dc1287dU, 0xbe0bd3ae3e01ad15U, 0x3e1181eebdab128cU, 0x3e19db58be371bb1U,
  0xbdf5c9e93d0935b8U, 0x3e55291bbdee9c3dU, 0xbe4055eebe3f6be0U, 0xbd8bbcdbbdee161eU,
  0x3e00f00cbd1b0b4aU, 0xbf1df615bdf26288U, 0xbc1e578bbe000a47U, 0x3e1add8ebbfbaf53U,
  0xbe81f1d03d4db806U, 0xbea124dabe9901e1U, 0x3a212237beac36e7U, 0xbb96592dbe6eee0eU,
  0xbd991064be467b69U, 0x3c96a506bc865aa8U, 0xbd2ceaa13d1c35fcU, 0xbe85beacbdf9ed89U,
  0xbe485e1fbdec5f6eU, 0xbdf6a26ebe3de8e1U, 0xbe927c033df9cdb7U, 0xbc9a72543ccc0416U,
  0xbd91643abd6b623cU, 0xbdd5c163be058e3fU, 0xbdcb1f6fbd3fd1ffU, 0xbdc53f53be137b03U,
  0xbe5a3a60bc3b4a9cU, 0xbf2e1fabbf0ad3b5U, 0xbe6ab1a9be82a1adU, 0xbd66a1d93c22f923U,
  0xbc15e3bbbdcfd60cU, 0x3d9934d23d098bb2U, 0xbd3fcb2d3dab9137U, 0xbd96586c3d1c519aU,
  0x3d0303d6bdf2bd9eU, 0x3b292d38be48214eU, 0xbe29fbc23c043a2eU, 0xbd0d2bf63df1d699U,
  0x3dbe6652bc77d1bcU, 0xbe1bacbebedef2bfU, 0xbca626453cd5ccc5U, 0xbd8d9c0cbe439ab4U,
  0xbe98b834bdf675daU, 0xbf1b19a6bd91a7eeU, 0xbd78e224bdc7cf91U, 0xbe56c28a3d99c8eeU,
  0xbe3c1fb93c80bfbcU, 0x3d7f62173c09c7b1U, 0x3da986843e30a35aU, 0xbf0679c3bd0fd570U,
  0x3e0f14babbdae1b2U, 0xbd8cb1e63e0025c3U, 0x3e8c3ddc3e191c89U, 0x3c74f580bcf9993dU,
  0xbe1789d7bd3a0a84U, 0x3dfc475dbe63774fU, 0xbb7bb3b43cabc476U, 0xbe06ec75be31dba9U,
  0x3a59be8c3cc35788U, 0xbd196e283ccc9b0dU, 0x3df3cebebdb7d7f0U, 0x3e2040cd3e135cc9U,
  0x3d8889003e06580cU, 0xbdbac3e73bb9c2ffU, 0xbd03846d3c77446cU, 0x3d82530ebe232bf9U,
  0xbd714171bd6e7853U, 0xbd91cf05be32e2afU, 0xbdc759edbdd2b7cbU, 0x3d490f2abdb72007U,
  0xbcd5f6533d0ca63aU, 0x3db710e2bcc188fcU, 0xbc1e6d413ddfb8a4U, 0x3bd87d2b3ce10e41U,
  0x3d58e4773e8f2044U, 0xbcf27312be1a66d4U, 0xbdeab1043c992a5eU, 0x3d83773a3e0f4e04U,
  0x3e109e333dac8768U, 0x3dcaa5a33d1b9a88U, 0x3dc4520a3de04b14U, 0x3e0c33943df93be6U,
  0x3d18bd38bc4cfdc3U, 0x3d966ff1bdd70efaU, 0x3ea60c12bea49065U, 0xbd212e70be49deacU,
  0xbc093db43d39c029U, 0x3e4c10eebd400c7eU, 0xbc783e273e13c7b9U, 0x3e0361cd3e139b1aU,
  0xbe86fdbabd1b1db5U, 0xbeeb0a353dee0806U, 0x3a8e5d743de5c9dbU, 0xbdde04c43e0b2918U,
  0xbea72b5a3e7290f8U, 0x3cca0309bdc3d1e0U, 0x3e74b2ccbd0bd0e5U, 0xbe13de5fbd2e0fcbU,
  0x3ebd1d663d32e9a5U, 0x3df3d22a3c21fdf2U, 0x3f01ac9bbdf9817cU, 0xbd8047e6bc1c10f0U,
  0x3dd2643cbd5fae16U, 0xbe82b525bf011503U, 0xbe7192b9bce68ceaU, 0xbe0c84ca3de12a24U,
  0xbd40d7ac3da1861aU, 0xbd4144f4bd84f6e2U, 0xbcaf0431bd0acd0eU, 0x3d84f63abc6a9a5cU,
  0xbce7b08c3e44a84dU, 0x3d2d0cd9bbd406feU, 0x3d83eb203df13993U, 0x3e44f49cbd01c98aU,
  0x3e386624be1668aaU, 0x3d493c593c05c1f7U, 0x3dbc6a593d62b14fU, 0xbd945a733d91d167U,
  0xbac6ed803e1a37bbU, 0x3d1847393dd0bd10U, 0xbc8d916dbe0c4825U, 0x3e234f84be71e696U,
  0x3cf26aa93e50bc7dU, 0xbe562b3ebe234d39U, 0x3d35db3d3e80061cU, 0x3e149a0c3e1b5c85U,
  0x3e23560a3e84c638U, 0xbd1069773dd25a94U, 0x3d0235013dc08ca0U, 0x3df6e8513e058304U,
  0x3e1855e73de3691bU, 0x3d27eb703ddbcd58U, 0x3eb9a20f3d6c006eU, 0xbccb97003e0401ffU,
  0x3d1331973e134888U, 0xbe19f1b4bd1bd249U, 0x3c384a68be271af5U, 0x3e400af1bd40efa5U,
  0xbd9b7288be1fdbb4U, 0xbc7617a23da15d13U, 0x3e09d9d8bd846bfcU, 0xbd99e7403c1e220fU,
  0xbd8d50e2be4041afU, 0xbd7be3533dbf7363U, 0xbd4bcec03e2c5dedU, 0x3d220067be2a9b1dU,
  0x3e9335783d158d89U, 0x3df8ba4cbd8498d0U, 0x3ec3a96abe73676cU, 0xbbcd6f80be7f2e78U,
  0xbdd5b037bd18abd4U, 0xbe187ac7be3f6436U, 0xbe3d223e3c9444a2U, 0xbd060a283cb26a3bU,
  0xbd95aa6bbea0486eU, 0xbcd257673be9ee75U, 0xbe43898cbe5fd32dU, 0xb98d53823d7721f2U,
  0xbd3d5b12bdb9cd4cU, 0xbe66699abdc49beaU, 0x3c56cc25be65229aU, 0xbc1defdbbdb76a66U,
  0xbe4ac05bbe086401U, 0xbd62a05dbec6b437U, 0xbd5000d8bebf61e7U, 0x38d9c000be901883U,
  0xbc8ad513bdff3259U, 0x3d2032063d9369cdU, 0xbe224a3e3d096329U, 0xbd9a8efdbe11dd88U,
  0xbcc1fb09bd9cf9d0U, 0xbd86b1e5bdd4a24eU, 0x3de8fcbdbe56759aU, 0xbd442355be0c5f97U,
  0xbe048c0a3d5dd8efU, 0xbda565823c2503d2U, 0xbdf074adbdea95aaU, 0xbdafd891bcc08510U,
  0xbdb1f1ed3ca89128U, 0x39da2c88bd5d97a6U, 0xbdd0fab2bde135c9U, 0x3d3bb45abda747e8U,
  0xbdfc1e4b3d45794bU, 0xbc187738be15ded5U, 0xbd1ecd733d99ca30U, 0x3d3a602fbe38afc2U,
  0xbd9c51f4bd797605U, 0xbd307a0b3d6bf4ebU, 0x3d20a7edbe96dd2aU, 0x3cad2abc3d8ee4acU,
  0xbe033ffdbddb7298U, 0x3d15c981bd9789bcU, 0x3dffb3b3bd8efcddU, 0x3c0786413cb29c81U,
  0x3d4388fa3d9ffcd6U, 0x3ccb342f3db856e7U, 0xbe0691283d06d7f0U, 0xba836000bca12f30U,
  0x3de1b80bbdf1e0c6U, 0xbca8bd603cf956efU, 0x3c9bae1c3d810a1dU, 0x3d2aad46be3224c2U,
  0xbe1d0249bddb3b36U, 0x3dfe436f3e9b3b3dU, 0x3d64fc28be1c0ca3U, 0x3cb5d0ca3d7886acU,
  0x3c7e17083d4007c4U, 0x3e25ab64bd9486caU, 0xbddabec8bd92847fU, 0x3dfdff413d7e90d0U,
  0x3dd746fdbda158a5U, 0xbd85bda73e088f88U, 0x3e8adf923e85f2acU, 0x3d01a2f03d2fff25U,
  0x3dc62d05bdec33f6U, 0x3e9deebf3e98ca6cU, 0xbe1388c33e83ea21U, 0xbc0d7a22be013919U,
  0x3e07497fbdd601f8U, 0x3d8b0f5f3e953039U, 0x3ce99ad4bd5e246fU, 0xbdac147f3e274fa3U,
  0xbd9e220bbe35c626U, 0x3d6a3f663cd2a623U, 0x3c94e2f93cc70a2eU, 0xbc7ba7033e10751dU,
  0xbd53b6f13bf112adU, 0xbda48ff93dcf5ef0U, 0xbe627bc73e523522U, 0xbd43f0763e03eb82U,
  0xbe59419a3dd88444U, 0x3dbda4643e42a808U, 0x3d84ed2b3e7cf506U, 0x3d26a67a3d4e8b07U,
  0xbdf944623c4da9f0U, 0xbe42146e3d34b748U, 0x3d06db1d3d90cb68U, 0xbe1aaabf3d563a9dU,
  0xbbe43c5fbd3a88deU, 0xbc72febbbd1eb9f4U, 0x3e01bc97bca5719dU, 0xbd1d12fe3caf9377U,
  0xbda6ab893bcb75e6U, 0x3dcc67a4be4990deU, 0xbde4cc973d4c37eeU, 0x39aa63003d98cce3U,
  0x3da4c5803c9925d6U, 0x3c2e6dad3e2cc83eU, 0x3ce34b5cbc9de884U, 0xbdce0e963a64532fU,
  0xbe2d96fdbdfc784bU, 0xbdd01a97bd2961d5U, 0x3dccce6a3dc92354U, 0xbe9d7cde3e30878fU,
  0xbe0b15c63dd7d13fU, 0xbcd7cdcbbe192393U, 0x3d699aa13e64330fU, 0xbe0f34f3bd590e1cU,
  0x3e687865bde69533U, 0xbe63b9aabdb92897U, 0x3d3904f43e0337c7U, 0x3d6a08b63db00e46U,
  0xbcf2b54fbd66c6b8U, 0x3e894d70be4a25b0U, 0xbe56542d3d608ac5U, 0xbe26624ebe56c566U,
  0xbe12c7993cc8ec86U, 0xbc6308febd21530cU, 0xbe028374bd7295cdU, 0xbdbb61d53e4a3b7dU,
  0xbda215b8bc6e2e11U, 0xbe301101be385898U, 0xbe213db639adf8bbU, 0x3da36f60be1e2457U,
  0x3d32e0f6bd5402beU, 0xbe74bba3bd03b3b3U, 0x3cdba3ddbcbc2ff0U, 0x3d9e8add3d453e22U,
  0xbdc5f90b3dc11b7cU, 0x3e6ba2463e106096U, 0xbba7b3b2bd3487c0U, 0xbe2a2bc7bce44459U,
  0x3df9baf23e1f7259U, 0xbd40b161bd1f44c5U, 0x3e4da69c3da69cd7U, 0xbd9b5d503d014a5cU,
  0xbcfa5b983d5ce089U, 0xbe45ee5e3c3ea6b1U, 0xbdc57abdbd415581U, 0x3dcf0d4d3d7ba3daU,
  0xbe2c2d553db66752U, 0x3e38238a3e341991U, 0x3dd169e9be5b3466U, 0xbb3e2200be2c0d1aU,
  0xbd0ce8343afe8aa2U, 0x3d178a5f3df23feaU, 0xbd986565bdfb8ed8U, 0xbd860b5d3d39c3e2U,
  0x3ea1181e3dd9b1eeU, 0x3dfebfa4be02da0bU, 0xbec55c9b3e51c699U, 0xbc8514c7bdcbac27U,
  0xbd927979be319096U, 0x3e131600bbbd0df6U, 0xbd7172a4bccb488bU, 0xbd7a2591be2b80b5U,
  0xbdcbd363bdafebfcU, 0xbe2a28253e8cc660U, 0xbd9172c83e4c0c7aU, 0xbc2d14e83e034a73U,
  0xbe3e19733da642e3U, 0xbd641c4fbd4f5f32U, 0x3da678693dfd1b3eU, 0x3da5048f3e75fd41U,
  0x3dba199abc281c2eU, 0x3d55e5763caaa769U, 0xbd85cf8e3e390cd2U, 0x3d8c07ee3e473039U,
  0x3d42af71bc7ca2d5U, 0x3d6a5b753aa37a4cU, 0xbdbe15f63c16423aU, 0xbe038e3cbd705c78U,
  0xbd90ebae3d759e86U, 0xbc8e78a7bd884059U, 0xbd1508fd3dd0f9c3U, 0xbd7bf1563e23ebedU,
  0x3cbe128fbdbb548aU, 0xbebc1bedbdec0945U, 0x3b82e411bd8fff26U, 0x3cf79ffb3e1ca82fU,
  0xbe587900bdabb3bcU, 0xbe98bf113e5332deU, 0x3e1ef2203e01109bU, 0xbe05cc8fbd03c0c5U,
  0xbeb8fa13bd5d3671U, 0xbe65b1c7bd228ab9U, 0x3d9c06a6bdc709caU, 0xbe4a0264be448520U,
  0x3e3e732d3cb7f4f3U, 0x3d8a447c3ca2804dU, 0x3ed60b94beb03d3dU, 0xbc8a552cbeb56055U,
  0x3d94bad83d402c83U, 0xbec2d1ecbd9d6a4aU, 0xbe80b4de3d27761aU, 0xbe277de43d480332U,
  0xbe25c565be80862eU, 0xbe90f80cbed960c2U, 0xbe1884e1be5d2e47U, 0xbd917839be52c5c0U,
  0xbde841a7be7336c3U, 0xbe46639339efb659U, 0xbe8832d9be4117efU, 0xbe0c8137bde47dfdU,
  0xbc5f81723db01a33U, 0x3c822912beb1f51bU, 0xbe1f2e4cbd4d0bdbU, 0xbd2c2aa0be5cfcf7U,
  0x3b400e393d2fe1a3U, 0x3c850177bdd6d498U, 0xbdc0e35ebde85355U, 0xbd9240b2bea84753U,
  0xbe3025d2bcd321cfU, 0xbe3aba6ebdf2eba1U, 0xbbb42adc3da02231U, 0x3d9d9325bd0c5030U,
  0x3bc1be07bd3f1812U, 0xbc9d42553be2fc0aU, 0xbe2edbcbbe04bd17U, 0x3cc0fd0a3e28a8fdU,
  0xbdad7a0dbba6ffd2U, 0xbd37f5bd3b179aabU, 0xbda0e119bd82af6fU, 0x3c5d1b00bd8227c4U,
  0x3bc183823d39de6fU, 0xbe6d4020bdc5a868U, 0xbc80838a3d92dedbU, 0xbcb9db873cce2875U,
  0xbec9b98cbdf38ab5U, 0xbf0035b03eafd847U, 0x3e9add1d3e51cba4U, 0xbe4088e33db2ec7eU,
  0xbdf59501bbe31804U, 0xbe432e70bd4e5f34U, 0x3e481d2e3ddb7babU, 0xbd6e0de33c28a5aeU,
  0x3eb884633d3de662U, 0x3c0eb8413d67ca72U, 0x3f046619be6f706aU, 0xbd241c0bbe57fe05U,
  0x3c70ef9a3d2fde64U, 0xbe814720bd97415dU, 0xbdf541dc3e4ac7cfU, 0xbe254bc23c87bb5eU,
  0x3d07218abe830b09U, 0xbd3f1e78bd272f6dU, 0xbcf4802ebd49e738U, 0xbcfa9563bdc5e234U,
  0xbd90f80abdd26468U, 0xbe474511bd891ed0U, 0xbd1fdf26bc8c1237U, 0xbc1231d4be0cbb47U,
  0xbe39dc823b3c25a8U, 0xbd079a00be42d152U, 0xbe339445be5e4250U, 0xbd8e9538be0da5b9U,
  0x3de28d69be05e2beU, 0xbd5b8e83bcb07501U, 0x3dbd1149bb7a3f0dU, 0xbcfc5e53bd88d3c5U,
  0x3d32979639fd9111U, 0xbe512100bc1ab980U, 0xbe6adcbabcdaa261U, 0x3c2788a93dd4d66eU,
  0xbd76d4f9bd772ca3U, 0xbdd473dabd720465U, 0xbe5d9adbbe771d86U, 0x3cb6a3b43d6f6a68U,
  0xbe239bb6bdb95af9U, 0xbdd7d08abe14ccecU, 0xbdaea5b9bd9c9a11U, 0xbd9060b8be095a90U,
  0xbd44ee013dd646c0U, 0xbc1360adbd325c35U, 0x3dd27e57be599e2fU, 0x3b444e77bd850c00U,
  0xbdbb3da5bd11db8eU, 0xbe4b55113e2434c9U, 0x3e004e853dc4c4a0U, 0xbe374cfe3df5cd25U,
  0xbe88851fbde22c63U, 0xbe0045283d5fe880U, 0xbddeb617be3a767cU, 0x3d0a2c63bd595802U,
  0x3e2a72eebd8fb845U, 0x3d6662073e08e366U, 0x3e9db025bdbb796bU, 0xbd82838bbcdf5b03U,
  0x3cf905fabdd48fa3U, 0xbc774712be0f9a66U, 0xbebdc29c3ccbb5c7U, 0xbe165431be2a6618U,
  0xbf0576ff3d258a06U, 0xbf37efcbbe88008cU, 0xbd92d094bd765033U, 0xbe897e4dbe09e57eU,
  0xbcbd64b73e38f70aU, 0xbc1bf6ecbe20f90fU, 0xbc6331753e1b1b00U, 0xbc056104bca8c80eU,
  0x3d85dc2b3cd3ac92U, 0xbd832d1b3d68f6c5U, 0xbcee97923d7c3832U, 0xbce5e16cbd77a9d8U,
  0xbbfb5e7cbd9c1a9dU, 0xbdacf59fbe28b905U, 0xbe832b47bd0b92d0U, 0xbda195d4be7b23f7U,
  0xbe260ad13e53ecfeU, 0xbd6a6c61be67ab38U, 0x3dbafec6be02bc70U, 0x3db71db53c81ae98U,
  0x3e52353a3deae2b6U, 0x3e1a2e8c3da6f88dU, 0xbe042be23e3049dfU, 0x3d3407713d642c88U,
  0x3dd5b52e3d194d66U, 0x3d0225223d6f378cU, 0x3c46ef083e3acc8eU, 0x3bc3d1b03e36712eU,
  0xbd321e763c1b1541U, 0x3e2106bc3d55686fU, 0xbe0282b73d878e23U, 0x3cc817d0bd76691aU,
  0x3da7700c3ca250b3U, 0x3d34f6933e108961U, 0xbd842cc4bd2fa672U, 0x3d683e5f3e506885U,
  0x3d571d5cbdcdc20eU, 0x3dfa27ed3d812d36U, 0x3cb83f03bd8d5d2cU, 0xbdc69e8a3d3b4904U,
  0x3e001d183d564fd1U, 0x3e391da33dfe1c2bU, 0x3e183bf2bd74546aU, 0xbd4cd67bbd90d0d6U,
  0x3e09bfd8bc90a1a8U, 0xbbd018423dd101f0U, 0xbdceadd3bd83c60fU, 0x3d2039ac3d89e9d2U,
  0xbe9f291abcbc7564U, 0xbe936177bdc82880U, 0xbe45ee6dbd97ee0bU, 0xbe5b6672bed45530U,
  0xbe82125c3dc11cedU, 0xbe35db41bb9f35c4U, 0x3dafba54be989a83U, 0xbd279fcebdb89849U,
  0xbe3d5f6c39b1a8dfU, 0x3c3c20c2bdc47760U, 0x3d32d822be9d7433U, 0xbced08a0be8534d1U,
  0x3da70cfebd5e3436U, 0xbec9bbb8be7d29e4U, 0xbe4eb4f5be4d0901U, 0xbe59ef7abd42abfbU,
  0xbe2fb14e3da2f589U, 0xbe871601bec8ca42U, 0xbd8c4b08be0baf57U, 0xbdbdcd20be692d2aU,
  0xbc84231d3e3031a3U, 0xbcd8542dbde010f3U, 0xbe50902b3c2aa6acU, 0xbdb58c45be013937U,
  0xbdcab0d93b595a78U, 0x3a9928b03d2f1812U, 0xbb7c13633dcba66dU, 0xbcac5b2c3da135c3U,
  0x3d52da96bda62b19U, 0xbcaafb8bbe7bfd52U, 0xbe38b027bebc23baU, 0xbdd4ff29bea6b0f9U,
  0x3e322850bd8de5f3U, 0xbe7d0263bcfb3efeU, 0x3d86eb5ebe6a770cU, 0xbc9b22433ce3cf1dU,
  0x3cd18190bd8a1017U, 0x3d913cd2be1818abU, 0x3e1d69a83cbdfc5bU, 0xbe87af5b3d766877U,
  0x3d3aac913e0f6026U, 0x3d99c6b03cb86c24U, 0x3e00c7a23e1e4aa7U, 0xbd771ab6bd420d8dU,
  0x3d7b7b4b3d874c02U, 0x3d44b13c3c1469efU, 0xbd8bab2d3cc51c88U, 0xbdb3c177bdb8c900U,
  0xbe6db921bd3f7e0cU, 0xbda76b8ebd5f4c73U, 0xbe05762b3dedbdc2U, 0xbde4f11abdc4f8dbU,
  0xbe98d653bd495d57U, 0xbd752f1b3d5a3675U, 0x3e143e5dbe8a2ad4U, 0xbe691890bceb6447U,
  0x3d8a09633e0b8bbcU, 0x3cf889c1bde04717U, 0x3df7ba21be264a93U, 0x3daa0d5dbe194164U,
  0x3e406006bdecc065U, 0xbf02bfcfbe46c21eU, 0xbe870722bd8c9c74U, 0xbdce60b33e309748U,
  0xbecb7ebc3e4dbe5fU, 0xbe41d3fdbe2e3a5fU, 0x3c83434a3d8a10ecU, 0xbee8b41c3d9a6e21U,
  0xbeb50c303ca94d1eU, 0x3e1ad5f9be4cb4c5U, 0xbc4f35ed3d7f77e5U, 0xbeeba6c8be48bab2U,
  0xbd000c4abcff0399U, 0xbc373a1f3e70b627U, 0xbde610f93dd50d6dU, 0xbd9b13183e1a9ad9U,
  0x3cbd1115be02c5d3U, 0x3e0e1368be38da4eU, 0xbe5fc2debea8b4bfU, 0xbe8be3e03dee6c8cU,
  0xbe983526bd8c1cecU, 0xbe4facb93e9775ecU, 0x3ca2f7293d1ff418U, 0xbefde1da3e91475bU,
  0xbe38cec0be772df2U, 0x3ca9b5d2be90bc62U, 0xbee88fc8bd0b6c90U, 0xbe4ea69dbe95f10dU,
  0xbe34294fbda15ef8U, 0x3ceefaf5be122ff9U, 0xbe9683d3bd6b783bU, 0xbd787abbbd35dbfeU,
  0xbddad3dcbe372fbbU, 0x3af1c0be3e3b50b0U, 0xbf02cd7b3de80422U, 0xbee255863d54a970U,
  0xbd9e5dea3da9560eU, 0xbe3309f7be88f142U, 0xbc9bb221be28d33dU, 0x3d1c3c6ebd99b929U,
  0x3dc31b503e017ef9U, 0xbdf2340dbb1fc1c5U, 0xbe1d7dc2bdc22aebU, 0xbd7fa64bbd9f0841U,
  0xbe654170bd208eddU, 0x3c6cd654be12955dU, 0xbe94cc43be839d14U, 0x3d2b693abe8de3b6U,
  0x3dacad083dd2785aU, 0xbdaf85f7be4195ebU, 0x3dab9bc4bd97ce75U, 0x3cf00632bd5f696dU,
  0xbd727a28bd15b780U, 0xbdd870303e6aa725U, 0x3d36cc5dbc193abbU, 0xbe7008163e213470U,
  0xbe631ed1bda459c7U, 0xbe0cac53bdcd87d7U, 0x3d1ec408be54a3daU, 0xbde3d949bdf01779U,
  0x3e279c3cbccc26ceU, 0x3e1a0d3e3d9db9adU, 0x3e6cb244bd8a7004U, 0x3d91c061be56ae80U,
  0x3dcc60ac3de712faU, 0xbe73bdcebd5ed33fU, 0x3ae1f92e3cc4ef0cU, 0xbda389403d064edcU,
  0x3d885f953d0638ddU, 0x3e571ef8be9be70aU, 0xbe085d8ebe479185U, 0x3dbba03dbe1831dfU,
  0xbbafb2f03dc9e742U, 0xbb9e11debd853c04U, 0xbe27eed3bca6f0ceU, 0x3cf8988fbd11e88dU,
  0x3ddf0d05be4425d6U, 0xbe3f718e3d3be346U, 0xbc3020abbe36c64bU, 0xbda213aebe34be35U,
  0xbe3c27aebd97c358U, 0xbc09d45f3d247592U, 0x3d3c552bbbcdb1c8U, 0xbd97400c3c418751U,
  0x3d0f1627bc25599aU, 0xbde22aea3ebe82deU, 0x3e227520bea89dd4U, 0xbb2ec137be34f18cU,
  0xbd8358e1bba8d582U, 0xbe8ce69cbbdd1fe7U, 0x3d8a3bc9be0c77e5U, 0x3cab486a3d53fd51U,
  0xbcb983643c1a51e7U, 0x3db0b2cf3d93d1b3U, 0xbe2355f0bddc81c0U, 0x3d87f661be28858aU,
  0x3d41077fbc919778U, 0xbe92b610bd51009eU, 0x3d83811fbd72bb2dU, 0x3db08d4bbe8e5661U,
  0x3bb1dad03cf286ceU, 0xbe9ee1103d479438U, 0x3d5bc23ebe8c90bdU, 0xbe1ae575bd335903U,
  0xbddc847b3cb4e270U, 0xbda677debe6ee4dcU, 0xbe85b109bbd2eb0fU, 0xbd9cc5cbbcd1de84U,
  0x3e53bedfbd99dc6fU, 0x3c5d80c23dc39238U, 0x3d78dddabe1ca9c6U, 0x3cfc7a00bdcb7115U,
  0x3c2915103c1ae1f8U, 0xbe5ae6353d9188acU, 0xbe176db03dfc3b47U, 0xbe3e3045bedeca61U,
  0x3b57b3dbbc840c68U, 0xbcbe2433be469a39U, 0x3d42c2efbe07919bU, 0xbe2b95c5be9400fbU,
  0xbddb4a87bc6fc777U, 0xbe0e17643cf2129fU, 0x3db16042bd94393eU, 0xbd53be633d37355cU,
  0x3e0f01903c9edcabU, 0xbe2156de3d6806e2U, 0xbe5d8d9f3db03703U, 0xbd4c1c5b3dd504d7U,
  0xbeaafbe33d3342a6U, 0xbe82f8a0be23e7ddU, 0x3d7b21d7be2af951U, 0xbd7f5ab43d6750c4U,
  0xbded50dcbe07291fU, 0xbdd387cb3e9b5de8U, 0x3d8b938ebc64b7b1U, 0xbdef34523daedcc9U,
  0xbe498aeebe4e51dfU, 0xbe098978be352120U, 0xbc7e429fbe410ecbU, 0xbbc0fdf8bdca278bU,
  0x3e890f0b3da03ac3U, 0xbdb1ac2bbcab38f2U, 0x3c8c5f3f3dd9abe1U, 0x3d6a7e323e205951U,
  0x3dab3fa5bdc24d50U, 0x3cd730f73e383a2dU, 0xbd7f8acbbc95cc60U, 0xbe3cb0c7bdf855adU,
  0xbe46670fbd77c81fU, 0xbdfc3d66be8752aaU, 0xbdb72bd4bdf0c21eU, 0xbe229c773d8f9164U,
  0xbe1459d3b92790e5U, 0xbe1ebf96be548c36U, 0xbe3b83e7bcf25c06U, 0x3d5eee0dbdc61eebU,
  0xbdefe80abde63079U, 0xbe12ad12bd1387b2U, 0xbd8bbf5cbdd3c06bU, 0xbd6730cbbe43ef08U,
  0xbe3c8cce3d6d1d1bU, 0xbd999e33bdbacf6dU, 0xbcc6479dbd8b7f65U, 0xbe11d4cfbe4c0e2fU,
  0xbe40509fbe1d2bc7U, 0x3cc664d0bcf8a3e0U, 0xbd4fa467be415c20U, 0x3d0d086a3d28a13aU,
  0x3df4bebcbd9154a4U, 0xbd821addbc48f686U, 0xbc4050e03d80dea6U, 0x3dd57d13bd9e5063U,
  0xbe154de43cfc22f9U, 0xbe4cc6563a9b12b0U, 0xbd1fc82dbe41fbd9U, 0xbd92b878be31117dU,
  0xbda1c4773c02bd7fU, 0x3e0cd5e03e590205U, 0xbd1779d23d2dcce1U, 0xbe0360edbd265debU,
  0x3c8188683d6620ccU, 0x3e4ccac33dde09ffU, 0x3b2de72dbe05a2d1U, 0x3dcca65ebe17ff3dU,
  0x3d6d69bf3e054616U, 0x3d34a1b73cb13caaU, 0x3e8d08f2bc428e71U, 0x3e9e15a3bda7aa36U,
  0x3edc90c9bde1d450U, 0xbd81c6ef3e83d34cU, 0x3eb119acbd65e46bU, 0x3cdd11ec3e1df6deU,
  0xbdbc45c73d3feafbU, 0x3f1133d73efb628dU, 0xbbb8d877bcac0bc7U, 0xbd42af47bca15ac0U,
  0x3d49b8113e205734U, 0xbbdbfea63d08559dU, 0xbd450dc7be875b9cU, 0x3b6ec65e3d4777aaU,
  0x3daee5f8bdd47923U, 0x3d15feac3e2457c5U, 0xbe0a6bb63db12acaU, 0x3d8b2d063d2cc3b2U,
  0xbc1e69a13d30f889U, 0x3ba412a63d78d559U, 0xbdabb554bdbfbc01U, 0x3da9afb93da0c483U,
  0xbd647f973dab83c2U, 0x3e19a8573e1fb2ddU, 0x3d1dd5e2bc843851U, 0x3d800eaebe19018aU,
  0x3db312823d62bff4U, 0xbca401473e244a98U, 0x3e387014be6766b7U, 0x3e1dfe563d05f54dU,
  0x3da26ef0be07245dU, 0x3e36908d3bb3ab2cU, 0xbd9e7fa03e129cb5U, 0xbdaf0bc43eb68cf0U,
  0x3de572b43e171602U, 0x3e166db73e84f42eU, 0x3d99a59fbd056c2fU, 0x3d8e3a793d250febU,
  0x3e07df8dbb2ddffbU, 0x3e01ffd63e0c539cU, 0xbd0f6eaa3e375521U, 0x3dd9279ebe675610U,
  0x3a8db76ebd5b979aU, 0x3e1bc1d23e4d982fU, 0x3e5c6696be2cbf85U, 0xbb9db4edbe2a99a2U,
  0x3d5b6abf3d231edcU, 0x3d4399383d5d24a4U, 0xbde75b4fbd28f678U, 0x3e92b337bd7940f4U,
  0x3e21b17dbdca673fU, 0xbcfc66d73bfcad9dU, 0x3e24da73bd3bb08eU, 0xbc93e6cc3c8669beU,
  0x3d2e42a43dc3ff0fU, 0x3e9709bc3d59bda4U, 0xbca1de123e2b4c58U, 0x3dbb8c71be60f3feU,
  0xbbe9750a3e116b36U, 0x3e56be183ea35263U, 0x3e49c4e9be80753eU, 0xbdb8b63b3e05c252U,
  0xbd8dcaaabe7ff798U, 0x3e577dbf3d99ff85U, 0xbdde530b3dbb3b8cU, 0x3dc56d9c3ccfbfdcU,
  0x3dbafee33c6254f8U, 0xbd6019cf3e3970c0U, 0x3bf819d63a620a97U, 0xbd86599e3cad765eU,
  0x3cb85a5e3d760e1eU, 0x3e8f0f223e9aeef4U, 0x3d9f4cf13e05757fU, 0x3c5898ddbe852668U,
  0xbd9fe948be2971c5U, 0xbd8498c93ed76f8aU, 0x3e9c41ccbe8e5927U, 0x3ca3d33f3e2164cfU,
  0x3d4644b3be4e734bU, 0x3e57cf823d23e8d7U, 0xbc618ab43d21e8ebU, 0x3d460e323cc6ba0cU,
  0x3e8a6e023c117f24U, 0x3d85da8c3d742c81U, 0xbe35bc533e1dca7dU, 0x3d5c89a63e474e6eU,
  0x3d5d01de3d8c6f61U, 0x3e76ba233dab7985U, 0x3e4120ff3e5a6925U, 0x3de3544bbea085e0U,
  0x3ba40ccd3deb9760U, 0x3e7d4cf73eb14f84U, 0x3e786b08bd39b1d6U, 0x3de278a53c2c0279U,
  0x3d880392bd34ef3aU, 0x3e3b9229b91a69adU, 0x3d9cfec2bd2103b3U, 0xbdc77e753ceb1b65U,
  0x3e15b2c1bcef9dd9U, 0x3d5c4bb33e04ed0fU, 0x3e12aeab3dc61751U, 0x3d265f1a3d99d06eU,
  0x3b8381523c4a8821U, 0x3e0cda3c3e0fb87bU, 0x3d172f8a3e8a058cU, 0x3d8a38c6be305d7aU,
  0xbcb72c5fbde7d8dfU, 0xbd829f3e3ed2b97fU, 0x3e9b5a993d084b43U, 0x3cc527333e76415bU,
  0x3c98c4f7be413f41U, 0x3e7d743a3d547172U, 0x3d99e25ebd7034d9U, 0xbd201bcf3dfa4845U,
  0x3e532e4d3ce09b5dU, 0xbc63cd1f3da3aa20U, 0x3d9d659a3e5a3947U, 0x3d84751b3e74af0cU,
  0xbd25dcdfbb3cc29bU, 0x3ea30ebc3dd0f5a4U, 0x3d9c2ca83e612ba2U, 0x3d23522b3c8a3f05U,
  0xbde8267bbe018bb8U, 0xbc6428743eca23c0U, 0x3e833996bafcfae0U, 0x3e13b42a3e72c10bU,
  0xbb9e49133debdd62U, 0xbe381b893dbe20a7U, 0x3e84f4a73d3e9475U, 0x3e851c583b198fc2U,
  0x3e81a68b3de445dfU, 0x3df66ca3bdebd42dU, 0x3dd96c5bbdd32071U, 0x3d8005833d74d8f0U,
  0x3d34254f3d24f991U, 0x3e6687d53eaadc49U, 0x3e5c26203ddbce91U, 0xbbfe7b5cbde95bf1U,
  0x3e5213763d22c312U, 0x3ea84bf0be8fbeb2U, 0x3d90a1debd83888fU, 0x3dd3ef87be803c03U,
  0x3ce3ee5d3e1b1082U, 0x3d3b1ab8bda15795U, 0xbbbb8cbb3c427cbaU, 0x3e8ba6e43e0245f9U,
  0x3d9bb2c1be1920d9U, 0xbde8fa4f3d0ff5f4U, 0x3e03513b3da8973fU, 0x3da509813e0957f5U,
  0xbd8b324bbc7b9ef2U, 0x3e8a1c92baf555a0U, 0xbe3e8ec23d2cacf7U, 0xbd3ee8243d622c17U,
  0x3e98d7903dc362faU, 0xbdcdcc863d26bc98U, 0x3e17f3bf3d16c4e6U, 0x3cf24290bda88473U,
  0xbcf98acdbee2a157U, 0x3e1768c53cedb545U, 0x3d79c67ebe262c23U, 0xbdf9a6293d0b1301U,
  0xbe8cc29c3dcefdabU, 0x3d1904103d25ce42U, 0xbf65b6c93da0d54eU, 0x3c6933e83e0e95d1U,
  0xbdab248fbb23e96fU, 0xbe609e70be343375U, 0x3bcbcd9a3d83be7dU, 0x3db87bb73e625e94U,
  0x3e4d3e0a3e4a94bcU, 0xbe11f7023dc32f10U, 0xbd21997b3e43ae1bU, 0x3baec9c73d5c209dU,
  0x3c93827abd539c7aU, 0xbda1c90a3cc551b6U, 0x3e8f1b4fbaf6041aU, 0x3d9c4dfabe60a923U,
  0x3ea961be3d168447U, 0x3e2a5a5bbdc3163cU, 0x3f0499b3be017df9U, 0xbc66f298bda9925cU,
  0x3da017573daabcfaU, 0x3e3471503eb4efbbU, 0xbd2395dcbd27ae10U, 0xbd8129a53d2fd41eU,
  0x3d38b00a3cda991aU, 0xbd91aad5bd6c9f03U, 0xbc039f86be1c26c0U, 0xbe255dea3db00de1U,
  0xbe43b4f03e07fd98U, 0x3c89090fbd131dc5U, 0x3960e7a23d921952U, 0xbdb6fc4ebdf45579U,
  0x3e04b8f03c8337f3U, 0xbbb9f823be21ac50U, 0x3dbab7133dd4d5e9U, 0x3d0590ba3cc7032bU,
  0xbdc1f2b6bc05ac3fU, 0x3e1fc499bd9f4c7eU, 0xbdf79965bc31eb76U, 0xbdedf8c3bdf30157U,
  0xbe5b144ebdf9dccaU, 0xbf6c4863b9b42288U, 0xbdf1e0cfbd8aaad2U, 0xbe11cff13dc486aaU,
  0xbe3c7c36be98a479U, 0xbe0bfe34bdb8e75bU, 0xbd263565bd9cd528U, 0xbe7a05ddbdda8422U,
  0xbda40669bd2b29cdU, 0xbcf50438bd9d3be3U, 0xbf4d6c363dbc0006U, 0xb90400003d9f1691U,
  0x3c31b341bc0c7cd3U, 0xbe683f46be8e207fU, 0xbdb20479bda98156U, 0xbd99a74abe455ecaU,
  0xbdf623fb3ed8c4f2U, 0xbde9666dbde0617cU, 0xbe398041bd2513ecU, 0xbcf570b3be0b75afU,
  0x3dc6c58e3d39f38aU, 0xbdbfe6313d0bfdc4U, 0xbcecad0d3e68ff9eU, 0x3d14137c3d8af7caU,
  0x3eacd7bc3cfdf271U, 0xbd3b5a7dbd0b7149U, 0x3ee2854fbd891695U, 0x3cf1de803d8a3ad5U,
  0xbd9580bc3e339a48U, 0x3dc7a1393e9b1154U, 0x3e493ba33e9d49e8U, 0xbcadb299be197dcfU,
  0x3bff1c97bc8c36b5U, 0x3d996046be847664U, 0xbe2cafe03e503fb3U, 0x3d404bbdbd1a03c9U,
  0xbd629bccbdad66a3U, 0xbe7808e93c4e1fd1U, 0xbe31f11bbcbd2743U, 0xbe4e38e9bcbdcdb8U,
  0x3cdbe2d53cb3c2dbU, 0xbd87297abe8f00ffU, 0xbe07b298bc961e58U, 0x3c324018bdd1cd2bU,
  0xbde72bccbdb3e3afU, 0xbe33acc7be48d269U, 0xbde11158bdeb9561U, 0x3c137f993e1690bfU,
  0xbdec058ebe1a498bU, 0xbe8d229fbe1c441dU, 0xbe2e71103e27e401U, 0xbc4fd7523d365922U,
  0xbe96c0abbea68af8U, 0xbe80444abce92775U, 0xbcb78f903d509c77U, 0xbe5384e5be3c0019U,
  0xbe972aaa3d4a7b0bU, 0xbd5d2cd3be867bacU, 0xbebd66abbd0b73ccU, 0x3da66899bd122585U,
  0xbd837613bcebbfd6U, 0x3bbbf07ebe7b08b4U, 0xbd073cdabe823464U, 0x3cb854c73e7cb981U,
  0xbec7ae1a3e24e6eaU, 0xbedef2a4beba2f32U, 0x3d9adbdb3d0d6ce0U, 0xbe032b033e1bccdeU,
