/**
  ******************************************************************************
  * @file    network_data.c
  * @author  AST Embedded Analytics Research Platform
  * @date    2026-04-02T09:36:26+0530
  * @brief   AI Tool Automatic Code Generator for Embedded NN computing
  ******************************************************************************
  * Copyright (c) 2026 STMicroelectronics.
  * All rights reserved.
  *
  * This software is licensed under terms that can be found in the LICENSE file
  * in the root directory of this software component.
  * If no LICENSE file comes with this software, it is provided AS-IS.
  ******************************************************************************
  */

#include "network_data.h"
STAI_ALIGNED(8)
const uint64_t g_network_weights_array[112582] = {
  0x3e250cc3be188930U, 0x3e064f3f3b9b3a30U, 0x3be388d3be2b096bU, 0xbea1adec3e5af612U,
  0xbf00a16f3e7301aaU, 0x3e1b842e3eaf2dfaU, 0xbe5f47b8bf49e2efU, 0xbe1d650bbdd62026U,
  0x3d70d823be12addbU, 0x3d318793be258bb5U, 0xbd57d02f3cec9059U, 0xbde5e2f83dcfe8cdU,
  0x3d5453aa3d122614U, 0x3ddd02f5bd8e1d60U, 0x3c5b630abd232bcbU, 0xbf055c1abe810616U,
  0x3e554cecbe449d80U, 0x3d3ec9cb3def486cU, 0x3e1fd40c3e8226b2U, 0xbf63c2fbbd9028f3U,
  0xbff777afbfc45ae0U, 0xbeb75b38bf3832a2U, 0xbd38cd7abe660f7bU, 0xbeb98d8d39fde108U,
  0x3ea00aff3dd69228U, 0x3e0fdafcbe86eed1U, 0xbb40cb153e0606faU, 0xbe57f9613ea31b1dU,
  0xbe87a629bd9d2448U, 0xbdb68f6d3d9522b5U, 0x3e7c4325bee2dcb9U, 0xbeb3b3313df33d91U,
  0x3dd44de9bdda7dbcU, 0xbba6847abed3a84dU, 0xbe8837bd3e6039f7U, 0x3e1d43d03d3192d0U,
  0xbe13e935be1bc301U, 0x3d72c75ebe3f2d73U, 0x3e8718623e5f01bdU, 0xbd8f9d66bd65abf9U,
  0x3e30f023be0486e0U, 0xbe5c2a70bd825552U, 0xbe1b77663e6bd910U, 0x3dd1d2b0be1e172dU,
  0xbdf663abba0860ccU, 0x3d12804ebdaf3154U, 0x3dc01d313da95ba7U, 0x3e503bbfbd888d3cU,
  0xbe8b5561bd81f8c4U, 0x3d8007183cfaea55U, 0xbe126d67ba7abe38U, 0x3e9c27a4be176a06U,
  0xbdc80dfe3e38020eU, 0x3c5003e8be859e13U, 0x3dbc5df7be90b7f6U, 0xbe1ff046bc5554c1U,
  0x3d85d7213e43dd78U, 0x3d089e7f3d72e51bU, 0xbf29b65d3d94bbd4U, 0xbceb76f4bdcf1ae3U,
  0xbd927aaabe72f88eU, 0xbf0dc0303e4acdb5U, 0x3e84addabdd23011U, 0x3d408dc53ab9ca4bU,
  0x3dc35333bdc1738aU, 0x3e62fa0b3d9829f0U, 0x3dd2f3183d85bdfeU, 0x3d5b94053dcf68acU,
  0x3ca114d83d52f5dbU, 0xbcf2db57be870ef3U, 0xbd178d6e3de60e7aU, 0x3d34a89ebe367611U,
  0xbda59cbebd6a14b4U, 0x3deed1263e410d1bU, 0xbe60bcbd3e4d40bbU, 0xbe720e3fbda8c742U,
  0xbf5bdd893b844ee3U, 0xbedfd6adbf1850f9U, 0x3e7eb682bd11152eU, 0x3e8cc8f33dc83f55U,
  0x3d063f52be159bacU, 0xbd83f708bef83e29U, 0xbe9b3a993d71ac17U, 0x3e62e0ed3eaa1926U,
  0xbd3f33d1bde3deaeU, 0xbcd0af90be8f27daU, 0x3e8a119b3e4c4543U, 0xbdb2b1a0bedb0470U,
  0x3a4a7eb43d075965U, 0xbe812590bea69632U, 0xbf28ed9fbd6fcc05U, 0x3bbf6cbdbed32010U,
  0x3c4d3c3abd8f2da2U, 0x3e80bf82bb4589bfU, 0xbe3bdd653e9f7dcbU, 0x3d212ae73a18d154U,
  0xbdc5a665beaace36U, 0xbe81f0b63e3d7011U, 0xbe820f76becdcebfU, 0x3e368754bd45b958U,
  0x3e8ee2653d766ecbU, 0xbe839e473daa5fb7U, 0xbf3b9bfabeaff1ceU, 0x3dc326f53b86fc7bU,
  0xbde273c4bce63ef8U, 0xbce2dcdebcabba17U, 0xbc2c00713e6e926bU, 0xbde44586be7f8d1dU,
  0xbf5bb7063e36f96cU, 0x3ea84620bd4cd098U, 0x3e010ec0c01f201dU, 0xc02d645b3cda0e09U,
  0xbf14b1fa3e684905U, 0xbc21e82dbfda1c91U, 0xbe4fdce73dcf498cU, 0x3c5361383eab360bU,
  0xbd61c3b03ccb559eU, 0xbcb0b9f8bdb7d333U, 0xbb32064fbc861536U, 0xbd9ffe513d1daf53U,
  0x3d79aeb83ceca87aU, 0xbe8272cc3dff3f3eU, 0x3e95d0f2bed906caU, 0xbf2abd223d7e02cfU,
  0x3e81ba13be257d96U, 0xbd2c47dfbebbd287U, 0x3cfccb443b42b420U, 0xbd81e7c83d6da27eU,
  0xbe01ef113cd13e01U, 0x3d5a8de93bb8fb7aU, 0x3d24b7933ce1ba72U, 0x3d5c05cd3dcbd1d3U,
  0xbe8036a53d83cf39U, 0x3d7c42c73c1cec1bU, 0x3e3747bc3d3297e0U, 0x3b9312f0be2470c4U,
  0xbe82d03d3e0c092dU, 0x3e366aa2bd92c1fdU, 0xbebdc789bd7968e9U, 0x3e5747ebbe3fa13dU,
  0xbe4c1b2a3e90a9a9U, 0xbee9ad5abb638263U, 0xbebe7376be712538U, 0x3e377a583d27c57cU,
  0xbd111189bdd8efedU, 0xbd199a1bbddfd167U, 0xbc725d143d9d6aa1U, 0xbc901ff1bd7ddc52U,
  0x3d150b33bc9e0921U, 0xbd591cb8bdb17a97U, 0xbcd0627ebd864f6eU, 0xbdbd7b90be6e4757U,
  0xbc9f2b11bdbdc8e9U, 0x3d3aff34bc09b20fU, 0x3d8503adbceaaf50U, 0xbd3148f7bd5eb7b0U,
  0xbdaf27efbcd1434dU, 0xbcdea263bd1b3feaU, 0xbdd5b527be00965aU, 0xbd54a58dbd019440U,
  0x3de9cc0fbd42b31cU, 0x3ce1b36b3dd72050U, 0x3d4c9adabe6e04beU, 0x3d5422523e3e7965U,
  0x3a39e9743dfb4671U, 0x3d152e723d0d0d19U, 0x3d2c70853ca2073eU, 0x3c19e7b0bd0b11b8U,
  0x3e0df26d3ddde412U, 0xbda2de483dc93373U, 0xbe703ed53d839569U, 0x3d79ee27bd815947U,
  0xbd022b5fbd117756U, 0xbd1cbf39bccb6d21U, 0xbd9db7fabd45ad1dU, 0xbcec24793cd591fbU,
  0x3c29f0bd3e07a17eU, 0x3d377b423de7c79eU, 0xbd7dd78ebe5cec76U, 0xbda0eec1bdb33143U,
  0xbcad27013e2348bcU, 0x3da958b33e2674f7U, 0xbdaa42cb3d49729cU, 0xbcc454de3d23a593U,
  0x3cc9533f3d966109U, 0xbd528cdc3e84b9dbU, 0xbe35a878bda4fb4bU, 0x3e08e6a3bc1b9069U,
  0x3da949e5be2dd03eU, 0xbe00c1c2bdbb8389U, 0xbdb45085bdd35afcU, 0xbe051366bd5613e2U,
  0x3bde7f723e6459f1U, 0xbe14db77bc8ad6adU, 0x3e495e39be9c12f8U, 0xbe08fe783ebb7626U,
  0x3d654e903e6c3a9eU, 0x3ea31bb83e75b780U, 0xbe520a143d328659U, 0x3de466043d9e5b3dU,
  0x3ddd3c50bd25936cU, 0x3d994778bc2a3a39U, 0xbe63639b3e1ced36U, 0xbd5643733d58708eU,
  0xbe314b45be932e59U, 0xbd2cbf83bc3b1ddeU, 0x3d272ba73c5374a1U, 0xbdfd44263dd015f7U,
  0x3e5047803c024a2bU, 0xbc8b61b73d372d70U, 0xbcf55bebbe26388fU, 0x3de3f0283e608a4fU,
  0x3d9bc39f3e4168ceU, 0x3d7bdff73e1f2d64U, 0xbd2955e83dc91279U, 0x3dc305a3bdfe5be1U,
  0xbdcdc5cf3daab4bcU, 0xbd7cc8173e8af936U, 0xbe2eeb4cbe3cad9aU, 0x3c33ce93bb4d31a2U,
  0xbce51b16bdf0d3d9U, 0xbd96e8f2bd6b2cc6U, 0xbcd655bbbd4a7543U, 0xbe330f103deed7aaU,
  0xbe0b88283e2f8d61U, 0xbb91f9ba3cc97c24U, 0x3e150714be42a9f2U, 0xbe5b2d593d975ce9U,
  0xbd11bcee3e2cf33fU, 0xbd8b03193cec32bcU, 0xbe1fd4b6be1bb169U, 0x3c517508be1ca0d1U,
  0xbe8c77e33ddb9569U, 0xbe5756d63d4a5471U, 0xbe52b08c3dc80f25U, 0xbd8491dd3cd123e9U,
  0xbe6dc844bd965e79U, 0xbcd9c127bd28a946U, 0x3c17e7443c4ba231U, 0xbd714a5e3d12d412U,
  0x3e293dfe3e2c0731U, 0x3d8ca0bb3e8cfc9cU, 0xbbe00ab8bec598a5U, 0x3e01d2103e200d4bU,
  0xbd18a0683d668319U, 0xbc8e3a2d3deb89efU, 0xbcb41c4d3e9cc41fU, 0x3db070173cac8d37U,
  0xbe081498be21b814U, 0x3d9133103e2059f8U, 0xbe6138aebe136a70U, 0xbb47e0b0bea3ce45U,
  0x3d26add9be1c0815U, 0x3c9a89e5bcb72130U, 0x3e05c945bd07c972U, 0xbe848bea3d20a6aeU,
  0x3d9c3bbabdb794c5U, 0x3cb73a833e0bcf47U, 0x3e0273e7beaed83aU, 0x3e0093563d935891U,
  0xbdf11282bc0d0947U, 0x3dbee6a23c04979fU, 0x3da8de8c3dc048cdU, 0x3d127ea73c8875ddU,
  0xbd9c5b7b3da5392fU, 0xbd3a3e7c3df87bf7U, 0x3a0ecb853d39710aU, 0xbd0091373d202cd1U,
  0xbc7a9b7f3d65b871U, 0xbd012d38bdb602cbU, 0x3bcd0ff33d01b84cU, 0x3d51f90bbd63098dU,
  0xbe2f5bad3d77a873U, 0xbdf326c7bb07f898U, 0xbcfbcb9dbee6913bU, 0xbe43120bbe041e4cU,
  0xbdb49b7d3d71f525U, 0x3da697b33de26a14U, 0xbe0623423de143c0U, 0xbdff272ebd463337U,
  0x3c67bf4c3e99e25aU, 0xbe69d8c03dc0b292U, 0xbebd9d813dab0f11U, 0xbd1042f0bd0cdf4eU,
  0x3e51ecf8be1ce095U, 0xbd8afebc3d261d74U, 0xbd953c94bce32db9U, 0x3c80b926be1e0d28U,
  0x3d77f6563db2ad58U, 0x3ce7fb773e134094U, 0x3de1c36bbd03dd87U, 0x3cba308b3d6e8280U,
  0xbd1262c43dffb826U, 0x3d8ac0b33ccaaf88U, 0xbe1583d93e4a70e6U, 0xbd2b61bebd51351dU,
  0xbdac74853e2bbff4U, 0xbd88bdd23e53acc5U, 0xbe7854c4bdf8a2e0U, 0xbd0ef36e3d645d08U,
  0x3e2eaafdbe68f3fcU, 0x3ceda5ca3d0a25c5U, 0xbdaa3eb53c6cd899U, 0x3e254b0ebde35560U,
  0xbdc70000bd74db6bU, 0xbdedf93739cbc689U, 0xbd766b293cbcaaa3U, 0x3d9b8f2a3e20e02bU,
  0x3d3c78223d1f5d02U, 0xbd9a60123be6355fU, 0xbb8a2cc0bc8a44d7U, 0xbd6fc8733d6a4f30U,
  0x3d8245413ddebab5U, 0xbdbbb1e2bd26345bU, 0xbd10ed39be22c82eU, 0x3d90fddf3d60fccdU,
  0xbc667d23bde7b88cU, 0x3e212c6a3db11f62U, 0x3c0957993dba50dfU, 0xbe1abb4cbcfa341bU,
  0x3e038aa8bd956a03U, 0xbdeb3144be32d29aU, 0x3d99d078bbdcb992U, 0xbdffc052bded5389U,
  0x3db1eac6be36b5b4U, 0xbc68dc0bbcd07b86U, 0xbe4feb42be43f2d2U, 0x3db0b48d3e1a8f4bU,
  0xbe15db2cbdf17fa3U, 0x3de05427be9b973dU, 0x3e605d37be20e44bU, 0x3bdb10ccbe49fa61U,
  0xbeeb6b6dbe1ce221U, 0x3e7acc3d3d0b434bU, 0x3e0e9bab3d9012a2U, 0xbe44774b3e893204U,
  0xbd2b6108be09d173U, 0xbda045e0bdf2f731U, 0x3e15709abd77af36U, 0xbe34395cbf0b873cU,
  0x3dd29766bd953f75U, 0x3e5ef29b3db68313U, 0xbe860ba1bd7eb624U, 0xbd48ab0a3e36343dU,
  0xbdbf0431be172c70U, 0x3e7b52c8be6b722bU, 0x3c4b2c1f3c309c7aU, 0x3cebc565be4e59e4U,
  0xbea098eabe328656U, 0x3e02882e3c45d70bU, 0xbc039a8cbe0ac5acU, 0xbe6746093dcc5881U,
  0x3dfad3ac3cc51a4dU, 0xbd5f13bfbd6576bbU, 0xbca43f08bbcee24bU, 0x3d54f8283e39d58cU,
  0x3de932aa3d996a0cU, 0xbda9609cbdb1c94dU, 0xbe26bb533cd1a967U, 0x3cb068963d3347a9U,
  0xbe5b19713acb4eeeU, 0xbdd54bc4bd7c2b45U, 0x3d8fbb08beb41ad2U, 0xbd21de153d4a7cd3U,
  0xbeb48c3c3cee97daU, 0x3ce4ea403d03e7faU, 0x3e2b4930bd7df942U, 0xbc250374be038d80U,
  0x3d16e25dbe230427U, 0x3c70a230bdc77a9fU, 0x3cd7bc30be1cda77U, 0xbcaea4263d67a4c2U,
  0x3dddc612bdceeb74U, 0xbe0c817fbe54f588U, 0x3df624b73c8ca839U, 0xbe0116ea3da9da05U,
  0xbd946a0dbc07c34aU, 0xbccf085abe329db1U, 0x3d39fc85bcccfdedU, 0xbcfd270fbd0bfb89U,
  0xbe981af0bccc4477U, 0x3e038ecd3dfd0d26U, 0x3d2ef1603cc37e4bU, 0x3e31f8e5ba3f60e1U,
  0x3cc727efbcc866a8U, 0x3cd049cabe10313aU, 0x3dd32481bda4a87dU, 0xbe842b6ebe441318U,
  0x3e4b1c86be324937U, 0xbcbfed753e17cbcfU, 0xbe41761cbe28521bU, 0xbd89948b3bbb3673U,
  0x3deb2ac2bd1b93c3U, 0x3df7950dbf038c4dU, 0xbdba81793e3ccf2eU, 0x398addd83dc190f9U,
  0xbe834fa6be8479e8U, 0x3d46fe0bbd07b6a9U, 0x3c9e4976bd990d4dU, 0x3d8ebe9f3e66f20bU,
  0xbd9a10febd1fad2aU, 0xbe68d0f0bdd25954U, 0xbdaf478cbc6e416fU, 0xbd4923ec3dd679e2U,
  0xbcdb0143bd9e4c3bU, 0x3d975164bd0c577dU, 0x3cf1eaee3dd80dbcU, 0xbcbfee543e3443cbU,
  0xbf4ad2c2bdbfddf7U, 0xbd8e7964be177318U, 0xbd83fa31bf35ba27U, 0xbdb31095beca3a43U,
  0xbe8fa6b4bd415d55U, 0xbdd6d71f3d87c154U, 0x3dd7d4193d7da793U, 0xbe31475fbd6f644fU,
  0x3dfabf2ebc285770U, 0x3de37047bd7c1fcdU, 0x3e8a5627becbdf4eU, 0x3df9d467bd3a4f60U,
  0x3e0ddb783e4afde5U, 0xbcb1d457bd0e2258U, 0x3d6169773de3762eU, 0xbda5668d3e8d18c6U,
  0x3cab59c7bd18e9fcU, 0xbe43d0d8bbf42ad2U, 0xbd68ea92bd2b97b1U, 0xbd930092befa7521U,
  0xbda32e0cbe1871e5U, 0xbcf4cfe23dd21a1aU, 0x3e28f97b3d33e3baU, 0xbe7b88bfbc84703bU,
  0xbe28544ebdb7a44eU, 0xbccb96d7bd94d49dU, 0x3ea2f3aabe899b4fU, 0xbe2811f8be48afe4U,
  0x3eb8f0c6bd9b9ec7U, 0xbd4ce9e1bdafba5aU, 0x3d31398e3df82bffU, 0x3d8509403e1fb386U,
  0x3d33de98be3d74aeU, 0xbe5ce727bde69a69U, 0xbe8a3b673dc09791U, 0xbd50b1e6beb1cefcU,
  0xbe7d4aaebe890fc3U, 0x3d212c223d957c06U, 0x3e0bac053d1bb8eaU, 0xbb9729ddbe443bc4U,
  0xbda5f64f3dc02001U, 0xbdc772c0bc4c5e33U, 0x3b785f29bad691a7U, 0xbec6f0b9bdc28b2cU,
  0x3dd89c693d99ef01U, 0x3e0988663d888acaU, 0xbec74147bdbf6536U, 0xbcc8928ebc73098aU,
  0xbe3437a33de4977eU, 0xbdd7460cbe2e2742U, 0xbdda1f58beb47bdbU, 0xbc83c1023e11dd59U,
  0x3db5fd693dedd6d7U, 0xbdb4cd72bc5e8868U, 0xbdd9b991bd8647c5U, 0x3e111d0dbdcf3f92U,
  0x3d1dd3733d1581daU, 0xbdfdb9743db7d1d3U, 0x3d8d2cb5bd329a54U, 0xbda87ecf3df01279U,
  0xbc75ff6dbb615aaeU, 0x3e3d631b3d6e0131U, 0xbe063ae9bd81fb0dU, 0x3cc2452dbcafbcf9U,
  0xbc958dfabc94b058U, 0x3deda0b83e803ef0U, 0x3dba5a223caa67b7U, 0x3e01772bbdc3fe06U,
  0x3cbdc6293d0cfa3dU, 0x3d24a641bd3874acU, 0xbb2f7b47bca1a354U, 0xbd0518513dca3455U,
  0x3cd734f7bcec51a0U, 0x3c33311fbab19c3bU, 0xbccaa331be72088fU, 0xbe84d53abd8a2bd0U,
  0x3df7881a3e057b3cU, 0x3c9c01d8bdafa63fU, 0xbe4ebf9bbdc8d7e1U, 0xbbc59a2ebde2f5fcU,
  0x3e10ce7a3dc8c280U, 0xbd9b2a4a3ddf8ad4U, 0xbd03672c3d8f5d39U, 0x3c40278f3d6e3e01U,
  0x3d623f78bd0291eaU, 0x3b27a37dbcaa11f5U, 0xbde0e8adbdc0e94dU, 0xbd79adc9bc7dd315U,
  0x3d428d113e118e5eU, 0xbe1b8861bd301448U, 0xbbb15b32be5c09a7U, 0xbe20b283bd8669ccU,
  0xbcd44006be80d110U, 0xbd74c98cbd507364U, 0xbe60c78abd723cc1U, 0xbe231f3a3d964d44U,
  0xbe2aa65bbd8d8498U, 0xbe2f8df4bdde1ac3U, 0xbd9fa073bdc75348U, 0x3d0434acbe10717dU,
  0xbe429292bdb2deddU, 0x3c32495bbda14115U, 0x3d77c8ea3d7b4f6dU, 0xbd0d7d3dbde212c5U,
  0x3b02c7793d442e8eU, 0x3dac56a53d9650c1U, 0x3b985e29be93a060U, 0x3d54619f3de682b8U,
  0xbe9ca174bcc8b599U, 0xbd6051463d515d11U, 0xbd80a3eeba9ebe18U, 0x3dec321c3d067972U,
  0x3ce49b0d3d16e3f5U, 0x39b205723e8b21d7U, 0xbd2919a63d67c659U, 0x3de012743cbca94eU,
  0x3e2ba25c3def6777U, 0x3e2a64fb3d9c8996U, 0x3c818501bcceea14U, 0xbe8959fd3c3fd8e5U,
  0xbdd839863d8fea90U, 0x3d8ded41bdbe7041U, 0x3dde571bbe59c288U, 0xbe532d9b3e014ecdU,
  0x3e2ac51d3c04a95bU, 0x3e35581fbd0213cfU, 0xbc4982cabe6dec14U, 0x3b9a37b8bdf234ecU,
  0x3d701c1c3e2510aaU, 0xbd188f023dbdd3ecU, 0xbe43e75c3da34357U, 0xbd8ea3033e8052a1U,
  0xbdd733f23d83b50dU, 0x3ddaf6ea3d582c3eU, 0xbe0430c1bdc45a70U, 0x3e467339be0ed6d9U,
  0xbe24422ebd3ed1eeU, 0xbd9d10f63d1b85d9U, 0x3d843880bd9cbc1bU, 0xbea45033bdd6e06dU,
  0xbd16f170bcca0c8aU, 0xbd9bf4133bb7a3abU, 0xbe9263423e1cf26fU, 0xbe0eb4c83d9f43ffU,
  0x3e2d50c23e446eb8U, 0xbe3cc6cb3e55908aU, 0xbd1b4736bc2ebefeU, 0x3ce222a33e6f6dc2U,
  0xbc3ed3053d45f38aU, 0x3e0c6aae3dc00f0cU, 0x3d9c6a2cbd127e3cU, 0xbd807bb6bdac709fU,
  0x3cba8c113de91474U, 0x3dde0d2cbd746636U, 0xbd77eaf13dd0be09U, 0xbcf5333d3e8a03ebU,
  0x3dbf000e3c6137d3U, 0xbdfb5e3f3d0ab3b5U, 0xbd614173bdbe2dc2U, 0xbd2c309abdfe92a2U,
  0x3c99343c3d566742U, 0xbd4ffd983dfc2f49U, 0xbcb24b9fbe891563U, 0x3cf7c4e53e8f5321U,
  0x3e9ec77a3d864590U, 0xbc84813abe5992b9U, 0xbd9d5444be0902eaU, 0x3ec9d6663cce45acU,
  0x3d0b401bbcb447d1U, 0xbd01b4c0be07b24bU, 0xbc671bfc3e1ce0a0U, 0xbd9085583ea34a24U,
  0x3d1608f3bd9c3c72U, 0xbd7658ab3a432011U, 0xbdb9c035be6cac39U, 0x3db3f4b5bde9d213U,
  0xbda26940be139d6aU, 0x3d1918edbdba2853U, 0x3daea3293e161848U, 0x3d12175cbd9c301fU,
  0xbdd8abb53db8dbbeU, 0x3d9e44c2be410adbU, 0x3b7d9c9dbdf9c3d8U, 0x3e29475fbcb88ea2U,
  0x3d6b3cbb3d22c05eU, 0x3dd516b2bd8b90f8U, 0x3d588ed6bd19d0a6U, 0xbdb18a823ce35d17U,
  0x3d444a93bd46e407U, 0x3d188d563bd47113U, 0xbd43d8c4be436dedU, 0x3d295e553bee50f2U,
  0xbc870383be09bc2cU, 0xbd77272cbe38fb7fU, 0xbe8526f6bdc16386U, 0xbc3245c7be35fd21U,
  0x3c9ca2593e594dfbU, 0x3dfcc05ebac50b57U, 0xbd28d917bd263508U, 0xbdc4d616bd312e03U,
  0x3d4d7c3f3e005441U, 0x3e0f48f23d9f354bU, 0x3dcc8075be4784b5U, 0xbd13de89bd50c62dU,
  0x3d438b813ad1e4bbU, 0x3e6409253d02856cU, 0x3cb3ba083d1c9b14U, 0x3c60de10be1172f5U,
  0x3ebd9d1fbd8d4d09U, 0xbd207c71ba6b6f90U, 0xbe137136bcc5c138U, 0x3e240b34bdf26231U,
  0x3bede6e63e01f2f8U, 0x3e9f75e7bd2d0991U, 0xbe0371173ce8c85cU, 0xbe569d6f3dde40e0U,
  0x3dd54f133df22349U, 0xbea7bcb6bd3d601fU, 0x3ae4818dbe956ec4U, 0x3e2501ddbe4cf85cU,
  0xbcd4f2f03d807eaaU, 0x3e18c97e3e23a41bU, 0x3dec0517bd4b86b6U, 0x3dd2ab3e3d57cf26U,
  0xbe86a1a7bd7ba7d7U, 0x3d3a4ccb3dcd458aU, 0x3cc4a2edbe8c26daU, 0xbd848559bdec969aU,
  0x3ede72c23e8c73b5U, 0x3df55aa3bdbb293aU, 0xbd8d84943c2c6c97U, 0xbed1b48f3e0cfdbcU,
  0xbe7db17ebd545b37U, 0xbcae900f3c5f7261U, 0x3d9ac67fbea9d787U, 0xbcf6fb75be29defeU,
  0x3e1b1fbfbca05cd8U, 0xbe1d4a98be2ffae3U, 0x3dbe97adbd6dac38U, 0xbdd7ac6fbbe67236U,
  0xbc93c7b0be2fb4a7U, 0xbec351043dfd98ceU, 0xbe31b13d3d0aeb1bU, 0x3c43be98be8bec74U,
  0xbe44270d3a9bc5ddU, 0xbd8c425c3d245000U, 0xbd1872ffbdabe575U, 0xbea44d0fbe1be6e7U,
  0xbd10306aba312483U, 0xbcdafd4fbd8453fbU, 0x3e09fbb4be9b0855U, 0xbd996b603b6b77adU,
  0x3e2f0e97be5b768aU, 0xbe47b2a4be142b39U, 0xbd244bdcbdc0e6ffU, 0xbe7cd4a4bb64f202U,
  0x3b39a9e0be47ea08U, 0xbe15aabe3d553dd1U, 0xbdc2463bbd4ede81U, 0xbd845a47bee54e23U,
  0xbe0d76003c1400f3U, 0x3e6cbf2e3be8b915U, 0xbd2223253cfa4311U, 0xbe956693bd6656b7U,
  0x3e02e4903e0bb282U, 0xbd844c29bc9f8f96U, 0xbe479204bec3f66cU, 0xbcaab290be52a2f1U,
  0xbceb7a7bbe8eaddfU, 0xbd766af13e5b3099U, 0x3e4a4327bdf8a7c7U, 0x3d30b84cbd5cbdecU,
  0xbe0a896abe110b1bU, 0x3d0d2909be18429fU, 0xbc6f9bffbdd9aab5U, 0xbe2a6ed8be6335adU,
  0xbcdaa0773e1aca2dU, 0x3e5ad7503d66e6d1U, 0x3e053e83bd524dbaU, 0xbe0ce76e3e48eb0eU,
  0xbe3d2b7bbd8094ffU, 0x3c4e8a093e2e7000U, 0x3e0d8c73be817f9aU, 0xbe2b9687bebddb52U,
  0x3cebc936bd3a9558U, 0x3d36f6d73d2d6e35U, 0x3bb2eaa7bd7ca6a6U, 0xbdaf6284bd1ad8f0U,
  0x3d85bac33d7fa104U, 0xbe169cf13eb8d129U, 0xbdbecf223e4d31c0U, 0x3e300fbbbd6ab304U,
  0xbd8e71f0bdae9dcaU, 0x3c777c5a3d8864f8U, 0x3d2d587e3d2192f5U, 0xbda8902cbdac0abfU,
  0x3cbb51cabd3b2bfdU, 0x3e1a2d9f3d12e460U, 0x3e61f83dbeb34df2U, 0xbd8b66393d8250f4U,
  0xbcf8ee313e9928bdU, 0x3e2dd09abe41e7b2U, 0xbe025b2e3ccb6c96U, 0x3cf405673dbf798eU,
  0x3e18dd1cbde43a5eU, 0xbe0684723e8cb1fcU, 0xbe21c70f3e896037U, 0xbd78f614be29f728U,
  0x3e0f28c1beb9c10aU, 0xbd2485463da2f126U, 0x3e0db6113d8c7558U, 0xbd34e39d3d23eac5U,
  0xbe28cd663e2bd872U, 0x3e3b7f503db0167fU, 0xbcf0b946be7a4fa4U, 0xbd5c67113e041940U,
  0xbd600b1e3e5987daU, 0x3e1492bfbe04bbf7U, 0xbc50aade3d953834U, 0xbe0831ef3e4edfaaU,
  0x3e891ee0bc23bbacU, 0xbe11e8673dde4de2U, 0xbed194143eb1bdd3U, 0xbda9423fbd85abcdU,
  0x3ecdefe3bee89d3eU, 0x3d9c52c53e188eeaU, 0x3e45ea1e3d047d00U, 0xbd1e4a44be1c5a6eU,
  0x3e82ee3cbe19f488U, 0xbe2179413d62a2a7U, 0xbde7d29bbe785f3bU, 0x3db3fd3c3e29d63fU,
  0xbe06a62f3d9bfc32U, 0x3e3022283ca8fe18U, 0x3d87b335bdba7e3eU, 0x3c22191dbdcb0f95U,
  0xbdea46a13ce63b4bU, 0x3e9f63de3e9ad7fdU, 0x3e85870c3d30b436U, 0xbc96c43e3de81df4U,
  0xbe3a16393d40f3a0U, 0x3d4c2eacbd78f315U, 0xbda5b3a8be2a0792U, 0xbd77ac353e112559U,
  0xbe651c47bdd928f0U, 0x3e1e12603d9c21f3U, 0xbd27babc3cd2b476U, 0xbeae46e9be37a112U,
  0xbc7fe4593dccf7a7U, 0x3e211ff63e34a8ceU, 0xbeb436dd3c382b81U, 0xbd4118633c121758U,
  0xbcf01a963dbe3792U, 0x3e234106bd544651U, 0xbe40ea693cfe23d4U, 0x3d3710ea3e1ad9e3U,
  0xbe151a03be809d46U, 0x3cf44ea23d897f91U, 0xbd0673c5bd96668fU, 0x3cde3d7d3d108b47U,
  0x3da7ec7f3dcfc97fU, 0x3b7d82e33b262bf9U, 0x3e25a1c0be044603U, 0xbd1fa87ebd841dbaU,
  0x3ccb06943ddc0b74U, 0x3d92ee7bbcd3117dU, 0xbe8b7bab3b0cf7a5U, 0x3d88f62c3dd640dfU,
  0x3d96e36cbd209dd1U, 0x3db216b03d051e62U, 0xbd4abcbc3e03d887U, 0xbd96a50f3d421f73U,
  0xbce35695be7d8e86U, 0x3cc3a3cc3dfa6dc6U, 0x3df48bf43ca9637dU, 0x3dc495713d795b54U,
  0x3ccfffa43c7489b3U, 0xbe1198e8bd864e53U, 0xbb9b520abd88e886U, 0x3e1c82a0bc839665U,
  0xbd2c030a3dc9ebaeU, 0xbe00f9febd25c4a7U, 0x3de6d9d63cad39aeU, 0x3c1e3308bdec6931U,
  0xbd1a3477be568c8eU, 0x3e0b05f23e09b65bU, 0x3e36b2a63dba84a2U, 0xbd5e8c9abe5d74e7U,
  0xbe2080603dc363f7U, 0xbd92385fbe62904cU, 0xbe92cf46bdfeaa0fU, 0xbde493593e1fa96cU,
  0x3d8eda5cbe157741U, 0xbe067a2ebcfe345cU, 0x3bebebdcbd8ddd68U, 0xbe914fc8be83f180U,
  0x3d4103ac3e2feb8fU, 0x3da9001dbd6770baU, 0xbea12b2fbd3d51cbU, 0x3bb668c33c9b83edU,
  0x3e0948563d1aca64U, 0x3e3a60743e52514eU, 0x3d226e3a3dc8d893U, 0xbdb72745bd1d6347U,
  0xbe5269f3be1a28ccU, 0x3db12205bbff4ac2U, 0xbe13143c3b6dd955U, 0xbd4f5f1f3dc5f793U,
  0x3d3ed0dd3ca485c1U, 0x3d0c4eb2bd21cf12U, 0xbe2037b4bd7cd19fU, 0xbcb08b86be2aa886U,
  0xbe687c963df9c6d7U, 0x3cb126093d581a5aU, 0xbe0bece83d82bf97U, 0xbbdd916e3ca45e4cU,
  0x3e0f25a63c7b4e7cU, 0x3d591a10be1d741eU, 0xbe45c5233d533a05U, 0xbccde0143c9541b7U,
  0x37e7f6d0bc14ed66U, 0xbe0eebf7bdc2e1c2U, 0x3ce642763bc057f1U, 0x3d0de502bcb54781U,
  0x3de41bb1bd9f11f8U, 0xbbd8edcebd373bc6U, 0xbdf1993abdf78ddcU, 0xbcd50ca1be2dc752U,
  0x3cd77000bdd75589U, 0xbe5ba89cbd8fb3e0U, 0xbe434794be0f2dddU, 0xbd742817be78dce2U,
  0xbdaa0f9fbc8d9b5bU, 0x3c9d6edc3e31a4f6U, 0x3cf37481bddfce96U, 0xbe0527cbbd1fd6c3U,
  0xbd06b76c3dc7f65eU, 0x3e2bf8cdbde3c949U, 0xbe0c928ebd0c0ddbU, 0xbe24e958bc050442U,
  0x3d691c863b309e9eU, 0xbdaedb05bd85fdacU, 0xbdfe3426bbcec0d8U, 0xbde78e16bd63fcd1U,
  0xbd057f95be899556U, 0xbd3b1b41bda821fbU, 0xbd8c3849bdc62895U, 0xbd94abe6be4cd306U,
  0xbe223061bcf2aae7U, 0x3d5febb3be22b51aU, 0x3d50025abda71f62U, 0x3d72ae7e3caafa4aU,
  0x3cb4a6093e4cf441U, 0xbdb23644be3d6e7cU, 0xbe0f23b7bd885dd2U, 0xbd91205d3d51b2e3U,
  0x3d9fed6abc953382U, 0xbc0689c63cc5f448U, 0xbe400b293d6ad903U, 0x3c7283a6bdd336a2U,
  0xbe3728f8be030130U, 0xbd09ba603c027dcaU, 0xbd753d32bcb73358U, 0x3d06fde3bd3773abU,
  0xbe6ac29bbb8c1c15U, 0xbdca4964bd96bdd0U, 0xbe01dac8be83c496U, 0xbe043d1fbde9fff5U,
  0x3d979c5dbe142a92U, 0xbe45ee8cbe2b77faU, 0xbd5f8eb0bdc0cabdU, 0xbe12aff2bd4672f2U,
  0x3d68599d3d156097U, 0x3d14c3fd3d7e21cdU, 0xbbb57203bdcd5ed8U, 0x3e1dc91c3f0b4c88U,
  0xbd77cad43e91503bU, 0x3e17b9563c66cfeeU, 0x3df8e7bd3de49e52U, 0xbca9dcf3bd16e52bU,
  0x3daef864bdcd7c91U, 0x3df7408e3ecaabe2U, 0x3e8d1e3b3da772b6U, 0x3d671e27be6a3a21U,
  0x3d558e563de5e4b9U, 0x3e343e21be3a3df7U, 0xbccc85e53d397f36U, 0xbe7ee3b03ddee280U,
  0xbe1e4e153e48fe71U, 0xbd3a1a7f3d4f0878U, 0x3c8b09aebb3b6d65U, 0xbe5e67aabd436abaU,
  0x3dc4c18c3e332d35U, 0x3d338cee3dce3d49U, 0xbe89b6993dbb0402U, 0xbd75cea9bc4ccc3dU,
  0x3e9e309a3e2a6583U, 0xbe393101bcef33efU, 0xbe2723363d2f6a19U, 0xbd2e1cf1bdaa7081U,
  0xbdbf29f4bd3cd526U, 0x3e84d3ef3d2290deU, 0xbd061918bc8eb52eU, 0x3cdc1629be0c9b6dU,
  0xbcd999c6bc5a2834U, 0xbe3f940c3d41e468U, 0xbd9fe4943b13579bU, 0xbd9b99923d2407b6U,
  0x3cedbb863e56a288U, 0xbd81a7c4bcebbabcU, 0xbdbb7b283d7a6c85U, 0xbd068132bd78c954U,
  0xbbba2fddbb910054U, 0xbcab9be53ddaaf9bU, 0xbc17d28dbd077a7dU, 0x3e09dd97be680339U,
  0x3e283b91bd76b61cU, 0x3d760869bb09588aU, 0x3de40990bce1c32fU, 0xbdb5f77dbe105554U,
  0x3c95ebd13d1c38f5U, 0xbe1086d1bc7967d0U, 0xbe424481be5d6fbcU, 0x3e089436be685e75U,
  0xbe02522dbee4245fU, 0xbe599f1fbd2ccf23U, 0xbd156981be0ec69bU, 0xbd71cc1abe440e9eU,
  0xbeee4b87bde77e40U, 0x3ccd79083c45df71U, 0x3da3fc7fbe9c5f7fU, 0x3daec8cfbe855fb7U,
  0xbe99f53bbbed8ecdU, 0xbe119a75bdb22817U, 0xbe5f2cbabe2072cdU, 0xbe6ad9f9bd7cf5a1U,
  0xbd15f7f1be216f57U, 0x3e03d154bdec7d41U, 0x3d4c98e2be133b4bU, 0x3cb941a2bdfc8bc3U,
  0xbc114dd8bdf9561aU, 0xbd876b163cc6dca2U, 0xbd2ecaf9be93784eU, 0xbd14d8d8be105dd8U,
  0xbd7e12783cc15697U, 0x3e0ec30a3d952366U, 0x3d78b606bdfc7a02U, 0x3ce3035a3d892079U,
  0xbe550b87bd99bbc9U, 0x3d352302bdffb8f5U, 0xbe27b4e93d952599U, 0xbe4ee0513dc602a5U,
  0x3d311d763ae8513dU, 0xbd70249c3dd474e6U, 0xbd6df0f8be0a9631U, 0xbc36ff4abdaf6d52U,
  0xbd061e51bddaf3d0U, 0xbcfa79b43db344f9U, 0xbe21066fbdf353a9U, 0x3d206c82bd687244U,
  0xbdee4115be4f87a9U, 0x3d951a363dc9521bU, 0xbd0b182ebe56bbdeU, 0xbd8b11d3bddaf310U,
  0x3b42805dbe3c8828U, 0x3d549b27be54370aU, 0xbe0256b8be23d517U, 0xbecbdc383c0430bbU,
  0xbe80d397bd928bf8U, 0x3beb3de43ca736beU, 0x3df4029fbdf45ac6U, 0xbe7ce17abd266317U,
  0xbe349daf3d744a1aU, 0xbda7d220bdb3705eU, 0xbee4bada3de2d96cU, 0x3d76969d3d9b3b31U,
  0xbdd8908fbe04173cU, 0xbe9593e8be82ab8cU, 0xbd50ee793b98387aU, 0x3cd31a08be619c47U,
  0xbec87a90be394508U, 0xbe6db67dbc82b734U, 0xbd91223a3d8cc628U, 0xbde2babbbde30e97U,
  0xbcd3f9dbbdd494d8U, 0x3bba207e3d547efaU, 0x3e8b9a02be5ccdc4U, 0xbd9aea233d4f3157U,
  0x3c1befc73d37a884U, 0xbd8925c7bd937f8dU, 0x3d7f33003e225378U, 0x3b9c8ca2bbac782dU,
  0x3c627af5bd6dd783U, 0x3df2962f3e6ed630U, 0x3d97ecc83eb71cc0U, 0xbe07b2ba3be16264U,
  0xbef6914ebe1d5ceaU, 0xbce8af073e13a7f1U, 0xbd848cb93d1a84f7U, 0xbe44cdbb3db5fd38U,
  0x3db415603e433fa8U, 0x3d9ba2593e6debc1U, 0x3e12812abed8a103U, 0xbe13d766bd22ff01U,
  0x3e7a4becbdbca190U, 0xbdaa974e3da21c4dU, 0xbe4a4c2b3cab9b57U, 0x3d88fa333ddb428eU,
  0x3c99a831bd9c140bU, 0x3e1cb9243e11da76U, 0xbde8c15f3e2e60aeU, 0xbcb9003ebe4186caU,
  0xbe5a448fbe078a5bU, 0x3e132f273e4c5ba5U, 0x3cebb35e3d91ff50U, 0xbe919a243d690512U,
  0x3dc189f43dfb9e1eU, 0x3da6edd7be55c9c4U, 0xbd580634be01f21aU, 0xbe8475bcbeb8f05dU,
  0x3dbfe9a0bd67c30fU, 0xbd1c7f1fbe157f5aU, 0xbeccd6c4bed9f006U, 0xbdf771fbbd9e93e6U,
  0x3e0d58c4bd8b02a6U, 0x3d2d30f4beeed54aU, 0xbc9ae8ec3c309cc9U, 0x3d8fe565bea066c0U,
  0x3da49e2abd467772U, 0x3e3618bcbc4e2dfbU, 0xbcaef048bd941c93U, 0xbe54f0443db31509U,
  0xbe9cc07dbee6928cU, 0xbd2efbeabe384b69U, 0xbde06bbfbd6e1733U, 0xbe509accbf356b64U,
  0xbdec8107be8a2c3cU, 0xbe951195bead0b39U, 0xbe514d17bf0dd972U, 0xbead4213bef28899U,
  0xbe00dc78bea52bf3U, 0xbe9a0e87beaff5ccU, 0x3d6d7daabe08dc89U, 0xbdae7d65be9167fbU,
  0xbec8f712be98cf03U, 0xbed3fd87beb63a13U, 0xbf1f909ebeaefa67U, 0xbf0088e0bea0a416U,
  0xbd0923e2bd422404U, 0xbdcf359f3c41b7f0U, 0x3d9c2d16bd933026U, 0x3e99a9e0be8b331bU,
  0xbd8f012e3ddcc17bU, 0xbe098a4f3e120e84U, 0x3e7b95903e071e44U, 0xbc03f63cbdabd405U,
  0xbc6114da3d8fe778U, 0xbea6a157be072c9bU, 0xbd9faf593e202fcaU, 0xbd4b133f3d8f623dU,
  0x3e53891fbecffff6U, 0xbe14f9033da90c0aU, 0xbd1fb79cbd7a77eeU, 0x3e58b9173d95d963U,
  0x3d8b1c453e4fe8e3U, 0x3d9067393dcf680cU, 0x3dd1ad99bde96535U, 0xbe457860be17ad87U,
  0x3e0c5106bdbd8143U, 0xbe1ad028bd910eebU, 0xbe5cbed7bd75ef59U, 0xbd8f5d033e3bb309U,
  0x3db03863be54e1e3U, 0xbe657ba73cac0707U, 0xbcd10cea3daf2f2bU, 0x3cb1c34ebea8f5e0U,
  0xbdd82e2bbd19afa8U, 0x3e24145c3d0c5122U, 0xbcbd7bf9bb62ddc8U, 0xbe5401f4bdf5b489U,
  0xbeba8246bea86bfeU, 0x3d884a0dbe0a6de5U, 0x3ca0638bbdd32184U, 0xbe3a9a0cbf1bcc98U,
  0xbc957094bd1d7c73U, 0xbee1c3c6bea2da16U, 0xbe14fa34be9fd0a9U, 0xbebd531bbdab0461U,
  0xbbae6473be53f9e3U, 0xbd108206be0e4c7bU, 0x3c58e2d2be476e34U, 0xbe008b0abeae445bU,
  0xbecbbc643d785acaU, 0xbe2d3665be015b9dU, 0xbea90451bd54656aU, 0xbe0b7a41be3b37a2U,
  0x3dd126523e1303b4U, 0xbe55b79cbcd1876fU, 0x3e78be1ebdb3daccU, 0x3e7a25ffbe607ce4U,
  0xbe9ce89e3d87aab9U, 0x3e1388fb3e608a7dU, 0x3e70525ebc5e2ec4U, 0x3e2ebee3bd57afaeU,
  0xbd73f6a93d40cc82U, 0x3e314597be3b88c7U, 0x3dbae64dbe860d57U, 0xbd88186c3d40d65cU,
  0xbed1a913bf3a35a4U, 0xbe35ae65bce58055U, 0xbdeb96563dd77247U, 0x3de120c63dc62b91U,
  0xbdbbd9b33d76ea31U, 0xbd1be0773e73ef65U, 0x3e2c16293be87d85U, 0xbdfd82e4bd23f392U,
  0x3db67cf8be038ce6U, 0x3d94e264bdeea781U, 0xbe0e0083be681bb3U, 0x3d7bc08a3dcc6a64U,
  0xbe0a304ebddb055bU, 0x3ca69c203cb3420cU, 0xbcb1a40a3d0cb368U, 0x3b4d11bfbd706951U,
  0xbe5705e53d490039U, 0xbdc5baec3dd26fc8U, 0x3e17d28a3d57854eU, 0x3c2bc04cbd9d153eU,
  0xbebe7b60bc1a0a54U, 0x3e2d43e2bdaa0aa3U, 0x3d265e3a3d572409U, 0xbebc64b2be2216a6U,
  0x3dfa57c2be3c34b6U, 0xbe556b1dbea02768U, 0xbecd5407be9aa08eU, 0xbe8a0d813d482007U,
  0x3d40d7ccbe551ad6U, 0xbda701bdbd9bf53cU, 0x3dbce24dbd88af8cU, 0x3d1d70a1be527f4bU,
  0xbef785ac3e2d7442U, 0x3e1e41373d09eb6dU, 0xbde5faf0bd638c7eU, 0x3d22750abdaafe77U,
  0x3e148afa3e8d5bbeU, 0xbc98900bbe34452bU, 0xbddb0f6fbcf3e1c9U, 0x3db1cd0cbe0e28dfU,
  0xbd89c6eb3c8d2084U, 0x3e8f2ff63e6c5c69U, 0x3e6b1d2d3db0e106U, 0x3e3c713bbdab2f6dU,
  0xbdfb6ab63df19de5U, 0x3eb77ac93cccc394U, 0x3e92e425bdf28e33U, 0xbe02c6e5be31cc3eU,
  0xbf218b98be6839e1U, 0x3ed695fdbe343f2eU, 0x3de1c3b3bd695d2cU, 0x3d413dc73e83e110U,
  0x3e83cad33d3e69daU, 0xbcf0b093be268cfaU, 0xbd20dfb13d7afd95U, 0xbb8b57e53dfd5834U,
  0xbbc69048bddcf76dU, 0x3cf74cfe3c7af44aU, 0xbdd340c7be731350U, 0x3dcde205bd75cd30U,
  0x3dca20f23cdc1866U, 0x3d499d143d908197U, 0xbcb4aa45bdc2ea17U, 0xbe2537babdc5e212U,
  0xbe898b83bda0b1cbU, 0xbdbb3296be72142fU, 0xbe474ecdbdbba284U, 0x3da1a44b3d51f890U,
  0xbc03e6d6be1b0cfdU, 0xbe9535a0bdf12fa4U, 0xbd210ab0bb67d907U, 0x3dd66c373e1bad8cU,
  0xbdbedc6c3cfeecd5U, 0xbe0a2a60bcd80779U, 0x3da3853dbc48d0f7U, 0xbd3ab6a1bda20794U,
  0x3d9596d13e02e8edU, 0x3e0a683e3db3dbcdU, 0x3d0f58d43de3789fU, 0x3b60c2f63d761314U,
  0x3d4ff8203e6f71f9U, 0x3e26a4ce3c27cd9dU, 0xbe1f78b3bde6f641U, 0x3c0382b0bc0b5f84U,
  0x3d73a1bebcb4cff1U, 0x3ca4c5af3da7f394U, 0x3dbac59f3cf7cce5U, 0x3da12b373ea54a7aU,
  0xbd6484c33e40cdebU, 0x3d091e3c3e038610U, 0x3d43dedf3dcd2221U, 0x3e1c85333cbd8f62U,
  0x3e46817d3de6bcb8U, 0x3e546ae7bc11bdb8U, 0x3c66b8283db68319U, 0x3d844cd73d30dd7eU,
  0xbda9612ebd5e0c77U, 0xbd9b870fbd0c123fU, 0x3c215df1bca9dc3fU, 0x3dddc6373e0165dcU,
  0x3b9d22203d944a4aU, 0xbdaebf4fbd910006U, 0xbe3a614cbe33c6abU, 0xbd38e9123c90f6b3U,
  0x3c362ed0be2c9fa7U, 0xbc1679373db8dec2U, 0x3e282c6bbe61f56aU, 0xbdc0c374be8c131cU,
  0xbe6eb8033cdeb396U, 0xbe050175be649fcfU, 0xbdf4aa50be845ccdU, 0xbcc461343db2317bU,
  0x3d5de6a73e73c5f2U, 0xbdb07070be8246d3U, 0xbe6d2ac1be834d32U, 0xbd81b5e7bca75a32U,
  0x3e30d910bc925594U, 0xbda17d543dc0ed20U, 0xbd281964be1fb656U, 0x3d90b3f73e4cd296U,
  0xbd037d153dd41b88U, 0xbd0f0a0f3d6a8cd3U, 0x3de0e21bbd40de51U, 0xbdc96049bdbc84d3U,
  0xbd57754ebe3290aaU, 0x3cf9e5d13c573d65U, 0xbddbbdfe3de707a9U, 0xbd92ea73bdc00930U,
  0x3df10cc63e9ab188U, 0x3e1617b33cdee42cU, 0xbe4bf1e7bdb5374aU, 0xbe5528d93dc956b4U,
  0x3e9c41043e10522aU, 0xbd8a9bc2bc10b8eeU, 0xbd9891993c2b21b1U, 0x3dfe70123e68816aU,
  0x3d4bad66bccf7bf2U, 0x3de9c7673e26723eU, 0x3e3d114d3df118e5U, 0x3cebb10cbcc30eb9U,
  0x3e55db0ebc6793f6U, 0x3e57527f3d978ad3U, 0x3dbd56ad3dd49f48U, 0xbbdbe149bda2f2deU,
  0xbdbcaefd3ebe46caU, 0x3e415d653d18cffeU, 0xbd606130bdf055f6U, 0xbe5cbaeb3e5d1684U,
  0xbd9a1983be991cb7U, 0xbddfae38be159084U, 0x3da28a6fbdd14e41U, 0xbbd3d1bdbde919ccU,
  0x3e1949a0bea27af0U, 0xbe6e629dbd990efaU, 0x3d42d066be039a7aU, 0xbe2ea002bec0aba5U,
  0xbe4e3e17beb35b15U, 0xbcdbf3a93d5794ebU, 0x3d62727cbe663046U, 0xbda9ff65bea5f854U,
  0x3d068de43c1cc647U, 0xbd86ed66be19ddcbU, 0xbeb92a5ebe8da381U, 0xbe76bb9d3e1a566dU,
  0x3ed0ee99be11bb98U, 0x3d848173bd8ed9c9U, 0xbaf857383e1e40a2U, 0x3d518cb03d91b4a1U,
  0xbdfbe0bb3db3a558U, 0x3e57d17f3caa9047U, 0xbe2887043c04460cU, 0x3d149cfdbe6caed0U,
  0xbe31271dbe2e71a8U, 0x3e9766883ec0ebb4U, 0x3e954090be0e5950U, 0x3d681bd2bd17e168U,
  0x3e4f5e84bd2485b5U, 0x3ceca892be82dd7cU, 0xbe5bcb59be7868aaU, 0x3d9a6e113e86bf2dU,
  0x3d014ccabea70ca6U, 0x3e61b043be82d52eU, 0xbe3e7b8f3eb11992U, 0xbe306c303e8a57d2U,
  0x3d32a09b3cbc13a1U, 0xbd445793be69dd60U, 0xbc98f979be2dc727U, 0xbdfff0e9bed09a0eU,
  0x3bfd4c1ebd281599U, 0x3d4eafe23dfaa9a2U, 0xbdf3fab43c8f14cbU, 0xbe81c1923e92a8dfU,
  0x3cb75b633e109e29U, 0xbc0f617bbebd0e09U, 0xbe2f047bbe3b49dbU, 0x3eb7ddc0bd4523f8U,
  0x3dd3df6fbeb722c7U, 0xbdac56d2be09e3dbU, 0x3df2aad5be02fa1dU, 0xbe834136beed42b5U,
  0xbd45149abe609318U, 0xbe245a17bdc936bbU, 0xbd548a80be855150U, 0xbe1d834a3d250e17U,
  0xbefc1418bdab3335U, 0x3bff8d1fbdd24b7dU, 0x3d5cdeaebe876eccU, 0xbe59379abe63a35dU,
  0xbe90bed9be0806a9U, 0xbeb5c7d23d65314eU, 0xbb8d14c4bc24052bU, 0xbea1ba3a3d1022b9U,
  0x3c062c3b3dac4715U, 0xbd84395abe0868a3U, 0xbe48b11b3de89e18U, 0x3dd4fd6dbe6927dfU,
  0x3d9fd63b3c7dd9bbU, 0x3c2fb1593b3cab0aU, 0x3e0515a7bd3e3f97U, 0xbd310d0abdfeafdaU,
  0xbdbe8294be2beec9U, 0xbe106892bdde9cc9U, 0x3e5a3436be9c1778U, 0xbc4f84e8bead5c80U,
  0xbdaecaedbdf73d2bU, 0xbdc864c8be41bd50U, 0xbc31b5bdbd9c2c47U, 0xbe3d19ccbce7367bU,
  0xbd3162323d399396U, 0xbdff7c4c3df93de1U, 0xbe0df5d13d3593a5U, 0x3e7628b3be3cd614U,
  0x3e10d1f53e0cb5eeU, 0x3b51809bbcaa4d9cU, 0x3e8603513d5f6bf2U, 0x3c8b0597bc727f2fU,
  0xbd1c6d493daf2d61U, 0xbda6ea873e6c7e23U, 0x3dcdebb3bdda81bbU, 0xbd4e9f20be3ab5cdU,
  0x3dc99b2d3e5b598bU, 0xbe68835b3caafa9dU, 0x3d9a8e883c856b37U, 0xbe47ded43c5a49feU,
  0x3b366734bdd7dec8U, 0xbd3d4f72bbe1ac21U, 0x3d74687fbe117435U, 0xbe8bc291beea006eU,
  0x3d8dc474bd24bee9U, 0xbd060550bd4cd73aU, 0xbe7ad766bd9a8ca9U, 0xbdb3a0953d9baea9U,
  0xbdd763e5bdae5c6cU, 0xbd671ee7be338ed0U, 0x3d15fabdbeb23e47U, 0xbdd4de1ebe70f64bU,
  0xbe509c67be1eae6aU, 0xbddce5013d54275cU, 0xbcdf5bdc3ca37a9dU, 0xbeaf5989be2c10fdU,
  0xbb50b8913d54381fU, 0xbde26be2be00816fU, 0xbdf376b53d16a09bU, 0x3cf8adc7be98c62dU,
  0x3e542d9abe8fc25eU, 0xbe2dc6c03d189a55U, 0x3c0d275dbd698722U, 0x3c0c82c1be4bf2feU,
  0xbe05471ebe328ca6U, 0xbdce6b57be2a7206U, 0x3e13549bbea14b01U, 0xbde38387be92b7faU,
  0xbe33f2eabe449fd1U, 0xbd6642e9be482683U, 0xbc8238d3be037d3cU, 0xbe9ee107bc9329faU,
  0x3db9e2133de608f1U, 0x3dc676d13dc3a6b8U, 0x3e3669c0bceccb53U, 0x3e94d279be44d790U,
  0x3e56b497bd1cced1U, 0xbc245a183d9131d4U, 0x3e3fdf5c3e30255cU, 0x3dcc7012bcbc28f0U,
  0x3cabdb4abd78929cU, 0xbdc998ef3d7e0d34U, 0x3ddc67813d306f4aU, 0xbda59cdbbea4944eU,
  0x3e68b3103d08b877U, 0xbe09cdfc3de8c1fcU, 0x3dc682af3d8911c2U, 0xbd732f363ce6d90aU,
  0xbe1f1245be130fc5U, 0xbd0cd8a6bd420bfdU, 0x3ca7a2c13d1293dfU, 0xbee17e82be16d756U,
  0x3e373075be70655aU, 0xbe0cb8d2bd8fcebeU, 0xbeb99f3cbe68f496U, 0xbe42cc87bd8be5c3U,
  0xbe83fff4bdcc0bd7U, 0xbcb898b3be045e3bU, 0x3dd41f4bbe8cfbf5U, 0xbd6b98aebe71a003U,
  0xbe497c6e3bc4a256U, 0xbe08f5b4bd1f378fU, 0xbe0b364e3cb6c9c5U, 0xbd46d299bea098efU,
  0xbd7c17523d334706U, 0xbdf7f3e2be014ed9U, 0x3d2730573e35a809U, 0x3c063753bea2f8a5U,
  0x3e930a38bdcfb88fU, 0xbcf16fce3cce968cU, 0x3d06d1d6be2d06bfU, 0x3db2a329be8684caU,
  0xbe09a4d5be912e8bU, 0xbe1a1b30bebf77bcU, 0x3dea3032be901f5dU, 0xbd1a4723bece1a9fU,
  0xbe2605acbe2dbf88U, 0xbe0efadcbe2fac1dU, 0xbcb79348be02dd1aU, 0xbe076151bd9d3746U,
  0x3dbaad483e619341U, 0x3d1584c43db26415U, 0x3dc30e4bbe1721a6U, 0x3e86b30dbd9c0249U,
  0xbbe18bed3d458764U, 0x3dfea7093e6cb108U, 0x3e8d0eae3e820fdbU, 0x3e60c3143d8d406cU,
  0xbe4342e7be106721U, 0xbe106a3abe202700U, 0x3e0adf01be0fa8feU, 0xbc614fffbf3adb61U,
  0x3d0b7075be97d810U, 0xbcc338963d7db456U, 0x3dc786c13d1843a2U, 0xbed95de93d6c6a59U,
  0xbd112adf3cac02c0U, 0xbd17193a3db91cf8U, 0xbe2fc5b63e00bf3bU, 0xbd8642ce3e67100dU,
  0xbd45faa8bde616aeU, 0x3e39c6823e3e9f88U, 0x3c09bb9dbdb1f67eU, 0x3d07258ebda15808U,
  0xbde7aea13e607a88U, 0x3dcffae63c8461d0U, 0xbdbd35d8bd713662U, 0x3bd41f483eca1803U,
  0x3cb34cf13d9c0826U, 0xbd3c9a753d479b93U, 0x3cd6d64a3d08712dU, 0x3ed516a5bd6b0208U,
  0xbdb29c80bd663859U, 0x3a4f37f9bd5026eeU, 0x3d83eeab3e6bff6aU, 0xbe9a72d33e803c2aU,
  0xbdaeed08be76f4b2U, 0xbd7124233de138deU, 0xbe5235c0be930e6dU, 0xbdc8429b3d92cb63U,
  0x3db19fcb3e4a1211U, 0x3d269427be639a1fU, 0xbe37770bbce51c47U, 0xbe088c1f3e776fc6U,
  0xbe8f097e3e48880fU, 0x3db75b96bdb27e0cU, 0xbe1fef8a3d1b804bU, 0x3ebb1718bd2da7c3U,
  0xbd94820a3e3fd219U, 0x3da765bebe2a1da4U, 0x3d83aa523e17fc34U, 0xbee60e0e3eeb7db0U,
  0x3e903d98be82f428U, 0x3d202c07bd32e701U, 0xbed3384fbec65c0aU, 0xbcd6b9cbbe57d612U,
  0xbf1e4880be23cc1eU, 0x3cc13a72be9ad7e6U, 0x3ddf1495be2c1945U, 0x3e4ea2cdbc0a40b2U,
  0xbe93d6ef3f04596fU, 0x3de46f50be723becU, 0xbd9ad982bdca94dfU, 0x3d67bf503c91837aU,
  0xbd7a3c853ca57149U, 0x3daffd8bbdbd08b3U, 0xbe5184b93e968909U, 0xbe26b7693e76da6eU,
  0xbd828ecb3e0a08b0U, 0x3db07dd63e07e92cU, 0xbd168747be114bc3U, 0xbc55e9f4bbdbec3cU,
  0xbda04a323e0c5e2bU, 0x3e068385be501ca7U, 0xbdb1aef63d933c1eU, 0x3d767a213c6bdb0eU,
  0xbdf0979e3cd43893U, 0xbe181b0dbe06f9beU, 0xbe0464f63cfec343U, 0x3df5955bbcc723a6U,
  0xbd84b3c23e1b1909U, 0x3e6df504be040837U, 0x3d8d7b733dced2daU, 0xbeb46d8c3e91a77bU,
  0x3d9813313e73b878U, 0xbc7124a7be45e75cU, 0xbef2a4b3be79c0fbU, 0xbd9637a13cfe0728U,
  0x3d865ce4be1685acU, 0xbdc441ddbe9b2286U, 0xbcbbfeb73d3b040fU, 0xbd22326fbc8e3a1aU,
  0x3de649863e8c36e7U, 0x3e9b9e18bc010ba4U, 0x3d22098fbcce30d8U, 0x3e3e8478bdfb9c44U,
  0x3ddfdef3bb19f863U, 0xbca5f1b6be13c632U, 0xbebb1f9dbdfca1a0U, 0xbe44d889be1d167cU,
  0xbe4f22a83dec19daU, 0xbd75f484ba4c5ca3U, 0xbeabf5e3be03c1f6U, 0xbd96c2f2be37e5bdU,
  0xbf19bbbabb847384U, 0xbddf587f3eaa13c1U, 0xbd7e5de3be98e131U, 0xbbd0997bbeacde3dU,
  0xbe423f443d75b406U, 0x3ed963bfbe776d15U, 0xbe358556be634992U, 0xbe97cef13dea65d6U,
  0xbe9e50c33cef422cU, 0x3e05e937bd48c505U, 0xbdf952933e120ff1U, 0xbc9b4a643e1525b6U,
  0xbcefc33bbe1dbdc9U, 0x3dc71fd83c0290b4U, 0xbd8bb16cbc74d8d5U, 0x3cc7442bbd00c359U,
  0xbcd53d753e2e924aU, 0xbdcf0343be4f2733U, 0xbdf202f9bd589c21U, 0x3ac9e436bdfa87dcU,
  0x3d08c0113bc7f0efU, 0xbdb537813bd4e45eU, 0xbd65be263d4958abU, 0x3dde535dbdf82260U,
  0xbe8b29c53dce5d4dU, 0x3e8f63c3bdad1da8U, 0xbc040ba5bdd12f10U, 0xbe6e0eb8bde728b6U,
  0xbc61950fbec81291U, 0xbe413451be502a80U, 0xbead43bbbe09d360U, 0xbdd423a9bc2ad72cU,
  0xbe2cf187bca08d53U, 0xbe099a15bf12908fU, 0xbdc7f682be00b892U, 0xbd6da8b23cc20eb0U,
  0xbe98cb4d3e5ac84bU, 0x3e54aef23d5e42efU, 0x3cfce0b9bd947292U, 0xbd66a959be1e3589U,
  0xbd995f023d4e1d99U, 0xbe02fd5ebe439299U, 0xbec65c53bd418204U, 0xbe6c65e9be03d21eU,
  0xbe6ab10abe0fd85aU, 0xbddbac26be471878U, 0xbe97b7a5be184d8aU, 0xbe9e5166be011b80U,
  0xbec1ddc7be3b05f9U, 0xbd6ecc2ebea42f43U, 0x3cd0c83ebe86d513U, 0x3e1f67cfbe2f9bdcU,
  0xbd3c6522bd08f400U, 0xbd81158cbe5a972bU, 0xbd880c9bbe72b30cU, 0xbe0a1386be647c3aU,
  0x3e273d99bd90e840U, 0xbe49a63a3d7fd857U, 0xbdd7c363bd594b85U, 0x3de8300d3e50670dU,
  0xbcb2c76b3e5ecefeU, 0x3e60d6903d3eafc2U, 0x3d35c80f3e200eedU, 0x3daab843bc176299U,
  0x3e5455613ce045d9U, 0x3e8adcdc3ed8793dU, 0x3e8826d13e4110d9U, 0x3e870ece3d946f0bU,
  0x3ea370be3e26a863U, 0x3ded2e40ba834247U, 0xbde3ddcb3c471617U, 0xbe6b7d583e04e63bU,
  0xbe0402cbbe214cf7U, 0xbd794e24bd410a58U, 0x3dae3a103dc37bbfU, 0xbe4455943e558201U,
  0x3e4746073de8cc0fU, 0x3e89b3763e0a78f5U, 0xbeb08408bdaf202aU, 0xbc592a0bbc8ef8c0U,
  0x3e0f9df53e51520bU, 0xbdc87301be4a4e50U, 0xbd763a93bca7c83bU, 0xbc2dd7ed3e00e78bU,
  0xbeea59c5beb254daU, 0x3e161cc23d3a0b27U, 0x3b4aca0ebd0fd5c0U, 0x3d9038ccbe555bbdU,
  0xbe42c4f2bdbb12fcU, 0xbe31c4f7bd6db132U, 0xbd620563bdd41ae4U, 0xbc88ef5cbddcb3f4U,
  0x3cbba694be177692U, 0xbd9ff4dd3d917ca8U, 0x3d3089393d60ecfbU, 0x3c69112d3cf961f7U,
  0xbe470af4be716417U, 0xbe237383be712141U, 0xbd9cd8f0bd4f1ab1U, 0x3e416f8cbea8555dU,
  0xbe0d401ebea64838U, 0xbda268d13dd1a3d3U, 0x3e05f4923c34a97cU, 0xbe28d1e2be0916d6U,
  0x3b371369be25ebceU, 0xbda9b9ef3cc58819U, 0xbdaff59d3cb891a5U, 0x3d81e10ebeb55987U,
  0x3d718b43beb2f6fdU, 0xbe70737dbab723acU, 0x3df3ae4bbe564a92U, 0xbe17d4cdbe03e671U,
  0xbd64e0e9bce2b7c8U, 0x3d83dff7be5b8ab5U, 0x3d5b814fbecfcd5dU, 0xbd117c3ebccaa985U,
  0xbe5bd62cbe7db9a6U, 0xbcd8e6eebdd7bc85U, 0xbdf066f0bd8b5bd7U, 0xbd8a8ffb3daa34eeU,
  0x3d9fda0ebedb6df2U, 0xbd0cb765be48d7d4U, 0x3cf78c08bd8cd1dbU, 0x3d7023d7be159894U,
  0x3c3480e9be809dbcU, 0xbe545d7bbd86687eU, 0x3d02935abd136d57U, 0xbde45154bdd401c6U,
  0xbe31c5523def11f7U, 0x3cd29013bd36ac14U, 0xbda4f7383cb7641cU, 0xbe322ea9be0301b7U,
  0xbefb90c0bda21ffcU, 0xbee1ccd3bd8c70f8U, 0xbd04d5453cf6d080U, 0xbe3361e53ceb4a3bU,
  0xba94b508be10419aU, 0xbc28ce1ebdab5c5eU, 0xbd7f1785bd8e5774U, 0x3e32efdabec5744dU,
  0x3d1dba10be3a94f2U, 0xbde5dbd23dd37164U, 0x3c19d4bb3da04289U, 0x3daebf7d3dc40b8bU,
  0xbdaf3fbabcf7eab1U, 0x3d0dffa2bd35de2bU, 0xbca8934abe1e25a7U, 0x3d8e9f253deef2f3U,
  0xbea24671bed3def3U, 0x3ce5bc723dae0cf7U, 0x3ca3c10a3bc37c75U, 0xbe66f8133e1bba72U,
  0xbe2d2c54be4c3293U, 0xbd2e2560bded2942U, 0x3c38348f3d8113a8U, 0xbe5858ccbd70077bU,
  0x3dfabcd8bec31f0fU, 0xbd91f417bd8b4d80U, 0xbebb6c6fbeabcd33U, 0xbe6b6125bb3fd82eU,
  0xbdcf2a873c9d4fc4U, 0x3c6ff272beb6e9b8U, 0x3e0c51e7beb1b03eU, 0xbe19f78bbe2efde2U,
  0xbe785d66bc94621bU, 0xbe64507cbe073339U, 0xbdf5e4b8bcc46ed9U, 0x3d39fddebdb6d9d0U,
  0xbcc11f2abdc5ce76U, 0xbe4b291cbd860c1eU, 0xbb50c4c0bc8a2b0fU, 0x3e36794b3e83b981U,
  0xbc9b79043e833ce5U, 0x3e5488e2bc034645U, 0x3d6bd42d3db75fcbU, 0x3cbfe549bd254699U,
  0xbd9a62fcbe346a17U, 0x3e35bd093ea99117U, 0x3e8173ef3e467e73U, 0x3e394c71be4ec69dU,
  0xbcd32eae3e6e1105U, 0x3db2ab3dbbbd7333U, 0xbd0ac718bd6bc494U, 0xbde7c7c23e36a136U,
  0x3db201c8be280d77U, 0x3da3e8163d65126fU, 0x3e1ff3b6be1ed2f8U, 0xbd1e1cb8bdcb56b1U,
  0xbdc2abd13d33262eU, 0x3e0ecde23e030bb6U, 0x3e0c720c3d8bd7a0U, 0x3d2d78bb3e0e410aU,
  0x3d3c3cf0bd34c98cU, 0xbe0a3bd33d939dd9U, 0xbe876ca33d30d5fcU, 0xbd4b2bdb3d25d3c8U,
  0xbe4698e4bde45fc9U, 0x3d77db1d3e7d4bcfU, 0xbc9c0d703dca776eU, 0xbe1fbef6bdce4c0bU,
  0x3e0a52493d34b5eaU, 0xbd6c20253ce38796U, 0xbe9fc485be915b26U, 0x3e081b1f3f44d6ebU,
  0xbe93de293e15e5f1U, 0xbd997f37be088361U, 0x3e2fecfd3e004c93U, 0xbd46762fbdeb968cU,
  0x3d5f79bcbb4ee5b9U, 0x3d0cb9c43eedf4ccU, 0x3e06dc303e18f7b6U, 0x3d8c1e20be329df9U,
  0x3e6502673e4af0f6U, 0x3d87e601bc781ca6U, 0xbd67be84bd2b07bdU, 0xbda91eca3d7d5322U,
  0xbe317d143e7c9126U, 0xbc1749e43d923b85U, 0x3d33326dbd976faaU, 0xbd11ed563e15d531U,
  0x3dab48ae3e0d43e8U, 0x3e4ad14c3d991aa3U, 0xbe474d573db0d91bU, 0xbdd2344dbcbc2679U,
  0x3e73c5bc3d52146eU, 0xbe8e18713d4451b3U, 0xbe85ee503e3b5778U, 0x3e1ca0193dce6329U,
  0x3dfdc7563e856063U, 0x3e0fe1f0bd20f9b0U, 0x3e05f1123d8560c1U, 0x3dd9fac9be351715U,
  0xbe001ca83e2aa599U, 0xbc1f00abbdcb60cdU, 0xbd592f44bdb1cdf7U, 0xbd2da2b73e0489ccU,
  0x3d5567e43da26593U, 0xbe093b3ebd10bd51U, 0xbe2177463d88b393U, 0xbd74d4093bf3470dU,
  0x3de95936bc2a81d2U, 0xbcd9c6cf3d1c6fb6U, 0xbd047e853d8b92c6U, 0x3d9db9dbbe2bef03U,
  0xbd1bb07b3e9e4382U, 0x3e875bc03d8c7044U, 0xbe057a3b3c40744dU, 0xbdd0f71dbce3e03dU,
  0x3e97eb72bd35ea24U, 0xbd53e4713c973717U, 0xbcff5319be85f2c7U, 0x3e034f3d3e4060f3U,
  0xbe1759a23e5f8a50U, 0x3d8b33fabdcf8c31U, 0xbd9b20af3ddce2acU, 0xbda3832dbe336228U,
  0x3c040e293bb05c9bU, 0x3dbd26643efd4024U, 0x3d0003583d8f6efaU, 0x3e61a74f3e31da5aU,
  0x3ea57a4f3d6e0bc2U, 0x3e2e78f6be169654U, 0xbcd29b203b4c191aU, 0xbe0401923e1e4ed2U,
  0xbe8ef5133e083881U, 0xbdcf4c773cf704a2U, 0xbe915ed2bc96ff33U, 0xbe9239eb3e2fef45U,
  0xbe2703bd3cf4ba14U, 0xbbd511b23dcfa889U, 0xbec2f196bddbd6c0U, 0xbd822e03bda8e577U,
  0x3d48e95cbd6f3f91U, 0xbe0f50e7be82ece2U, 0xbea1c13abe1950adU, 0xbda47c2cbd342eb0U,
  0xbdf138953e3c15c9U, 0x3bb021e53d9bd056U, 0x3cc7f3a5bdd4e052U, 0x3ced70c8bdb47e72U,
  0x3e2ff6ec3e45b196U, 0x3de5b063bbfaf29fU, 0x3de0431bbe7b6b50U, 0xbdd3be7b3d75a983U,
  0x3c5885e03ddd4795U, 0x3e14e1cebcc09230U, 0xbd8ff10abb2f8614U, 0xbd13c9f63c636e6aU,
  0xbb9991ebbdb2ed97U, 0xbd1f369e3e095a94U, 0x3e15ad26bdbb9c1fU, 0x3e835636bdc2723cU,
  0x3d0c61a13ea44a84U, 0x3e7f7a81bc716970U, 0xbd6fd4bb3d2901e8U, 0xbd4e32133dae0cf9U,
  0x3da40c34bd8ea730U, 0x3d1abcb2bda612ebU, 0xbe9a113f3d98cc85U, 0xbe6105f63d7504ebU,
  0xbd8d1cd7be82d41dU, 0xbe729b53bc0a8afcU, 0xbe49aed1bdd22929U, 0xbdd83ffebe8ef06eU,
  0x3dc2d0f83c965e1bU, 0xbd72a7103e08a4edU, 0xbd8808a4bba39b3eU, 0xbe1b2a3c3d5010c9U,
  0xbe896c71be121aecU, 0xbd95cd22be973acfU, 0xbe44409ebd84895aU, 0xba0626bfbce5a049U,
  0x3c99b9993d5b3424U, 0xbe05b6ebbdeaa1e2U, 0xbeb80c723c635405U, 0x3dcb8acd3de766acU,
  0xbe953cecbd9d736cU, 0x3d256526bd2d3036U, 0xbdba33773cd3643cU, 0x3e0bd3db3c49bc6dU,
  0xbe5845483c1c12f0U, 0xbd868bd9bd69154fU, 0xbd398867bedf7db0U, 0xbe3494b1bd7f248fU,
  0xbe047442be628b9fU, 0xbdd31f14be15692cU, 0xbd25a0fabc622d9dU, 0xbe08e4f8bce45826U,
  0x3e1bc3e43e00a3e4U, 0xbccd6995bd783573U, 0x3e4cb658bce45e3bU, 0xbc0ae0f2bd99bd96U,
  0x3e0c51f1be29f168U, 0xbd2da73dbc370338U, 0x3d065467bd46d57fU, 0x3c6291443d066efaU,
  0xbe5e60033d0ecedcU, 0xbdcc292dbc6ef33cU, 0x3d79fe5dbe4bd770U, 0xbd21bcd2bd715cf4U,
  0x3d2b733e3ea859a6U, 0x3e3cfeddbb99e7dfU, 0x3def406dbdc3ca86U, 0x3d0f271a3d1ec54eU,
  0x3d9aeed13d653d10U, 0x3cd6a1163e0a7448U, 0x3e77a9c2bca5ce70U, 0x3dcaf4e1bb71b85cU,
  0x3e160f953dad8989U, 0xbd6152d03ba436b5U, 0xbdaf06903e16c78aU, 0x3bee28d03ce2a738U,
  0x3e43a2223e2aaca0U, 0xbd3e6e523e00eb5fU, 0xbd59e8ce3e2b0554U, 0xbc8635603e1dd133U,
  0x3d8ef7293df061d9U, 0x3dee88c63d4f43afU, 0x3d3da9833db94a2eU, 0x3e7b1c3f3e0a8867U,
  0x3e0005003da41967U, 0xbe0ca901bd91e66bU, 0x3d88f78abbb2c700U, 0x3c79c4fdbda7e7d3U,
  0x3dfa0aefbdf6212dU, 0x3d03a8a7bc826d24U, 0xb984ba92be852d28U, 0xbe2cc217be2cd4eaU,
  0xbdb8ce19be18a6c0U, 0xbe2070ab3df25b20U, 0x3cb32332be64961eU, 0x3b04f6c5bcdb6bdfU,
  0xbe4643fe3e57b655U, 0x3e7823b6be215632U, 0xbe372c5cbe26dc1bU, 0xbce9ff413ce129f8U,
  0x3d135a273dc93404U, 0xbe63f5c6bdcf6c5cU, 0xbe78856abdfefe82U, 0x3e634b363d90e2d2U,
  0xbd77f99b3e6f7952U, 0xbcec104f3d75d30fU, 0x3e20c9a33d974f79U, 0xbdc5358cbdaef16aU,
  0xbceeec10bdd1212eU, 0xbe80bd893dd8ad3bU, 0xbd3c8eb23d579e88U, 0x3e0fa283be6034a7U,
  0x3e3d470dbe51d527U, 0xbe570075bdda01c1U, 0xbcf28bfbbdbbe365U, 0xbe202754ba76e360U,
  0x3cee59cf3d43fda7U, 0x3e108d97bcf50284U, 0x3bfa88d93e602ca0U, 0xbea95b613e908e68U,
  0x3db273173e08adb3U, 0x3cdd20d93d4df74aU, 0xbe463acabd6c8a65U, 0x3df83e283d7a3802U,
  0x3e2486093d5511c1U, 0x3c98f4a9bdcb6a39U, 0xbdc85c00bd8933ccU, 0x3d74b2f53c6690e0U,
  0xbe819b2abc55c899U, 0xbdbb32f23cb12d25U, 0xbd58b8793dc54d6aU, 0x3dba4ef2bc1f9d4fU,
  0xbda33e033d53f19bU, 0xbb12f760be3968c3U, 0xbd70ee813d5fc3f6U, 0x3d1b0859bd339effU,
  0x3dba575fbd8e42d7U, 0xbd1fb84f3cc349f9U, 0x3defcb8bbdc2f36dU, 0x3d5ca513bdda525cU,
  0xbd5f88a5bd82f37eU, 0xbdded3c2bef21808U, 0xbd6a4612be58e5eaU, 0xbc39d9bcbc8ded2aU,
  0xbe109ee93d49df1aU, 0x3cf4ecc0bda652feU, 0x3d5fe535be07a3e4U, 0xbcd50b8b3deb119dU,
  0x3d1167963e05f8b0U, 0x3b9e9e8f3d56cfdcU, 0xbe641e833d20e2c8U, 0x3e897763bdd3f821U,
  0xbe76c19cbcfbc8dcU, 0xbdb1dc0b3d52b881U, 0x3e92106a3e185896U, 0xba8642f3bc823384U,
  0xbe49a1aa3d2640b7U, 0xbda3e03e3dcfd8ecU, 0xbc8177f9bdc4c10cU, 0xbdc5300fbded5794U,
  0x3b7ad7afbeb83be8U, 0x3d9df177bd849593U, 0xbde55ea13dad0107U, 0x3d90cedb3d934591U,
  0x3bced627be0df42cU, 0xbd02f87dbd126541U, 0xbd8c2c013e2edd3cU, 0xbf05e92b3e54c2afU,
  0x3ca15079be9b8e03U, 0xbccdc5073c23df90U, 0xbeacec61be922cf2U, 0xbdd0898abda436b7U,
  0x3c59bef5bd53bbedU, 0xbde90124bdede0e4U, 0x3d35b5d4be75372eU, 0xbe24f5a43e5141bfU,
  0xbe19036c3dcd3abaU, 0xbea9acc0be1908b9U, 0xbe6db2e5bda64339U, 0x3dc82317bcb504f8U,
  0xbd616ec2b99c2c75U, 0xbda9408bbe41a316U, 0xbeb2be09bcc2e0c1U, 0x3d538cab3cd1ac96U,
  0xbd8d00a1bdee6f6eU, 0xbdb681643dfa88e7U, 0x3d7a9bd8be99baa3U, 0x3d43c7e9bed2049bU,
  0xbef5fddebda5d10dU, 0xbd9f088dbe409a38U, 0x3de24349bedff37bU, 0xbde7dd90be24849bU,
  0x3d13b7bc3d9dd4beU, 0xbd1ef906bedf81d1U, 0xbe186591be8f3441U, 0xbe16733c3c8c5779U,
  0x3ea771e5bd5bea02U, 0x3d1b6da1bd66c151U, 0xbd99b03e3de10c7eU, 0xbc081978be92dac2U,
  0xbdbd46d63e09b50aU, 0x3e1b967a3e50ec6bU, 0xbdb8b7d33c4661c4U, 0xbc957504be0d9c8fU,
  0xbec5aef2bd72b70bU, 0x3e4471813eadac46U, 0x3ea244b4be918e4dU, 0xbd1e35343d043103U,
  0xbe83c5b8be628d38U, 0x3eac9f69be55fc6bU, 0xbe223a7abe02fd3cU, 0x3ca789783e5d6befU,
  0x3d7ab5d1bd8235d1U, 0xbe39c1b43b4d0a0fU, 0xbd660062be3324c8U, 0x3d0680ae3df4004eU,
  0xbe28a4263d978402U, 0x3dfcff5e3df9035eU, 0x3db171bd3d038f74U, 0x3d061530be2f27e2U,
  0x3c82bb7bbe00bcdcU, 0x3e707ca13e4f10d8U, 0x3e26e7c53d8f4acdU, 0x3d7ef63dbc74a41aU,
  0x3d04b129bd47cb44U, 0xbd64e0c1bdf1909aU, 0xbd91b548bd3d2a1cU, 0xbe73b5893d4b4b25U,
  0xbd58d3373d935319U, 0xbe40f3d93c93a89bU, 0x3d32a524bbf9cfeaU, 0xbea44a2c3e568edeU,
  0x3cebfa5f3ca89405U, 0x3e30936bbd8c9061U, 0xbe53f988bbb36a1cU, 0xb89e2b47bde67821U,
  0xbd1937f83e3e36a8U, 0x3d79172abdb46e3fU, 0xbdfcc40a3d806935U, 0x3b43bc243e60884eU,
  0x3d9550003e225ad4U, 0x3b14d7fe3d0c2ebcU, 0xbe52779d3d194281U, 0x3d3f7090bd20861fU,
  0xbdc7bf1f3d12c2d2U, 0x3da49050bde36398U, 0xbe729b293d99b8d6U, 0x3c780c433ec1a2e2U,
  0xbdf556493dac42fbU, 0xbb8486f93d2039abU, 0xbdec3efe3d717b10U, 0xbd8b4034bd0702b2U,
  0xbd4d4bc43cadc6f6U, 0xbe3c85303e028ee0U, 0x3e052a3abc9220aeU, 0x3dde742c3c2e2901U,
  0x3e21a46a3ead9c09U, 0xbc9f96d53c5e5307U, 0xbd8477c2be0f06a0U, 0x3dcc4765bdd2a782U,
  0xbd1c59c83dc9cc48U, 0xbd2c4aadbdb43b8eU, 0xbe30571fbdcea0aaU, 0x3dcd4b073df5bdb1U,
  0x3ca699f9be47829eU, 0xbd90cb6fbd677815U, 0x3e0d59aebdf7b846U, 0x3c222be8be1cff1fU,
  0xbea4884fbcb2c7deU, 0x3ba0ad5f3dfbb873U, 0xbc69215c3a479f36U, 0xbdf8d3b5be00e04bU,
  0x3da1a6113de909d9U, 0xbd07d175bd274111U, 0xbd09c19abdd4e208U, 0x3cd12a1fbcbe8027U,
  0xbe39545cbd4e0fe8U, 0x3d6271203b80ed83U, 0xbe11c766bde7670cU, 0x3e03c17d3ea09aebU,
  0x3d5a89c03d78efe8U, 0xbc9a2a60be10b50aU, 0xbb0ccf613e316f40U, 0xbc8db43dbdb3c0b8U,
  0x3d645c5abe39df41U, 0xbe368d183e4def2dU, 0xbe0da98d3c8cffb3U, 0xbdc0fa0dbe098106U,
  0x3e6190603dfbab36U, 0x3d92b4a93d44fdc4U, 0xbdb23d5cbddb4c8cU, 0x3e2a246dbd1dc4cbU,
  0x3c90cc503dad5366U, 0x3d899823bc5dd069U, 0xbdcf03cebdbe9a94U, 0xbdc77cafbdfca21aU,
  0xbe598d083d093011U, 0xbde29c673da5d03bU, 0xbe3e0d9a3dc8b976U, 0xbded0c64bcc29a06U,
  0x3dace9a93ccfc90aU, 0xbdb126b03e2ec6d1U, 0x3c0facf13d4e5a8cU, 0x3d933c4a3e3a1791U,
  0x3e911dd63e0fbb81U, 0x3e12fd59bd28f305U, 0x3dc81d08bd30749aU, 0x3d1fe5e9bd0907efU,
  0xbcd94174bdb9ea0bU, 0xbe24917cbd9fbdf4U, 0xbe152d41be624e33U, 0x3e0819c83e697e6bU,
  0xbe5e77923e02a286U, 0x3c2077cfbd663264U, 0x3e4bc0a3bcc0e0f6U, 0x3d110951be055898U,
  0xbcad3c77bd2a4fc4U, 0xbd3b80f73ec6f443U, 0x3ce22c263e4c7c77U, 0x3d445d10be7a85abU,
  0x3e68fa453e495308U, 0xbd380df7bd2d72e2U, 0xbe22a342bd8af7e6U, 0xbe29a79ebdba8a29U,
  0xbd9b92613d8a6c83U, 0x3c59b0383d6553cbU, 0xbe1dc5eb3e999594U, 0xbe0a93aabe1264f1U,
  0xbdfe63813a571ca8U, 0xbe073df8be491d7bU, 0xbecbe77c3d201d89U, 0xbdd4e64bbd22b30fU,
  0x3c5744a1bd06af6dU, 0xbd49e51b3d62caa9U, 0xbe0454c7bec923ceU, 0xbd44515a3db92e01U,
  0x3d35e3c1bcf4be9aU, 0x3cead4d9bde32ea5U, 0xbdc651e8bbfbb325U, 0x3e7afd31be0af69bU,
  0x3d13e0503d693bc8U, 0x3e4c5c35be471f7cU, 0xbe9607b73eb4d1daU, 0xbe2afdc13e40cc80U,
  0xbe0a750cbe80d123U, 0xbd69ee613ddcf1a0U, 0xbe00c571be5ad2b7U, 0xbc325c3ebd210da4U,
  0xbe7b4c70be04ab62U, 0x3d937414bdc2d04eU, 0xbb4da097be90c38dU, 0x3d23a7563dede3efU,
  0x3e40986e3de4527aU, 0xbe1e2292be029ad3U, 0x3d753e11bc8252f5U, 0x3e61a6b3bd82a42dU,
  0x3c8633073da940e4U, 0xbdf200553db0e3a7U, 0x3d358827bd9c0aceU, 0xbe575d3dbe92dae9U,
  0x3de8a1b03dec2f34U, 0x3d0c3fd3bd457ce4U, 0xbea33dcabe08800cU, 0xbcc69289bb171bd6U,
  0xbf1192c93dc963a2U, 0xbe1c3c043e7c997fU, 0xbd1593debf3dba13U, 0xbc9ca78e3db0daa4U,
  0xbee339b43d91d1b1U, 0xbe24ae49be150387U, 0x3cf199663ce33789U, 0x3db65a0bbe9c93a2U,
  0xbe60fb83bdae2f45U, 0x3e039f65bdd1e8b9U, 0xbe774a5f3dae5858U, 0xbe147de6bdc78432U,
  0x3d08699cbdac2b56U, 0xbd75b928bcfc2c11U, 0xbe2bbfe7be9ed30fU, 0x3cab1ea6bea99d03U,
  0xbf26f7d7bc879ce8U, 0xbd8930b4beb76a1dU, 0xbd2f2ba5bf46da58U, 0xbe05b5643e0f961aU,
  0xbe4791203c76f417U, 0x3b961562bf06273dU, 0xbe6dd06cbe9119f1U, 0x3e2dd25dbdd4294bU,
  0x3c594accbe1c6746U, 0xbe20da9cbc7062d9U, 0xbe0d4590bc6000f8U, 0x3cf98d85bea069d0U,
  0xbe5d6ccb3e19abe2U, 0x3e11eda53d6e40f5U, 0x3d32f100bca620aeU, 0x3e0a2d39be16063bU,
  0xbf54e05c3d2a9609U, 0xbcdd7daa3d9f5466U, 0x3d588724bf04c0b9U, 0xbd6e2b4ebe006073U,
  0xbcc9d47abedd8f69U, 0xbdea0737be9a4ad6U, 0xbe4bab80be3deedbU, 0xbe6a1a743d487e6fU,
  0xbdc5b824bdb9e818U, 0xbdd3c385b9ff6bd0U, 0x3d275f02be30fd1dU, 0x3ca48bec3d6239a1U,
  0xbd81b68dbde708d2U, 0x3de181813d73753dU, 0x3cf87e6dbcefb628U, 0x3b397dff3c601107U,
  0x3d0661dbbe40be99U, 0xbe8d5ad93e8b4d16U, 0xbe4a09acbc409f60U, 0x3dd28da2be2cdd7cU,
  0x3a9639d3be1d41caU, 0xbe77e468bd3d3802U, 0xbc3de33ebde06d41U, 0xbe8ec7c1bdc0c8f8U,
  0xbebee43b3dde962eU, 0x3d9f5ee43dcaef68U, 0x3e265d50bee405cdU, 0x3c5697a23d79fd0fU,
  0x3da432833d0217e8U, 0x3d11412bbd8ba689U, 0x3df9cb46bd5c1532U, 0xbd27a0eb3bcaa3e0U,
  0x3e511074be80611bU, 0xbecf6f58bbe39fa2U, 0xbdc0b43d3e1d65c4U, 0xbd33fe44be0775efU,
  0x3d94075a3eb6704bU, 0x3dc408853d4168aeU, 0xbe08da273c26d661U, 0xbe362861be1f2986U,
  0x3cfac494bdd40459U, 0xbd8d12a13d6b289bU, 0x3d131940be615014U, 0xbe70028dbeee08deU,
  0x3e088cb1bc7d753fU, 0xbde5a3a4bd31dd0bU, 0xbe9e9f8bbd8646beU, 0x3d047ea7bdc35e12U,
  0xbbdbc75abe907a5eU, 0xbd58bb6a3e083ed3U, 0xbe13d6f03c71521fU, 0xbdb68c77be8e9ef6U,
  0x3dba32c23db883dfU, 0xbe04bd703da478c1U, 0xbda77ce2bd2a8f94U, 0xbed7ab813e18ceabU,
  0xbd9ac37e3b4de62cU, 0x3e1761ad3da4d2a2U, 0xbce6c7923d94ab11U, 0x3cc10fafbdcaf198U,
  0xbd9119843c9f4c3aU, 0xbd83a547bd229feeU, 0xbda38b133a0c6fedU, 0xbc3766d83d2c68b0U,
  0xbe47dc073b2bbf86U, 0x3d791777bce18a1aU, 0xbdaa516fbda15664U, 0x3cd9cff5bb7eac47U,
  0xbe18297dbdf19e4fU, 0x3d8fafabbd8cdf37U, 0x3dbf2e053d8eec4cU, 0x3e2613e1ba8a8586U,
  0x3e9871dc3d0db61cU, 0x3c09f035bd10b609U, 0x3d8ba6b93e67c9d8U, 0x3e3589e83e8a32c1U,
  0x3c96244b3d408596U, 0x3e204f153d55bc89U, 0x3ccc050a3d3a120dU, 0x3ddc70f23cb81712U,
  0xbeb1eb95bd281a17U, 0x3e615de53e500728U, 0xbd969507bde44f87U, 0xbd83d14c3dc9b766U,
  0xbd9927623ecb7dbdU, 0x3c7d1210bd48822bU, 0x3d0c9d4f3da723acU, 0x3ea1ec4b3e0d4131U,
  0x3d4c64b5bdedc75fU, 0x3cf9fe94be164554U, 0x3c98db9c3e0b0465U, 0xbe8a965d3ea02c5bU,
  0x3dc875e3be0bf6fdU, 0x3cd799b6bd998bdeU, 0xbe539cc3be07a9c4U, 0x3db8673ebd23d1c3U,
  0xbe8d1920bc9b11d1U, 0x3d04f664bdb7d441U, 0xbe43a8283d9ed5e2U, 0xbcf680573d61190bU,
  0xbe8894673dc2183aU, 0x3c9ffb683d6da64cU, 0x3cd164e0bd418d89U, 0x3e53a8b93b7f835eU,
  0x3e1fefebbe725a38U, 0xbe190a413ddeb03fU, 0xbe17c3a43c2f4fc5U, 0xbda1ead4bb81f533U,
  0xbd1002533c8b73f0U, 0xbdd69febbcbc0af5U, 0xbe7de192bc6fcb7aU, 0xbde1d3f1bdb0d83dU,
  0xbdbc14493d868d07U, 0xbc6bd1333bcfff37U, 0xbba49aa2be355ddbU, 0xbc5b11453e4b7328U,
  0x3cbd3488bd890eb7U, 0xbca38166bdc8abacU, 0xbd088023bd89f65eU, 0x3e1c20853e08055fU,
  0xbe355f06be9910cdU, 0x3e023adabeebd961U, 0xbe8fbafe3dbf6450U, 0xbe306f9cbe1d7c8eU,
  0xbdbf2b11be05c4a6U, 0x3c70e8cdbdf37085U, 0xbe0328bdbee9d4f4U, 0xbd96d48fbea6c973U,
  0xbdb257b7be676286U, 0xbd223027bf39cefeU, 0x3bfc78c0bd79544aU, 0x3d5a14e63d5680a7U,
  0xbef02e8abe9d2ee0U, 0xbe70da2ebe361dc7U, 0xbe97e560be6634dbU, 0x3e28e58bbe26ea36U,
  0xbe6849a1bdbae662U, 0x3ea85b06bdb55d2eU, 0xbe5a8edfbd42f37bU, 0xbde7cb19be8d8afdU,
  0xbe845a57be1c9945U, 0x3df79d403de278d8U, 0xbe1d3bb4bc8129bbU, 0x3dad1ae1bda4e56dU,
  0xbe66dcc93d28df78U, 0xbbad29e7be5b42d0U, 0x3c8c6362be206b75U, 0xbde4e1ee3d451fdbU,
  0xbe3e7e13bef2c417U, 0x3d2fb047bd674c81U, 0xbdd4340d3d58f452U, 0xbdaad5bbbdb4ac96U,
  0xbedfdb3f3df6d7a3U, 0xbe3b8e59bdcc510bU, 0xbe9c5ad43d919b2aU, 0x3dce38543e29a8dfU,
  0xbc6d7c07be8d54f3U, 0xbe80b87abeab40d2U, 0x3e3d6f6cbe57b729U, 0xbd3548cfbea7448cU,
  0xbe948cf6be039947U, 0xbe985aeabefa43feU, 0xbd88e0f0be235fafU, 0xbe69371d3d87a9f6U,
  0x3d5527873e4bacddU, 0xbe02d96dbe94f435U, 0xbe87b351bd75257eU, 0x3e44cea0bebb3422U,
  0xbe8c1d2c3c2e6a4bU, 0x3ce2e346be21eed1U, 0x3c04d552be64856aU, 0x3e25397e3f1c172bU,
  0xbe94e6e93e0d50afU, 0xbd8114a3bd98e337U, 0x3e1e9ff13d4b4ed3U, 0xbdef464abbab97ccU,
  0x3e0c33b8be8bff3eU, 0xbec93d523ba0be04U, 0xbd9b12d43e6bb41bU, 0x3cc336e43d909247U,
  0xbd2988313ecb726cU, 0xbeb96fde3db43680U, 0x3d86ea1ebd74aec9U, 0x3df3d5b5be2fd388U,
  0x3eab9f10bd9b3549U, 0x3e619cc8bba9beb8U, 0x3e6756e0bdfd9c29U, 0xbe28f612be193012U,
  0xbc4355a1bc2b0f14U, 0x3e45c4143e07831aU, 0xbe874bfb3cfc576eU, 0x3d4177873b74f93cU,
  0x3e932679be3f1a1fU, 0x3d684916bed8df60U, 0xb93a6a483dcbebc0U, 0xbda708fcbd992c34U,
  0xbea30a7ebea5e7dbU, 0x3dda105b3e36ade4U, 0x3dfd9ac73dd8db67U, 0xbe53c5b53ed12a89U,
  0x3e1945263e1ed451U, 0x3dd92393bd94f641U, 0x3e37f9d5be05db54U, 0x3c75e965be620403U,
  0x3e0890333cf0813bU, 0x3e4b3b1e3d8f8bfdU, 0xbd401afcbd8d2440U, 0xbd2119d8be618c17U,
  0xbe8ab5c6bec07d2bU, 0xbe09f2773dd9c154U, 0xbc80e221bed08805U, 0x3db7def0be9d6994U,
  0x3e064fd73e1d0b81U, 0x3e8dde6dbdc90ca5U, 0xbe6ffbfebe100170U, 0xbe808ddb3e31adc8U,
  0x3e8bfb403dc10b10U, 0xbdd1f3943d63bae7U, 0x3db43be7be77a8c7U, 0x3e146dfc3e86c8caU,
  0xbdda3d013eb9c72cU, 0x3eb8873f3e084158U, 0x3d49a5523de9e646U, 0x3de14e07be0d0d34U,
  0xbd6c98f8be0bfa0eU, 0x3ea9951d3f0c3c6dU, 0x3ebf8170be04284cU, 0x3e14c31cbe283ed7U,
  0x3e62484e3f06c70eU, 0x3e7fc9abbe3410e2U, 0xbd8c0431bd16442aU, 0xbea636ac3e5a7094U,
  0x3e48eb19be15fa4bU, 0xbe2b8c9ebd1e0f59U, 0x3d9ce2c2bdc8387aU, 0xbd9b520cbdbbb74bU,
  0xbe2619343e732559U, 0x3cee60733e0012c7U, 0xbd2469843ccf4ed7U, 0xbd24bb4e3dda3451U,
  0x3e857be03b2659c2U, 0x3dd7f65fbcc9c132U, 0xbe2ddab23e4684e6U, 0xbdec581cbd8778c9U,
  0xbd49cddbbe9a1c42U, 0xbe44751a3e01b9ddU, 0x3d770f743d67a7e9U, 0x3dc53acfbd8014e1U,
  0x3da5405fbe946acdU, 0xbe1acbd9bc23bd2cU, 0xbcb3f8fbbe6f5292U, 0x3d622287bee45138U,
  0x3d2fb0b7bcf4d7c1U, 0x3da98ddc3e18833bU, 0x3d82a5403c9aa6bcU, 0x3d9d2e9bbc82891cU,
  0xbda4c5343d348b5cU, 0x3e7afe9ebe7d5b72U, 0x3acaa05fbd52dd21U, 0xbcdd27573df2f076U,
  0xbf22e9e3be314739U, 0xbeca03cd3d3be10fU, 0x3cfc5144bb9499e6U, 0xbdc9542c3df15a5cU,
  0xbd3a4007bc84eac8U, 0xbeaba3773e40394eU, 0x3b6bf87e3de0ae03U, 0x3e3438e1be00821cU,
  0x3e3337073df1dfbbU, 0x3dafb3413e65b0feU, 0x3e8edc663e4d7f18U, 0x3dfb11723cf59db0U,
  0xbd0ad71d3e3259edU, 0x3d5ce6cebe590c2fU, 0xbe31bf9dbd68c824U, 0x3c7115883e1c62e5U,
  0x3ddd138bbe079765U, 0xbc14ba0a3e273bbdU, 0x3db824653e3f713cU, 0x3e82a1d3bd85d2fbU,
  0xbec022e73e780b9eU, 0x3d64585b3e0bb59fU, 0x3dffcf1d3e23ddc6U, 0x3c96392e3e340178U,
  0x3d9a4d4abe659cc3U, 0xbe46b687be954d3fU, 0x3d32f5943d1ed5c3U, 0xbe0975e8be14e427U,
  0xba49dd81bd190999U, 0xbe3f28b6be117bd5U, 0x3e347383beaa06ffU, 0xbd3bd200be1db538U,
  0xbe8006373f124a9bU, 0x3ea358bc3e1b000eU, 0xbe2b6b33bd626073U, 0x3e18e0a6beb44044U,
  0x3e536182bea30494U, 0xbd9a79a8bc3ac32dU, 0xbe0ab679bdf6a9ceU, 0x3c3ca339beaac5cdU,
  0xbe01aa763d015e2eU, 0xbe74c3dcbdbf2f70U, 0x3d1d27143d69ea3eU, 0x3d3e0d1cbe320601U,
  0xbe6413ffbe80efb7U, 0x3e9d4c56be05ff1bU, 0x3d85736bbe7c8a4fU, 0xbe4d318cbe63fb37U,
  0xbf082250be6e5305U, 0xbd6a06c0bdf6d133U, 0xbe4e1bafbe19f8faU, 0xbe08dfe53cd21d57U,
  0x3d6831a5bf0049cdU, 0x3dc93d9bbda8d316U, 0xbe02b729bca43e2dU, 0xbcf2d34cbeb0051bU,
  0xbe09b2ee3dfff62fU, 0xbccb0e753c4c071cU, 0xbce97af2bdbc66baU, 0x3d920afdbd52e087U,
  0x3cb1a61cbd18e35dU, 0x3eb4a62ebd73d4adU, 0x3e858299bdf42a2bU, 0xbd17c1d4bd1f3bd2U,
  0xbeb47c77bf044a0dU, 0xbd0673e0be27ea03U, 0xbe4122dbbcfd43a6U, 0x3cca38063d9ad16cU,
  0xbe1251bcbee27596U, 0xbe31b527be60b394U, 0x3d44226e3ddedd66U, 0xbea19c893d37b0d4U,
  0x3dff994dbe72c8c7U, 0x3c7b3368bd3842beU, 0xbed280eabe88c3a6U, 0xbe437359be50ec74U,
  0x3de1910a3c14f37dU, 0x3b80faea3c7cc5c3U, 0x3e88c3babe3e447eU, 0xbdca1d973db13670U,
  0xbecb6e683e324b00U, 0xbd8b76efbe112628U, 0xbeb01121be170c80U, 0x3e3a43cbbe4a852aU,
  0xbd5bfe61bdf8b68dU, 0x3bc9f3c53da6de31U, 0x3e27fb36be83def9U, 0xbd9e0531be151a9aU,
  0x3d8a8c9f3de79b17U, 0xbe948f74be1bdb13U, 0xbe19e98d3e16fdc8U, 0xbe3da5963c909015U,
  0x3e998882be58c07eU, 0x3d66e05c3e0592fcU, 0xbc86942d3e22db38U, 0xbe1abe473d253bf0U,
  0xbeae33dbbd012e86U, 0x3db473a03e16d073U, 0xbda1c1d73d5ca0beU, 0xbe24f944be2b618eU,
  0x3e76c825be64bb6eU, 0x3d9b0d88be0f0f07U, 0xbd0f010b3df8d0e8U, 0xbed62811be9b3e48U,
  0x3c4d6cf6bd305714U, 0xbd69ff01bd1aa8e5U, 0xbebf939dbea4fbc1U, 0xbdddb5a4be411a13U,
  0x3e9ea664bddbfdd9U, 0x3e9be4a4bd26728eU, 0x3e560ef33e90ae72U, 0x3bddb2da3c866d21U,
  0xbef71955beaceac4U, 0x3eeb94743c0d9072U, 0xbe801832be0ea720U, 0xbd9ee1243db7e750U,
  0x3d43a549be4c48b0U, 0x3e199902bdaa21a1U, 0xbda892ac3eaa2982U, 0xbdb8a6f83cafbb49U,
  0xbd6dcca43dae7eefU, 0x3dbc8dffbcc78dd8U, 0x3bfefa50be0da050U, 0xbb38f5cabe341f84U,
  0x3e05801abe1c3030U, 0x3e0adb67bd6a90c9U, 0x3e6f09a2bda4e0fdU, 0xbc7347e1bdde3f6fU,
  0xbe87402fbe539ca9U, 0x3e8bce57be6a2934U, 0xbe513166be13b822U, 0x3e8cc969bded5bb7U,
  0xbddb080a3c53a7efU, 0xbd8c002d3c91577aU, 0x3d33acd9be41564aU, 0xbdaf88e9bef8eba1U,
  0x3e5d3544bcd39650U, 0xbe92d7dfbe9074bdU, 0xbd481c6e3d534ee5U, 0xbe1bf3273e084284U,
  0xbcb5248dbce1ceeeU, 0xbe1955b0be78ca13U, 0xbdafef27bdea8a26U, 0x3d71f92fbeabc482U,
  0xbe14fa2a3c88fceeU, 0x3e78229f3ddb0e60U, 0x3d59c6fb3dcf5e85U, 0xbe984896bcaf37ebU,
  0xbe3ce97c3daa1a81U, 0xbdcf0e4cbd94ec76U, 0x3e411ccebcdc49dbU, 0xbe36ff0bbe142c55U,
  0x3da1dd00be0083ccU, 0x3e048d04bdd56ea2U, 0xbe08de49bed9ced5U, 0x3e21e5193c8dedd4U,
  0xbe314cc73d5533aeU, 0x3b8033a5bec608f9U, 0xbddb51cd3c263b41U, 0xbd042873bda61639U,
  0xbe981bff3db3a626U, 0xbdf837d33cd15ba2U, 0xbd87f1fb3bf04fdcU, 0xbd561146bd2aac3bU,
  0x3dac81613de17a09U, 0x3e3d065ebd6ae658U, 0xbc3ca6903ea04c2dU, 0xbd712a2a3d52e86cU,
  0x3c9a3f8d3e0ecc5eU, 0xbc8d62523c958114U, 0x3e0d90bdbde28d02U, 0xbddae372bdd11cbcU,
  0xbcc58c003daae62dU, 0x3e6fd1a9bd1df902U, 0x3d55f7cfbe17159aU, 0x3de0b9e43dd2622cU,
  0xbe0a99273e2d7007U, 0x3e2adcf7bdedd2c9U, 0xbe1cfa43bd964eb1U, 0x3e8b04663d10c290U,
  0xbdd15de6bde92239U, 0xbe51992cbe1c754aU, 0x3de61de9be007762U, 0xbdf28559be295d13U,
  0x3db5e952bdb7033dU, 0xbda75804be1b2a4fU, 0xbea0e447be0b6ea8U, 0xbe45e7cb3e0b5cdcU,
  0xbe21cd1b3d0866faU, 0xbd70127abea25595U, 0xbe36fd5bbe863c8eU, 0x3dc15d5dbe7625b6U,
  0xbe8facd13dafbadcU, 0xbde76e6e3c633189U, 0x3cdf54153d594995U, 0xbdadd41f3e406426U,
  0x3d9047663e15d10eU, 0xbdbb4031bd94890fU, 0x3e05d96e3c02249aU, 0x3ca85eaf3e00bff0U,
  0x3e407d36bc978a43U, 0x3d986c3bbe06a2ebU, 0x3e5c356abe79fee8U, 0xbd61138fbd8017ecU,
  0xbdd152a7bc19ec9eU, 0xbe0a622abe954118U, 0x3d059e2bbe2bb776U, 0x3e0bb4723ccd7f9fU,
  0xbbf653203ea00ce0U, 0x3dd86786bd45dd3bU, 0xbc97b4c1bcceea36U, 0x3cc428b93db4f89dU,
  0xbe0bf3d83e0baa1fU, 0x3cb987293ca29b12U, 0xbdd2c8c1bdd16036U, 0xbdf41fa4bcbc28aaU,
  0x3c64c0e03dff24e2U, 0xbcf8a600bdfad047U, 0xbdbf66a5bd61a5dbU, 0xbd97d627be6af54eU,
  0xbda84776bda9970fU, 0xbe084f593d55beb0U, 0x3cb57b6bbdeb2c4eU, 0x3e1216afbe53467bU,
  0xbc1dd0283e45c934U, 0x3e5d5876bd957403U, 0xbe32045ebdbf13a8U, 0xbe4f3275bd8c7514U,
  0xbe061f7fbdb96beaU, 0xbcb12f18bdda086fU, 0x3cc4baa23dbdd1baU, 0xbec614273db3d42dU,
  0x3e491123be7e5b17U, 0x3bd2c659bd87a230U, 0xbe817473beff791eU, 0xbe574c503ddbb1afU,
  0xbee17b253d62e7deU, 0xbddd67f9bdc7946eU, 0xbe053750bebeaa31U, 0x3e008b543e0a09dfU,
  0xbd969e5d3e8a3277U, 0xbe2338e8bdfddbeeU, 0x3d8ea9153d357648U, 0x3d9eaa6b3c479687U,
  0x3d45f1843cf3607bU, 0xbd49da603c36ef6aU, 0xbe0881863d7bd099U, 0x3d011c743e700e7fU,
  0x3d530d25be466082U, 0x3cf4d075bd4c1792U, 0xbcd21fdcbe52f719U, 0xbd7d6e45bde59955U,
  0xbe9af96f3e207845U, 0x3cc8b030bd646e89U, 0x3e26a464be58d4bfU, 0xbd6f3dad3e3334a7U,
  0x3dc639653e907aa0U, 0xbc216c2abeb23defU, 0xbcb04c35be3c963cU, 0x3e3c88fa3c01ae4cU,
  0xbe4a9b793d82fcacU, 0xbd48c887bd1448a3U, 0xbf19f994bdc91e74U, 0xbd7386e93aa60cb4U,
  0xbd22060bbdc74b58U, 0xbe26aef9bcd48d30U, 0x3d826ee9bd19cc7cU, 0xbd80d684be65b54eU,
  0xbe6e53f6be1180ecU, 0xbda49ef43d727a90U, 0x3d6ea3e4be01e286U, 0xbe57a293bdd1bdf7U,
  0xbdc790743e397ed3U, 0xbe5ce919be866db0U, 0xbd30ac63be20da58U, 0xbdec31a8bd52c36bU,
  0xbe08b931be8169e3U, 0xbdcf1d09be3c62f2U, 0xbe3a875cbd5349d8U, 0xbd6d4a6d3e0b9f75U,
  0xbd23cc78be42fcd6U, 0xbead8d4ebe9ce104U, 0x3d9b5bf5be9e2953U, 0xbe166f86be913cc4U,
  0xbd26078fbdf77f83U, 0xbe7a20dbbf15c6c4U, 0x3d57480b3dbfa083U, 0xbdea7f3dba8f47d9U,
  0xbe8efecebe457dfdU, 0xbe3fd8ccbdbe7915U, 0xbe4cbaffbdce849eU, 0xbe1c4ccbbeb3e466U,
  0xbd9ca8e7ba481ec8U, 0x3c89f89d3d13e12aU, 0xbd841450bdcdc939U, 0x3dff28adbe87cab0U,
  0xbd97c690be2e981bU, 0xbdfccd12be736de5U, 0xbd9a7b8d3d7f495aU, 0xbdba51efbe021c42U,
  0xbd9272cfbe2e3089U, 0xbe51afea3d1e98a2U, 0x3d671ce93c35c461U, 0xbdfc1bdebe67c4a6U,
  0x3d110245be4987d1U, 0x3c919cc5bd8f6982U, 0xbd3cb1f6bd30646cU, 0xbe144d36bdb01997U,
  0xbe684e15bdd73efbU, 0x3d0486d1bce10374U, 0xbc91e015bdbe7fcbU, 0x3de14ba93da10b24U,
  0x3c153b44be91a51cU, 0xbe9a360abe968194U, 0xbc82c4ed3d83e6d0U, 0xbdff9283be06f28dU,
  0xbe57f3ccbe504325U, 0xbedd3eb13bf61477U, 0xbd8dcb63be2285baU, 0xbdc669a1be11d594U,
  0xbe00f6ca3d8e853aU, 0xbe10e43abdcc788fU, 0xbd62f6fcbcf79929U, 0xbd457207bea19f36U,
  0x3e05071bbe2f3ac3U, 0xbe175a0b3cc282baU, 0xbe3416e5be4d6958U, 0x3e3198293f371900U,
  0xbeb29aed3e903be6U, 0x3e1eaa4eb958539fU, 0x3dcf4c273e01fd53U, 0xbd9fdbaabdc2a659U,
  0xbde0d975bd80b996U, 0x3db167263f0a13b0U, 0x3e9a93dd3e8221c7U, 0x3d5a9795bd5bc6d3U,
  0x3da6d86b3eda094cU, 0x3e3761d9bc51fa99U, 0xbe1656f9bdab20ffU, 0x3e801f153dbdf7deU,
  0xbdc48d26bd0f5ee6U, 0x3c8e456b3c040e6bU, 0x3da50618be8abbb2U, 0xbe642b76be038df2U,
  0x3d3ed5273cc87391U, 0xbc56f7783e08224cU, 0xbf007f043c95b3c1U, 0xbe1012863d36a32fU,
  0x3da41d1e3de1ea5bU, 0xbdaffa8cbe4c1291U, 0xbe80f82b3dec7ca1U, 0xbe4f0fa03e1a2316U,
  0xbe003a77bdd989ecU, 0x3d78f7463e02d458U, 0xbc8d71703d99177aU, 0x3d2a967ebdcce7feU,
  0xbe0953af3ce6b885U, 0x3c6742a93e32ec0aU, 0xbdb00278be88c48bU, 0xbd3778af3e4b342cU,
  0xbe19da263d32a109U, 0x3d00ed75bd59300dU, 0xbd5e9f9e3e268394U, 0x3dd3e5553d59fe02U,
  0xbd82a2d43d734887U, 0xbe21ae043e85cc0dU, 0x3cd67b0e3d4a19b8U, 0xbdc24178bdd74cddU,
  0x3df92a8a3e55ee01U, 0xbe1234153dc2e1d9U, 0xbd008ed1bcca2588U, 0xbe8f04a63d9d670fU,
  0x3e759afabd72728cU, 0xbd3465bbbd989b82U, 0xbe000ba9bcc79d76U, 0x3e25439bbdc5ec97U,
  0xbe25e0583d2f2b12U, 0xbe121a4b3cb56a59U, 0x3d42b24c3cc7f3eeU, 0xbd952303be176251U,
  0x3e39ff46bea76fc0U, 0x3e3bc96b3e9b6b7eU, 0x3d92180abd826d7cU, 0x3d7e268fbe1e8763U,
  0x3e619669be60e41dU, 0x3d9d1a8bbd9ad5acU, 0xbdb0b085bd97a5b3U, 0xbdfdaedb3e072607U,
  0xbdbcea98be757229U, 0x3dad2a53bab891b0U, 0xbde18b473d22bfbcU, 0xbe5801a53ece1ea0U,
  0xbc962bd23dc3fcfdU, 0xbd43acd43d9e5ef9U, 0xbf0bffe3bc90f674U, 0xbd58729ebd3f88f9U,
  0xbceb5689bcfb2215U, 0x3caf64a0be3e3c49U, 0xbe1856cabc08b918U, 0x3d2aecc23cabe1bcU,
  0xbe4c8475be3c7dcbU, 0xbdebd8143d59af0bU, 0x3d8c5e873d51b868U, 0x3d91eb483bcb66ddU,
  0x3e53640dbd9d7782U, 0x3d05a60abd65167eU, 0xbdf64d3d3dcae9bfU, 0x3b984b77bc6d2661U,
  0xbe85be803e1fe887U, 0x3e0f9ab8bd8a6164U, 0xbe3165423df5ed4bU, 0x3cc414633c4789feU,
  0x3e01b0c6bc3281e0U, 0x3e0edd5a3e302926U, 0xbcf3f3263dec21c1U, 0xbd56ac2fbe0742cbU,
  0x3e50958dbd4aa313U, 0x3e007f5f3dccff2dU, 0x3d571d5c3d649d58U, 0xbd61106ebd02f04eU,
  0x3d3a90673e594fceU, 0xbd8a62a03d4c0053U, 0xbda8f208be40f49dU, 0xbda1ff823e800af5U,
  0xbe878d41bd196527U, 0x3e482cca3e422b07U, 0xbd925902be1ee7b1U, 0x3dd6a9cd3dafe04cU,
  0xbdd869953dde6b14U, 0x3e0aacb2bd77c5a5U, 0x3e5d0221bdbe4bf5U, 0x3e996ec8bd712ed9U,
  0xbbcfa10b3e372964U, 0x3e53cff9ba932b89U, 0xbc312008bc61ed3cU, 0xbe5ef1593d4bcbecU,
  0x3e231c0b3dd675ecU, 0xbe2eea25bd3d756eU, 0xbe9d2fedbeab4c26U, 0xbdb355723ec0279fU,
  0xbe63d904bdd2ea35U, 0x3e6758853be537c5U, 0x3dbcabb03d92eeeaU, 0x3bd1b06a3d8186e3U,
  0xbda9dd293defbedfU, 0xbd5d7f343e7c6209U, 0x3d72854cbd810028U, 0x3ded6bbd3d063960U,
  0x3dd4c6313a8e105eU, 0x3e3e7ffc3cfdb702U, 0x3d9493a53dd5c2baU, 0xbda55fe73c10cd5fU,
  0xbe59725ebe27301dU, 0xbe513319bd8d589aU, 0xbe2f844ebec6d363U, 0xbea420fcbe8557daU,
  0xbe67be54be216426U, 0xbe93ef08beef1100U, 0xbe810e7ebd54da16U, 0xbd9193543e4618edU,
  0xbd65ed0ebe2a7edcU, 0xbee30807beea26b8U, 0xbeb34b20bd301497U, 0xbcf339ddbe9c3a40U,
  0xbe1ef83fbead07a4U, 0xbe11a9df3dcdb0cbU, 0x3e281732bba0ea96U, 0xbe4a0419be1cb321U,
  0xbdc022833de5ec9eU, 0x3d5def163db0663eU, 0xbeae8f133c428ac2U, 0x3e3d12d33f0564b9U,
  0xbe29101b3d326a45U, 0xbd3a4afcbe18dbe6U, 0x3c4b70c43bd7498dU, 0xbd24920e3ce7b2aaU,
  0xbbd63d7f3de91eb2U, 0x3cee1b6e3daa4d19U, 0x3d15e6843e3ab20cU, 0x3d7aeb5d3e501a0eU,
  0x3e5f8b113dd9e379U, 0xbd5eb2f6bcdb65f8U, 0xbaa32121bc6c11beU, 0x3e96756fbd842fe5U,
  0xbcd0c6e43d34bb83U, 0xbe0d44d33ddf39e0U, 0xbf0540a9be0f4c2fU, 0x3de76625bd305702U,
  0xbed8fe883da8231eU, 0xbddb7c233cf43885U, 0xbdc44a6d3dd3d506U, 0xbd36c825bc758da4U,
  0xbc3f6c2e3e06b131U, 0xbdc9c58b3e2ca7b2U, 0xbe2139d4bdd1973eU, 0xbd8b0f2bbd092a8aU,
  0xbe2d6eebbdfcd656U, 0xbe901f053af6cdf6U, 0x3da918e8bcab4d31U, 0xbd6f08d0be148009U,
  0xbe42e048bd12af43U, 0xbea4b10ebe02df67U, 0xbdf62a95becd907aU, 0xbe229633be9bb503U,
  0xbe82d5f23d83d7bdU, 0x3d5d09073c8958b1U, 0xbe92f0f0be311b0aU, 0x3ba06a9f3dcb10cbU,
  0xbe1aeeb9bd84bbceU, 0xbba31b4abea758d3U, 0xbd7db269bd95a090U, 0xbda36b43be69d932U,
  0xbeb4fd93be89f881U, 0xbe35a41f3d558864U, 0x3e65e5f6bbb244fdU, 0xbeaae905bde8a48dU,
  0x3e0f172d3d8056adU, 0xbcf49511bc23a17cU, 0x3cc65ae03ddc3c5eU, 0xbb8a96883dd5f61bU,
  0xbe8bc2943e7633c4U, 0x3d93b8eabd874c6aU, 0xbe82beb13dbd2389U, 0xbdb9aa5c3d2e1f89U,
  0x3e892af6bd89a928U, 0x3e1a1a5a3e489815U, 0xbc9f29c23dbd4950U, 0xbe0c2b1bbd9b9682U,
  0x3e05f068be3016e5U, 0xbbabf9b33cb69364U, 0xbdc7028dbda7b6f7U, 0x3e086455be0ca939U,
  0xbe01e0d53e23b61dU, 0xbdbd731dbdac0857U, 0xbe35c65f3cb27346U, 0xbe83b7633e2446f9U,
  0xbe9681e1bbbdcc00U, 0xbe503fb4bd928bfdU, 0xbe788bebbe8e152eU, 0x3b4fb647bd3edd2cU,
  0x3d8c3f3f3c8e94ddU, 0xbd3ad7c1be301aa0U, 0xbbd7aa5cbed41761U, 0xbdb2143e3d6341e1U,
  0xbc43f3803e68f656U, 0xbe9cb569bda01f9cU, 0x3dd3c8abbd662b0fU, 0xbde18b8dbd68a3d8U,
  0x3e5ce9333e05c101U, 0xbcf83f67bd9e6b30U, 0x3dc523a1ba3a5f20U, 0x3db2ab893dcf8250U,
  0xbd62255bbe556ad6U, 0x3e7c6f093ea9d8b9U, 0xbdb42967be0a9aefU, 0x3de845b1bc902be5U,
  0xbe3feccc3e35f8e5U, 0x3df726a93c8c471eU, 0x3df25a4dbeb5fc22U, 0x3dd1d8f73e18d74bU,
  0xbdb7e5cd3e3d99c4U, 0x3d7d1ef13cf0ed8bU, 0x3d939a5e3d70bc96U, 0xbda215fb3e6e1572U,
  0xbd5ece44be21a1c9U, 0x3d341eaabe19b301U, 0x3e4c9332bde9d157U, 0x3d039676be557560U,
  0x3e89f2dfbe9cbc4aU, 0xbe4f7ac1bd403b86U, 0x3c9ade65be6094dbU, 0xbd8ea4093d633d0aU,
  0xbe29badd3ce2bd78U, 0x3cbfac39bda133ecU, 0x3ca2c48dbd82c73eU, 0xbd86a301be775c4aU,
  0xbeab72b7be8d88fbU, 0x3dff9aabbc13fd77U, 0xbe21a683bd344f72U, 0xbea804dcbc1ae1c7U,
  0x3e37beed3e88cfd3U, 0x3cc8eff5bd4b506bU, 0xbd3ebe413dd4bccaU, 0x3dec6654bc86c2f2U,
  0x3e298595bdcf3beaU, 0xbc12fe3b3d22e088U, 0xbd140affbbf5c99cU, 0xbdc4889cbe3812f4U,
  0x3dbb917ebe9cda24U, 0xbe0f6689bd9a982fU, 0x3bdf6a123b3b8e59U, 0x3c9a2f89be7aa26aU,
  0x3d7364813ea24fe3U, 0x3e189fbfbe1dfe42U, 0xbe8021dcbdc94dafU, 0xbd6f63c1bda5ddc4U,
  0xbe349363bd105297U, 0xbe1507553d49fc65U, 0xbd7e4970be6035eaU, 0xbc37b2f23dfcc281U,
  0xbe294eeb3d990d5cU, 0xbe1ead2abe1f4a16U, 0x3a603e003dae017aU, 0xbb0dfa69bcb85b70U,
  0xbe050d763e18b1e9U, 0xbee8a2723e4db434U, 0xbd9d3a0d3d2a7736U, 0xbe041131bd890370U,
  0x3d75e1573d008f2aU, 0xbe22de70bdccdcaeU, 0xbe23dd713d037dcbU, 0xbe953f79be369222U,
  0x3d1e05163c9caaaaU, 0xbe5f143fbcc1171dU, 0x3de8d883bd83d867U, 0x3d86c8f73e5a48bfU,
  0xbb49bf5ebca91ac7U, 0x3d18ea77bd84dbe6U, 0x3d1bcc82bd2ada79U, 0x3dac9afcbc38636dU,
  0xbea946573de7bd55U, 0x3e2bda243e22ee0aU, 0x3d9d9eebbd0024f3U, 0x3dcd6fe33e066934U,
  0xbe988094baccb37eU, 0xbdae3411bd234c91U, 0xbb702eecbcd43735U, 0x3e335fd6bc3f4b71U,
  0xbd6dd3793d1dc4fcU, 0x3e10478b3d34e916U, 0x3da90141be652c68U, 0xbe5181cebd201e6dU,
  0x3dd8d6793cf23b0eU, 0x3cc4cebcbe269cd2U, 0xbec6ec103cbf94e7U, 0xbd2a7054bb211805U,
  0xbcf5640d3da27a67U, 0xbed2cbbe3e6070b6U, 0xbe568d413e198189U, 0x3d534e73bbdd6edbU,
  0xbc8e5348be62a2a6U, 0x3d36fa0ebd0e2999U, 0x3aeee2d53da5063eU, 0xbde6c7f3bea1d2b7U,
  0xbcdf61e83db607e4U, 0x3d0c67483bb1b474U, 0x3e0ebd9fbe01aab0U, 0xbcb6c3e33e78e73dU,
  0x3d857e893d971a6fU, 0x3d6cb17e3ce91e3dU, 0xbdb2c7a43e142e75U, 0xbd723a20bda2bcb7U,
  0x3c6656783d86a850U, 0xbe0d2de63eeb1634U, 0x3dfe87063c1e42aaU, 0x3dba31c33dda172fU,
  0x3e0e80933e7a0453U, 0x3e2960d53c9103d6U, 0xbc358ce33b5ee2e5U, 0x3ddeb8183b9226aeU,
  0x3bab964d3e28b29dU, 0x3da5abf0bdfe1d75U, 0xba9494edbdf31204U, 0x3d23cba9be6d3a75U,
  0x3d245f65bda6bc68U, 0x3da561ba3d04835fU, 0xbe110b993dcbd5abU, 0x3c9485e0bd5cdd10U,
  0x3dae8a25bd97fa8aU, 0x3df055bb3e908f57U, 0x3e1cac6bbe2a06f3U, 0xbcea83b83da2c16cU,
  0x3e1a6d2c3e2355feU, 0x3e2624b3bdf98861U, 0xbdb6b7ccbd243440U, 0xbdabebf93d9f6e81U,
  0x3c92023a3dff17a4U, 0x3dd222d8bc735cd1U, 0xbe3325473cbbc769U, 0xbe69b77b3e8bd58fU,
  0x3d60697fbdc17f71U, 0x3e3904f2ba9ae00fU, 0xbec3e068bd5f1981U, 0x3d84b0d3bd579d1fU,
  0xbe822f823d912a59U, 0xbd56bc9dbd936f66U, 0xbe77f049be223470U, 0xbcd7d207bbdeb92cU,
  0xbeb85806be332b6eU, 0xbe58b92dbd3fb570U, 0x3c4316cebd869d4cU, 0xbd8be601bd6655deU,
  0x3dc440dabe43c404U, 0xbe41aafc3d55d490U, 0x3e22c57bbe534603U, 0xbdae56213e409cfdU,
  0x3dd51d34bc69cbd2U, 0xbd6d71d5bd5a4cb4U, 0xbe5d96713ca68a38U, 0x3ddd3c75bcb2e7c9U,
  0xbe166873be06c249U, 0x3d1d522f3e1d833cU, 0xbdc10eff3da2cf13U, 0xbe04086abe8b5f99U,
  0x3e0ef345be255a2fU, 0xb6485c303d2b49feU, 0xba9d3009389d6584U, 0xbe103aed3d062c29U,
  0xbd2fec0fbcf60e07U, 0xbd4805c4bca8e6cdU, 0x3d91e86cbc35abfaU, 0xbb8a94243d83c334U,
  0xbd8653ceba4a3a5cU, 0xbd8d773c3c5bd5c0U, 0xbd81c38bbce6279fU, 0xbd681db93b940158U,
  0x3c8282553d742ab6U, 0xbd85eaacbe29e964U, 0xbdb472403cc39c89U, 0x3cdd20de3bb00149U,
  0x3d9ec6e4bc9898aaU, 0xbe09422f3c96776eU, 0x3c30b918bd84e51cU, 0xbd2e3ce93d2298c8U,
  0xbca5c00d3d641c0dU, 0x3c3d883bbcfc0fd6U, 0xbe11e523395a1080U, 0x3d1a360a3cf77ec6U,
  0x3d102243bda93f29U, 0xbd27ede0bd1db5d3U, 0xbd80a3803d629001U, 0xbdfdb9ec3d59bc10U,
  0x3dbf19e6bd9f3313U, 0x3cafd1f63d3ed8f8U, 0xbd9da7523d68e6ccU, 0x3cfca1eb3cb4d698U,
  0x3d806c193c3fefd9U, 0xbc716d49bd81a5daU, 0x3d20db1cbd69836eU, 0x3d5747cebd403fe2U,
  0xbd614a6f3ce89512U, 0xbc806871bca345e4U, 0xbe122f63bc04a01aU, 0xbdd201833cd331eeU,
  0xbdfcf950bcf1ff4eU, 0xbc86716cbd2d5a61U, 0xbc924496bd3977bdU, 0xbda684e13d1f2f3bU,
  0xbd68e0733dd05c66U, 0xbd83e2e93d8b236eU, 0xbe0ac1d4bdbd787dU, 0xbc7bc4f23db7efffU,
  0xbe135c1dbc63278fU, 0xbcf2e85bbdb4c0c1U, 0xbda11e673cae3c7bU, 0x3cc32ab03c8ffc69U,
  0x3d2a0c14bd1e6b56U, 0x3cd8d153bdc6466fU, 0xbd18652ebdb4f2cdU, 0xbd09e10bbd2976c7U,
  0xbd5755183c4caa09U, 0xbd8000d8bc07fda5U, 0xbd4aa084bdb692cbU, 0xbd050b70bd94d94fU,
  0xbd52216fbcfa2110U, 0xbcd9987fbe0081a7U, 0xbbbf25dcbd24d4b8U, 0x3c7bde6dbd23a273U,
  0xbca01ec5bbe97323U, 0xbd12652ebd1f098eU, 0x3acf6a853d27b55cU, 0xbd37e59dbd98335aU,
  0xbcdd15d63d025b81U, 0x3cd16272bd998a32U, 0xbda4fea0bcbcde3fU, 0xbd3396b43c8417e4U,
  0xbc87235ebd8bb86eU, 0xbd4d638dbdb0e559U, 0xbcecd71bbaa45e5eU, 0xbd0f359cbd9f207bU,
  0x3ad5e5f73b8c9b1dU, 0x3b90bac73d1de7a8U, 0x3cad83b5bc54e69cU, 0xbd3df9bfbd9e6dcbU,
  0xbdcc79493c776c1aU, 0x3cbb63e53d232e05U, 0x3ba1c881bcf2f4c4U, 0x3c398137bd192f46U,
  0x3bee3433b9891b06U, 0xbb26c7bb3d36d124U, 0x3c38a17bbd2bc15aU, 0xbdbc4ad9bc311b2aU,
  0xbdac94a93af8e23cU, 0xbc5350dabc1ac0abU, 0xbdb3de7cbc197d77U, 0xbda0411cbd9b11b7U,
  0xbdf3a8c93d517922U, 0xbd17800bbcb88f8fU, 0x3c890c033cac3c74U, 0xbc8c8b4a3d8c28ceU,
  0x3cf9a34cb8a9992fU, 0x3cf9391f3d488d49U, 0x3c99a5dbbd980720U, 0xbce11fc5bd0e5a4eU,
  0xba7e3d41bd627911U, 0xbcb8de9b3c71b10bU, 0x3d22cdc6be1258eeU, 0x3ca799783b479b18U,
  0xbd173e5f3c51b9d7U, 0xbd994945bcff76afU, 0xbd5750b93cd5a53cU, 0x3c8bab9cbcae2bf6U,
  0x3d05f2fc3d5ed6bcU, 0xbdefa8b63d26a7b7U, 0xbd87dbe2bdb81fa6U, 0xbd469ae23d880b05U,
  0xbd5368783dccbcf0U, 0xbd9459a6bd056b87U, 0xbdc53f94bd05b9d6U, 0xbc8503fcbc6727baU,
  0xbd96fd133d198568U, 0x3be5b63a3d7745ceU, 0xbe30e64a3d73de5cU, 0xbd6d9c2abbdfc37fU,
  0xbdf0cfa3bc91d79aU, 0xbd45b9b43cd38268U, 0xbd2a72183c38a284U, 0xbde1382fbdda91d1U,
  0xbdcbfa93bd37445eU, 0xbd479b59bd7c310fU, 0xbdee2ac7bc89aaf1U, 0xbc7321d1bcbc701cU,
  0xbcfe8e0dbd98da29U, 0xbdf3ae3abc819f7bU, 0xbdcbb5b5bd992636U, 0xbc04251a3d372e6dU,
  0xbd09c553bd8f0118U, 0xbde97eba3ca104cdU, 0xbddd2b5fbd0d60eeU, 0xbe3e94ef3d8b79e4U,
  0x3d415481bc575f34U, 0xbdb54126bdba51c0U, 0xbdc1ef6ebd72fb45U, 0xbe08688ebd2a4d79U,
  0xbb5a11a93b7dcbf0U, 0x3cbbbd26bd940182U, 0xbc66cc0bbd6080cdU, 0xbdb382a2bd9b8eb5U,
  0xbb61e51abcada17eU, 0xbdcd5bd2bd15edd7U, 0xbe032cb83d2726a9U, 0x3d8f4266bdadf056U,
  0x3e2e83f33e3d0f27U, 0x3cd79437bd12ae09U, 0xbafd4696be3f7f6cU, 0x3df9a4403ea0e428U,
  0x3d5f01cc3de45332U, 0x3e5294c93e1680e8U, 0x3d971a193dd7df76U, 0x3d3e4058bc447947U,
  0x3d8f48a8bc0cff49U, 0x3d450ed23e9325d1U, 0x3d4a95d63dea95a2U, 0x3d07874d3db5a9f1U,
  0x3e6e53413e4f8bfdU, 0x3e0378053c64d506U, 0x3d9708243d59bce6U, 0x3ddc17a63d997ab5U,
  0xbe390c9b3d0c9f62U, 0xbe22e002bd7ed703U, 0xbe947199be5f0172U, 0xbdddef3f3e0bd4d6U,
  0xbdfa48b7bdd9313cU, 0x3c2e8650bdb7daa8U, 0xbe4b96783d3a9d5fU, 0xbd8b142f3d4d418dU,
  0x3da7dd173bf2e70bU, 0xbe9c5d843c9ca9fcU, 0xbe138a9dbdf9c7d6U, 0x3cb88d003d185d29U,
  0xbca08bb5bcc3c383U, 0xbe754407bd8e4d74U, 0xbce80a66bd9aac4aU, 0xbd4e9f3abdf0b208U,
  0xbe1d588cbe275712U, 0xbe03758cbdda4348U, 0x3d154084be969d41U, 0xbd09011f3b88c9aaU,
  0xbdb8540cbe20e221U, 0xbdd6a6dbbdc84f27U, 0x3cc50146bda3f86dU, 0xbe312b033d566430U,
  0xbe9d21ebbd49ae35U, 0xbecdb8843deba7ddU, 0xbe2d3422bdd71526U, 0x3b9f4ee1be73ea05U,
  0x3d6510bebe757769U, 0x3b3424463d4e5cbfU, 0x3dfef0503cd6f39aU, 0xbe07f2eebe4907aeU,
  0x3c412c0b3e748590U, 0x3d0b50ed3d608a1dU, 0x3d8a2bc8bdaf0373U, 0xbc972d353c60ec19U,
  0x3dd5b5543d1c8be8U, 0xbe06de313dc53fa1U, 0xbcde0e433d904561U, 0x3bd7db473c63d87eU,
  0xbd5572313d3cefbdU, 0xbdf7a9c53e3da253U, 0xbcbef37e3db60569U, 0x3e163d683ce8e7ebU,
  0x3d0238413e00d145U, 0xba99c60a3dcf69ddU, 0x3e18ac1b3da5f908U, 0x3dbcf6823d3fa03fU,
  0x3d2132fb3e19364fU, 0xbce4fd973bd9b2c6U, 0xbe907cd9be44f1d9U, 0xbd6d9be53e655423U,
  0xbe13a4a73d2f20d3U, 0x3e0590b63dd615d7U, 0xbd85e58f3e13d6e2U, 0xbd2b94c0bcdd1426U,
  0x3c8af0f0bd31501cU, 0xbe158d5c3e3856b4U, 0xbe0ab3a03d051894U, 0x3e5491d03d4fbdccU,
  0xbe0b7e533e373821U, 0x3da220373d47afc7U, 0x3dfbf5e0bb325ac3U, 0x3e4dc55a3dc1e500U,
  0x3d9aebf3be217ae5U, 0xbda809543d7d648fU, 0x3d2cc0eabec8c20cU, 0x3da1cb67be78934aU,
  0xbcc4ea29bcdb2e70U, 0xbcf4ada9be28978aU, 0x3da8f29e3da54d51U, 0xbdb025873d72c44bU,
  0xbdcbd52ebd1578d4U, 0xbebf64423e62ebb7U, 0xbec21acabdbcab26U, 0x3d889215bd18fbb9U,
  0xbd58ad13be9e10e7U, 0x3d188977bd2a7850U, 0x3ce67cccbd5e96bfU, 0xbe86f3cbbe0c78b5U,
  0xbcce5e27bdef626eU, 0x3b93d2abbd843aa9U, 0x3b7a4817be744893U, 0xbe3c4bf53cf0d43bU,
  0xbd51c775bdc992b4U, 0x3bc39ea1bdb4dd05U, 0xbdb0d775be147647U, 0xbc8e8aa33d981f69U,
  0xbd98c5833d1e9811U, 0xbdc83f17bdacff71U, 0xbd5ec4a0bc09446eU, 0xbd470937bd0b8ae5U,
  0xbd26dc1cbde8a73bU, 0xbd5307dbbcb31153U, 0x3d5d6daabd874b25U, 0xbd83ca0cbe128deaU,
  0x3dfc9bb7bc761c4fU, 0xbe0bf9793d913b21U, 0xbdc99d00be0a15f1U, 0xbe428caabeca1fbfU,
  0xbecb298b3c12e0c1U, 0xbcfc8085bd88fec2U, 0xbdcfdbfe3d182557U, 0xbdf29f773d823e85U,
  0x3da45f43bdfd17e7U, 0x3ce9b32fbc16bd81U, 0xbd70a7313db37f18U, 0xbdc5c62dbe48cf8eU,
  0x3df258ecbde5f805U, 0x3a4e3f01bd065147U, 0xbd2bdd493c61c42cU, 0xbda2f849bcba28a0U,
  0x3c26e8763e28d9b2U, 0xbe0edf2b3e029bfeU, 0x3dbe36c6bda7c01cU, 0xbdae1b17bde12bb0U,
  0x3d62b2b8bceb8b24U, 0xbdbb34abbdcb9a41U, 0xbd988b3dbcac064cU, 0x3cd2d9213dafc15dU,
  0xbe9332d93dc57b33U, 0xbdfbe7123cfbec92U, 0xbca7d435bdf858d9U, 0x3ca4ce163d61555bU,
  0xbe992010bdd285deU, 0xbca7c8973d2981bbU, 0x3db5ecb23ab880ffU, 0x3e0d39cd3d25b292U,
  0xbc992a39bd86fbb5U, 0x3c6fd705be95c7e7U, 0xbd92d8ab3d9abb1eU, 0xbdfc86a33cf19f24U,
  0x3bc2a397be04c8e0U, 0xbbd3de2cbd2c5c5cU, 0xbe80cb19be99bec9U, 0xbe6a6642be02af79U,
  0x3d10ab8bbe64fef8U, 0x3d4de18ebe545056U, 0x3de75da93dbfd2f0U, 0xbdfebda5bdd2666dU,
  0xbc97c4373e07abcfU, 0x3de8f5f1be4fec55U, 0xbe0e63a6be223ed6U, 0xbd637e753d3018e9U,
  0x3d06d1f5bebc4740U, 0xbe3736bcbe30c147U, 0xbdcd250bbe364571U, 0xbe5c8596beb77adbU,
  0xbe73c22fbe41100dU, 0xbd006977bcd5a45eU, 0xbe727267be1ee6faU, 0xbe5341eebea00c3cU,
  0xbdf04aeabdfc2b99U, 0x3ddefb903e6cc477U, 0x3de35e84be927d3dU, 0xbe93b8c5be49e864U,
  0xbe28a7a5be36b77dU, 0x3e13f4c4be8a8adcU, 0xbe4edbfbbe84c876U, 0xbe7c819b3da3e7a2U,
  0x3d8a5ddfbcb34166U, 0xbe819a87bdde2fb5U, 0xbe90a292be37c970U, 0xbcb30bc0bec980b8U,
  0xbecf98c73b8bceedU, 0x3e6e623c3dec1b94U, 0xbde1578cbd94bac8U, 0x3bee47bcbe14daa3U,
  0xbe90b145bc2f7c8aU, 0x3d9ae0e0bd9d22a4U, 0x3e3f6619beb5f7dfU, 0xbe42f81abdd8bc5eU,
  0xbdc4e250bdc01b03U, 0xbd4b6929be6ee612U, 0xbe3cb3d2bd8f4818U, 0xbe2fd0fd3e5f1f50U,
  0xbeb3fb4dbdc7e2ffU, 0xbe7dd9b2bc90c918U, 0xbdf0acefbe00a10fU, 0xbe44b5aebe4d10b9U,
  0xbe3bf9e03ccd43f1U, 0xbcbee6c6be646a92U, 0x3cfac5c1bdace3fdU, 0xbdeac2cdbda370a4U,
  0x3bab93e7bd876557U, 0xbe1d88633e851303U, 0xbbaeb97e3d6fe6fbU, 0xbc5872c9bdaa3691U,
  0xbdf53d7fbde6f0d3U, 0xbd18e36fbcd1dd3dU, 0xbe3ea255be332505U, 0xbeb7cc6bbe07ecd1U,
  0xbe34175ebb3fe049U, 0xbd936bef39f5f6eeU, 0x3d72d8cfbe098c92U, 0x3d80e6143e7f7d65U,
  0x3d4d9acebbae8f34U, 0x3da03d483dcb1267U, 0x3e379668bd526298U, 0xbe0363febd9b3f6aU,
  0x3e3da453bdd7400dU, 0xbe616ff43d3fe337U, 0xbdd00b8c3e99f757U, 0x3d16e8983eab5449U,
  0x3e88261e3e6b4bdaU, 0xbd589fa83e17b378U, 0xbda4d84bbcfeb0a1U, 0x3d76cc61bd5b4ae6U,
  0x3e1bcd81bdbaa84dU, 0x3d3025db3d274bebU, 0x3cc0e81dbe667e71U, 0xbe21e8bc3d904a9bU,
  0x3d395627bc9e6c2dU, 0x3c12c9543e321e90U, 0x3d0a510ebcbde4b3U, 0xbb41c9afbd305a75U,
  0x3e9e03f4be971364U, 0xbd81f5bfbe52ffe6U, 0x3a8f28153e2c776bU, 0x3e2ed8acbe944a64U,
  0x3cb40bffbe6dbd92U, 0xbdb6ceb73da592c5U, 0x3d99448bbd70c30dU, 0xbdb96fc83da7e588U,
  0xbeac88e83de85140U, 0x3ebbf1753e450f61U, 0xbe75a69b3d3df7afU, 0x3e0763323e932b4dU,
  0xbb53812bbe2888fbU, 0xbe2fbdebbe418019U, 0x3d656611bd4dd075U, 0xbd5387ddbdf3b534U,
  0x3caeb33a3c8b767eU, 0xbe3f978abe6062deU, 0xbecb812d3c229c1fU, 0xbd8a7cefbc83e621U,
  0x3e17c1e33e3c0ba1U, 0x3e09c2513a395557U, 0xbc5132d43ca36364U, 0x3e64033bbeb58339U,
  0x3cf7fcca3e5f448aU, 0x3e07e5403e1fc105U, 0x3ded89c03d13acbeU, 0x3c886c323e83b649U,
  0xbd31008dbdcc4dfdU, 0xbdedb449bd90d610U, 0x3cd3aa6c3be695b2U, 0x3d74f7a2bd2e3bd7U,
  0xbdb3d0a4bd59ad50U, 0x3dea0d953c2a7240U, 0xbdc4a4aebd2bace7U, 0xbc5ccfd0be7823d1U,
  0x3e54b6f03dfc1b1bU, 0x3e2414753d52fd78U, 0x3d2570963e08ef2bU, 0x3bc782ffbc11943fU,
  0x3e28ea78bd4cf2beU, 0x3e5269bf3d088b3eU, 0x3e472b9fbd66e026U, 0x3ceb1cbc3df35b99U,
  0x3e04cfe43da15275U, 0x3e68c7b13e0b3b16U, 0xbcca31dbbbb03a7dU, 0x3dd946423de571f4U,
  0x3dd925013c916db4U, 0x3e3220593e105a7eU, 0x3cf3d6843e3b9810U, 0x3b1cfe61be7ac635U,
  0x3d7f4325be49d6d7U, 0xbd91097d3e09d719U, 0x3da6d5533e092795U, 0xbdb441c73da7129bU,
  0xbd938b153d17dcacU, 0xbd9b42663e6b3ab2U, 0xbe2f8caebe6719beU, 0x3d18759b3c967b43U,
  0xbcc295d73db8dd25U, 0xbdfca7cfbde17cc6U, 0x3cee38663e0f6373U, 0xbe489aa0bd03fe52U,
  0xbeacee743e7a11a1U, 0xbebf69e93de279f3U, 0xbdac65f1be94924cU, 0xbdc48db73d4ccfbcU,
  0xbb194183bc3358b6U, 0xbd60928fbd290f93U, 0xbb189b0ebc56057bU, 0x3ded9c76be142561U,
  0xbbeec8923eab0d3dU, 0xbd81e1a03e418c40U, 0xbe4bc5b6bd0b656fU, 0xbe510cbf3e4b95f6U,
  0xbe407a6ebe87d7f1U, 0x3e98a7ac3e96fdc5U, 0xbdde18b3bddbe7d8U, 0x3d2176c8bbf0b000U,
  0xbec9917b3da2a162U, 0xbcf4dc25be125df4U, 0xbdd42f23bebc63a6U, 0x3cd15e953e58b416U,
  0xbe13705cbd4658a3U, 0xbd80ceddbdf48d25U, 0x3d61403fbd961719U, 0x3e736ee7bb8e50caU,
  0xbdd7b7de3d21cdb1U, 0xbde0774dbda38a93U, 0x3e9e33e8bea79f6fU, 0xbe05339c3e68306aU,
  0x3e32f2f5be58dda8U, 0x3e2a00eebc5e0d6aU, 0xbe2296a5bd03c42eU, 0x3da0b5e23dcf8f3bU,
  0xbe0cd8643c806dfcU, 0xbe24b69a3cdb6cafU, 0xbe1c1b763c68de11U, 0xbd92ffb5be5232abU,
  0xbdfbb790be7db11eU, 0x3dc9c61ebd26cf3aU, 0xbcfb4da4bcc2290eU, 0xbe3cb381bc82b508U,
  0x3d9f87b73ca01f93U, 0x3e0358f5bc07ed94U, 0x3e5917bfbe8cb7f7U, 0xbd9b97c33d9883c6U,
  0x3de344b0bdc4af62U, 0x3cfbbc4abc5a7c86U, 0xbdf07ef33c528f60U, 0x3dede352bd32ec6cU,
  0xbe7bb8b3bdd654cbU, 0xbe156df73db5a9c3U, 0xbce4f7af3de57f5aU, 0x3c61457fbda44277U,
  0xbd8772a53d3c6d2dU, 0xbdec914f3cfb3f84U, 0x3c5a0c733d4c1f7aU, 0xbe7954903c7b1231U,
  0x3ca0e8163e0ebe3cU, 0x3dbdd4fa3bd9a0dcU, 0x3d0209c5be165013U, 0xbd90b187bd2c3d0fU,
  0xbd0c8e1bbe034be3U, 0xbe1c3da33d972f6aU, 0xbd9723d83d5f583bU, 0x3c803c8cbdc33b5dU,
  0xbdde61c2bc958924U, 0xbd282e063d8f7a52U, 0xbe026c283d2d959fU, 0xbc87d3523cd5fc53U,
  0xbad778e5be34aa14U, 0x3d8d70f1bd96ade8U, 0xbda33b3f3ccc7e58U, 0xbcc743b8bd1b35bdU,
  0x3dadbd0d3dc6cf45U, 0xbd9f64b13e477572U, 0x3db7c0edbe1ae7bcU, 0xbde5e22cbdb08ba4U,
  0xbd2da2f0bdac4b5aU, 0x3dc708343dac72a0U, 0xbbfca715bbf98333U, 0x3d690dfabda0368dU,
  0xbdc282013e052469U, 0xbd9344be3caee7b6U, 0xbcd10b32bd451e89U, 0x3da047e03e0c3479U,
  0xbe237c4f3d387abeU, 0xbd6baeccbba1ca5aU, 0x3d87e2cbbd8a6062U, 0x3db10a773cda99cdU,
  0x3e519460bd7c3659U, 0xbdd688923cdbd8ccU, 0x3ccb0e08be73afd3U, 0x3d815ceb3e9667ebU,
  0xbdad0d373db601a2U, 0x3e7557b63de1b519U, 0xbe52614fbdb3313aU, 0x3d9b5a42bd572ab1U,
  0xbe15d30b3d9d5f71U, 0x3e892ffd3e83f5a2U, 0x3e3d1ba1bc891947U, 0x3d994f703d4c61d0U,
  0x3d4903d93dc0a0c9U, 0x3ded88e8bd3525cfU, 0xbcb00658bd7cde5bU, 0x3d08c9653dace4dfU,
  0x3c9bcb53bbe9cc9fU, 0xbde8c7a73c8c7a60U, 0x3d4725e9bdc9df44U, 0xbe76fb9dbdad4329U,
  0xbbadc6093c92f200U, 0x3e1cb4233dea084aU, 0xbe91e4debdb59e29U, 0xbda8239f3d8eea0bU,
  0x3daed8683e5c5c9eU, 0x3d3b346a3e11c89fU, 0xbe4b29923e2aa4b7U, 0x3e12716e3e2941ddU,
  0xbdb3dd02bd49f90aU, 0x3dc6b962bc04ccd9U, 0xbd20af17bdc10f33U, 0x3dfc8a0e3d6e150dU,
  0xbd7643f1bc9a7dc4U, 0xbd96af053d2f8409U, 0xbd8530433dc43caeU, 0xbe2e0fc93ddafd8dU,
  0xbbd2a92c3c9a2c28U, 0x3d252d233d068735U, 0xbd830fb0bd1b4b26U, 0xbe0fc7aabd992999U,
  0x3d4bbe513dbc4c3eU, 0xbd29d631bcee310eU, 0xbe5960bbbdb91ab1U, 0x3e08d95a3e568878U,
  0xbda551d73c49125bU, 0x3cf81108bd5183a6U, 0xbcafe8443aba3c6dU, 0x3e4d6dabbd2f282eU,
  0x3e9930763e540b0fU, 0xbdd1e47a3de64473U, 0x3e64436abdb5e4e6U, 0x3dba04a63db42f07U,
  0x3e9f09b3bd7c2d2cU, 0x3e3026fdbbaf81f1U, 0x3e60aed2be0da2e8U, 0x3e1be0833d9b83faU,
  0x3cc7115a3da88112U, 0xbdb480633c42f020U, 0x3d994efcbe1aa316U, 0xbba815793de66d0fU,
  0x3d9d0f823ee140d6U, 0xbd20d38d3e1ae9ebU, 0x3cdc09463df0ee47U, 0x3e8551543e58ac52U,
  0x3df85b103d33b433U, 0xbcaed7d8bdda07e5U, 0xbe00706c3dea355aU, 0xbdac38733e5e2184U,
  0x3e49f745bebaab88U, 0xbddc68d9bddade30U, 0x3dc5ffc7be082e55U, 0xbe2a1a25be2b00deU,
  0xbdf46ebb3d6ee20cU, 0xbe90b272bdb2d509U, 0xbd4bb91bbed31e6cU, 0xbda2c0243da45344U,
  0xbe96b5e53e1f4325U, 0x3d329642be40bb98U, 0xbe38eb17be1c9018U, 0x3e659a0dbe4eb930U,
  0xbf0a2095be8ec128U, 0xbe60ae37be6c381aU, 0xbe3111303d9cf827U, 0xbda19b0f3e495a77U,
  0xbda8d43cbe3b89bcU, 0xbed5b8b0beb3d175U, 0xbda60289be0052d5U, 0xbe590f7ebe64adafU,
  0xbeaadafdbe469879U, 0xbf1f30babe864c22U, 0xbda8f3ecbe1cdd10U, 0xbc87228cbdde256cU,
  0xbb98f499bdbbbe1cU, 0xbee3128abe05dcb9U, 0xbe1d32e8be9394bfU, 0x3dbbb482bf143b8eU,
  0x3ea2dc27be8bba95U, 0x3d6c9934bd8bb3cfU, 0x3c4c45563de0a4c5U, 0xbe503c783ef592b8U,
  0x3ca6d6a8be968ccbU, 0x3de493943e10a864U, 0xbf1cb1d3be95ee4dU, 0xbde41fde3c80b328U,
  0xbea340203e0d78dfU, 0x3d9af9e4ba490ba9U, 0x3cbcad33bf315541U, 0x3dc10fce3e9492c1U,
  0xbe9b73653e7737edU, 0xbd1bfeafbe4cef03U, 0xbe0d234dbe14a9d4U, 0x3e9add433dbbf149U,
  0xbd848c363e007b27U, 0xbdb012f1be06ba07U, 0xbe9e19003d0d3186U, 0xbdabec363e05d6dfU,
  0xbdad79d83d3e04e6U, 0x3cde9e44bb3c677bU, 0x3db8dc62bde9ace0U, 0x3d0bf330be02c001U,
  0xbe7697b2bd1bf84eU, 0xbebda06fbe70c684U, 0x3c74a381bd50fa23U, 0xbd02d2023d151cdcU,
  0x3dea9e483e954dd1U, 0xbe967b4cbd806cb5U, 0x3d18e50ebd18eab4U, 0x3d5d672cbde15bbaU,
  0xbd924bc63ddff01cU, 0x3d9bcce6bd1f1217U, 0xbe46085b3d921205U, 0x3d05b5173e9838f7U,
  0xbe40c1c93e394ecaU, 0x3e1a34063c3af3f7U, 0xbc07c0ab3d007b87U, 0xbdef25b73d3015b9U,
  0x3ce66522be091ac8U, 0xbdcddcce3e7b48bdU, 0x3e300e003d3b1ea8U, 0xbdad5021be77245eU,
  0x3e431fc03e9ad9c5U, 0x3e119e813d1f994dU, 0xbde684d63d9462f5U, 0xbe14921b3da0fcdeU,
  0xbe8dcbd4bddd426fU, 0xbdd33269be816442U, 0xbf0279e13e42ec36U, 0x3c2155fa3f114b6cU,
  0xbe0b3002bda62d98U, 0xbebdaab9be5f8d74U, 0x3d922483be2423f9U, 0xbe4a1104bea44649U,
  0xbec51657bd41234dU, 0xbde3effdbe1d81d6U, 0x3d2638cdbdd7c72dU, 0xbda31c3dbcc06574U,
  0x3d2aee123c184f1fU, 0xbf0900cdbe91f731U, 0xbe08244cbe5f7cb7U, 0x3e4ee357be9e21e1U,
  0xbd934c6a3e30c5e6U, 0x3ce94af7bca6ef8aU, 0xbe7fda443c6c4701U, 0xbcdf86853e84b241U,
  0xbeaf70f23e991220U, 0x3e407b473ddb13beU, 0x3e12bf1d3e098bf7U, 0x3c1652933cde7dd0U,
  0x3e247d8cbd94a272U, 0xbcd844133e738df4U, 0xbc141ffc3df18b24U, 0x3e85f1edbe308adbU,
  0x3f0b0c693f36809cU, 0x3edc8e173d9018f9U, 0xbdb22794bd97edb7U, 0x3dd4b07f3c5969abU,
  0x3e765cb83dc6b2f4U, 0x3df6f34e3d18c04dU, 0xbe3b6e733e04f3fbU, 0x3c9e8df73dc05224U,
  0xbdac17983d918657U, 0xbd3f1576bce73e9aU, 0x3d5576c03d96b7fcU, 0x3cd6feedbc0a7927U,
  0x3e6975993c648c7eU, 0x3dca8fb13ea85968U, 0xbccc71f43e025783U, 0x3dcf372fbda9ad60U,
  0x3e9a99ff3e870dd6U, 0x3e943786bca88067U, 0xbc5080ddbd2f0f70U, 0x3d007f88bb101565U,
  0xbd8985b2be393d91U, 0xbe96c6a5bc7197a3U, 0xbdf69aa5bc93c3a3U, 0xbeae2abebede31dbU,
  0x3d816255bcb38aa7U, 0xbe014d533dfaca8eU, 0xbed722c7be9ae1c9U, 0xbd52c890bde24cb2U,
  0xbe2b37503e1d0164U, 0x3d8a0c33bdb4ce38U, 0x3dfd6745bf3cd4e5U, 0xbd78a0263e0b0971U,
  0xbea02c71be640479U, 0xbdbc0cb5be939fddU, 0xbe448112be393a6dU, 0xbb2c3c0d3dfcb2ebU,
  0xbd0c8419bcb71e0aU, 0xbe2c0f70be93e256U, 0xbe80f99a3d7df396U, 0xbd97a285be79b458U,
  0xbe46f2b23d839427U, 0xbd70fc913e040aa1U, 0xbc552d41be97d3d2U, 0xbd897d99be6d37a9U,
  0xbf2181eb3dad9ec9U, 0x3e2a343e3cdf0c7cU, 0x3d081110bf427986U, 0xbe8c781fbccc84e3U,
  0xbe62ab0c3debb7f8U, 0xbddedabfbebe3d70U, 0xbdbdd9ddbda4116eU, 0x3d75e1be3e04d0f9U,
  0xbd711958be5dd84aU, 0xbdc735da3c45b26bU, 0xbd8a8f36bc2e0a54U, 0x3e116fd2bd207307U,
  0xbd8f93e7bc9762c4U, 0x3d45db693d88d371U, 0xbb7afe5d3e0bd361U, 0x3dd50c6ebd2dcfa2U,
  0xbf0a40d03d4997caU, 0x3d2228c0be3dbe0eU, 0xbda8edb0bef9eb89U, 0x3ad81b153cceeaabU,
  0xbe2a5079be4b2b7cU, 0xbe599f293d3561b0U, 0x3d90c72abd3005afU, 0x3cb7a288bd6d8b52U,
  0xbdcca129bd8e690fU, 0xbd75ed803c9419a0U, 0x3d3e7a19be9b265aU, 0x3e8473e43eb620abU,
  0xbd1714adbc9703efU, 0x3e0d711d3db7f264U, 0x3ed0159c3db69974U, 0x3e04ef67be0f600eU,
  0xbd8db22d3d42999aU, 0xbe5b30ee3deda227U, 0xbdb2ac2c3e24a6e5U, 0xbdc8c59f3d81f46fU,
  0xbd495b26bd289afaU, 0xbda2ee8b3beaf08bU, 0xbda2d6883d425022U, 0x3e02bed03d92b9ddU,
  0xbdb77286bdfea553U, 0xbdf43985bc439810U, 0x3d65f7debdfabf43U, 0xbe8fd13dbe6bb397U,
  0x3e49be0bbedaf5a6U, 0xbf13c2e7be1a2764U, 0xbdff9ba3be8c3023U, 0xbdf141ebbe69a898U,
  0x3e1513ddbeb7fb05U, 0xbcbcb608be1aea74U, 0x3d624d973da8ad12U, 0xbddb2372bdd705a7U,
  0xbe48b5f63e920213U, 0x3dd051613d765fdaU, 0xbea80e0bbdb5149eU, 0xbdd64145bdd13693U,
  0x3dad6264be7010a7U, 0xbe921a7fbdb97326U, 0xbea420b23cdb7af8U, 0x3e0409763de66047U,
  0xbdb6a350bf10f10bU, 0xbe7259523d213c81U, 0x3e9685383c72506fU, 0x3d7bf3e2bed837a2U,
  0xbe9c003abeb4cf90U, 0x3d08ab1b3cf07f90U, 0x3d0298e5be8a1073U, 0xbe340735be64d247U,
  0xbe51cc1fbd6d04ebU, 0xbe94ba7cbe76f9b9U, 0xbdbb02f1bdbefe52U, 0xbdb574a1bc567baeU,
  0x3e6055fb3e066670U, 0xbdcc0f523d7de074U, 0x3e1b0269bd54278bU, 0x3ea70a643d92fc12U,
  0x3d62b6813dc58c84U, 0x3d537cde3e57c4b8U, 0x3ee7babc3e84d1fdU, 0x3d520e4e3e025930U,
  0xbedc2bb33d1fa78dU, 0x3e827dde3e5966b6U, 0xbd24cb2dbe73d7b4U, 0x3d09d0e8bccf0050U,
  0xbc9bc0e13e04f421U, 0xbd7b207e3d64f490U, 0x3d5874303de69627U, 0x3e3a4d5d3e8187cbU,
  0x3e9543f5be0db224U, 0xbdbe5563bce9fabaU, 0x3e22575dbd7300f2U, 0xbd003f433e4b6233U,
  0x3e77f457be84a65cU, 0x3cbcabd3be437c25U, 0xbd84d8c1baa13031U, 0xbe3d2cc7bd56ef1dU,
  0xbe8ff8183ca79a4cU, 0x3d1ad89ebc84d757U, 0x3bc2b725bd429516U, 0x3cd84cf2be1746b8U,
  0xbe8293253e346d11U, 0x3d342be73d8f291bU, 0xbdb5a8a83d7d6224U, 0xbd65b3be3c43e2feU,
  0xbe88bea6be15b0f1U, 0xbe44a8a43debbbd0U, 0xbe0d1a47bd87c933U, 0x3e64a200bb5639a8U,
  0xbdf516bebdcb1f5eU, 0xbe4d95b0be8c93dcU, 0x3d6556ea3df1814bU, 0xbe7b6907bd3825dbU,
  0xbd1f69e1be6fc98bU, 0xbe9fdc033d411d90U, 0x3c44a009bc3ae552U, 0xbd68c317bece97eaU,
  0xbd3cd999be4a8206U, 0xbdcdaf9d3d1f3751U, 0xbc94c10e3c72473eU, 0xbea04d31bece0780U,
  0xbc06300b3df6cc33U, 0x3d5c8435bd864d5dU, 0x3d90bb4ebdb302b7U, 0x3d53ebf23e8c447dU,
  0x3cc881803c6db96bU, 0x3d68dd383d8b76caU, 0x3da38337bd8ae470U, 0xbd8ace6dbd9f9d14U,
  0xbd840c493d10400fU, 0x3c93f76d3e81bf47U, 0x3d3651733e3fe3e6U, 0x3e0e0b2d3e5018c2U,
  0x3ddfcda73e695c34U, 0x3e7a5a1abcc7a839U, 0xbc93acabbd836747U, 0x3e40c15d3c11f550U,
  0x3dc8e517bd512f82U, 0x3e2e3a533c94844fU, 0x3d33a405be2d7f91U, 0x3d396c2f3dd0a375U,
  0x3cc0d442bdc2107cU, 0xbb9617093d04c3eaU, 0xbd1905843cdd1b32U, 0x3c25d3aebd254ba1U,
  0x3e0648b53be96013U, 0xbe5eaeda3dd92d22U, 0xbdeede2eb90c3afeU, 0x3d5068e6be18948dU,
  0x3e260283be740662U, 0x3d4738723e08f3c9U, 0x3c9bab00bdb0424aU, 0x3d571e06bd191db1U,
  0xbd3812fcbda5061aU, 0xbd4102d0bddd8aa6U, 0x3db6243abeb70950U, 0xbc9cc7c7be251aaeU,
  0x3e47d8e3be74c405U, 0xbde0a8dcbcf74b51U, 0x3d8535ffbe12c99fU, 0xbcc97e043d06e7a6U,
  0xbd8a77b6be610414U, 0xbda97bcfbe5890dbU, 0xbe98faa03df65632U, 0x3c1d7150be571697U,
  0xbcd7cb1ebe8100a1U, 0xbe161b59bd71efa8U, 0xbd36cb09bdce0edeU, 0xbd74de3b3d4c9f30U,
  0x3e5f6a1c3da2be29U, 0x3e6c13843bc8b098U, 0xbd879c09bda9e078U, 0x3e17c0133ebf040bU,
  0xbeab6a5f3de5534cU, 0x3e213ad93d73af69U, 0x3db95bcf3d8f981dU, 0x3d5e25ddbc204772U,
  0xbe2c87ddbd817747U, 0xbb814bee3e88475fU, 0x3dc2da3dbcfec893U, 0xbca0e356be3d3e8fU,
  0x3edd36083e52069cU, 0x3e5b202dbd8b3a61U, 0xbc54d6dd3cb04533U, 0xbcf0bf083db665e3U,
  0x3c4860c4be240186U, 0xbeab20d03d91cbbbU, 0xbd40699abe32ff83U, 0xbd2da13fbcb92940U,
  0xbda274ba3ca582e5U, 0xbd8be0bbbe055af4U, 0xbb501ce43dcbf73aU, 0x3d73d645bd0a3ff7U,
  0xbe5b5fadbd96a9ffU, 0xbe297f433da13325U, 0xbe81b88fbe186fa4U, 0xbd46c18ebe9c9da8U,
  0xbc9ae7ffbe288a12U, 0xbe1685503d94da0dU, 0x3cdf33953d08a7b8U, 0xbd4d6565bd844aacU,
  0xbce4a0733c9d25d0U, 0x3d93f7c43d1919e5U, 0x3da7c54c3d49844bU, 0x3cde53933e8b2fbdU,
  0x3e0fb5653d1c95edU, 0x3db4e9adbdc449ddU, 0x3e20131fbc8ce087U, 0xbcc838043da10996U,
  0xbdbd909ebd1b33b4U, 0x3c5173bd3bd5383aU, 0xbeb9eff9bddc7b0dU, 0xbdb599043bc23293U,
  0xbe6b283f3d038ab8U, 0xbe89b6c5bd83688eU, 0x3daa82f53d7383c7U, 0xbc2416d73d0d52e4U,
  0xbd809782bd601c1fU, 0xbe1c3de8bdd63817U, 0xbe866ba7bea2943eU, 0x3d128ff0bdfad414U,
  0xbee72493bc13bc4eU, 0xbe974ff7be1da28eU, 0xbdab7a5e3cb00997U, 0xbe1b81e1bc68435bU,
  0x3dac3b2fbe6241fbU, 0xbe0728e43d99a460U, 0xbdd2bad8bcf24dc4U, 0xbdeaee0fbe296731U,
  0x3dd2552dbdd5d970U, 0xbdce21c93c83b430U, 0xbd78fcc6bdf9df99U, 0xbe909f91be081094U,
  0x3b84a9383dfc59d8U, 0xbe61ac6dbd074451U, 0x3dc8986bbe103507U, 0xbd7b75a13cf876edU,
  0xbd182745bcffb992U, 0xbdf360823e21949bU, 0x3d827324be10da03U, 0x3d69862b3e1ce94cU,
  0xbe7cf2613d8b2616U, 0xbd355354be2350d6U, 0x3d8adbc4be1d3b8fU, 0xbd10568a3b15c3aeU,
  0x3e096be73dfa85e4U, 0xbdb4fb223d86a4ddU, 0x3ceb56ffb9e366e4U, 0x3da8eedf3e2afa50U,
  0xbd1cd3993e82bc15U, 0x3d31e71e3e064855U, 0x3e5c2e54bdf0f3bfU, 0x3dd84de93eb091a5U,
  0x3e9672f33bd652d8U, 0x3d678a643dd20b2fU, 0x3dae2ee6bd47596bU, 0x3d5a998f3d811b69U,
  0x3de454d63cecd168U, 0xbe197abc3e53611cU, 0xbe200d33bda63addU, 0x3bce12c93db2209bU,
  0xbd2c09193e7aa98aU, 0xbc0c1d4b3d9e96dcU, 0x3e6ed86f3c41376fU, 0x3d874cae3db493d9U,
  0xbd8249b6bd879dc5U, 0xbe536947bd7c2f5bU, 0xbd1d9882bce1732eU, 0xbde8e09ebe9278d8U,
  0xbdec00533e212664U, 0xbb8cb4d7bda841faU, 0xbdb4a5efbd78be4bU, 0xbd929e89be18c425U,
  0xbefae83abd0aad33U, 0x3aadf31bbd3944abU, 0xbb8158b6bf2c7910U, 0x3e0a7d29be33b1c7U,
  0x3dc759c73e4574beU, 0x3c17b32bbe994bb0U, 0xbe65f88cbdf6c2daU, 0xbe737619bd2e09e1U,
  0xbd98f5dbbe852a6aU, 0xbd98ea09bd3084c3U, 0xbe6b87aebd4f1ffcU, 0xbebfd8d4be9828a1U,
  0xbe239d14be33c066U, 0xbe136788be8621e3U, 0xbecb779bbe55a29fU, 0xbe09e00bbdfc5491U,
  0xbeacd1dfbd9fe407U, 0xbe27e181bdd1442fU, 0x3d4e91acbf809cf7U, 0xbe1d6ce3bdd4b51eU,
  0x3d103453be3cc270U, 0xbe8012ccbef8fe12U, 0xbe57ea47be1f5b10U, 0xbdddb9c5bda17031U,
  0xbe4adef83c81408bU, 0xbe9eb06dbe577508U, 0xbe9cb328bd315887U, 0xbe1258b7bec48615U,
  0xbd5b836e3dca3999U, 0xbd7ff969bd9b6043U, 0xbe668f63be39bacdU, 0xbe166837be5421ebU,
  0xbf1bd2efbe17f275U, 0xbe4e98e23cb7a912U, 0xbd981c23bf19b493U, 0xbd5ec51abe83afebU,
  0xbd85d19c3cfdce69U, 0xbe087998bec62321U, 0xbea79c65be68e19bU, 0xbdef82dfbe5dcdabU,
  0x3d9fca39be569329U, 0x3e091e3cbd370591U, 0xbe07739a3da11ec0U, 0x3e3a567fbd2bf0e7U,
  0xbde9078f3cf3baa7U, 0x3d10fafe3e52af30U, 0x3e2b96eabe11eb23U, 0xbd2e5f13be7b8dd5U,
  0x3d4c71a03d535651U, 0xbdc2dec53eb1c8cfU, 0x3ab7a2c63d87b7daU, 0x3d8266943c95660eU,
  0xbd53375a3d5baa0cU, 0xbd830d6cbcd2adf8U, 0xbe3015063c6cf7b7U, 0xbddc8c833e61b176U,
  0xbd2735bdbe260917U, 0x3d76bcd0ba29eec7U, 0xbd6eaafebe3059cbU, 0xbcb42db0bd9c0891U,
  0x3d8f7e3abd97088aU, 0xbdd0f6e43d3a2d17U, 0x3c329fe1bde66729U, 0xbe24db2abd1f3b70U,
  0x3df9b7feba083600U, 0xbe4677413dbe23e3U, 0xbdd3a3743d24ca85U, 0x3d2e45893e1effc6U,
  0x3dea1961be631349U, 0xbda3f05a3cc81794U, 0xbdbddd38bdac2ba4U, 0x3cc692b0bd263fa7U,
  0xbd3cd992be2dd436U, 0x3b1a5a1bbdf9002bU, 0x3d20ae783ddc4628U, 0xbe0ac625be19916fU,
  0x3cf2020d3c899a93U, 0x3d3fc7313e0358f1U, 0xbdfc0022bd58a0faU, 0xbe0e8d99bdc0d500U,
  0x3c680195bd9b0dbeU, 0xbde9d6ab3da57c70U, 0x3d5ece2f3c6e3606U, 0x3c9d6a4a3d2d23a0U,
  0xbd7c1c96bd832af5U, 0xbe3a5eb3be1a6d52U, 0xbe36ff553c3ca5dfU, 0x3d7a84e3be5905a8U,
  0x3c69682c3d85cddeU, 0xbdbdbc513e24f7a0U, 0xbc75dda3be8fdbe5U, 0x3e0274f13b585334U,
  0x3cf14631bd582cd9U, 0xbd932c7f3df2c90eU, 0x3e3d830e3db475faU, 0xbd9ecf2abc9381d7U,
  0x3e4089d83e228517U, 0xbd8102da3e9eb489U, 0xbe0344023e47e763U, 0x3e06e8cf3c5d9e4aU,
  0x3d7d0f41bd23ef5fU, 0x3d22fbe8bc4bbe18U, 0xbda1880a3c181e77U, 0xbcefcde1bd9441f2U,
  0xbafc8593bd11f652U, 0x3cc67267bc387998U, 0xbced3ec2bdd3c124U, 0x3d22af3ebdabb62bU,
  0x3e10a5843dc65750U, 0xbdbe5be4be13d9a8U, 0xbe1da423bcfadc1bU, 0x3ce2cc55bd865ca1U,
  0xbca0630a3e40b664U, 0x3cd888c13e29a302U, 0x3d2cc531bda02410U, 0x3d4471003e35c395U,
  0xbdafda55be1e5978U, 0xbe28b8913c47300dU, 0xbd653280bd885f12U, 0x3e8851b13c29ff9dU,
  0xbe025dc9bd202264U, 0x3dcbc4dbbd9a3032U, 0xbdfdf3aabe5a75ceU, 0xbb3d051c3da4682eU,
  0x3d3eaf7e3be1d367U, 0x3e24e1603dcb2e9bU, 0xbcb40e16bd811a37U, 0x3dceff7dbdba0e8bU,
  0xbe10a71abd04210fU, 0x3bbc40383e3161acU, 0xbd9697efbc6eeb93U, 0x3dfdc6203d15cf60U,
  0xbe5d2734be9dad3bU, 0xbdbaea943d0dcae6U, 0x3cc82b32bd24639cU, 0x3da8bd473dea7053U,
  0x3d957afa3e22a23cU, 0xbd0232ec3d04c5a4U, 0x3de0a5d5bd3dbfa2U, 0xbd020c6fbe80500aU,
  0xbcde1dadbd7d3cdcU, 0xbddfe2a63cd10939U, 0x3db5e49ebd81e38dU, 0xbcf286d83cb7dadbU,
  0x3d3b8359be1888f4U, 0xbde5083d3d9451e5U, 0x3d654d1abbcabb8fU, 0xbddc9fcbbdba2e26U,
  0x3bce4c64be804737U, 0x3e3d3ffabdb32341U, 0xbd9a7a093d184aadU, 0xbe736299bd897b56U,
  0x3cef0c0bbcb91933U, 0x3dfd95c8bd4a3420U, 0x3e1aafbebe9edc57U, 0x3d9a18fd3cb6b719U,
  0x3d14bfc0bd1544d4U, 0xbdffa7d1bde1b9e5U, 0xbd8418b8bc16886dU, 0x3d9953ea3d5d04bfU,
  0x3c5693d6be599f81U, 0xbd640a3e3dd12ff3U, 0xbee88c643e19389aU, 0x3d63575cbe837e53U,
  0xbd4af834bdb870d5U, 0x3e113f623d4b8c34U, 0xbe0d16ab3cd379a7U, 0xbe99f5ef3dabde1cU,
  0x3d6daff73c3c6701U, 0x3e391c313e07cea9U, 0xbda68bb83d3c97e5U, 0xbdf07d40be5547a3U,
  0xb94e64f6be39c2d9U, 0xbe198d35bea82ddcU, 0xbda595103d652d79U, 0xbdf1f37a3d206aa1U,
  0x3e016a5cbdebb109U, 0xbbb390e6be1c234eU, 0x3d1b45fd3e168bd0U, 0x3d5ebacabc9e8e68U,
  0x3e00bc6fbeb2fd3aU, 0x3d1bcd3c3da86d44U, 0xbd6a9158bc0a79deU, 0xbcc899d4bd7ba66cU,
  0xbde9b42cbcef88d9U, 0x3e6c36ad3c90f762U, 0xbeb28cf5be391e14U, 0x3c92a3b53e8396faU,
  0xbea42739be401812U, 0xbd85b000bd149db9U, 0xbc87b77bbd1e5198U, 0x3d2a3179bdd37489U,
  0xbeae2807bd1ccb8fU, 0xbe9ee00fbe9c9c32U, 0xbe5115b6be8ea156U, 0x3d91358ebe1522b8U,
  0xbe2d913abd991c4cU, 0xbe45d501bc7138a4U, 0x3ae68c4a3c6f4359U, 0x3c990399be89e6c3U,
  0xbda9b5a1bc3d9903U, 0xbe4dcfe13c47c319U, 0x3cff27c0be5f6957U, 0x3e2393b4bebb462bU,
  0xbcffb831be012233U, 0xbe4cfdc3bd176ca9U, 0x3cb70080bd612cfcU, 0xbdb777483d6dabf0U,
  0xbebffb1bbd93903bU, 0xbe89510bbda3e9a1U, 0xbdaacb32bdf8fd8fU, 0x3d49214bbd95c5d0U,
  0xbe3457a7bd913492U, 0xbe3e5de6bd31fc6aU, 0x3db52dd1bc8ae195U, 0xbe4c0b8ebdbfa663U,
  0xbe4f257ebde9d97aU, 0xbcc37f6ebd3b8a0dU, 0x3dcce3f6be6b73a2U, 0xbe3a18e9be663ca3U,
  0x3db2d59c3dafd09aU, 0xbc9078dbbd4557a2U, 0xbd7e5cbdbd4a5baeU, 0x3c898cc03e2590f1U,
  0x3debd56abe38bfc3U, 0x3d518457be66b884U, 0xbe37622f3d89e653U, 0xbe144106be63bee7U,
  0xbe38b755be9517d9U, 0xbda9bfe33d08653cU, 0x3d6f8a1f3d2af024U, 0xbe27e5873c394be8U,
  0x3e340aa93db3fa30U, 0xbbc3abbabc9624b0U, 0xbe083654bdf73db1U, 0x3ce1436e3e4ed7d5U,
  0xbe8154fd3e1b781dU, 0x3e3d79d63d1b07aeU, 0xbbebfe233dbcba16U, 0x3d8cc0c13df07f4aU,
  0x3dd1b15f3d714411U, 0xbd6ebc6b3eb61ecdU, 0x3ddec31fbe19c510U, 0x3de95f883d920b8eU,
  0x3dfd27a1bae4e87bU, 0x3dba6d073d892b6cU, 0xbd65a725bddac720U, 0x3d93209fbcc024fdU,
  0xbdf1cb2f3dd9db15U, 0xbded0ddcbd067ac3U, 0xbd7b1433be4ee65eU, 0xbe9a9cb0be46c699U,
  0x3cb42ffc3e05f45eU, 0x3d14c5fc3b392d11U, 0xbeb0ea8cbdf8ffe7U, 0xbdbc06883cd95470U,
  0xbe095e003d7b5715U, 0x3d892acebe00ef58U, 0xbead88d1be448e32U, 0x3e759b2c3d9686bcU,
  0xbe1eb3893c715668U, 0xbc8c1696bd9a68e6U, 0x3cbf5f9f3da0f7b9U, 0xbc453c3ebdf83f59U,
  0xbd8a50a5be1cef81U, 0xbde461f7bdc6e8aeU, 0xbe283e803c483de7U, 0xbcdbc6f5bddd96beU,
  0x3cb90cf3be030fa9U, 0x3e5d1e013e8b061aU, 0xbcd52790bea47aaaU, 0x3c121ae5bc0bd91fU,
  0xbe350f933e403649U, 0x3e76a304be35ae53U, 0xbe6880c9becbc1e4U, 0x3d67ffa23de71cbdU,
  0x3dd5bcd5be045d8fU, 0xbe550dd6bd917d88U, 0x3dcf7bd33d40b163U, 0xbda4eb2b3e5ca158U,
  0xbdc843c7bdaf0c7bU, 0x3e0cc422bbc92c45U, 0xbde750f3bc25038cU, 0x3dc8a59a3e9bcd33U,
  0xbd860a88bdfd75dcU, 0xbe55cbd3be61ea0fU, 0x3df0c8bd3d194fdfU, 0xbcf9516abdddd6f5U,
  0xbdc611f8bd00b36fU, 0xbe819be83d8748f4U, 0xbd3c97dc3d3254a9U, 0x3c5004823c207a8dU,
  0xbe93c89c3d3813dcU, 0xbe81e4c0bd6f4ca3U, 0xbd9c7da23d8b8c9fU, 0x3d2129d2be51b39eU,
  0xbd9502933be894e8U, 0x3e418fbebd1b35bbU, 0xbdc059cabcf9e4a8U, 0x3deb9ebd3d5f0ec1U,
  0xbd23e143be3253f6U, 0xbec36dbfbe9a189fU, 0x3dcdc011bcd9e5f0U, 0xbdc23ae6be11a46aU,
  0xbe84802c3c5b7181U, 0xbe5f58583e220b34U, 0x3e057af03d02f67bU, 0xbe146208bd72e2c4U,
  0xbe97bc76bc833837U, 0xbd67a902bdb2ae09U, 0x3d592b423d657752U, 0xba751cb5bda2b9bbU,
  0xbec365bc3bb9d4fbU, 0x3ea00cf3bd60924bU, 0x3d3189b1bc95bfe8U, 0xbe08d0ad3dfb5730U,
  0x3dba868dbe32651aU, 0xbea3337ebe6c6595U, 0xbcfb4225be471381U, 0xbe451114be9283caU,
  0xbe91b52dbcbdcf0aU, 0xbea93feebebe4bf4U, 0x3af3f5fc3d928d9bU, 0xbd51e07a3d8f435bU,
  0xbeb725b2bbf9e6b7U, 0xbdc9c59dbd96367cU, 0xbe454563bbb61302U, 0x3dfe0401bedb2a6fU,
  0xbe9d87763db61312U, 0xbdaf81033d64f6faU, 0x3e3cfffcbe8bf54cU, 0xbcec8243be06afbaU,
  0xbe1f831a3e6f1ac7U, 0x3dfc88d3bd0b4aceU, 0xbe60e4c13cc6e6a8U, 0xbde22b7c3d696aceU,
  0x3e33d8273e153b9dU, 0xbeab12313cb90d6cU, 0xbe97da993daeb96dU, 0xbd6bca203cd6cc94U,
  0x3e1b1dcc3e29b255U, 0x3da57a623dd7fb16U, 0x3d853b21bd4e352bU, 0xbda26d00be9b541eU,
  0xbd7f868f3e36a986U, 0xbddd263c3d99943eU, 0x3df97e4ebed5a379U, 0xbd567512bd9596c9U,
  0xbd3e54193e782f1fU, 0x3ca967903d85f93dU, 0x3c7a4b193e0d7279U, 0xbd16cfb03d880439U,
  0x3eb3ca103d452a2aU, 0xbd31bf4cbd7d5af3U, 0xbd58b7df3e4befdbU, 0xbd5f482b3d9ef98eU,
  0x3e13fd4cbd080e67U, 0x3e0ab39c3d785fe7U, 0xbcbc31a3bd85946eU, 0xbe2b9ed03dcdac51U,
  0xbc476bb03dc392f9U, 0xbc84c7103cf44112U, 0x3e2f20e2be867290U, 0x3d000222bdcfaab4U,
  0x3d78b0353e709b2dU, 0x3d4912d23d6c4a31U, 0xbde0e4e53e1fce32U, 0xbd9a08583dd836fdU,
  0x3eef797bbdbcd4feU, 0xbe564453bcd076c3U, 0xbe9876c73ec001eeU, 0xbd2b23043d0e4e3dU,
  0x3e049fb3be82543eU, 0x3d252ac33d522218U, 0x3c2043ad3ce4fc21U, 0xbdb93d8abdb2ba87U,
  0xbe2e671e3e821faeU, 0xbd8de14f3dd12220U, 0xbd9cb2083c224605U, 0xbe0f1c273e0912e6U,
  0xbd115e1bbe81016cU, 0xb6e514f4bc65bc8fU, 0xbd8d38edbde2dec2U, 0xbd8795ccbdbd19d9U,
  0xbed6626abdd9fb61U, 0xbd369694beb48d95U, 0xbe7036d8be8b72b3U, 0xbc9871b1bea50c06U,
  0xbdfea1c13db1d1e7U, 0xbe0033a93d69be1aU, 0x3c667aadbc658fe9U, 0xbd32cd1cbd2ffb9bU,
  0x3c1961b53e306192U, 0xbd8f0d4c3cb69c84U, 0x3d0237f0bc606a88U, 0xbdb57290bcc3be8dU,
  0xbd5515eabe74bda8U, 0xbd765ebdba0aebb9U, 0xbda4b0d2bdcb0a93U, 0x3c8593c43c843a6bU,
  0xbe38cd643c219da5U, 0xbdc1b7a9be2850e3U, 0xbd7a16d4be0a14b0U, 0xbda6fb39bda1e052U,
  0x3d1ba25fbdd4695bU, 0xbddba2403c3bb096U, 0xbd011d4e3d06a1a3U, 0xbe1f00e039a65a8eU,
  0x3d5960143c8a3c32U, 0x3c749ab43c98342bU, 0xbd9f9f5d3e10e18aU, 0xbc85760ebde7d550U,
