/**
  ******************************************************************************
  * @file    network_data.c
  * @author  AST Embedded Analytics Research Platform
  * @date    2026-04-01T14:18:43+0530
  * @brief   AI Tool Automatic Code Generator for Embedded NN computing
  ******************************************************************************
  * Copyright (c) 2026 STMicroelectronics.
  * All rights reserved.
  *
  * This software is licensed under terms that can be found in the LICENSE file
  * in the root directory of this software component.
  * If no LICENSE file comes with this software, it is provided AS-IS.
  ******************************************************************************
  */

#include "network_data.h"
STAI_ALIGNED(8)
const uint64_t g_network_weights_array[112582] = {
  0x3e0fd028be0ba14bU, 0xbe4bcf7ebe5e15e1U, 0x3bdbd9803ea3870aU, 0x3e08778dbe37095fU,
  0xbe823e17bd960c0dU, 0xbe157f5ebe9ab3d7U, 0x3e817855be50c7e8U, 0x3d630c293e304135U,
  0xbd0735113c9960f1U, 0x3df63be6bd093c6bU, 0x3ede7bcabe31707eU, 0x3d62ea26be594f47U,
  0xc01be040be41acc9U, 0xbec9a2cdbf4df143U, 0xbeeb226abe739df9U, 0xbeee8190bf1ee68fU,
  0x3dc14facbd9e2ac2U, 0x3ed9e8d23d530224U, 0x3c7b9d36be903b47U, 0xbddbfc73bf91152aU,
  0xbf321108bd970961U, 0x3e6e41de3e9532b2U, 0xbe0bc974bdb10277U, 0xbcdfa5463dc746ecU,
  0x3ec4ab1dbe09e6eeU, 0x3e3eddfcbe55e331U, 0xbfe3f009bd918079U, 0x3e5121cf3e367948U,
  0xbe973d1cbe78c1afU, 0xbfea0132be559190U, 0x3e0d88c13c81c9b0U, 0xbc055b4fbfafe93bU,
  0x3ba72e44bbfc91e9U, 0x3d82c0563d019b11U, 0xbc17439b3d05a9f7U, 0x3eba7f923df9c13aU,
  0xbc9d2df0be842a66U, 0xbef745973e24e2d3U, 0x3e3372483e235240U, 0xbe21bd22bf4d2ae1U,
  0xbdc1b0cc3e785753U, 0xbd9d970f3d2c3320U, 0x3c707407bde85668U, 0xbdf424713c561569U,
  0x3dea936fbd2772a0U, 0x3de5d3c8be187507U, 0x3dbd07163d68a38bU, 0x3d78a9c3bda8a83dU,
  0x3c184d0b3d763b58U, 0x3d2e4cd53d9e50f9U, 0xbd84a346bd98232eU, 0x3e417e44bba80403U,
  0xbdc960673e7d5b0aU, 0xbe1bde0fbe19689bU, 0x3ded7c56bdc37554U, 0xbe8dadaa3b5e80e1U,
  0xbe226d8e3e728c3dU, 0xbdd9ec33bda5afd9U, 0xbe1647d53de2200eU, 0x3e21ddfabce68811U,
  0xbd92ce7c3e079742U, 0x3eabdfeb3bbd497aU, 0xbdbbd427becc0154U, 0x3d8aa2673d986160U,
  0xbd4bd240bcb48a18U, 0x3e6c8a07bddea781U, 0x3ae08268bb612e93U, 0x3d1e040fbe53e66eU,
  0xbd61b401be349989U, 0xbdcd57e7bf810061U, 0xbedde75c3e56a8b2U, 0x3cfea7183eaf4b29U,
  0x3dd14fd7bd2c3c22U, 0x3c4e3876bdfb31c3U, 0xbdc26b09bd393243U, 0x3db12b4d3d87579dU,
  0x3db44708be3a019fU, 0x3e5c63bebea90c1bU, 0xbeb3b2f83de59a12U, 0xbd9529373e9e60f4U,
  0xbed17e0dbfca896bU, 0x3dc9700d3c83fd5bU, 0xbe40d240be4faa74U, 0x3e9e32083d6a399fU,
  0xbe6ba1b63e5e8b1aU, 0x3db38545be0b0f1dU, 0xbe7053b93b70b0a6U, 0x3e04e3e83ded9be3U,
  0x3d7c5e07be9f4bc2U, 0xbc36995e3c90174aU, 0x3da46cf0bd989afeU, 0x3d98f09d3e7d2cfeU,
  0x3e49ad783e015f15U, 0xbedd8529be855eb7U, 0xbcae9e54be9fec7bU, 0xbd8b39b9bfb2987eU,
  0xc01bf1243e3573c1U, 0x3e3483fb3e526de0U, 0x3e4e0439bfe01ab9U, 0x3d9718bdbd968a12U,
  0x3ded56013e8e75f6U, 0xbeb9d2a0bdca3a33U, 0xbe957f05be842e23U, 0xbc089e503da0e847U,
  0xbbf016e0be0b4ea7U, 0xbe052c3ebdf683caU, 0xbc94528cbe072490U, 0xbda606f4bdb4bcc9U,
  0x3de5ab34be467c17U, 0xbb83ce93bcad6cdfU, 0xbdd3dbd73d89431bU, 0x3d2795303ca19bbaU,
  0x3dd63822bcf0afb8U, 0xbe5400f0be108563U, 0xbde2bf2e3d6be623U, 0x3e6427e3bde5904bU,
  0xbe6b32c5be1515caU, 0xbd84fce43e07bc93U, 0x3de8eba7bd6fd787U, 0xbe14de4c3bb701a0U,
  0xbedf8635bf10383fU, 0xbd4ff42d3e929ff2U, 0xbd3de3a93e8a32baU, 0xbf0eab1bbe180eb1U,
  0xbe3ed208bec69597U, 0x3ecb96d4be8d9744U, 0xbe925eb23e187aafU, 0xbb38c5763ddbc553U,
  0xbd6a27fd3e93b22dU, 0xbb84f8c7bce3965eU, 0xbe2d3f80bfb1d513U, 0x3d71d2853d80d762U,
  0x3db869903d9ff20fU, 0x3d20dc9a3d8e4c1eU, 0xbe77fe493e044694U, 0xbf1c90e9bed15cd9U,
  0x3e468e9dbe5d8d33U, 0xbdabe4fe3b98a863U, 0x3e99ab473e5da945U, 0x3d6ef8c13df911bcU,
  0x3da79c843c744e3eU, 0x3d9776a03d47c173U, 0x3e0aef3c3df3cef4U, 0x3e0579793dd6b63dU,
  0xbddd5377bcac0935U, 0xbc817b0abd258addU, 0xbd898af4bc9284b9U, 0xbb8f7f373b8eb54eU,
  0xbd4536d33d686dfcU, 0xbd5210d4bd7da863U, 0xbda7a9f9bd3a1468U, 0xbdc352c1bdfdcdddU,
  0xbd66a2afbd40dfe4U, 0xbcf86c7bbd0fb77aU, 0xbd49ba3abc98e5bfU, 0xbd01a90cU,
  0xbc0848a0bd9c4846U, 0xbda384f1bdae065aU, 0xbe570315bd7b32a5U, 0xbdbe216ebcd24f31U,
  0x3c4bc717bddaaf7dU, 0xbe76b46c3ef23a47U, 0x3e97a23cbdc42d55U, 0x3db569de3d8d4c0bU,
  0xbd25e1febd1431d0U, 0xbbdc0155bc274c22U, 0x3e3e1a533e0b8b68U, 0xbca43c573d8e1020U,
  0x3d101ccabab6c2cdU, 0x3e08c4a23e24002cU, 0x3e4f652d3e466d97U, 0x3ad92d403e8140d2U,
  0x3d8be4983c59641fU, 0xbc758c163db1e3ceU, 0x3e3f25a33e954787U, 0x3d87d77e3c43abceU,
  0xbcd685d8bd0bc18aU, 0xbecd73653ee8dca2U, 0x3e76a0d4be4f4780U, 0xbda0f57d3e96557aU,
  0xbd1f4397be48ea57U, 0x3b73cb78be020818U, 0x3d8c0c193d6b340eU, 0xbd70f9a03db434f4U,
  0x3ddabdd23b34995aU, 0x3df88c1c3d840c86U, 0x3e32adac3daf2af4U, 0x3d33ddca3e1dec5dU,
  0x3d6f4ca83e0274a7U, 0x3d06b9113df19ffbU, 0x3d1c3fc53dd184edU, 0xbdc61f8bbd224f53U,
  0xbc960717bda16648U, 0xbe9f7a253e0a70c9U, 0xbc6b673bbc8e151bU, 0xbd8f44fcbc76b117U,
  0xbdac201f3e0c3440U, 0xbcd9d040be1cc9a5U, 0x3e2de6b0bccdf52dU, 0xbc335ee23a88740dU,
  0x3e92ad663cd9663fU, 0x3e48e61ebd658775U, 0x3e98a1b4be461116U, 0xbd48735bbd9524bdU,
  0x3e20ac8dbdd34440U, 0xbe36fd943deed0d3U, 0xbe532dd5bd90ab96U, 0xbdd0d32a3d21600eU,
  0xbe49837b3d233ac3U, 0xbf1370bd3ea65d4fU, 0x3da807f7be0511dfU, 0xbe1cf05c3e8d8132U,
  0xbd9f09a8be40be75U, 0xbc8bd53bbe14b364U, 0x3b35d0f9bcd94a55U, 0xbe38d9a3bd622df5U,
  0x3e53bf893d7a6146U, 0x3db1083dbc7a480bU, 0x3d7643f63ce98d3aU, 0x3d91b4093e736d0aU,
  0x3dff1e49bd8dc42cU, 0x3e1e3b653e40b83eU, 0xbd7cdbab3e5b2606U, 0xbcc9cd88be4c1713U,
  0xbeba8cbbbdb1a860U, 0xbf132e893dd0a0e7U, 0x3e00f9a1be025cfdU, 0xbe8a7c433e7e4384U,
  0xbe601b58be015d41U, 0x3c31bd51be390864U, 0xbbbc2f123bbe85c1U, 0xbe49bb05ba682f6aU,
  0x3d57871f3b99a8d5U, 0x3c883ea6bdbf82bdU, 0xbd11fe7fbcf2d0bbU, 0x3d30070abd85e753U,
  0x3bf2ed80bdf9f619U, 0x3db48d47bd0f1530U, 0xbe6ceef23d57bfcaU, 0xbe0af930bea6a81eU,
  0xbd97d477be2a9bdcU, 0xbe52aff7be985d3aU, 0xbe92863abe2bf7f6U, 0xbddf4c88bdff5c6cU,
  0xbdbc1669bd7985f9U, 0x3e14dc71bd4cf863U, 0xbc3b0c3fbe5014a6U, 0xbc89050f3e45b2fdU,
  0x3e1446e7be21125dU, 0xbe6627b33d7ba842U, 0x3da4edf4bd829548U, 0xbd80bdf8bc6345feU,
  0xbe1d9fb0be1512e9U, 0xbe297a45bce8a6b0U, 0xbde949f6bd7c68e5U, 0xbdcdfdcebe6515c6U,
  0xbdcc8c7e3bfb9f91U, 0xbc88bf923dcb1166U, 0x3d1a7b033de8b2d0U, 0x3c3f55733e1e2e7dU,
  0xbcb8c7e0bdf7b967U, 0x3db72e32bce20fd1U, 0xbc9205aa3d134e91U, 0x3c1308743d3fc4baU,
  0x3e7faf203c1c40caU, 0x3da240ab3e81b795U, 0xbb96ec25bc5cf066U, 0xbd3a4250bce35e92U,
  0x3db162903d382edeU, 0xbd8395773d97c952U, 0xbd96acb73e3efbe5U, 0xbda823aabdca1c8bU,
  0xbda24339bde2788fU, 0xbdd446b5bdc8faddU, 0xbe005cdebe12c69cU, 0xbe580a7bbde7ecf8U,
  0xbe00a744bea6d095U, 0x3c906906be4e77adU, 0x3b738ed7be93cb1fU, 0xbdc8da86bd3cb371U,
  0x3cb78a19bd9e54e4U, 0x3bf930d83d3aef5eU, 0x3d395794be3e59dfU, 0xbd1b081bbdcfbb73U,
  0x3b9aa1febd8e2c6fU, 0xbe426e483d952a1cU, 0xbe223e483c905595U, 0xbdbe743ebe546e01U,
  0xbdc51608bc5ef096U, 0xbe887d03be719f7fU, 0xbdf80206bdbe8965U, 0xbe92c74abe22f6f4U,
  0xbda49461bdcf1443U, 0xbdf52128be4aaaa0U, 0xbda6a3403d887132U, 0xbdb0248abcb6af76U,
  0x3c57b2dcbd6cd741U, 0xbe5b56f7be1fbbf3U, 0xbdcaf42ebcd296f4U, 0x3da14f9b3db82a30U,
  0xbe3a1390bd31b2feU, 0x3dfc24c4ba860652U, 0xbe76e953bd8a71c8U, 0xbe300818be56b433U,
  0xbe05306dbdd91a0bU, 0x3dcee7d03e18f08bU, 0xbd92a69f3dd9e76eU, 0x3c62b46f3d7c990cU,
  0x3d2ea42dbdae35fdU, 0x3d379e18bdf2dad0U, 0xbd8b26d2be7ea88aU, 0x3e0d1de73c6bc8f2U,
  0x3d0c1695be02c344U, 0xbc8c826639d47ac6U, 0x3e42c42c3ce4611bU, 0x3d8920633cd9115bU,
  0xbd3c39e4be1318dcU, 0x3e2000b23e85cb69U, 0xbe327e073e331afeU, 0xbe023ade3dbd8615U,
  0x3ad8a5d7bdb7f163U, 0x3d62c7e23e4ae16eU, 0xbdd3b6323e1bc5e7U, 0xbdb8eaafbd507ad2U,
  0xbccea0b9be919b60U, 0x3b97b4a53d1fb240U, 0x3d7fd0cdbe13f0a2U, 0xbd771a89bde25ccaU,
  0xbe88340f3d54930aU, 0x3c97efafbdc44286U, 0xbe24c203be5ad2daU, 0x3da4f0d5be6edc18U,
  0xbcda7992bb24182fU, 0xbd69677a3da3d1b7U, 0xbddd1381be824ca1U, 0xbcc817583dcf7b66U,
  0x3e055d7c3dee80eeU, 0xbc2cf1e13d331721U, 0xbd91e2f3bcbb13a2U, 0xbd2ed985be51ebffU,
  0x3cd8bef93bcafe71U, 0xbe2ddc80bdc3cab0U, 0x3b8b09e9be3573b4U, 0x3dc25f84bde706aeU,
  0x3e233ab0bd47e68dU, 0xbdc748123c1cd59eU, 0x3e8b234fbd2eb1c3U, 0xbd08857bbd72bde5U,
  0xbe2619723d0c7b94U, 0x3d884fb53d941b4bU, 0x3c973fa9bd470f58U, 0xbcac3efcbd18b0c3U,
  0x3daed2c63b9235d1U, 0x3e302fed3d864b1dU, 0x3e18e3813e47adb9U, 0x3d5811f23e9986deU,
  0x3d9dd0bb3e646c07U, 0x3dd6b296bda9f355U, 0x3d0670533e15e38aU, 0x3e731ab43c4de6a5U,
  0x3e89b3b93d820325U, 0xbd909a5a3e197100U, 0x3e30a61e3df7ee75U, 0x3cbf944c3e992425U,
  0xbd8683c63d760b8eU, 0x3ed97d093dfb6d86U, 0xbdfe0b5d3de1e29fU, 0xbdaa23b73e5afc20U,
  0x3e011929bd81f4fcU, 0xbe71ad163c16efd7U, 0xbd65f3fd3e2e7380U, 0xbe10fcaabd92b153U,
  0xbd9706bdbee411a4U, 0x3c942369bd5eb9d5U, 0x3e01076abdbb235cU, 0xbe0ba2353cbbfa55U,
  0x3ded7dc7bcf03532U, 0x3d8d89693e3358afU, 0xbdf85c853da54be6U, 0x3d4adb923d859466U,
  0x3e27d8303cd31c21U, 0x3d1953ffbdf8d606U, 0xbdec2e7e3e212ee6U, 0xbe2809083e47f9c9U,
  0x3d9217323e6a5f86U, 0x3d3498383d68b8f6U, 0xbe37ac2e3ccd9f80U, 0x3c0bf89bbdff92ddU,
  0x3ccee052bc889d9dU, 0xbd17e17bbcb813faU, 0xbc6570f43d50c221U, 0x3d1e8bcc3dd0988fU,
  0x3de4ac88bd364f90U, 0xbe84292c3d201df5U, 0x3ea3e35fbd9ae734U, 0xbc7b52403dc0dc73U,
  0xbe00b172bcb6418aU, 0x3ebc52183ee5f35fU, 0x3e1c6dbcbcfd7d89U, 0xbd6af4babd0b2ddaU,
  0x3df5021a3cfef73fU, 0x3c1f17003d69fbdcU, 0x3e3932af3da177eaU, 0xbe26b2c03dfe5947U,
  0xbe03196f3e353b22U, 0xbd71f2bb3bfdafabU, 0xbca12df93db957ffU, 0xbca1d930bd3689beU,
  0xbc080ef0bafa400eU, 0x3d394d413db22a0aU, 0x3bd801d6bb9c3a51U, 0xbcb2d7763e0ac9daU,
  0xbd00f113bb2f1716U, 0x3e8554d03d0d8fc3U, 0xbd2d42d6bc7c097aU, 0xbdaf47c2ba88c2dcU,
  0xbd53d112be03da17U, 0xbf4f16a03e41c08eU, 0xbddf84a5bdc8db03U, 0xbe5775813dbe2711U,
  0xbe194b0fbe58a6dbU, 0xbd47fe5fbdd1cbe6U, 0x3d80e99ebdb8b4f8U, 0xbcdf46c7bdd19854U,
  0xbe13e8323cd31b93U, 0x3d69b7efbdb30f81U, 0xbeb5e49fbda45532U, 0x3bf4b2d03c538491U,
  0x3d665da6bc740c10U, 0x3e1407913db37c6aU, 0xbd102dd9b89684b6U, 0xbe5b679a3eb267b5U,
  0x3d3ff2ff3e69bf0aU, 0xbe96b3eabd32c924U, 0xbcbfa0cd3caaac18U, 0xbe25932e3dd2c8dfU,
  0xbd61b00cbdc15fc0U, 0xbdf2229bbd995ce9U, 0x3bed1fff3e3719bbU, 0x3d5cc19cbd91e4fdU,
  0x3dbc2accbd8e808dU, 0xbda349f0bd8b5d2fU, 0x3ebda5b8bd8409e8U, 0x3d8fac553cb31303U,
  0xbe2b263c3ddea867U, 0x3e8b9f5b3e571031U, 0xbd83f45c3d931562U, 0xbe2a9ad3be080fc3U,
  0xbeb46c42bcce0dfdU, 0xbe34b209bda69e72U, 0xbccf12e23c7063cbU, 0x3b308e13be0e3b52U,
  0xbe0cbd42be3f1bf9U, 0x3e0f21963dbac5b7U, 0x3e9a6abb3c92db67U, 0xbe3386363e2ef438U,
  0xbc19ba7abd80acd2U, 0xbe1aee9a3e90fc25U, 0xbd4a2e58bd073f55U, 0xbc1f2818bdb359f8U,
  0x3da02784bd569654U, 0xbd7f6dc13d9a89f6U, 0x3e4297a3bd2d4119U, 0x3c6e592bbe9c516dU,
  0xbd1b73f53db6561cU, 0xbe62d25ebe37084aU, 0xbdd772a13cc8d851U, 0x3d2db54ebe1dec61U,
  0xbb9b33b93d07b1f1U, 0x3dd77e463d4eedcaU, 0xbdbe759c3d7fe5d8U, 0x3cb4750ebde47897U,
  0x3df18d9c3c9c2971U, 0x3e0692253eab92aeU, 0x3e6dae0e3cfe299bU, 0xbd82c3283da6f310U,
  0xbe211841bda05d85U, 0xbdc49be2bc29c67eU, 0x3d29ed98bd216119U, 0xbc09e2bd3c02c60eU,
  0xbde040d1be311c2cU, 0xbe1302aebebccae0U, 0xbe81e9e03e3d6d53U, 0x3de0bc0dbeb59b11U,
  0xbd5a5dd4be270761U, 0x3d5349afbbe0482dU, 0x3e3b0cfdbe0d8f6fU, 0xbe46e5ef3c841728U,
  0xbea371503dd0908bU, 0x3e31fb87bcaca1b1U, 0xbe4088493da0edcdU, 0xbc3052a83c7c1dd9U,
  0x3e13baa33dc73bf7U, 0xbdecc73f3e2b9027U, 0x3d9f77c93e4838f3U, 0xbda1d7d33e9a623aU,
  0xbd3202693e7eda7dU, 0xbd065fd7bda7d721U, 0xbe634b903db1761aU, 0xbd0f4ad73d9697e6U,
  0xbe14ea7dbd450eb7U, 0x3da1a4653c475844U, 0xbe0c7117bd85baa7U, 0xbe441b66be0892a8U,
  0x3c017257bdf32712U, 0x3dc03ab8be231148U, 0x3cd5bf1ebd8e2889U, 0x3cedf940be0e6b20U,
  0xbe0ea8303d4167a5U, 0xbce826cd3d969923U, 0x3d602199bdc7d66bU, 0x3d23f3843d2abd21U,
  0xbdff973abccfccebU, 0xbe8246873d902df3U, 0x3ebd94f3be5aa0b8U, 0x3c61ce3abdc53cf2U,
  0xbda11d78bd218c05U, 0xbea543d3bda9e0e5U, 0xbdcd88bbbdc4d98fU, 0xbc004d8bbe25a2ccU,
  0xbe47ea093e02ed3dU, 0xbc4fb0dfbe79d0b2U, 0xbe06f574bda5f72cU, 0x3d3bac5abe4958cdU,
  0xbe2cb830be11dd73U, 0xbe56584fbe0157f4U, 0x3c6beb583c025d3fU, 0xbdcf0fcebe6c9d04U,
  0xbe3ff6e53e004bacU, 0xbdd5bc173e00e641U, 0xbdbe3b24beb5f442U, 0x3d09769fbe3150faU,
  0x3d4e96463da74e0cU, 0xbd1b11a6be121e9dU, 0x3e48f9d2bdf13e71U, 0x3ca80660bd06eb0dU,
  0xbe8ee186bc8cc34dU, 0x3e1e31383de28d35U, 0xbed9455cbdae6981U, 0x3cac568cbd29e062U,
  0x3dff1083bca5a5f3U, 0xbdcd6e0c3e397000U, 0xbdffa37cbe016d9fU, 0x3d3bac38be9b4ccaU,
  0xbd18bc4b3ca1b1f1U, 0x3d4d2f31be25bb34U, 0xbdc5f993bd879be4U, 0x3da2ad90be2df980U,
  0xbd97e2d9bd332a62U, 0x3d731c3dbc696ac0U, 0xbe4d7a2f3e485670U, 0x3de943ac3e00811bU,
  0x3e54a409bde04d5eU, 0xbdf521ed3d737bd3U, 0x3d3667733c680ee5U, 0x3af40ec0bc12c17cU,
  0xbe4874debc39180fU, 0x3cf941473d82578cU, 0xbe282d32bdf1a3c9U, 0x3d026911be1821f4U,
  0x3d742e01bd1d8815U, 0x3c8332133d3d64e6U, 0x3def14083d6eaf6fU, 0xbd8ea8293d4ec704U,
  0xbd285b61be99c5e3U, 0x3ddda9a53d0d88c4U, 0xbd8e089bbe31a3b0U, 0xbdcc2376be0473eaU,
  0xbe4d79393e0e8b50U, 0x3dccf34d3d24aacbU, 0xbe9dc9343e0ca714U, 0x3d850311be158eafU,
  0x3df82767bc2c6b72U, 0xbe00daefbe0e598fU, 0xbd4e2fb23e18ccdaU, 0x3d4aa5cebb8ecf6fU,
  0x3d0dbcdebd3afbc7U, 0x3d0536283e9a9a8dU, 0xbd2e6e81be21e437U, 0xbd67797bbdc4d5b4U,
  0x3d02efe93e460517U, 0xbda42af7be161a1fU, 0x3e6a8eb9bb8ebd96U, 0xbc516232bdc29480U,
  0x3e529a973d4fbdc2U, 0x3c5606c2be905465U, 0x3e1295823db10a3eU, 0xbc63f400bcde76b2U,
  0x3e62aa283da58a1dU, 0xbe89beb63accaf76U, 0xbdadfcb03d8925b3U, 0xbd32cd6ebe00afa9U,
  0xbcc8cfdf3e4293bfU, 0xbcbc80ebbee56879U, 0xbe8f7f023dd6208cU, 0x3d58762ebd3c6af4U,
  0xbdad8612be4a9dc4U, 0xbc5c7b293d34c3e8U, 0xbd13b8233e018048U, 0xbe121fc23c916505U,
  0xbdc800343c382e95U, 0x3d099b443dd2f035U, 0xbe241687bd9b9b74U, 0xbd7b3d66bdbdc425U,
  0xbdc1cbd8bd574640U, 0x3cf7bec8be0d3622U, 0x3d38b7f3bb320380U, 0xba1011c23e4789bbU,
  0x3e817feb3e8c9bbfU, 0x3da295f1be93b923U, 0xbd39f3903e2404a7U, 0x3cd8d63d3d5646e3U,
  0x3d379fa23c7bad75U, 0xbe90769639ea9088U, 0x3dc5cf11bc91ecddU, 0xbd8717c3bd691c73U,
  0xbe556030bb8cded5U, 0x3de8227a3bdf3fc3U, 0xbd26d712be3bde2bU, 0xbbf701b03c840c5eU,
  0x3db644b83ddf8292U, 0x3eb6652b3e386c15U, 0xbe08006d3e1e3259U, 0xbc76addf3e9b092fU,
  0x3d22d309bdf00459U, 0xbdb9e236bd8efba9U, 0x3d0d6f1dbd039ce5U, 0x3df7adb93c3bea35U,
  0xbdfc2dd4bd0f9a32U, 0xbe29689c3d54da04U, 0x3dec500cbe8e22d6U, 0x3cb0287a3d3bb403U,
  0xbdc4a50d3e17f0d1U, 0x3de5ea4f3df6b369U, 0xbe3155213e110e25U, 0xbcca55763c394551U,
  0x3e2b23efbd33c131U, 0x3d429b083d98f264U, 0xbbaac4813e096263U, 0xbc673b4d3e1dbfa7U,
  0xbd3916153d8c13d5U, 0xbc4d7c353c88ec39U, 0x3e0b6318bda338cdU, 0x3bc2a97c3cf1a756U,
  0xbe2d96fabec02afdU, 0xbd4826ae3e14c281U, 0x3d769eacbbc7c1eeU, 0xbd5f46883de1a74fU,
  0xbde9865b3ce71608U, 0xbe847b263d84082fU, 0xbe45940bbc8462dfU, 0x3d8b41a93c78856eU,
  0xbe4d9fcb3e0ae76bU, 0x3e25e13bbe29da47U, 0x3e91142bbd8c405dU, 0x3d74e930be4f3b0aU,
  0xbe8d0b023e0e6105U, 0xbe585e3cbe7147c1U, 0xbe665841bea9bb23U, 0x3c7e407fbd91b357U,
  0x3dc7c878bdc378adU, 0xbd38f357bd6dbcc6U, 0xbda2a7c6bd97f89bU, 0x3e2600663cab803aU,
  0xbe57a726bd2742daU, 0xbcd59ec9bd4f6edbU, 0xbe3a8d15be64f1d1U, 0xbb31fba0be201aabU,
  0xbdd7a04fbb9ffdd8U, 0xbd16af88bd9c4820U, 0xbe08c4e9be891d01U, 0x3d4395dabe734741U,
  0xbdb746a23dc964ecU, 0xbeadb6adbee2f00fU, 0x3dd5d6c8bd932483U, 0x3d548f1dbd99f3c6U,
  0x3de1a1a5bdfef48aU, 0xbe1c8fd3bd894c7bU, 0xbd57a4aebe1494fcU, 0x3bffd8d83c168832U,
  0xbe387ea63dd145c9U, 0x3dddc75c3bc99c5cU, 0x3a895c14be81d1e1U, 0xbcb36420be939064U,
  0x3e1602b0bd82e659U, 0xba6b74cabe3e0900U, 0xbd87bd60bcc70082U, 0x3d87a7debd4ee0d8U,
  0x3d6898723e024bdeU, 0xbe2e6bf73d921319U, 0x3dc2bda8be52ac25U, 0x3e1e23913d871236U,
  0xbca1ffc1beb904c0U, 0x3d931a4e3dad246fU, 0xbd2d1840bd545bedU, 0xbe10d7913d65dab0U,
  0xbe34af6b3ddf282eU, 0xbd317898bbdefb5bU, 0xbe8522d9bca2450fU, 0x3d9e80013bf3f180U,
  0x3d42f61f3c77a7f7U, 0xbdc926373d5ef703U, 0x3e3b803d3e187b06U, 0x3e814d553e0a0673U,
  0xbdb4ebee3e0d09d8U, 0xbe6cb8c9be1a4fafU, 0x3e088344be392978U, 0x3dfd5bbfbe46cc74U,
  0x3cd447a6bdba2b30U, 0x3df932283d4e2836U, 0x3ddd8bd53de0ee01U, 0xbccaed503e679843U,
  0x3e6e9d90bd254ed3U, 0xbda8954d3e188dabU, 0xbd90a60d3e0301deU, 0x3d6a2666bd3e66ebU,
  0xbcac8a5e3dd7307dU, 0xbd928166bda7c4c5U, 0x3e18b860bd89adc2U, 0x3da29f97be466352U,
  0xbeac8d6a3e7f6ae8U, 0xbdfe8b5bbe1161a8U, 0xbcb422903bbb7e1fU, 0x3d96e15bbdb850a1U,
  0x3d656ee4bd49e5f2U, 0x3e62e0593db4f80eU, 0x3e567822bc40cb95U, 0xbe3d30413e065341U,
  0xbe190a42bd111e49U, 0x3e0d38a13e43128fU, 0xbe55c6fc3e10fe8aU, 0xbca08ee03d1af72fU,
  0x3e4b7a31bd07bedfU, 0xbdef8ffa3d37eec7U, 0xbd1d36a53e7371dcU, 0x3e459ecfbc5bb61eU,
  0x3d408538bda0ef57U, 0xbeff7b0a3dd0188bU, 0xbdb3d580bd9bfe78U, 0xbdfba36d3c9fe2dfU,
  0xbe437d89bee59325U, 0x3df7ed71bc9b3338U, 0x3e7b03debc220151U, 0xbf1cf6d7bb4c47dbU,
  0xbeb54b853db19c9bU, 0x3deef3f0bd17b65eU, 0xbe425ef63e3e3e25U, 0x3d67030a3e508243U,
  0x3e104d47bd1a7971U, 0x3c6cbb05bdcfde67U, 0x3d8657383c822451U, 0x3d47eec83c4a47e5U,
  0xbd7b219cbe849963U, 0x3e3cc037bd8d63f0U, 0xbe49d740bda145d7U, 0xbe5482a1bb49fb80U,
  0xbe110b7cbe71d678U, 0x3ce5eb9cbe539790U, 0xbdda5a74befdf599U, 0xbcd67d3c3de5a0ceU,
  0xbf05ce8fbe12f7a4U, 0xbdd3d406bd18b18aU, 0xbd81f278bed3aa8eU, 0x3d4e37e2bd704492U,
  0xbd0af576be5d490fU, 0x3e09f6b73e46f2f3U, 0xbef8822a3d870215U, 0xbe91f489bd12bfffU,
  0xbd0e8639be643988U, 0x3e25f44ebe63f944U, 0x3b9e5dfb3e60a153U, 0xbdc575bfbe0ec858U,
  0xbe026b1bbdad76bdU, 0xbe1f0e51bcdbbd61U, 0xbe2421eabe946717U, 0xbd82af33bdc726ceU,
  0xbe86b905bd915fd4U, 0xbe5e7863be1cae5cU, 0xbec70974bea8ea31U, 0xbb931a30bd6f3132U,
  0xbd4f35f23d8c4de5U, 0xbb7618dcbe404162U, 0xbd8cfc84bd12193bU, 0xbe09acd33dbaa514U,
  0xbedb8f18bd7dbecdU, 0xbf413bb03e26fb49U, 0xbc80580c3c87fa72U, 0xbe8eeb323e3e42e6U,
  0xbe9c588cbf4903f6U, 0xbe06e64dbea2a29eU, 0x3b44b78abe1805dfU, 0xbef1b58dbd62194bU,
  0xbdeae020bdc1772bU, 0xbcb29e85be1e563eU, 0xbda5a5ddbdb1b2bdU, 0x3da8e9113d41350bU,
  0x3df1b1cfbe04d3a5U, 0xbe953d25bd004871U, 0xbcde79223e5e47f6U, 0xbe7785e0be166ce3U,
  0x3e3f26743d5a5597U, 0x3e61e4b43d9b3a53U, 0x3ece00173d1a3206U, 0x3d305a7c3cd327fcU,
  0x3dc4d2bb3d9749ceU, 0x3def6445bd5b51ffU, 0x3e32655bbdb3efaeU, 0x3e974083bdb0473aU,
  0x3ea5c9f93caaf6c6U, 0xbe26432f3d931a11U, 0x3f19f93cbd7279b2U, 0x3cbcccac3e01e003U,
  0x3bb9ab873d6edd55U, 0x3f1a533c3f15d3b5U, 0xbece3511bc68ba6eU, 0xbdcc53f5bd831ebbU,
  0x3def099cbe365347U, 0x3e91f53b3e8fa561U, 0x3dbf10603e0d4bf1U, 0xbc8972d6bc2f2e95U,
  0xbc0aa13dbe156097U, 0x3de98d023d6441fcU, 0xbde2f653baf8e92fU, 0x3e0af27c3d48f51cU,
  0x3db8e1a3ba0b33bcU, 0x3c5e28b23e1cdfa2U, 0x3d5e244c3e8464e9U, 0x3cfa3d803e979a8cU,
  0x3e26d7d0bdb6ec60U, 0x3de5f7a43e052f9fU, 0x3e45b41c3dbcd6b1U, 0x3cdb196b3e502895U,
  0xbe93ba8ebc488914U, 0xbe5e89a03e18c20bU, 0x3e3b3b693e06aedeU, 0xbe21e9a63d32f4b2U,
  0xbda71dd2be9ee599U, 0xbe96baf1be9c67f6U, 0x3dee654ebe3c24abU, 0xbdac69d2be5773f0U,
  0xbea318c83d3b22f8U, 0x3d2ec779bd7acc6fU, 0xbdb14b9dbec6758cU, 0xbcec4aa0be83838bU,
  0x3c9aaf4b3d64de0bU, 0xbe1b058a3d60190bU, 0xbdf1c9a13c0d7cb9U, 0xbe8e35dfbccb85b4U,
  0x3e147a153db4fdf3U, 0xbd01eb76be8db166U, 0x3d59159e3e0258f5U, 0xbe028d7cbd9fb23eU,
  0xbdbd9a813d7568ebU, 0xbdccdfe1be315bc9U, 0x3ce872823e012299U, 0xbdb98beebe6fc9e1U,
  0x3ebe6124be150218U, 0xbdda75d43da8d17cU, 0x3f171f923e5297e2U, 0x3d8c8f513e09a65aU,
  0x3cc24e92bd8a201dU, 0x3e9ca0bbbc78a46eU, 0xbe81dcd73e164541U, 0xbe582d493d8d023fU,
  0x3c27935cbe1b3c33U, 0xbafe9aa13e03528aU, 0xbe42f3863e20902aU, 0xbe000d443e055c7dU,
  0xbdcd81833ca00ac7U, 0x3dd5fbb33be31b5cU, 0xbdf07df7be11eb16U, 0x3d8b64e0be54e271U,
  0xbde65379bd5d2847U, 0xbce8dae1bd5140c4U, 0xbe3ecbd63dad9a8fU, 0xbc719dd83d8b724fU,
  0xbe424bb9bd9a226cU, 0x3e152aa03dd3d5baU, 0xbe5aa716bd380940U, 0xbe2c8f333e5e4d53U,
  0x3d65eb1a3db14bb3U, 0x3e7535ec3e0555ccU, 0x3cb034cf3d03e77dU, 0xbe275b1abdad1449U,
  0xbbafd3073d0ad3e3U, 0xbe2454fbbe400546U, 0x3d9624403c7e65beU, 0x3c8c5a64bdcac566U,
  0x3b594034bc0e592bU, 0xbe4ad44ebc54e068U, 0x3d1c2e7fbe09b837U, 0xbba1e4503d043d6eU,
  0xbe2449193cc0c59cU, 0x3cd47bdbbe6b419eU, 0xbdd5d0c6bdb6c0efU, 0xbda9f302bd20ac20U,
  0x3dc57fa93e209c68U, 0xbd8af72bbda3fec7U, 0xbe27c965bd4dd802U, 0x3d459c35bbe81ae0U,
  0x3d851d743e2cd6ebU, 0x3d1b59e5bdd1007cU, 0xbdd0dd743d3242c6U, 0x3d50e2cebcc75048U,
  0xbc118a53bd633d41U, 0xbcd76f5abdf225bfU, 0x3e1a7c4ebb1b78d5U, 0x3d334d02bdac0259U,
  0xbdbf8626bc27119aU, 0xbdac8b033cdd0f90U, 0x3cc6f276be70265fU, 0xbd96f7933d63ef4aU,
  0xbc5d9ccabc7ba653U, 0xbdac68f93ce64d97U, 0x3e3e6a953ccfa503U, 0xbd95c03f3d792b20U,
  0xbd90f5563d80bb1bU, 0xbddba0673ca97571U, 0x3e31fd8fbde73a04U, 0x3dafaaa6bb94a31aU,
  0xbcb4fcd13dc878e7U, 0x3c1052813c39d864U, 0x3e0938b3bd9d9469U, 0xbda3f930bd8dcf62U,
  0x3df53a4b3da33859U, 0xbc931e3dbab637b9U, 0x3def446f3d9a8320U, 0xbdf4c7f7bd1de795U,
  0x3d30aa1d3d92759cU, 0xbd5f9135bd0db6aaU, 0xba89a08fbd9d5fcdU, 0xbdd66cdbbd725a15U,
  0x3df197523df9e153U, 0xbd8e909fbdd17b83U, 0xbe1fdeb93d14fb3cU, 0xbaf5f24ebe395ec7U,
  0xbd3799173d347e39U, 0x3c66dab5bdcccbccU, 0x3ded5e233c3a4e61U, 0x3d247e90bd399cdeU,
  0xbd6d66983d249b48U, 0xbd4d0c403dacfd02U, 0xbd2b8f4ebda5c378U, 0xbd06c005be059337U,
  0xbdaad422bba9ad66U, 0xbe472bdabd10092eU, 0xbe2ff412bcc39b77U, 0xbbc22fffbd7dd8ebU,
  0x3d8c0d2b3e24cd37U, 0xbdc249fcbd0704d9U, 0xbd4b03d4bbfb10f5U, 0x3d09b7923d052a2cU,
  0x3d9820ea3ceb2679U, 0xbdbdc1ddbe180219U, 0x3de22ea1bd8bd371U, 0xbd871743bdaace75U,
  0xbdce6597bd75c810U, 0xbdc0d55fbe730059U, 0xbd4e7c92bdc5f77aU, 0xbc9acfc2bdf89c88U,
  0xbdf162b93d1cb8c3U, 0xbd2dd76fbe64c23fU, 0x3d0b941c3cc5407fU, 0x3ddfb6e93c24f132U,
  0x3b0590b43dd04e4eU, 0xbe58def13d59d81fU, 0xbd4802cd3d15b2f7U, 0x3d3394903b1d940bU,
  0x3d737f6e3d95c328U, 0x3dd24042be1648abU, 0x3de7622ebe0e903bU, 0xbd981616be8e2135U,
  0x3d72c2ee3d6e2685U, 0xbe87d890bebffe23U, 0xbe1a1d733d584ea9U, 0xbd5e2ce43ccab226U,
  0xbdb536613c7f38a9U, 0xbdd0304e3cce1b34U, 0xbe8043c9bd9aee10U, 0xbd3b3badbd10d677U,
  0xbdfea2893dcaef28U, 0xbd9e4365be13c466U, 0xbd3c1ac13dbc03a0U, 0x3d53f0e3be47cefdU,
  0x3ddf4039bd404fb5U, 0xbe00e890bcc36ffbU, 0xbbcc98e7bd24fa02U, 0x3d6a420abb89af9bU,
  0xbd68461a3c2191c0U, 0xbe3e2d58be8792b6U, 0xbd56eb55be21a18aU, 0xbda655e3be18b5b2U,
  0xbddd2c66bdd2b44cU, 0xbdebf81dbe431ea2U, 0xbeddbdd4bd2ed407U, 0x3ddf4c9dbd8250c9U,
  0x3dbc38683e0fee17U, 0xbde77f6e3dbf6a24U, 0xbe36b67f3dc058e0U, 0xbd9f64b3bdee8d33U,
  0x3e0852a7be4b5ac8U, 0xbe2dd2b6bdbd7248U, 0xbd858d25bdbeaa7bU, 0x3d75a87abe35848aU,
  0xbdf6b318bc5e8e68U, 0xbe868026be98a807U, 0xbdefaeacbe427574U, 0x3dc2fbe1bce2f7f2U,
  0xbdadd955bdc82f5dU, 0xbe20d465beb13989U, 0xbdc87ba3be9c5166U, 0x3e8c2bf5bdcef8b5U,
  0x3e032587bd8584aaU, 0xbe6a41be3e256ab4U, 0xbe6ebdaebd916284U, 0xbceb9744bd93c0bcU,
  0xbd6595eebe237240U, 0xbdc89defbdef436eU, 0xbdafeb73be89277aU, 0xbda339f3be1b169aU,
  0xbe512dd0bd0e02b2U, 0xbe356b0cbeb1b372U, 0x3cfa332cbe40db86U, 0x3e1330c33b86b516U,
  0xbdaf97353ca6b72bU, 0xbe347a89bde74f5fU, 0xbd3d535d3d15ef1eU, 0xbd123042bdd43b7bU,
  0x3ca5f50fbec44446U, 0x3dd2bdf93dfce018U, 0x3e27eaa23dc681cdU, 0xbeb69b673bd38379U,
  0x3c9a3c27bcc5ac07U, 0x3e029b813ce71b7aU, 0x3c819c5d3d1abf9fU, 0xbd5ea2d0be003689U,
  0x3da26d48bdb3e69cU, 0xbdbf81b4be803717U, 0xbccb6d143bda9e20U, 0x3d07f714bca28b1bU,
  0xbee24ce9bebabde9U, 0xbe30657c3dbd44beU, 0x3e8ea6223d775199U, 0xbe95ec963e67f6e8U,
  0xbe72bbe23deec2dbU, 0x3d1137ebbe38110bU, 0x3d1c0a73bcb0f8eaU, 0x3de026e0bdb965e7U,
  0x3ce0fa053d53319cU, 0x3cf18b0bbd571ddcU, 0x3e776242bc9afb6aU, 0x3d23f3aabc698ca0U,
  0x3decc473bdec7177U, 0x3e0af7c13d9ea8a8U, 0xbdd208a03d367685U, 0xbe1b10f7bdedadd3U,
  0x3e1e198bbc2ebca8U, 0x3f0c42533e43be85U, 0xbc4a4dcdbe4adfb1U, 0x3d5747db3db2e2eaU,
  0x3e475a9a3dd05807U, 0x3debf0dfbd51e40fU, 0xbf03f20dbdada5b1U, 0x3eaed522bdff128eU,
  0xbe3d1bb8bdb9347fU, 0xbe943863bf0145f9U, 0x3e8386afbeca5b31U, 0x3d876f1bbe34fc0eU,
  0xbe0c880abdaf0e55U, 0x3ed6a6aa3e8ad739U, 0xbdeab35ebe103e22U, 0x3c9ceaf8be86c4e8U,
  0xbdf399f3bd71605fU, 0x3babef5d3de9434dU, 0x3d09133abe5c5a5fU, 0x3c0964d33ddcd556U,
  0x3ca6ac42be3aafadU, 0x3d9abc7a3d59871fU, 0x3d157c513c960b78U, 0xbe35b4df3e79cd3aU,
  0x3cd8db663c99dcd4U, 0x3dfa2b1a3e33ee24U, 0x3c7ff3edbdb7dcd5U, 0xbd60aa6b3cbc6002U,
  0x3db90118bde1cb46U, 0x3e0c44a23c8b1ae4U, 0x3db895b93d37879dU, 0x3dcc87e2be1243b8U,
  0xbe718239bea9de05U, 0xbd18acbcbcea1620U, 0x3e369e65be2c49feU, 0xbe420550bd8d8f64U,
  0xbdd49bda3e53c51eU, 0x3caf9af0be2e5c77U, 0x3e344721be482163U, 0x3df8abafbdd1636eU,
  0x3e2b7b9c3c18d71fU, 0x3d16c5a13d8e2ae2U, 0x3e86a045be266d79U, 0xbd64ac16be2d0308U,
  0x3e10bd51be97b6ddU, 0x3c7c0d133e130714U, 0xbdde2174bdf0219aU, 0xbe5a718abeb550a4U,
  0x3e762ad03e8d5704U, 0x3e126f75bed75ed8U, 0x3e252117be8020e7U, 0x3d1661093d208367U,
  0x3df5863e3e943bc7U, 0x3e09807e3de7af7eU, 0xbd62080e3de049c9U, 0x3e96906ebd9899dbU,
  0xbe4a805b3e325651U, 0xbda8f766beb0dc08U, 0x3e39cbe8be785ea7U, 0xbbf6dd30beb85e7aU,
  0xbddca3f63c54eff4U, 0x3e95743e3dd6eb47U, 0xbcd0553ebe0e5ac7U, 0x3e323ac7bcc6c464U,
  0x3d4b7d17be163043U, 0x3c83f87a3e8142fdU, 0x3ee56702be846648U, 0xbd78c7153d2051c6U,
  0xbe3905c5bee517c7U, 0xbc88c9db3b1097e6U, 0x3d819e03be94c541U, 0x3d9a2444bd0dd985U,
  0x3d9131aa3dc503bfU, 0x3e39783dbb709612U, 0x3e157343be80d6afU, 0x3d4e98563dd87c17U,
  0x3e05ec67bd29f959U, 0x3d4dea143dc51756U, 0x3e6558033eab9583U, 0xbb531906bea9358dU,
  0xbdfd2c8fbd676a07U, 0x3d1c22733ed1bf7cU, 0xbe04244ebec95191U, 0xbdcaefd23e2e8260U,
  0xbdcbfa443d7b8333U, 0xbb8c7a4fbe1e326dU, 0x3b8f63ffbe9a968eU, 0x3d7361e1be7dba0aU,
  0xbcd6e59abdf3a12fU, 0xbcabcfe8befba0f8U, 0x3d661969bea51f9dU, 0x3d7abb86be79057aU,
  0x3d6ccd03be284466U, 0x3d9a5933bca6b49dU, 0xbe5685143e70c310U, 0xbdc353dcbe547ee0U,
  0xbdbc117d3e222e00U, 0xbe01837cbea47564U, 0xbd79107f3d8ed853U, 0x3db492193dd26b51U,
  0x3e66d8f03e90be18U, 0xbba337d43e174b53U, 0xbe255f963e3f588cU, 0x3e401ce33d0f5455U,
  0x3e8a19f33d6987bbU, 0xbd0bf5ddbd70c2c4U, 0x3d8359843c836d55U, 0x3d4e7c8abe58dbc4U,
  0xbde0c4293c0ef832U, 0xbdac01b83dd38da4U, 0xbdccde3ebe077d0eU, 0x3df29d42be1766baU,
  0xbdd89b2bbb3c0f4cU, 0x3da3aebdbe74cb32U, 0x3d3a74d33e573ba2U, 0xbd99e23c3ca07456U,
  0xbe01075fbc9dad18U, 0xbdbb9d32bda1fc13U, 0x3d6f15993cdb747eU, 0xbe01bb873d99ed04U,
  0x3da10236bd56874aU, 0xbdccee4bbc79e062U, 0x3cc3aed33c4f6de5U, 0x3d65ee723d22243fU,
  0xbd7bd9e03c556d3fU, 0xbceaca9d3da4dc53U, 0xbe1a8d38bdf8da65U, 0xbd29bc343d8824b9U,
  0xbe762f92be83c728U, 0xbb241a03be84755fU, 0xbca42cbf3d670a1cU, 0xbe71eddabcb9a9d7U,
  0xbdd78a6cbd91a3c2U, 0xbe1ed675be43da0cU, 0x3e0136f5bdcd50fbU, 0xbe8760ef3d932576U,
  0xbe50ff28bcf202e1U, 0xbde518ad3d28b919U, 0x3bdf8dc8bde5d6a1U, 0xbd6b05c63e0289b2U,
  0xbd7f2fc7bc412c1fU, 0x3e03d8313d6e32f9U, 0xbe1dda3bbe599feaU, 0xbe9fd3fb3d9b45ffU,
  0x3da1cd66bbea26c5U, 0x3c48a564be9a8129U, 0x3d919ed1bc1cd86aU, 0x3c039d92bd908f54U,
  0x3da1a5d33d75b284U, 0xbe3fdb96bc6fa533U, 0xbd3a4ab6bcfe3d87U, 0x3c64852c3c96c0e1U,
  0xbe99610fbdcaa102U, 0xbd80f084be457e40U, 0xbeea2fbbbdc58249U, 0xbda0669bbe30de8aU,
  0xbe93b27dbdbcc998U, 0xbc2f5863bd830d6dU, 0xbd8e30f2bc1a3a0fU, 0x3d115c44bd5bad50U,
  0x3d622e623d6931b9U, 0xbd7d58b2beb9640aU, 0x3c63cfb83e11125cU, 0x3d55080bbc01b56dU,
  0x3d51dc063d670f28U, 0xbdc19c1fbd0d9eb9U, 0xbcfd322c3dc0a945U, 0x3d9007e8bc333a01U,
  0xbe4b0f883d8ca6d8U, 0x3e1ba2f1bde611e1U, 0xbdcf6855be3a2dc9U, 0xbd2e1fa6be191042U,
  0x3d0c10e03de561fbU, 0xbd79b0373cb98e43U, 0x3c6b01e73c541b31U, 0xbdd0a54f3ce6d082U,
  0xbd339768be142d1bU, 0x3d84e8143dc930deU, 0x3ddd67ab3de65f11U, 0xbdb155133e22bc7dU,
  0x3c4ad0a03c9cb40dU, 0xbe6f9fe3bd107c1aU, 0x3e682b1abf000ebfU, 0xbc04bfa13ced310aU,
  0x3b64c100bcdf5128U, 0x3d0a47efbd551f63U, 0x3eb54d81be860b2aU, 0x3cf87dccbedca60fU,
  0x3d925218bc9c694cU, 0x3c868e8a3dd6ee01U, 0xbe12fb003e0a9737U, 0xbe31e483bd2e19beU,
  0x3ce7c124bc3e076bU, 0xbb66e70ebe95911dU, 0xbd46eee6be820863U, 0xbc57101cbeb2eed0U,
  0x3d9901803e1ca703U, 0xbc80cb66be052d8eU, 0x3c2843683991ec06U, 0x3e4757aa3d8149baU,
  0xbe785615bd8a4961U, 0xbe4a3ff53b7ae8fdU, 0x3d0e30213d83baabU, 0xbcf0d080bdbc38afU,
  0xbdf021843e1b1f09U, 0x3c49ef733dd58cb8U, 0x3dfac1f9be3b4ae0U, 0xbc621618be09d2feU,
  0xbd3b925e3cd79a5eU, 0xbeebc42b3ddecdbaU, 0x3dd81e54bdc0f397U, 0xbec10f5b3e7c6a8aU,
  0xbea5a219bdbe8221U, 0x3d91b2fcbe8e8a0cU, 0xbc5648c83d9d1b58U, 0xbe6d51b1bd0ce0c9U,
  0xbc4aeac1bbf70ccaU, 0x3e08a34b3e1db7adU, 0xbe8e012f3e2baf45U, 0x3d2461103df008beU,
  0xbcf15d17bd3978f1U, 0x3e1602b93dff3491U, 0xbd4bd7443ad4be84U, 0xbe724b01bdb1719fU,
  0xbcc675df3d8101b6U, 0x3e512eb23e4bac31U, 0xbc0d04f9be3c8b38U, 0x3b16df013e3fd39bU,
  0x3cd4fad43dfc8ac1U, 0x3e1eb7c7be00e2c5U, 0xbe1ce9c83dfa2946U, 0x3e12d5443d6eb594U,
  0x3e9d9d1fbe52c25cU, 0x3ddf500f3d5f94efU, 0x3f3765343dcfff9bU, 0x3d81239b3df2501eU,
  0xbd9cdf6fbd21e5a2U, 0x3ea6a8543f11ad81U, 0xbe57f49d3d9ed81bU, 0xbddf2851bd879e19U,
  0x3cdb8963be2cf184U, 0xbda46bb2bd461b2eU, 0xbe524e7abdf67cc5U, 0xbbdbb38d3d30f095U,
  0xb9bda76e3de425d7U, 0xbd313e933d45192cU, 0xbd19d60fbd8975a4U, 0x3dddfbe43d560460U,
  0xbe2b6260bd2ed4bdU, 0xbd925fa1bd8b1272U, 0xbe3a4604bc9cb5f8U, 0xbd6f2f70bd82e5a7U,
  0xbe1c11f03e064925U, 0xbd164b18be127ee6U, 0x3e3424cfbdb03179U, 0xbdf3db223d88162bU,
  0x3d5cfcf9bde0ed68U, 0xbea5dcdabdc55342U, 0x3d148e2cbe947f15U, 0xbd3eb95e3e2e7192U,
  0xbe0100b6bd15ac6fU, 0xbe10b1aebdb04829U, 0x3db8adf9bd9327b6U, 0xbce0834fbd897f05U,
  0xbea1d3a3be05c6bbU, 0x3ccf6b173d838227U, 0xbd796d9fbe2b74e6U, 0x3cfa4760be6c2ffdU,
  0xbd9dc7f63cada196U, 0xbd9455efbdec5a9eU, 0xbd55a5133dfdce04U, 0xbd1f8d81bea63fa4U,
  0xbc80c0553dbd5e92U, 0xbe627aff3e20c6c7U, 0x3e83e740be17077eU, 0xbdc228093ddef85bU,
  0xbda9553ebda7cf28U, 0xbe2dbdf0bd85ab94U, 0x3d9c251fbd1b2802U, 0xbd7c9daebc965b92U,
  0x3d5070313d257df4U, 0x3d17d8cfbe5729a2U, 0xbbf10c66bead4be2U, 0xbd7c5280be8e7436U,
  0xbce48e5ebce26c4fU, 0xbe4fb64fbd5cfeabU, 0x3d249fa53db85177U, 0xbc6cf23cbe648b9fU,
  0x3df9fe65be8452efU, 0xbed0ec343dc3907bU, 0x3d58307dbe65eca1U, 0xbe4225383dfe2988U,
  0xbe5efbb0be005b4bU, 0xbe292dbdbe2fe010U, 0x3d311ebabe0e7fb5U, 0xbe24700f39981d40U,
  0xbc2589603c981abeU, 0x3ca5d15f3bc51692U, 0x3d0ad549be618e06U, 0xbd5bbba0be31feadU,
  0x3e06e825bd4c9239U, 0xbe5456653e1976a7U, 0x3c3e622d3cd5a178U, 0xbdfca441bec9978bU,
  0xbe3988da3d4de553U, 0xbe8567183e4e46d4U, 0x3dd500bdbe6f9dc3U, 0xbb016bd63c231512U,
  0xbdc54df2bd2ae6f3U, 0xbe09c47ebdf45335U, 0x3dc8f8423c884521U, 0xbdbc79ccbe5394faU,
  0x3df1f114bc8432d3U, 0xbcc3c12cbbfbd46cU, 0x3e8d9063bdbe43ddU, 0x3d0a6716be3507aaU,
  0x3e1951b0bbb466e2U, 0xbe1f8b75bdebe3b7U, 0xbe2939563c4a06e9U, 0xbdef7ec0be6bcc15U,
  0xbdb991e23e151ef0U, 0xbd0e76cebde38a6fU, 0x3d88f4183d4a7b26U, 0x3d7d14353dbabbc2U,
  0x3caac8e83da5177fU, 0xbe14bfa1bd8ce159U, 0xbd5c27673db73849U, 0x3d8bd0c8bdb58d78U,
  0x3de77b4bbc1262beU, 0xbb0bcee1be768df3U, 0x3d036cec3d0ac5fbU, 0x3c0548683ce5e176U,
  0xbdb65dc63d3c61a2U, 0x3d9e7b35bd2ab835U, 0xbe1bfb0dbd930a9bU, 0xbc9e73e93cb15fe0U,
  0xbe717aa9bda2856dU, 0xbda4a1213d872a8cU, 0x3d1cbb7b3df43a99U, 0x3d7e29bd3c6abbc1U,
  0xbddc16b6bd6ae259U, 0xbdea1a65bcbdc370U, 0x3e04f720bb693df0U, 0xbe5c535ebcc53a49U,
  0xbdc4a35a3d0f5191U, 0x3cc5d28cbe940b6eU, 0x3e298ba5be5e40deU, 0xbd43a350be2308a9U,
  0x3e7250853d0cddd2U, 0xbe85f3b9be37fd54U, 0xbe420c663c3388adU, 0xbd92c99a3e29c703U,
  0xbd27c1ba3d4d68a8U, 0xbe3cc42c3d81b0d8U, 0xbcabc362be276670U, 0xbdee0ddfbdd4d234U,
  0xbe48262abcea0be5U, 0xbd32daa9bd4aa1bbU, 0x3d62aea93b15379cU, 0x3d94df62bd331576U,
  0x3e47fa9c3d025212U, 0x3d85227dbe498c92U, 0x3e1260da3d1cc4baU, 0x3d42f346bcb748bdU,
  0x3dfc862dbdc4c092U, 0xbe7dc2abbe245c3bU, 0xbe4cde19bd114410U, 0xbdeeb5c9be3052cfU,
  0x3d50b6a43e3010beU, 0xbe2607d9bdc808fcU, 0xbc798c553da5761bU, 0x3dd30e02bdd45137U,
  0x3d71b9223dfed0eaU, 0x3d1e23f53cb5921cU, 0x3dbee4b23da73cbeU, 0xbdab617abdfbf56aU,
  0x3e4809563c73a01aU, 0xbdc66a5d3daf916cU, 0x3cdcc09c3e2927b9U, 0x3bd83230bdbceddcU,
  0x3e0034863e08c350U, 0xbe55a86bbe944ee4U, 0xbdf8f3b6bdb129c5U, 0x3ccbfac3be2c02deU,
  0xbc82c1963e00c7feU, 0xbe04dbb6bc41d35bU, 0xbe1d2f143d5db35aU, 0x3bffc3503cdd5ab8U,
  0x3dc1f8663d31de1eU, 0xbe1925733d7e58d6U, 0xbd5e808b3d197890U, 0xbdac23b4be417facU,
  0x3dd3b478bd56dd05U, 0x3d6991a6be8fd98cU, 0x3e000a4abe686e88U, 0xbcd3e8acbe8428e6U,
  0xbd96a488bc612422U, 0xbe8db0e8bd2874e5U, 0xbe17c5c6bd99f2e0U, 0x3cca89b23e299090U,
  0xbde76769be4bf4d9U, 0xbe4a7fc4bdc4c823U, 0x3cae6a04bdfed435U, 0xbcee3642bdd051f7U,
  0xbd9efc8cbd2f588eU, 0x3e3c519cbd19b8c6U, 0x3a319948bd8237acU, 0xbc5834cc3d9f31f3U,
  0x3d708a3f3d9950d0U, 0x3e20e2133da71dd0U, 0x3e13eb103c92ed94U, 0x3d83e2ad3d82f09aU,
  0x3e0977473d9f621cU, 0xbe5187a13c06ea76U, 0xbc0f41a6ba011f2dU, 0xbd222185bd3b26abU,
  0x3cfe2e6fbb4fb5c4U, 0x3d3e17303d601d2eU, 0xbe2c385bbe801ed7U, 0x3d7443afbe158d19U,
  0x3df0c2c5bb92ec72U, 0x3dec28243dcc4633U, 0xbd3c1824be0254bdU, 0x3e4966283dd2408fU,
  0xbe2d7af8be16bb3bU, 0xbd80daf6bcebc24bU, 0x3e22ab123d6d1106U, 0x3c5b2a403e1722e7U,
  0xbd9a2ac03d5de4ffU, 0x3d36b8c73d85234fU, 0x3dfea98abbb79f3dU, 0x3d7f37383cac2de6U,
  0x3e964b273e279cd9U, 0x3d48c4bf3e59c596U, 0x3e432261be307bd7U, 0x3df2f4e33e0813a5U,
  0x3df5f409bb0da02bU, 0x3e07b425bc81edc4U, 0x3e38fabb3d28e167U, 0x3db5896e3c1a5913U,
  0xbcbfe7f03dae05d5U, 0x3d5797563d838516U, 0x3e7eedd13dc89416U, 0x3d93e633bd95639fU,
  0x3e0d57893e2d24e8U, 0x3d7f579c3e2c9216U, 0x3e05396d3d87e96cU, 0x3dca3841bb90dc20U,
  0xbd9542e43cebb965U, 0xbe5f5ab63b97c724U, 0xbd3c8b2bbd8a366aU, 0x39d37b12bad2bb85U,
  0x3d87488f3ea73c72U, 0x3cd8d03cbd371b88U, 0xbe6f0c3f3c46fa23U, 0x3e449d48bdabb2d5U,
  0x3e06317d3cd6a84dU, 0x3d1c5f35be1d41d0U, 0x3e304c95bd76de1cU, 0x3d07c260bdc5ba47U,
  0x3b850d4b3d0616deU, 0xbdd85d653d4da4a1U, 0xbe689e68bd9c5e9cU, 0xbe188364bd5b89a1U,
  0x3e58d71f39fb6bcdU, 0x3e2ed5c5bd20f9c5U, 0x3e40d9243ae4b3b3U, 0xbd0845433d59ec12U,
  0xbd1046db3e84b166U, 0xbd7063c43d5b4645U, 0xbca5e60e3dde3220U, 0x3e8d0ae9bd77fbc9U,
  0xbd358fea3d649f0bU, 0x3d3c304ebe556508U, 0x3e8708c2bd7d0eaeU, 0x3d198dda3e12cd35U,
  0xbe04a11d3dd166b0U, 0x3dc912343e0a0eceU, 0x3e35efd83d381e83U, 0xbd441dff3d7f2dcbU,
  0x3e3fbdbabcb6f028U, 0x3e4951133e0d2e58U, 0xbdb4aeebbdca561bU, 0xbe35642c3cf64057U,
  0x3d542392be0c531eU, 0xbda06ec43d64e706U, 0x3dc92fdabd7042e7U, 0x3e2858663dbde34eU,
  0xbdb1238e3dcd56a9U, 0x3b949c52bdd31d79U, 0x3e02fa4fbe04358fU, 0xbc4b78e83d329f0fU,
  0x3e0a5ba03dc936b3U, 0x3d221bbd3df80f83U, 0x3e0f61203d975b4eU, 0xbdb631c4393e3ef6U,
  0xbe9bd504be051ac3U, 0xbe08c3dfbe4b8e13U, 0xbe34b12b3f1edf25U, 0xbf0d32193dfb870eU,
  0xbeeaf4aa3e91b1a7U, 0x3c5eea9bbed553eeU, 0xbdd65473bcde685eU, 0xbe8314c9be18bd1fU,
  0x3df1061cbe11d7e1U, 0xbe32ae2a3c86a306U, 0xbdb838d43dab2461U, 0x3d507b16bd8d8de3U,
  0x3cf5096bbe6e23b3U, 0x3e40174ebe0f40e1U, 0xbef66013bde3019aU, 0xbef4641c3d8958e0U,
  0xbe69c8293d172d92U, 0xbd3bc3233e2acc19U, 0xbccf8d413e8517c8U, 0xbf4a5e8f3e02c5e1U,
  0xbea8886c3ddecae3U, 0x3cf7f05bbeba4f0aU, 0xbe03eae93dbc8034U, 0xbea49210bcd0fa5dU,
  0x3d908e5cbdd89c23U, 0xbe016e203ca397a4U, 0xbe80ad993df91b43U, 0xbcc735363cd82c60U,
  0xbd5c7a51bdd52540U, 0x3e772e5b3dd5a55fU, 0xbe52a0b4ba8ea140U, 0xbee4b59c3e56f5d9U,
  0x3ec53dccbd099bb7U, 0x3e1551be3ec4704bU, 0x3e813ddabe9d4499U, 0xbf8a3f3a3e8c7c27U,
  0xbec9ff10be8db62aU, 0xbde5801abf0e57e2U, 0xbeeecd693cf39f07U, 0x3d728c76be52da04U,
  0xbe0cd4fdbe84516fU, 0xbdf92d88bda73d50U, 0xbdb43f813d81b7b0U, 0x3d4e111a3db242e2U,
  0xbe19dd1ebdbf74f5U, 0x3e63eb213ead11caU, 0x3e07d1713e38da86U, 0xbf1382ebbe31a035U,
  0xbdc3d2383d80d97cU, 0x3db302e3bca32bd8U, 0xbe162032be2a70adU, 0xbdd653153e7115f1U,
  0x3db85bdfbde5ae89U, 0xbc9ceac4be371674U, 0xbc8fda98bde82521U, 0x3e11e73cbe058025U,
  0xbe680c29bdd1c573U, 0x3db04977be901882U, 0x3dae1ff7bda1c190U, 0x3d8527213d2f4193U,
  0xbd243248be0d4a92U, 0x3e5596803e04ea0bU, 0xbea8cbc6bcd3faeeU, 0xbe48a4bebe441798U,
  0x3dd5639bbd3a7d98U, 0x3d979b75be1c6fa0U, 0xbde896c7bd81dc3dU, 0xbd9846123ca78b1bU,
  0x3de94ccc3d707186U, 0xbe804c38baaa1cd9U, 0xbe64b420bddf556fU, 0x3e7090ef3c0f51b8U,
  0xbd175774bc3bb2eaU, 0xbe2a0381be5acc96U, 0xbcd960b639d50c91U, 0xbd99a88b3dd25054U,
  0xbd41d3cd3c6960f6U, 0x3d9916aebd022bd8U, 0x3bb0e27fbe243f2eU, 0xbdc72a633d9eea92U,
  0x3e1aa14fbd66137aU, 0xbe59293bbd685983U, 0x3d9d483ebe213cebU, 0xbd87de92bcacc862U,
  0xbdaf7fdfbd8d46c0U, 0x3c1645753d18afb6U, 0x3deac6323e2c20ffU, 0xbda6e2bb3d8a30a7U,
  0xbe62858abbc705c5U, 0x3cfc90d2bcf473daU, 0xbe9b0f973e8021dbU, 0xbca9bcf43eadd384U,
  0xbd3bb959bd88a7f0U, 0x3ee055693e9cfd36U, 0x3d915517bd92fdf2U, 0x3dc3b6a63ac40d02U,
  0x3dddfff43db6aeefU, 0x3e3d065cbe17c0afU, 0xbe1b33c93d098fcbU, 0xbdbc60453cc8d417U,
  0x3d608e933e0e407fU, 0x3e1334bebc5920bcU, 0xbe6a45c8bc418359U, 0x3e128ccb3d86d1d6U,
  0x3e86cf61bbe3b968U, 0xbdf4be203e5b299eU, 0x3ea7e6233c30249aU, 0xbcbedee0be012efaU,
  0xbdc5c959bd9aac3cU, 0x3e8e5127bcfef634U, 0xbc986aa9be4d00efU, 0xbd9dae57bb7c106eU,
  0x3dec28bf3af368daU, 0x3db1926a3d949fd3U, 0x3e3a7758beb4c0d8U, 0xbc949361baef0d4fU,
  0xbdc4bfca3c94f205U, 0xbd0ca3483d2a5ccfU, 0x3d96fd4a3ce0ed81U, 0x3da642e2bdfecdfaU,
  0xbe99708b3d944eceU, 0xbcde05ff3bfca221U, 0xbe2f548d3dcbcd15U, 0xbd2a8ca03c8509eeU,
  0x3ca199033d77504dU, 0xbc0e84f5be048479U, 0x3de2ad80bcbe1cc5U, 0xbcafb135bd8da7e3U,
  0xbd63134bbe662260U, 0xbcee3a243e443852U, 0x3b7c16e6be9e7493U, 0xbd2d0bc83db0f0ddU,
  0x3c8b3b153cd9e5edU, 0xbdb312b0bccc0579U, 0x3d742ae4bd8dd4e8U, 0x3df11b91bdde49b5U,
  0xbd619bdc3d2c715bU, 0xbca4d1ffbe5ebb6aU, 0xbd433a68bd7c81e6U, 0x3cb306a03c558153U,
  0xbe19cd4ebd57b3e2U, 0x3c054c953de18deaU, 0x3c07c281be56860aU, 0xbdb53762be2fb112U,
  0x3baeda1cbd96d3acU, 0x3d1706d3be356901U, 0x3e22feb9bea8f164U, 0xbd3db3aabe632971U,
  0xbe057ad8bdd74c22U, 0xbdb86cf93bda3e38U, 0x3d8c812abddd2c97U, 0xbde64ab2bcb64df9U,
  0x3d30cbc6bdbbf83cU, 0xbd82c0e83bc9fcc8U, 0x3c5eca09bdc664a1U, 0x3d93c45d3d25adccU,
  0xbeb14cf6bd7bd013U, 0x3d009308bd07bfdfU, 0x3d64bb203d396701U, 0xbbcffc463cc1870fU,
  0x3cd09d3abdce9ca6U, 0xbc02df603e58e1b4U, 0x3e465321be5536d2U, 0xbe9777013e524302U,
  0xbdec0c2ebdf8bd26U, 0xbe23974bbe7cee76U, 0xbdb7d8063da1d4b2U, 0xbdb1837bbdf24a66U,
  0x3d07e8823ddb6becU, 0x3d723df0b9b0c8c1U, 0xbd7e6620bcc85083U, 0x3d6b700a3db8fab9U,
  0x3c3eda81bc61df73U, 0x3e2ff07ebd8ca3cfU, 0xbe246af03cc7bcabU, 0xbe3e7774be62c650U,
  0x3b5c3e83bc84d077U, 0xbe07526a3d32a221U, 0xbe61957ebe2c412eU, 0xbdb5bc87bda331b0U,
  0x3c1955e43ddf60cbU, 0x3cec47a83c92cae9U, 0x3da825b3bcbebc45U, 0x3d53c8cfbc2fc8f3U,
  0x3e36bfefbd9d4671U, 0xbe20d413bd9bc17eU, 0x3ebea20fbd232d8eU, 0xbd9a3508bdae0bedU,
  0xbd805a1abc689354U, 0x3d918d173dd15d35U, 0xbe10b2f53ceb43d4U, 0xbd7c5825be8a2b41U,
  0xbdd439ecbe3d6cccU, 0xbddbdfad3c15a6ceU, 0xbdad378ebc9b1db7U, 0xbdae75853cae94d8U,
  0xbe31c68fbaa56086U, 0xbe0a5f6cbe2cde10U, 0x3d1b0f21be810b7bU, 0xbdf56271bcecd124U,
  0x3dc80f0abdd72612U, 0xbd9ee658bcc868ebU, 0xbdec4657bd8a019cU, 0xbd53f57bbc698a1dU,
  0x3da1a85c3cfc2312U, 0xbd92a135bca4bfbaU, 0xbb20a77e3d3f53c8U, 0xbe50f96abe000561U,
  0xbcefc8f13e531337U, 0xbe4418a63c022567U, 0x3dddc18dbc61405fU, 0x3e0f3d4ebe0b0451U,
  0x3e057e203ea1170aU, 0xbde0666d3d4ffbebU, 0xbd8fec093e2207ddU, 0x3e429c12be077707U,
  0xbdd1ea313deb10d9U, 0x3e1438403d3626a6U, 0x3df03a7fbdd4cb08U, 0xbd8d4340be1ab8e5U,
  0xbd213c2dbd3740edU, 0x3e223b04bcd45140U, 0xbdadd0bd3b859443U, 0x3d8a0efabe69eb26U,
  0xbd7d3fd1bd8d7020U, 0xbe83007bbe562328U, 0xbe2e10d2be18c10eU, 0xbdc1d5e6be29d15eU,
  0xb9feb8fcbe01561fU, 0x3da5de253d7cf0e6U, 0x3dbe14afbe2cd5f1U, 0xbdda519a3b2027d9U,
  0x3e1713493da34377U, 0x3e4f4a8f3d276630U, 0x3cd3598cbe2bb3c8U, 0x3d7d5cc2be5453f3U,
  0x3d980525bc65b954U, 0xbe335b5cbd801d44U, 0xbd8bc2fe3e2d0578U, 0xbc84d67ebdb13646U,
  0xbcc42661be51856fU, 0x3c23752b3df849a0U, 0x3cba51e33eaefb1eU, 0xbc247abf3d0fb0a1U,
  0xbdb8cb3abe4de4b5U, 0xbe058394bb12e29dU, 0x3d8d3770be7acfbcU, 0xbe8a3e53bbf2c3b1U,
  0xbe6232debc816502U, 0x3dde9533bdf6ce48U, 0xbe3e8b47beb80af1U, 0x3d814fa5be4c6e72U,
  0x3d628045bdce5c76U, 0xbcd3935c3e06149fU, 0xbdb26fbd3e099610U, 0xbd5f123f3eb1242fU,
  0x3d6371913d8ff0f1U, 0xbe0bce6e3d035038U, 0xbd5e4364be213ed4U, 0x3d84e9c0be340d22U,
  0x3ca3b9a83d481e51U, 0xbe47df6bbc0fdc11U, 0xbdc233393d683cebU, 0x3d9f86adbe417533U,
  0xbd902d303b682419U, 0x3d1c6b74be325b1bU, 0x3c238f6dbe342462U, 0x3d8f380b3d4c162dU,
  0xbddabf943da6eccdU, 0xbe907c8cbebed2b9U, 0xbdc1477b3d2c8a64U, 0xbbd1a496bdbf17cfU,
  0xbdc274b9bdcdfa61U, 0xbd9cc0dbbd970fc9U, 0xbe4236d43c227934U, 0xbd227fe1be2208b3U,
  0xbdf0a7e0be009cfcU, 0xbcdaa3c73d4898adU, 0x3ba1b7aabd198f4dU, 0xbe216564bda02b4bU,
  0x3d115fccbba90aa8U, 0x3dfd596ebd9ca7e9U, 0xbc49aaacbd88c631U, 0x3d8ef94bbca7f566U,
  0x3decde42bd56c303U, 0xbb092df9bd8cf5f5U, 0xbc8d51f23d254b8dU, 0x3dd9f019be399a95U,
  0xbbca44b43dcd011dU, 0xbe88200e3dbc8e98U, 0xbdfce557bd913a8fU, 0x3d92136c3ab0e192U,
  0xbd362781bcb769b3U, 0x3e6f1447bda7d514U, 0xbdf41af2bd6c192bU, 0xbc3cd816bda5e2ffU,
  0xbe1872db3d939448U, 0x3dde1ffb3d201d89U, 0xbdffd7ac3e565bfbU, 0xbc5026283e629d51U,
  0xbc116db2bd83165fU, 0x3e29972b3e8550a8U, 0xbe38b7d33d8fcbcaU, 0x3da79cd2bdcef649U,
  0xbe07f1c2be6f0c74U, 0xbed50fe5bdfe13abU, 0xbe087aadbe332046U, 0x3e0f96aabdd290cdU,
  0x3d298e6cbda7c52eU, 0x3e0aa6ae3d4c6facU, 0xbbd36b1abe4118b4U, 0xbe4224e33cbe69d5U,
  0xbdc0e64dbdd097c5U, 0xbe705dbfbd3b0fdeU, 0xbd327cf63d96e0ddU, 0x3d22c8eabe734221U,
  0xbd3fd298bdaa2d3aU, 0xbecec7d4bdb733f6U, 0xbdb85b99bde4da3fU, 0x3cfb820ebdb5f247U,
  0xbe7e069e3d1de74dU, 0xbe448aeebcbf3cb0U, 0xbdb99d27be573fbbU, 0x3e582f3bbdfd0581U,
  0x3c253ed0bdb82278U, 0x3e269fdebbad968eU, 0xbc73a72dbdff2082U, 0xbe60fe1ebd8ee1e2U,
  0xbd824bbfbe494f1fU, 0xbd7900843d3a511aU, 0x3bf54b483dd29d9bU, 0x3d961de9be2e4565U,
  0xbd9279dabdac8ed4U, 0xbeb63df3bd44f8b9U, 0x3bdb94bc3d89ce73U, 0x3e4401b3be399551U,
  0xbe8973eb3cdce820U, 0xbf063425becdcc88U, 0xbeb5c2f2beb7d729U, 0xbe8a3534be76a205U,
  0xbd108d94bd941b90U, 0x3d86bb8abe8339aeU, 0xbe23d7043e276304U, 0xbe8d0d00bd98850bU,
  0x3dd189b8be4c2988U, 0xbdd0e69e3cd3c28fU, 0xbdb003f73ded111dU, 0xbd96a35bbd8e3cdfU,
  0xbe7924d6bd4b7300U, 0xbe45edf53c73e069U, 0xbdde2844bdcafd8eU, 0xbeb3dad9be815747U,
  0xbba24e36be0f0f03U, 0xbe82cf8ebdd29d55U, 0xbe964061be925854U, 0xbe448d443d18ddffU,
  0xbdf31a5bbc96434fU, 0x3e6904f9be3dfab8U, 0xbd8416393d070cbfU, 0xbe40177ebcff9705U,
  0x3d478597be5ea745U, 0xbe90f983bcc9d87aU, 0xbe0094b83e13cfbaU, 0xbcf5b1163dd9649bU,
  0xbe3323e93cd1f65aU, 0x3c0e527bbda67d14U, 0xbdf0275abe0539c4U, 0xbe51f661be1978e6U,
  0xbe229a9fbdc48f40U, 0xbebd6d04be6ac95aU, 0xbd1dea0fbe51e9d5U, 0xbd81740a3d74616bU,
  0xbdcf10c6be0de842U, 0x3b319e9cbdebdfd0U, 0xbe0a10663d37a08bU, 0xbc49a0ddbdc711e3U,
  0xbd321f86be014548U, 0xbe9f29a2bd5664ebU, 0xbe233fe43dc21824U, 0x3cdae2403d93e831U,
  0xbdbd8665bd396ca1U, 0x3d6851b83d600531U, 0xbc8e96c23d8965caU, 0x3cbc52d3be093970U,
  0x3d36a40b3e164b1eU, 0x3d1594c9be574b01U, 0x3d0335d73d99e9ecU, 0x3deccad43da3226eU,
  0x3e3e64ba3dcf9eabU, 0xbb27a6d1bce0d00dU, 0x3c9c40cc3e130662U, 0x3e7860fcbcd8f3f1U,
  0x3dd27d173daaac62U, 0x3d4a7346bd336270U, 0x3cceb9883e242962U, 0x3c1294a83e1a78d3U,
  0x3d4b52dabd815ab9U, 0x3f03dba43e8f8706U, 0xbe3130b6be0fc6f6U, 0x3cf9db0d3e38845eU,
  0x3d143d82bd739922U, 0xbe1a8d2c3d95bfacU, 0x3d057fa33da81800U, 0xbdffa846bb548312U,
  0xbcc1dd49be201ae0U, 0xbdfc97283cd3fa54U, 0x3ddb7bf9bd2dfc70U, 0x3e211438bcf1893aU,
  0xbe0313a33d0ec8a5U, 0xbd5616e43e3dbba7U, 0x3e4dc0f7bd441c1fU, 0xbd56f9fbbd9d767eU,
  0xbc8cb798bdf45f63U, 0x3d0c0eaebd024901U, 0xbe62f1f23d6b27a9U, 0xbd5a848c3d2c28c5U,
  0xbe6ea2b1be5f55e7U, 0xbeed525c3de8db11U, 0x3d6dd9cabe5d87bbU, 0xbeb142a0be1a5be6U,
  0xbec7da4bbe0d772eU, 0xbe07b195be0ee9b1U, 0x3d10b5e7bde1f4daU, 0xbec22a59be2d81bcU,
  0xbd18c198be0e6d24U, 0xbe5237c9bcbf8df7U, 0x3ca5e839be019a29U, 0xbb4ca3a03a1e9b28U,
  0xbe059237bd9af8efU, 0xbe552de7be330f1aU, 0xbe03acfcbe330b5fU, 0xbe1d5115be245941U,
  0x3dbb85ce3e55d4aaU, 0xbdf870ebbdb6d7b7U, 0x3e0597423e1f6983U, 0x3e2599043d25dd2dU,
  0x3e4361993e2db65dU, 0xbe5c388d3d2d2161U, 0x3dc0395e3d987893U, 0x3e1ad8c3bc902f1cU,
  0xbbccda8e3e08a545U, 0x3dc5e0d43caaf03cU, 0x3e9be56dbe315b32U, 0x3c4ae940bb3b704bU,
  0x3d9d85593db629c9U, 0x3d9de8423e76b9a4U, 0x3d6f987fbe7820bcU, 0x3dc901ef3cf6d2b7U,
  0xbdd407d23e334ceaU, 0xbea3ccdb3dba9197U, 0x3e08a2bf3dba0f69U, 0x3d15e2e33d80d906U,
  0x3c7a483bbda2a323U, 0xbe6b57d1bc91a8afU, 0x3e2d41d23e2322c4U, 0x3dcdf54b3d3342feU,
  0x3cd7f0613d7a8213U, 0x3d7101603dc113bbU, 0x3eb05f12be7fbd1dU, 0x3d433e86be3a86efU,
  0x3da944303cb9c139U, 0xbd091fe5be903ee8U, 0x3e2eebaebc774071U, 0xbd56bf55bd803536U,
  0xbe0896b2bdad3625U, 0xbe3e7ad63d4623deU, 0xbe4eefadbe3c5d7cU, 0xbe7286fbbe183f1bU,
  0xbe14318abdf005c3U, 0xbe8e99c2bdaab9c7U, 0xbd9d0228be6516b1U, 0xbe51d231be6cf270U,
  0x3cc6f2b9be2c7293U, 0xbe1ee93bbdd4bd42U, 0x3de63264bf1bb361U, 0xbd597570beb4b635U,
  0xbd653a7fbd33b64bU, 0xbeaec27d3d26beadU, 0xbe3a870bbe12a5edU, 0xbe09ef96bddab960U,
  0xbe1d31b4be3cda23U, 0x3e25e4bdbcc17034U, 0x3df741113dd69f42U, 0xbb04cf6a3df30a54U,
  0xbdf1a383bd7b2ac5U, 0xbe1875aebc71b254U, 0x3d8b4e7cbd04bac1U, 0x3db769a7be1e389dU,
  0xbc63a0d3bcd2e822U, 0x3bab50dcbe678b4cU, 0x3d31c73bbd8053fdU, 0xbc9738343b971337U,
  0xbda98582bd3361f7U, 0x3db26b973d8b1b20U, 0xbe0e275c3e226e1eU, 0xbd3b69a3bc67f994U,
  0xbe4da01bbea69cd5U, 0x3e71dc7abda31af7U, 0x3e4336c53e725e8fU, 0xbdf501a5bd7a1803U,
  0xbd8337d9bde7040dU, 0xbe2ff100bde69cf3U, 0xbc86a5f3be819468U, 0xbdbb4a783dd37326U,
  0x3d00dbc23da9ceffU, 0x3d724e9a3dda80adU, 0x3d9b5057bea3d4f6U, 0x3d19139abebce175U,
  0xbd64c6d8bddbc4bfU, 0xbdcd377d3d71dae1U, 0x3d1146c73c2ea409U, 0xbdbc598c3dfaee1eU,
  0xbdb7764bbee69ea7U, 0x3e116360bd2fb27cU, 0xbc3735c03e26e32bU, 0xbe07ed9abd8b7060U,
  0xbe3588c4bc9acfc1U, 0xbe8d1032bd70e1afU, 0x3dd69782be136e2fU, 0xbd8101403c417e28U,
  0x3bdf0d163dcc06abU, 0x3d1f9a6abd8c8bbcU, 0x3de88125be37f661U, 0xbbfc7c80bd12bdf2U,
  0x3d5c2a5dbe0d953cU, 0xbe038027be2104eeU, 0xbcd6387dbdc807c3U, 0xbddf7da7bd9690b3U,
  0x3e8feab73e474eceU, 0x3e68435cbe4251cfU, 0xbde4e799bd7811e0U, 0xbcd0212dbed0001cU,
  0x3dd596b43e119e41U, 0xbbeecf2ebe0107b1U, 0xbcb604963ddd789cU, 0x3eb3a2213db57213U,
  0x3eaf4faabd1ed3e0U, 0xbdfbeede3e1b07c6U, 0x3e44ed7a3cb6d666U, 0x3d9e3a61bd4dbcefU,
  0xbe0100693d48baf9U, 0x3e07d6e33e958a3dU, 0xbe01db26bcce4557U, 0xbd44a5c7bd089c45U,
  0x3e47b22cbe6f590aU, 0xbd17a9e6beec4b4aU, 0xbe0a835b3e81ac52U, 0x3d2835683ab5e02cU,
  0xbda5cccebe3ac54eU, 0xbdf7d4aa3d9cd8faU, 0xbe37226ebe874dfdU, 0xbe9f5dc3bdf2416bU,
  0x3d6cf8d93d9d8267U, 0x3dc776e5be1ee2e1U, 0x3d7211bab9897068U, 0xbd7dff76bde5582eU,
  0xbe0d533a3c8cfeafU, 0xbe886c6abe0fb452U, 0xbd5f9f11be89640fU, 0x3ab82e493e52847fU,
  0xbc2eedfbbdb7811aU, 0xbe07b598bdc95ef2U, 0xbd62a1c43e87ba17U, 0x3d488b2a3dc33ed5U,
  0xbdf12b32bda7b50bU, 0xbea1298e3d896e12U, 0x3dec94cfbe2c5a1eU, 0xbe1ce04dbd30c01cU,
  0xbc060bdb3d33b0a6U, 0x3dcc5a153d2a7f22U, 0x3deded38be6d781cU, 0xb9c97500beb2b754U,
  0x3d81c0fe3de7e748U, 0xbef8b22ebe9b619dU, 0xbc60953dbd3ecba5U, 0x3cf2f3123ec8c89dU,
  0x3ac33634bd3c092aU, 0xbe569614bdfac627U, 0x3e3389d1bdd87e94U, 0xbd1ff8c3be472df4U,
  0xbd3c84c93dfba1daU, 0x3ca480c7bde5ca1eU, 0x3e02e9143dada8deU, 0xbe0ac13dbb6644bbU,
  0x3e3b95073d3523a8U, 0x3ccf537e3e8222cfU, 0x3b4ca29c3e022b33U, 0xbd335b163e54ff23U,
  0xbc92a79a3c882459U, 0x3e1458febdec1c66U, 0xbdef8b56bd09504dU, 0xbe14bad1be0fbd58U,
  0xbe96411b3d07fec5U, 0xbe9f3ef6bedc19aaU, 0xbe4fdf00bd7c7926U, 0xbd2c240ebe2d4e12U,
  0xbd1070c93e00f813U, 0x3e6841cdbde6af73U, 0xbda24f47be18019fU, 0xbd0f7ab3bd86eb85U,
  0x3c98e867bd9097e3U, 0xbddd6362bc05744fU, 0xbc614b7c3e0db255U, 0xbd75a55bbdf28069U,
  0xbe601d16bde78bc4U, 0xbc08bbed3d7f18ffU, 0xbe332833be4ca4d7U, 0x3cc13073be7d6046U,
  0xbdc710623e26ab54U, 0xbe69f03ebf0ac009U, 0xbdddbe8d3dc5e79fU, 0x3dadff6cbe3655c6U,
  0x3e6cad6c3ddf609fU, 0xbe49d6743e19cf3fU, 0xbe4aea133e04bfb3U, 0x3e3f0021be34b852U,
  0xbedd851d3ccec302U, 0x3dd8573bbe4a149dU, 0xbe871667be986e1fU, 0xbb9cc1d0be39f172U,
  0x3c3b3502bd12a7b6U, 0xbdfb11c9be7badd1U, 0xbd8d26bdbe481fa3U, 0x3e098f053e80ec92U,
  0xbdf3e4cabe17d73bU, 0xbe0d0dedbe761160U, 0xbe88cfdb3d9fa250U, 0x3d278a1bbd80c13fU,
  0xbdc24baebddb2bf5U, 0x3d493fabbc1bd4caU, 0xbe5a1cd5bd9248b2U, 0xbe5f5419bda9562eU,
  0xbe983771bd60108bU, 0xbd231ce4bd6e0811U, 0xbe3f4a4abda3b3caU, 0xbbd82db0bdef6601U,
  0xbcd626b9bdca9c95U, 0xbe8e5928be615b00U, 0xbdd9baaebe4a7fbeU, 0x3d09b752bcca582eU,
  0xbe17fbf63d7b2d83U, 0xbe1a1a99bea5b36eU, 0xbe2176cd3d4062adU, 0xbc84f28ebe73499cU,
  0xbd8914a33d5dd312U, 0x3c6fd7d83bce40e6U, 0xbde8adab3c331b85U, 0xbdea7b8bbe323d23U,
  0x3ddff631bd6c15c4U, 0xba15171abd7c1a87U, 0x3cd8349e3d1f1425U, 0x3c711798bd827d63U,
  0xbdee0c543d1c3940U, 0xbe457b92be8d3d54U, 0xbdd2ec0abe725dcbU, 0xbd2082b7bd7acefbU,
  0xbe46c616bd00b074U, 0xbe3417fabe89eefcU, 0xbd5fea953d29c48fU, 0xbe1f390e3c0b75d7U,
  0xbe23f700bc0a334dU, 0xbd0b03b5bd430594U, 0x3b82824a3df3c61aU, 0xbe4aecbabd3778b8U,
  0xbd0c2af93cc1295aU, 0xbd9505fcbd902e36U, 0x3e89ca4f3b04839eU, 0x3d863515bdcf75e7U,
  0x3d8c3325bdb0fa2aU, 0x3de031f6bea6f6e7U, 0xbe2ae5febdfc2030U, 0xbe32a7bdbda782efU,
  0x3d7e1ea13a9ad35dU, 0x3db5b749bc4d4c58U, 0xbdf82d1a3e32641fU, 0x3d149c50bd79c375U,
  0xbc0a7acf3dffc62bU, 0xbcd4869abd50191dU, 0x3c0bfb1ebc38f1c5U, 0x3de25842bcf23e63U,
  0xbdb53afa3d77437bU, 0x3cbf38c9bd9a30ddU, 0x3e0b77b0bc876612U, 0x3c6298283d87620eU,
  0x3ddf57873dc32122U, 0xbe5966b4be9fe560U, 0x3c4d7b54bea57566U, 0x3d73fb2a3cd58194U,
  0x3d1046f4bd747ba1U, 0x3e0b373bbd6b4f12U, 0xbe293c4a3e06cd2eU, 0xba3e68dabe1d71ccU,
  0x3db4241a3e2a6d3eU, 0x3db1c66fbc810104U, 0xbcb98bc13d3e8c5fU, 0x3e8f3bc93df044d4U,
  0x3ce47be4bcda1395U, 0x3c85902e3d4a3453U, 0x3dba4ef4bd6f6f5dU, 0x3d13844a3c807d01U,
  0x3d09bd5f3cfa5ec9U, 0xbe9d0744bd884211U, 0xbd6b2a4a3ca11620U, 0x3d3ec4253dea65f6U,
  0x3dd386e4bc8e5b40U, 0xbc4b917cbd04088dU, 0xbe8b7ce03db37883U, 0xbd2c9737be32d230U,
  0xbe22f8e8be09a697U, 0xbdfc240dbd9a7847U, 0x3e00ba6bbdcc6117U, 0xbe0c1a32bc2e9290U,
  0xbd31bada3ce86086U, 0xbd1bc278bdb9656dU, 0x3eded75abe865411U, 0x3d44a54abed371b8U,
  0xbbe8ba2f3c2c722bU, 0xbee87195be7db5e5U, 0xbd1a7228be13ef2dU, 0xbda6b0f93b01b438U,
  0xbde9d45ebd04e100U, 0xbf37613bbd6f601cU, 0xbe986d7abe1a8635U, 0xbf6bbf063da4fc68U,
  0xbf208ef63dfdfac6U, 0xbba8bb9ebe9526e2U, 0xbe90da443d95fef8U, 0xbee15022bcb2b9cbU,
  0x3ce47383bdf2e133U, 0xbe059e943ce6b9f3U, 0x3cc5e57b3d4dcf47U, 0xbd4abf8b3d4a022fU,
  0xbe3ac082be0b718bU, 0x3e554ab83d33f112U, 0xbeab1de73d720a33U, 0xbeaed17cbe93d040U,
  0xbe231ff2bd956eafU, 0xbe0027b13e87c038U, 0xbd33b809be740f3eU, 0xbf69af9c3ded8838U,
  0xbf1054013e0f3a19U, 0x39f745fbbec6cfe9U, 0xbe982bd83dba547eU, 0xbf01c8a03d1c94d8U,
  0x3d472f41be429ae9U, 0x3c9a34b13e197154U, 0xbc769aef3dbbd9f9U, 0x3d1d2b063d8dc018U,
  0xbe316360bb0c04eeU, 0x3e9846043e58470aU, 0xbe3d00b03e0e7f7bU, 0xbeb674243db9d879U,
  0xbbda51ae3cac336eU, 0xbe189a1f3e347871U, 0xbe480228bebc2672U, 0xbf16661f3e29401fU,
  0xbeb59ef7be23a246U, 0x3d9e5709bee6659aU, 0xbf2b5221bd83acd5U, 0xbdf8ff463cb8bbf5U,
  0xbd9e7a56beab2483U, 0xbdf1a161bd67b455U, 0x3d85c234bd7878a1U, 0x3d9309e13cc2252dU,
  0xbdc2218ebdbbdd4aU, 0x3d2d93b13dcd21edU, 0xbce62d593da22fe2U, 0xbec48203be3523fcU,
  0x3d845e32bd3ffd16U, 0x3de3058abde68782U, 0xbdaaba113d80afd6U, 0x3d92846fbd39abb2U,
  0x3d187979ba572ebcU, 0x3d6fb0f43dbd7b91U, 0xbcff4e52bd8366d0U, 0x3e46131cbdcfe91bU,
  0x3e37ffc73c73fad2U, 0xbd53d1dcbc8c4f8dU, 0x3eaeb223bdf63aafU, 0xbb395500be487d29U,
  0x3e298a793bdf04f6U, 0x3e90730a3e81f9b1U, 0xbe2a8977bdf37536U, 0x3d9db5be3d800c12U,
  0x3d7afca1bdc2c000U, 0xbe42d789bec4575dU, 0x3eb4b27abd8d9a54U, 0x3ce0996cbe409c1aU,
  0xbd8d06dabda57070U, 0x3c9c96013d1d3ad3U, 0x3e08866ebc2e8109U, 0xbd68ef223de5d3caU,
  0xbd3e828a3dc5bb87U, 0x3d6fd0b43e067931U, 0x3dabf9e13db4d83dU, 0x3bad5680bdc8ff44U,
  0x3cef1dadbbcd4d4eU, 0xbe746516be65b4a6U, 0x3e6d13ccbd7a19eeU, 0x3c9f8184bdd8c1d8U,
  0xbde51c1fbd815554U, 0xbe7635113eb48693U, 0x3c4e69e5be1afd4aU, 0xbd55611b3d9a5089U,
  0x3c8600fa3d4b63b8U, 0x3d9b7b35bda17c87U, 0xbd80b9b33c849519U, 0xbe098bb5bd9552a6U,
  0x3d11c428bda3f451U, 0xbdf163933e3a5d9aU, 0x3da761f03e0f2d8fU, 0xbce88cd63c9c5e70U,
  0xbd7579e6bd172627U, 0xbd0d27953d776fe6U, 0xbe089e623d8f59f0U, 0xbc6511bdbe963386U,
  0x3bdb2802be8ed03dU, 0xbdca7d19bdaac80bU, 0xbe950465be991721U, 0xbd5125f7bde46284U,
  0xbd8d7a58be09d604U, 0x3e2f6996bcd8b378U, 0xbd220768bccc9885U, 0xbdafa2d33e23185bU,
  0xbda6c345be28b393U, 0xbe9a6ea13dc8ec36U, 0xbe18b4dd3e2b59aaU, 0x3bf8d4003dba296eU,
  0xbe0762ab3d2722edU, 0xbcf30164bdd7b905U, 0xbd90a145bd803444U, 0x3bf85246bdade941U,
  0xbd35edd83dc6a7c4U, 0xbe9cffb3bf0ccb45U, 0xbebeb02a3e093289U, 0x3e045ec2be5cd6b1U,
  0xbdaa1d3ebe0e2961U, 0x3e9719fb3d428f8bU, 0xbe91fce1bb4880b9U, 0xbe79ebc9bc89a1f3U,
  0xbdb54e593dc15a38U, 0x3e1de7a03e8eef0eU, 0xbdb5cafa3dc74742U, 0x3cbb0e74be8e3cf4U,
  0xbcd3bdf53dacb2beU, 0xbdc751b9bd9a4a48U, 0xbd1adbb3bc74a8b4U, 0x3d5dcc963dd2e34aU,
  0x3d5a90c03e65fd3bU, 0x3e146966bf18b313U, 0xbe659f0e3ea46c91U, 0x3da1ffebbe40e331U,
  0xbd342e4fbe94e3abU, 0x3e4963cf3d1ff683U, 0x3cee8389bda16ed5U, 0xbee33470bcab2efdU,
  0xbd3376ce3c925cf6U, 0x3d37fcb53e72bff4U, 0x3ce9b5fb3d8f1238U, 0xbda01fabbe4233f3U,
  0x3d6ddd3b3d73e701U, 0xbef1711bbd95138eU, 0x3e0a8979be28d1e8U, 0x3d854cbf3e67044cU,
  0x3e5f1358be3b6b8dU, 0x3e0f9371bdc338ccU, 0x3e9b14c5bdae8030U, 0x3d1d5f8abc4b6f48U,
  0xbd51ea34beadcbaaU, 0xbe976c493ccf6ce3U, 0x3e91183cbd92758bU, 0x3d835aa0be298934U,
  0xbe407e2cbc30807fU, 0xbdea4874bdface1bU, 0xbe4c771a3ca4bbc0U, 0x3a09de803d3e6a2dU,
  0xbdb6888c3df5c096U, 0x3e705e043d0b38e3U, 0x3cf6f5133dabd888U, 0xbd4395993e891c61U,
  0xbc78e033bdd04972U, 0xbe9b63e0bd9c718eU, 0x3e7f609dbe4a37ffU, 0xbe245b8d3c8e74cfU,
  0xbdf75f8abe01e2b7U, 0xbdf047463d1bc9cbU, 0x3d778008bdc95cd7U, 0x3df54c63be211876U,
  0xbe2998afbdb24b4cU, 0xbdce7219bd84cad8U, 0xbe5979ee3de0edbbU, 0x3c9395ec3e1b398bU,
  0xbeafa5a23cf27861U, 0x3e98c0683de8fca5U, 0x3e3b22f83c3633a4U, 0x3d065bcfbeb907d9U,
  0xbeac35243dfa9cfbU, 0xbe76c2a1bd3b52e2U, 0x3e052da3bdbfb5a7U, 0x3d7ff5bdbe29c276U,
  0x3d58feb53e305697U, 0x3d2ae7adbdbc57deU, 0x3d5e5661bd0f4e60U, 0x3e7dc7ca3d11bc16U,
  0xbc8df5133db9eaefU, 0x3c0316f53d20e51cU, 0xbe0db0be3ca10ec1U, 0x3d135c7a3dfe7ab0U,
  0xbd21783abccb3362U, 0xbc93fdd23d37aea4U, 0xbd85ed50be1cb105U, 0x3d8c67c1be0e50aaU,
  0x3d3f84f3bcddde6eU, 0x3df19973bdd5d3ffU, 0x3cdd1d513d809a75U, 0x3daac996bde9db8bU,
  0x3a1f7b463e1375cbU, 0xbd9e9708bd264151U, 0xbd28c7cb3e02d4c3U, 0xbdbca63bbdf81664U,
  0x3db51e573c6cbce3U, 0x3d8d258bbd9dac50U, 0x3c0827aebcc8b073U, 0xbd9f12e3bcdb5b4fU,
  0x3db072c3bd6d7a29U, 0xbdf72a09bea8d3c5U, 0xbe276799bd801eb3U, 0x3ce0d3413d899a52U,
  0x3dbecbca3d3b5dfcU, 0x3c37ce703e06ac0bU, 0x3e8a7c4e3e3cb17bU, 0x3e828e373e30b73cU,
  0x3a8ff18c3e166375U, 0xbe1de11a3e39c8f6U, 0xbccfc2e33d56e42fU, 0x3dc319aabe1e40daU,
  0x3e2f7e743e02dd8eU, 0x3da887f6bdef0566U, 0x3b85ea3abd459bc4U, 0xbd017ccb3e93b909U,
  0x3de99bc33e21adbdU, 0x3d0e372e3e10f8d5U, 0x3d91a3903d85d58aU, 0x3e1b73dc3d9eddd3U,
  0xbe60eb4b3d306c86U, 0xbdfa2d0a3da054caU, 0x3d10deb53e1813e3U, 0x3ba8d3c83d6d8705U,
  0xbe05fd4abe599c5eU, 0xbdcd2e373e02613cU, 0x3e7e36a8be1947a6U, 0xbe1d69cfbdd0c0e1U,
  0xbde27c4e3e086016U, 0x3ca6627fbe0641d7U, 0x3e6fc17bbe05675aU, 0x3c8f318cbe33f139U,
  0x3dde104d3d94b5baU, 0x3d5803cdbdefd89aU, 0xbcdfa50abdb4d4a0U, 0x3cab1b583d667dd2U,
  0xbe4b5230bcea480fU, 0xbe594cefbe8a1c00U, 0xbe28a58c3e3e36feU, 0xbbf692a63e033b3fU,
  0xbd80d6493e436ccfU, 0x3e5c105c3c887798U, 0xbdd18f583e05da31U, 0xbd33856e3da9eb4cU,
  0x3e90f2eebe75c72cU, 0xbebeabbf3d0b09daU, 0xbbc309fb3e8044f6U, 0xbccb272c3d31b7b1U,
  0xbe798c41bb277a8fU, 0x3d40f31ebe879690U, 0xbcd3ee17bbebc374U, 0x3d051a393d2a5ffaU,
  0xbdb07c263e309fd8U, 0xbdb58992bc15d828U, 0x3d18dd213e07d327U, 0x3dc1afb03dfc0d88U,
  0x3df46c11bd8ec1f9U, 0x3e2ad31a3df31414U, 0xbe082a433dc3983aU, 0xbdc861b53ccc8658U,
  0x3dd98f213d35c42dU, 0x3dd755ea3d141d2eU, 0xbe088fb03e508ba6U, 0xbd6930a63db4389aU,
  0x3c66dc7d3d987809U, 0xbdba831f3ddffa6eU, 0x3d2b6d323dc3d8e1U, 0x3e2ef87bbe298cc6U,
  0xbe8eddfabd40bd38U, 0xbc2ea42e3e01838fU, 0x3dbc7c81bd179949U, 0xbe388a26bd5c6c3aU,
  0xbe2790c9be89266eU, 0x3d282a6bbd3dca2aU, 0x3c5f953ebd090f22U, 0xbe8aa625bd5bafcfU,
  0xbd1a9f4a3bf483f3U, 0x3e627a5ebdb5b38dU, 0x3d8268dc3dc0dbf2U, 0x3d89d7d9bcad57eeU,
  0x3d0c8000bd6ef37bU, 0xbdc662d63dca2993U, 0x3d04a4c43de81d00U, 0xbe00ab30be0550a5U,
  0xbded1c56be11d22aU, 0xbecfc56abe9925fcU, 0xbedf07133df8df27U, 0xbe5a224bbe83400fU,
  0xbe6750713c92eeb1U, 0xbe0f832abda8e8f1U, 0xbe077a5fbdb3c681U, 0xbd88a570bdfc270eU,
  0xbc0e5ee4be468f3eU, 0xbe740d2fbe0b64e4U, 0xbe7e3ea5bb973260U, 0x3d4fd092bd124dbbU,
  0xbe0b14dbbe2da024U, 0xbd5f0036be419f4dU, 0xbe5db3d6be85f8e5U, 0xbe1d911e3e9a5a3aU,
  0x3c830d4abdf66e50U, 0x3d64104bbe721af5U, 0xbe28ad6c3df4c8deU, 0xbe79bc31bccca990U,
  0xbe433c09be94121cU, 0x3d6fdc49bd7a6a66U, 0xbe015bd1bbbc570bU, 0xbe22443dbe4f5fa9U,
  0xbe8a713bbe2b19f1U, 0xbd9fc665bbd38e7bU, 0xbec05b2e3d898a10U, 0xbac0de003dc8fd04U,
  0xbdcc12d53d670a77U, 0x3e48e6f1bc639df4U, 0xbe510d86bea8029dU, 0xbe80ed733eb9008dU,
  0x3e557187bdd8dab4U, 0xbe4daa55bd67f162U, 0xbe9044edb9b84328U, 0xbe0298a93ded6b73U,
  0xbe353e8ebeeb0f8dU, 0xbe24c183be61bd4cU, 0xbef856ba3cd2846fU, 0xbe1b724abd1a8d0bU,
  0xbe8fe6e9bd85a3bcU, 0xbe227248be7db9dbU, 0xbe95c772be21782cU, 0xbda5a420be42dcd3U,
  0xbd6d83a3be3bba71U, 0xbcc2fbedbe030df6U, 0xbe9eae65be892a80U, 0xbec60bd93e05a915U,
  0xbe05a1483d274161U, 0xbdc4bb523e127730U, 0x3db9a00fbe168caeU, 0xbcb6dc64bdd68f7eU,
  0x3d8135ad3c451957U, 0x3dd5f265bdc1b04eU, 0xbe23870a3d54e6eaU, 0xbdb2d6483d93b68dU,
  0x3d56f47a3d42588eU, 0xbdbb597c3dbafdd1U, 0xbd60e6fa3dc671f1U, 0x3d3c7902bc988197U,
  0xbdd2c1a3bbae60e1U, 0xbdabdedd3d94260aU, 0xbcadeb043c6537f3U, 0xbc75f87dbda34f0fU,
  0xbc9a11153dd50614U, 0xbe98437e3c10a4beU, 0xbd1b126cbe3221acU, 0x3cdfe29f3db969bcU,
  0x3d88b3223d233ef6U, 0x3e775fc7bd590a77U, 0xbd51a37e3db6428eU, 0x3d04b3403d154b9dU,
  0x3e6b679ebd91c771U, 0x3d161fab3c259a2dU, 0x3defab853e7e389eU, 0x3da995913e00b1cbU,
  0xbcea6d643d877a41U, 0x3e2870f83e0210b7U, 0xbb8ca65f3d5cb4dbU, 0x3db368c93dddd07eU,
  0xbe2e7aa33d82e087U, 0xbeab34e53e0ef798U, 0x3d9c9eaebca902d3U, 0x3cbf868b3d84c615U,
  0x3d93ac913d38f1c5U, 0x3e2a525b3df7c4a4U, 0x3d0e07ed3d8cba0aU, 0x3da426dc3d23283eU,
  0xbc4439713c9517bcU, 0x3d7244be3d9c413aU, 0x3d97089e3e82aae2U, 0x3d8b719d3d2c56a0U,
  0xbd1c95163ddf91f5U, 0x3df7b46e3d3b7976U, 0x3e53ffb63dc0950bU, 0x3de25ff93d35394aU,
  0xbe8aee36be06f720U, 0xbd19e0bfbd759963U, 0x3e28a1b43ddf740cU, 0xbde43ab43db0f40fU,
  0xbd510238bd235722U, 0x3e8f5fe6be4f0911U, 0x3d9207f73e0b5730U, 0xbe9aee033d202aaaU,
  0x3ecaf69f3d0e84b5U, 0x3c154cf93e9c2354U, 0x3e2671ca3e496a38U, 0x3a7744003e338dfdU,
  0x3da76bd4be476636U, 0x3e4c5da9bd0b384fU, 0xbc0887193d3aaa4fU, 0xbe1c6e98bd9dd1feU,
  0x3c985a51bcd34a92U, 0x3c2eab6abe0b9b3bU, 0xbcbfb5c53d8ed8feU, 0x3bbb39933d8ef2b5U,
  0xbc964841bcfd56c2U, 0x3e439649bd74daa5U, 0xbd20e5d93ea47eedU, 0xbc91adbcbc6c74ddU,
  0x3ead6305be146ec7U, 0xbe230c4d3e1d52cfU, 0xbce9cfad3eab121bU, 0xbd8542ce3e6f71dfU,
  0xbdff2ed8bd475b59U, 0x3e5ae1b13d572ba6U, 0xbde82d083e4a5e9eU, 0xbc52d1333bc87863U,
  0xbd30320fbc852fffU, 0xbe81849f3cc381c6U, 0xbef3f080be73a8e2U, 0xbe14be293d16c21dU,
  0xbe034b04bda21b96U, 0x3ceb064fbdddb773U, 0xbe56b5763e6b0e4fU, 0xbe1e131cbddd8ffdU,
  0xbce15feabe12f0b1U, 0x3c4b53ffbdd3ebc4U, 0xbd5b99cb3d87d765U, 0x3cb412403e3d58f6U,
  0xbe3c3fc4be02ab16U, 0x3da9ae703d2da2eaU, 0xbe0cc544bc9a4de9U, 0xbdba5839be10bbe9U,
  0x3e319f263cf74605U, 0x3e0b5fdbbe870eb4U, 0xbdf4b1703db89bfbU, 0x3d983bfbbae7bd62U,
  0x3de5aed7be733d58U, 0xbeba2bd43d7e5144U, 0x3e1bb09abe5feb62U, 0x3d38c56fbc9c35f7U,
  0xbdc362d73d3d837dU, 0x3dd7ff83bcb467d7U, 0x3da40c30be651c2fU, 0x3d7bb8e2bdcb520eU,
  0xbbe0410d3cef4aa7U, 0x3e8f24023e1b9accU, 0xbd56be213d456fc8U, 0xbdb4fb063e67575aU,
  0x3e6365843d46b742U, 0x3e702567be81202eU, 0x3da00e4b3e250106U, 0xbcc7b3053cd687ebU,
  0xbcdba312be7641a3U, 0xbea94759bc6a6ceeU, 0xbda23d2cbd920e74U, 0x3d7fdc49bd6aafe7U,
  0xbc5b4d55bd986f5dU, 0xbdd5cc853c332fd7U, 0x3be5bb01be570930U, 0x3d967e853d23decaU,
  0xbc0a0e5a3d72c1aaU, 0x3e8ffd4b3e0d66deU, 0x3ddd53d1be087afeU, 0x3d007dd13e5e99a8U,
  0x3ba2237abd9b3167U, 0x3e403144be97342cU, 0xbe019401bbea55d7U, 0x3d42bb36be43e3faU,
  0x3d12dce8be571e9fU, 0xbe679ce13e006972U, 0xbe706237be6bd602U, 0xbd80371e3cf2f398U,
  0xbe61e2c1be0f4f34U, 0xbe334575be55b0beU, 0x3cffd50abe91dc69U, 0x3d29d066be7ea1d3U,
  0xbe6959693d439505U, 0xbcb854493dea3862U, 0xbe043136bdd9d6bcU, 0x3d0bf81a3e00ad5bU,
  0xbdedfe47bce93826U, 0x3b69fb69be1a0027U, 0xbcb71d5e3cb22408U, 0x3c6e02543dbec5c2U,
  0x3e1590c33e592780U, 0x3db7ac06bd8e1517U, 0xbced9274bcd2697eU, 0xbc94fed03d563c39U,
  0x3d8c481a3c25ccd2U, 0xbc871239bde5e131U, 0xbd7208823d17af11U, 0xbd7077d6be5dd96dU,
  0x3d727989bd0814caU, 0xbe225644bd6dc094U, 0xbe97fe67be69f57cU, 0x3d731831bd852c9cU,
  0x3e6951f33e50ea57U, 0x3e2a46e8be26cc87U, 0xbdfc6d9ebc1a37ecU, 0x3be7e6ee3ce92cd6U,
  0x3dc323203e649481U, 0xbb91c2173de6c4dcU, 0x3d8067b2bce17dceU, 0x3e31c0df3c1e5225U,
  0x3e3a6e733d494e81U, 0xbd2506d6bd822d58U, 0x3e953e833e0ca314U, 0xbd948ff83e15382aU,
  0x3d7e85253dff0333U, 0xbc6522c1bd20d454U, 0xbda096413e043c93U, 0x3df94734bcf12c19U,
  0x3e1ef9ca3e88147aU, 0xbe7a6b19be6b99e9U, 0xbe2d53543d814064U, 0x3dff789b3cb5e987U,
  0x3d751d9b3cbb1409U, 0x3e14d57f3d96aaa3U, 0xbd3d80363e11d5beU, 0xbe347f0f3dc87757U,
  0x3e575e9a3d63531fU, 0xbcde38153dfb8394U, 0x3dce64383e8f65edU, 0xbc51a4c03cd9fcc9U,
  0x3e0706b63d168999U, 0x3e8c0f8fbdfd7370U, 0x3db058993afaddf1U, 0x3da732753e4b7215U,
  0xbdf1d3a73cf1913dU, 0xbd0df50cbe058d00U, 0xbd88cb1b3e5fc9c4U, 0xbe43114f3e2e1184U,
  0x3d2493aa3e5d7e6fU, 0x3d627d7cbd7fb6bfU, 0xbdea9fe53da86517U, 0xbbf09e1c3c8fdb86U,
  0x3e6d2652be61f135U, 0xbec664c13ca447a2U, 0xbc7e6bc83e8c10a8U, 0xbd4cd2bb3e5ef17aU,
  0xbe18e427bdf39cefU, 0x3eab746c3d25def9U, 0xbcea23383d1bb9f2U, 0xbe172039bd94a586U,
  0xbc4b06b13e79374cU, 0xbb7d4f7cbc2539eaU, 0xbdb88a133ed68dbcU, 0xbda097203e8ff01dU,
  0x3d8743d33dc03d82U, 0x3e503518bdca952cU, 0x3e1bce5d3e59c7d0U, 0xbd8b785f3e1b66a6U,
  0x3e983b7e3dc08f08U, 0xbdfbfc283e411142U, 0xbda1e5c63e4e3653U, 0xbc9a7dd43ccfec34U,
  0x3d987880bce4d8baU, 0x3dc963c8bca2edddU, 0x3dba66e23e3ce37cU, 0xbd63ce9a3cc5635dU,
  0xbe6e784c3e0dd666U, 0xbe33acbdbc963a35U, 0xbed5011c3cd1a7f7U, 0xbd0fab3abe3abbf3U,
  0xbb9a98d639f7c774U, 0x3e7c82193c148318U, 0xbe9d39d93e5ed2ebU, 0xbc9399763c5e89caU,
  0x3e543ad9bdab0022U, 0xbd6fc2023d5b4d81U, 0xbd92fc153e3d09b9U, 0x3c4973003e6a4ea3U,
  0xbe4c663b3d241d91U, 0x3d52e7ab3d08836dU, 0xbea31803bd393219U, 0xbcbcce09bd315a7fU,
  0xbe487b72bd8ae934U, 0x3e14f9c9be74b800U, 0x3d7b3b823d11590eU, 0xbe82db01be3c5ec1U,
  0xbd83d67a3d1a28aeU, 0xbdeea51ebe63ea4dU, 0x3eab704abd3b80e3U, 0xbd5a8b79bde9706aU,
  0x3ec073ecbe77fd37U, 0xbea2f1e13d83173eU, 0x3dc70e263c35e8b0U, 0xbd8ee9bebdebae93U,
  0xbe9aa2bdbe9484ecU, 0x3de6249f3db3daebU, 0xbe52af27be3c45d0U, 0xbe818cbd3e263c52U,
  0x3e517d19bd2a40d9U, 0x3e45084abd6556adU, 0x3d5bb90c3c7c2ebdU, 0xbd5e44acbd16b46aU,
  0x3c1859f3bd394271U, 0x3db00974bd954a94U, 0x3df163303d4c31efU, 0x3e6d3318bd9649b3U,
  0x3dd66eeebe95f821U, 0xbe76bf9e3e03c3fcU, 0x3d0b94363e4758d1U, 0xbcd330603e028d79U,
  0xbe1fbdccbe204175U, 0x3ea8ffe73f00e0dfU, 0xbda740603d1f8fffU, 0xbe0e23bd3e993496U,
  0x3e649c5fbe038574U, 0xbe4ebbfd3ca698c1U, 0xbeb38f52bf10dd4fU, 0x3bd216f5be59c455U,
  0xbe1c0cbabe387af8U, 0x3d8ca4cebba2e90bU, 0xbde67c1abcec6ae7U, 0x3d092847bd2c5117U,
  0x3db23359be9ef244U, 0xbf0a2629be25a0bdU, 0xbe85b7bc3d65278fU, 0xbd7323103cd9b8e0U,
  0xbf006c89bcee2b17U, 0xbc18fa7d3cfe7858U, 0xbd2fc797bdc0c7b1U, 0xbd7c99173e25153fU,
  0xbc54436abe4c499dU, 0x3e0b9cc03d8e3e0dU, 0xbdb8359cbd8a2d56U, 0x3c89f535bc8d6bc9U,
  0x3d931d9a3df76319U, 0xbcabcb7abaab8bfdU, 0xbd1caa74bd4ca448U, 0x3df99292bdc782d7U,
  0x3cc7096a3d95de30U, 0xbd8a0d81bddfbb94U, 0x3e347770bd8cb0c6U, 0x3d287a5abc9e2b9dU,
  0xbd54b108bd9c8536U, 0x3e5a24bb3e1c748fU, 0xbe0b6249bd8976b0U, 0xbd99bd21bbc8291dU,
  0xbe1b0f2d3c70d38bU, 0xbd82574b3be9ae73U, 0x3e0fc254be0b1171U, 0x3d57ead2bde81fe7U,
  0xbd8225b5bd4ef429U, 0xbc4a39e93d957041U, 0x3d6e9d6abe6cab7cU, 0x3d7eccbdbd17c5a7U,
  0xbdba1eb43d6621b4U, 0x3dc000393c9d851aU, 0xbdc3ed203cd6657eU, 0xbc87d4ecbcf317acU,
  0x3d63973b3d117e03U, 0xbe3239b1bd7068f1U, 0x3e4761f8bda90d2eU, 0x3d9d8ddebe14a04dU,
  0xbdeb9cc4bdfa4c61U, 0xbe8b643a3e0171c6U, 0xbdd4b210bdc0476bU, 0xbe62aa573e1956d0U,
  0xbe8406c53e17a7f2U, 0x3c7756d2be32f731U, 0x3c88f5523c9e63d8U, 0x3e11ec05bd5a9fdaU,
  0x3e5e9b003d2dadb2U, 0x3cceb843bd8208bdU, 0x3caa6a3b3dbcdb35U, 0x3a266a803d9348dbU,
  0x3d7fd0d03d55fe9bU, 0xbd724247bc861079U, 0xbdf787efbd823f73U, 0xbd637fb8be4230eeU,
  0x3e2fa4ce3c63d802U, 0x3e937c11be15d947U, 0xbd007299bca62e87U, 0x3d38413abd3d41a5U,
  0x3d5154583e4b05c3U, 0x3e068577bdb3147dU, 0xbdddbce1bda67919U, 0x3e7d2987bd77ad42U,
  0xbde1a85dbdd67156U, 0xbdd2fae53d859d77U, 0x3e49be0b3e2e00c0U, 0xbd5dd5e03dd9556fU,
  0xbe6fbce9bc9428d9U, 0x3e4b802a3c8bf85aU, 0xbd90a7c7be4e0983U, 0x3c6b90ea3d7a2219U,
  0x3e2ea711bd9258a1U, 0x3e4ed7a63dfcc1aeU, 0x3d83b0073d8b1c41U, 0xbd6219383c820798U,
  0xbd5060e9bdad1408U, 0x3ddb56d6bcd746deU, 0xbc9159d6be0e7849U, 0xbe1ada65be2ae99fU,
  0x3d33db773bb13745U, 0x3dde40ccbd6f0efaU, 0xbd2acc3d3def2950U, 0xbc9207b43d8ed478U,
  0x3db9a6df3dc6df8dU, 0xbe36cf5bbbb5ff1dU, 0xbdf51b44be8124a9U, 0xbe023f023d0489dfU,
  0xbcdd6d36be010641U, 0x3c9dc6b1bd872a0dU, 0xbe6cef0e3e864e47U, 0xbccbf012bd1a56f7U,
  0xbe22ae53bd0d3aa1U, 0xbd41434ebdf8fe32U, 0xbe752f8bbe06f5ecU, 0xbe5a6679bd802aa1U,
  0x3dcd1d403dc96c0bU, 0x3db27c54be4dc8ffU, 0xbd5834aebe77e690U, 0x3d2c1666be6c1e37U,
  0xbd00626fbce67c07U, 0xbe63193abe0c7f1dU, 0xbe3cca7dbd0caabcU, 0xbe334cca3e13d5c4U,
  0xbe742e203d39ab82U, 0xbce4ec79bd9b253aU, 0xbe722527bb8fab1bU, 0xbe868a223e12786aU,
  0xbdbd35bbbd019d6eU, 0xbe321ae8be05af13U, 0xbe8482093d8a1fe3U, 0xbd8fcb60be36f4e0U,
  0xbdb28d8fbcf7cf91U, 0xbe49feaabe5f47a1U, 0xbb7086263dbfd0c6U, 0x3d4b84623d8a36bfU,
  0xbd45754f3ce8c79cU, 0x3e82ba673dfb09bfU, 0xbe702290be08fd16U, 0xbea8239cbda599deU,
  0xbdf9fd6dbe301027U, 0xbc106effbd1bac34U, 0xbe3ff4563d4765d2U, 0xbe9813d03db74a5aU,
  0xbe8a3381be35b192U, 0xbe0ef707be51ff36U, 0xbdea84e5be32587dU, 0xbe36a1093d1d6ae8U,
  0xbd836508bb3d843dU, 0x3caa140dbe788281U, 0xbdcad8b1bd8f1499U, 0x3d80092dbb8c2d8cU,
  0x3da94d91bdf08387U, 0xbc22eb2cbd1f7ea1U, 0xbdc69f6abd316ce4U, 0xbe1db4b73dcd28abU,
  0xbd8c38f5bc9b10e6U, 0xbea82b113e24cc2aU, 0x3d4d6521bde353d5U, 0xbddc6eeb3d863024U,
  0xbc892703bcb22bcbU, 0x3da3d484be0997f9U, 0xbe68b3f03d94faa9U, 0xbde3563a3e82a5efU,
  0x3e7cc95ebcecfc95U, 0xbe2b2b873ea73c03U, 0xbcfc0f37bce064faU, 0x3da36ff93c871ccaU,
  0xbe2d56d1bded496bU, 0x3d8c0ca0bd85d400U, 0xbe180dba3ea54c9bU, 0xbd4f5c69bef8bffeU,
  0xbe266c793d8865fcU, 0xbd80d5c23dd150b2U, 0x3db835963c728dd2U, 0x3db61944bd827a45U,
  0x3d19a506be1613d7U, 0x3d440c613e331b48U, 0x3dbb30babdb8d98fU, 0xbe058704bd91f428U,
  0x3e22044f3e103db2U, 0x3ddbc0d63e169ec5U, 0x3e917b59bc5281aaU, 0x3d9975e3bd33f691U,
  0x3e2f88923e00e74bU, 0xbdd759e03e1b394dU, 0x3dd477973d047872U, 0xbaef68d9be051a3eU,
  0xbdad2b7bbe054b67U, 0xbe8b3d22bd661aecU, 0xbd51bad2be1dbb34U, 0xbdc279223d653137U,
  0xbe01cb47bcbb54c1U, 0x3c6c791fbe4875acU, 0x3d11784cbe1d3d09U, 0xbe87589b3c8e1a1aU,
  0x3deb3ec7bc039912U, 0x3e032244be2fd64eU, 0x3e0db9ebbd0a78f5U, 0xbd5bcf86bdf6382bU,
  0x3db6d813bc0e4477U, 0xbe30ac80bd09afd4U, 0x3dd06bc83dff4a71U, 0xbddf9291be3cfa96U,
  0x3cd1566ebe0a1bb5U, 0xbe0ebcd1beb88e1fU, 0xbe0f28733d17c86cU, 0xbcacdd46be29fee2U,
  0xbdc20062bc2bad9cU, 0xbe0033fbbde5c527U, 0xbdb24944bde5c6deU, 0x3cf70948be40fc33U,
  0x3daabb41be19161eU, 0xbe138780be11971bU, 0xbd401095bdb3e8d5U, 0x3da9b495be374c10U,
  0xbdca3634bda38517U, 0xbeae230abdddfff8U, 0xbd45db0b3d9936fcU, 0xbd0d8372bd2e38c3U,
  0xbe97a5f13ccb37adU, 0xbeea8e6c3e43bc94U, 0xbc421a77bebbe018U, 0xbdbf8f333d822764U,
  0xbd917fa6be6b06c0U, 0xbe29409ebda53166U, 0x3d30e764bd662c1aU, 0xbe985de23e1f6140U,
  0x3e4e61ac3ca3f561U, 0x3dabed06be0a4183U, 0x3d7cb41abe84bf8aU, 0x3ccd2a40bdd6e460U,
  0x3e13f75f3dd38d33U, 0x3d7f92133d6d3890U, 0xbc34864e3c481d97U, 0x3cde8544be8a375aU,
  0xbe5e26c4bcce32ecU, 0xbe7fa711be13d1a6U, 0x3defaddabe9254eaU, 0xbdc943f9bdf88296U,
  0xbd979726bdc630d1U, 0xbda01ef6be12d818U, 0xbd5b7205bb94cb70U, 0x3d0557eabd86c4efU,
  0x3deabfd63cf4df73U, 0xbd177cd3bd914c05U, 0x3d8178ccbe070f2eU, 0xbd97a4debe73a28dU,
  0x3c524151bd87628bU, 0xbe28b533be43f75fU, 0x3e018e4b3d2d3a05U, 0x3ca0268bbe9fcb58U,
  0xbd7164ae3c3642e0U, 0x3da6e14dbda134f6U, 0x3d713cdfbd4958edU, 0xbd0c8610bd7062afU,
  0xbd8a33a13b9ac748U, 0xbe75d86bbdb4f850U, 0x3de7e46fbd530bc2U, 0xbdc7f83dbba499bfU,
  0x3db659263d50e289U, 0xbc8e2c53be50f134U, 0x3d460bf3bd4ffc40U, 0x3da27de5bb8090bcU,
  0xbdba4df03cfd1efbU, 0x3d204f183c8305a0U, 0xbdabcb13bc97186eU, 0xbe6bf883bce02566U,
  0xbe068891be1b23bdU, 0xbe81d5173d790d36U, 0xbd0da42abd8db121U, 0xbd911d0a3e002554U,
  0xbe5fe750be84a200U, 0x3de5ebabbe0ca936U, 0xbe85726cbd8016fbU, 0xbe8e0be4bdc4955aU,
  0x3d033effbe266b79U, 0xbd739b333d971e83U, 0xbc5cc00b3e509340U, 0x3cd9cbd43db40419U,
  0xbdaa3b09bd8c678bU, 0x3d9cbd303e5e4417U, 0x3db22bf33d53fbd8U, 0xbe01a3f4be73d1fcU,
  0xbbc4513d3de19f55U, 0xbe138d8a3ddf7516U, 0xbd83a6f1be6a5d5dU, 0xbe3a8fc8bd9a611fU,
  0xbd2e6972bddc56dbU, 0x3d2e8181bd8973f3U, 0xbe473f583a8fd505U, 0x3e1fff44bd0bb07cU,
  0xbe061966bd820021U, 0xbaf84091be05a251U, 0xbccc8ffdbc982a8bU, 0x3d278d40bb63f400U,
  0xbd62fd1bbde7c3aeU, 0xbca5e23c3d81c2f3U, 0xbe55a1bbbc055e02U, 0xbc173057be8927b9U,
  0xbd70fa73bcff197cU, 0xbaf7940cbdaea910U, 0xbdf50efbbd4204eeU, 0x3c5c51573cd1bcc2U,
  0xbd64cddfbda1d99bU, 0xbcbeb707bc28bff7U, 0x3c94eb8abbcd97ebU, 0xbde291423c34fe4aU,
  0x3e0bdcbcbdce210eU, 0x3d042735bc9e3604U, 0x3a608e633dbae7cdU, 0x3da52b5d3e0fce74U,
  0xbce020c7bcb7232cU, 0xbc4f8ecabe40c9e8U, 0xbe5af1e9be645516U, 0xbdd1c9fcbb75f891U,
  0x3e2b3a843e206e4dU, 0xbe3938dbbe0d3b9fU, 0x3c835358be4ac47bU, 0xbccf44f2be9048c6U,
  0xbd143b183daf32eeU, 0xbda4cc403c9d07fbU, 0xbdadb9e23e813bc5U, 0x3daaa8d7bd3120caU,
  0xbc8200ecbc9b2a40U, 0xbd18d125bcc78c67U, 0xbd1edfb1bd80a3c5U, 0xbd84ecb0bcdb85bbU,
  0xbe5b6d77bd463428U, 0xbe1db123be49ef3aU, 0x3e3dab00bdc3ad5eU, 0x3d955a1ebdea93abU,
  0xbe0789c5be2daf72U, 0xbca6ce953e102a62U, 0x3e236cfbbd21586cU, 0x3d03a9ce3ddd1b9cU,
  0xbd18a1eabd93c735U, 0xbe27fdf3ba0cd5d2U, 0x3d3a815dbdc6ca8bU, 0x3dde74ebbdfe37c5U,
  0xbdff68c33dc1eeadU, 0x3e4d27233d144536U, 0x3d1980a23da83e53U, 0xbda031763e4a1be8U,
  0xbd034630bd1cf7f3U, 0x3d2a7ab73d8b863cU, 0x3dbb212d3caaf08aU, 0x3c4bd64bbe1bd120U,
  0xbdf543dcbd0267b9U, 0xbe897c14be254dafU, 0x3ce3b5653d946730U, 0x3cbdf8d53e4ee5feU,
  0xbd9c409dbda1adf2U, 0xbe6367333d4633c2U, 0xbd716675bd26ee48U, 0xbdd3a8253dbd9e39U,
  0xbd6cdf493dc5ce7bU, 0x3bb1c646bdbfac2dU, 0xbc5d8ac0bdc8709dU, 0xbc15ab98bdad9146U,
  0x3d4f2cb5bd90d329U, 0xbe6560d2bcc83e68U, 0x3d5e593c3d7c0c00U, 0x3d73b74cbd83e3e8U,
  0xbe182d50bd9e7442U, 0xbe69126f3d63ddf7U, 0x3d45507a3cf0713aU, 0x3d9044dabd942e6aU,
  0xbe1e4d8cbe91e0d3U, 0xbe1f2c60bc4f68e3U, 0xbd080379bdd59b56U, 0xbed41b35bd7ec097U,
  0xbde0d4283cd877c7U, 0x3e0db8d2bd96605bU, 0xbd13960bbea9bb1bU, 0x3d9c9c89be1d463eU,
  0xbdc0e9c43cf7c73aU, 0xbf119854be646b38U, 0x3d9ddefbbe28254fU, 0xbd5914d8bd572871U,
  0x3dcfc072bd64f3a9U, 0xbd837980bd07a9bfU, 0xbb171a9dbd960e7eU, 0x3dcc7822bde2fc96U,
  0x3d79b2913d263e8aU, 0x3d02c5c13d3227a2U, 0xbd49800cbddcb29aU, 0xbc292650bc492044U,
  0x3b992cdbbdd725a3U, 0xbd77d0d8be2462a6U, 0x3d81a605bd1e3cccU, 0xbd6aa406be3ede56U,
  0xbdae887a3c2cdf7eU, 0xbdb51e933d8d11cfU, 0xbc2097cbbe3d3e5aU, 0x3cd84d8c3d87506fU,
  0x3d09d444bd1cb671U, 0x3e25743a3e027e9eU, 0x3dd220933e4f1567U, 0x3d220646bd158bebU,
  0xbd2a61a6be2cef3fU, 0xbd8804543da670e3U, 0x3d9c861cbd2d1398U, 0xbe8c5ce6bdf58556U,
  0xbd90296e3de8f762U, 0x3c98bd55bd330508U, 0xbe25d533bca045e6U, 0xbc7acb683dd1c11dU,
  0x3e374c74bd976909U, 0xbe01be45bd446f8cU, 0x3d00ca723e0ebdc3U, 0x3db4797dbd18f0d0U,
  0xbde9f9663c864d5fU, 0xbdb2c857bd4a79caU, 0xbd871826be156ac2U, 0x3cd404f2bc7d48e1U,
  0xbdadff48be38bf72U, 0x3dec4b0fbd8fd823U, 0xbe6a182e3d8ba935U, 0xbe1a061b3df2ac6dU,
  0xbdbec377bd8e3c74U, 0x3c524bd13d2ca913U, 0xbe02d4483e115d8dU, 0xbd17a4063e6103ffU,
  0xbcaa5770bd188c37U, 0xbb38399dbd55b62cU, 0xbb2eea563d52eeadU, 0xbd861b71bd6644f0U,
  0x3df6b9a0be292fa3U, 0xbe3e3c963d38558fU, 0x3e35bf623cf3a501U, 0xbabc11903e0fb9c0U,
  0xbe0720f23c9917f0U, 0x3d0df4c7bdfc561eU, 0x3d0ac5543e06795aU, 0xbe513d80bdd1ec30U,
  0xbd818c453cec8b63U, 0xbdb730343de9101dU, 0x3b8f25a23e5d58abU, 0xbc2157183e8378d3U,
  0xbdab36edbdeec651U, 0x3db88971bdc3f954U, 0x3ce57f783db8e23cU, 0xbd3c8ead3d093759U,
  0x3d111e4c3e0044f5U, 0xbc805e343e48ba81U, 0xbe09f5573e168ef2U, 0xbd748cf73e6873deU,
  0xbe276d65bdaf6c64U, 0x3e466435be21ebf4U, 0x3ca214223da921ddU, 0xbebbed55bdb50dffU,
  0xbdb32e47bd14e648U, 0x3e1eaf40bdccccedU, 0xbe5d1d9c3e3500b3U, 0x3b11ff603dd91f73U,
  0x3c78146fbdcbc80cU, 0x3dc17fcc3dae67deU, 0xbde16fb03e2b1cbeU, 0xbdbda3f63d25f1cbU,
  0xbe1e3e99bd8c305aU, 0xbd701756bebd3256U, 0xbee07b5ebba81911U, 0xbe26e6cfbc88d2cdU,
  0xbb87317ebbde6e11U, 0xbdb3e403bdc7452cU, 0xbe056414bdf1b140U, 0x3cf2a88fbe6ac8c1U,
  0x3dfeadb9bdcbd567U, 0xbe2ea2643cb7c434U, 0x3e448d9bbe6f48d9U, 0x3c88b1d4beb0bbe6U,
  0xbdebb33abd8abd2cU, 0xbd9c7ee5bd209751U, 0xbe88fa41be7ba15bU, 0xbe453bc0bcfc456bU,
  0xbdbbcb913e58984cU, 0x3c47bf77be492ef8U, 0x3de8c2453b92396fU, 0xbda01401be1cc939U,
  0x3dc8b20e3dd33d04U, 0x3ca8c7ffbda56e45U, 0x3c9354c1ba8e802fU, 0x3d80e129be35e652U,
  0x3e6654c4bcfc7c42U, 0xbe757e443e6d655bU, 0xbd98cdb4bc45fb2dU, 0xbd39cdcbbd0412ceU,
  0xbe32786d3d732352U, 0xbd035509bde17befU, 0xbd64bcdebbf19c43U, 0xbdf8e904bd9120e2U,
  0xbe8061a0bd7184a2U, 0xbeb6937b3df6038eU, 0xbe239a9cbe860958U, 0xbe04fc22be33a09fU,
  0xbdcfc91c3bb17388U, 0x3d86f9dbbcea2b61U, 0xbe1420e3bda82813U, 0xbde2c20b3d300fa3U,
  0x3e0cf182be9e8d0cU, 0xbe6b9b4f3e72e244U, 0x3d5a6e373de8750dU, 0x3d63d056bc441e03U,
  0xbd297567bd3002a9U, 0xbe02dfcf3d96688fU, 0xbdb714153dd6a030U, 0xbde9f481bea308deU,
  0xbcef5995befe765aU, 0x3e7394b4be82e832U, 0xbea81efd3df78636U, 0xbddcea39be6ff5d4U,
  0xbd74c39bbe80b6d7U, 0xbdfc809cbdd6c47bU, 0xbd59f80ebd6ff73eU, 0xbe4240d23b952aaeU,
  0x3c9bb910be387701U, 0xbeaee2f1bc42079cU, 0xbdb100d8bd822426U, 0xbc44ab683dab10eeU,
  0xbda0453bbdaa67bdU, 0x3cf04ee0bdd03adaU, 0xbdc47eb13c826e37U, 0xbdb627903d0c4bb4U,
  0x3dc2bd123c4dc523U, 0x3eb7a4c03c0a2df0U, 0xbdd9a0da3db335f7U, 0xbbdbb39cbd663209U,
  0x3db81ae6bc8e79ecU, 0x3d854dafbcce59deU, 0xbcf59c123c236bebU, 0x3df0646fbd96b55dU,
  0x3d8c2e9dbe2ede76U, 0xbe8eaebfbe53e354U, 0x3d6220303dc504a5U, 0x3cd9b30c3ee85c59U,
  0xbe2b30d6bdcf3eebU, 0x3ea3f2643db2640cU, 0xbbc84bd63e27f4eaU, 0x3c50bf2c3e125d8cU,
  0x3d97f68a3e110b8fU, 0x3de795283df869deU, 0xbd4c1eaa3e0c1f2bU, 0x3d472fc3bd1c5eebU,
  0x3d5f33c6bd8e4a3bU, 0xbd28f7163d673f5dU, 0xbe54bf2e3cd33824U, 0xbdc030793c85fbd1U,
  0x3e48d4fcbdfe623eU, 0xbe5f013cbdd86d59U, 0xbc9866163dda07d9U, 0x3cd825c0bbf49decU,
  0xbe22a7333bece2a3U, 0x3df911f23d1dfb7fU, 0xbe4fbdd43c7ceae7U, 0xbd7e3de13e66c963U,
  0x3cfb1c8ebcc89520U, 0x3dea9ca0be7de5a7U, 0xbe56b0e43c826a5cU, 0x3cb6ec82bb66fc87U,
  0x3dcc38b73b402f74U, 0xbe3b7b143d8134a7U, 0xbd831b72bd8ff4c6U, 0x3e475e04bd77d602U,
  0xbe0622aa3d05d174U, 0xbe374fe4be7d0e57U, 0x3ea7085dbe9b2f79U, 0xbcf2176cbe66d84fU,
  0xbe14c0a3bcdc7fc3U, 0x3deace0b3e6c6a3aU, 0x3dd08dd6be0243d6U, 0xbdb98f6e3c8d8f98U,
  0x3def5bc23e2cca31U, 0x3e5d3a7b3e066ebfU, 0x3e00f26dbd72c809U, 0x3d871a323cd351f3U,
  0x3d21b88fbe2f53a6U, 0x3c87e3be3967b3efU, 0x3de55633be2e8c99U, 0xbbd3d8423d93fa8eU,
  0xbb2501063b415479U, 0xbe8f89583dc04e24U, 0x3dc336803dc87230U, 0xbce717763d73b048U,
  0xbd8159d43dee2b1aU, 0x3e0b0eacbe4565d6U, 0x3cfbe4923e34a3b5U, 0x3d8fc9ec3d78f2a2U,
  0x3e36461a3e19b7acU, 0x3e0f1661be8da92eU, 0xbe9f80ee3e03fe4bU, 0x3d9d916c3de5a2b6U,
  0x3dafe1a5be79d0c9U, 0x3e027fc83da11e9bU, 0xbe9802a1bdb0c8c5U, 0xbe63442f3e228860U,
  0xbdbf0673be0983b9U, 0xbe7366f13d84da58U, 0xbec336d73c298064U, 0xbc121728bd8dac17U,
  0xbe3d631bbd2b39a0U, 0x3d9148b33e39bbd9U, 0xbcd94c0f3d00293eU, 0x3d39bffe3e53b5bcU,
  0x3c5d599abc824905U, 0xbdc0547d3d59ce1bU, 0x3d17554c3e3b4ed7U, 0x3c084f533c1c3ecbU,
  0xbd1b54af3dc2bc9eU, 0x3d2d64253df641d7U, 0xbd87da27bd81a480U, 0x3e54a3723c471cd9U,
  0x3eb4c43b3cdef49cU, 0xbd3c76dd3d22c269U, 0xbca3e6febbfe384eU, 0x3cb8eef43db4a4a6U,
  0xbd7b271e3b145461U, 0x3d49e6d6bcb596a3U, 0x3d0dba333c0b97f4U, 0x3db3de8dbb624318U,
  0x3d6760123db6757bU, 0x3d8d3a43beb5f4e1U, 0xbea4dc963cefd5daU, 0x3d434b09bc88897dU,
  0x3d53a4863c74e783U, 0x3e16b9163c8c32ffU, 0x39aeef823e18dcc8U, 0xbda7bd1b3d082ad8U,
  0xbbecd2c4bb6748e9U, 0x3df973393ca5f7a7U, 0x3b1c00dd3d1ec1b5U, 0x3d404e62be0777f8U,
  0x3d04e63a3ddc5ee3U, 0x3caf39d239bf18b8U, 0x3d0aa0cf3deda8adU, 0x3c00c284bcf52b06U,
  0xbd932a50be8e7d3cU, 0xbd4171b3bf102735U, 0xbdc8efff3d45aeb2U, 0x3df1458dbeaf144dU,
  0xb9e48503be2864a4U, 0xbd02c1153ddeee9eU, 0x3dd66dacbe200ed1U, 0xbe39f98b3d8f25c4U,
  0xbe09b734bd351a0fU, 0x3dc11e0f3deed5d9U, 0xbe1981e1bdc72e46U, 0xbd8c25d6be1eb60aU,
  0x3d750ad0bdb9f1c1U, 0xbe94eaa4bdaabf24U, 0x3c98b39a3e65baf4U, 0x3e6edd3b3e77ea3dU,
  0x3c58b86bbcdadb8aU, 0xbe3515f0be3b5155U, 0xbded2e3bbc86bf44U, 0x3d2ae7273d495f9eU,
  0x3cdff2d33e154df3U, 0x3e2a18f63c58b657U, 0xbdc08f653d8c5dc2U, 0x3e0a77e5bd920ff9U,
  0x3d966ed0be0e7194U, 0xbe41ad893e1f3537U, 0x3d1bec8d3d8a7b6fU, 0x3cf2322c3e37c46eU,
  0xbe767592bdbcba24U, 0x3e1974a63d8db055U, 0xbd7e5228bd146ec5U, 0x3ddcaa88be6a5264U,
  0x3ce92324bcd7bbc9U, 0xbe39bcd5bf0e07a4U, 0xbe47f897be15236bU, 0x3d90feb0bdef4607U,
  0x3ccee7f33d816774U, 0x3df86f1f3dd24dfeU, 0xbcb826743d0b1bfbU, 0x3d50cefbbd5ab417U,
  0xbdcd238dbbb64a55U, 0x3d4f735abe390b3dU, 0xbe4b4d9f3c27494aU, 0xbd5c034bbe56406dU,
  0xb98420e33d8f1982U, 0x3dca5b783ca27e82U, 0xbd946542bd8451e6U, 0x3dba8005be549f88U,
  0xbd833035beb30b1aU, 0xbdb847aebea5bc2bU, 0xbd3611663d746bf2U, 0x3d93c1b6bdc25984U,
  0xbd8ba0643db20714U, 0x3b89eedb3dee2c4dU, 0x3da675a2be1d1b59U, 0xbd7d3b64bdb869a7U,
  0xbe8c0ec73d37ac58U, 0x3e09ec60be40c439U, 0xbea85474bcbb6041U, 0xbd7cb7e63dd51148U,
  0x3e1ef5223d939cc0U, 0xbe21f2d0be87a555U, 0xbd02dd673c016c97U, 0x3e4ccf923dc5fcd8U,
  0x3df9aa433dc1f67bU, 0x3c628136bed5a4e6U, 0xbed805c93da6ca8bU, 0x3e1c2fd73dc56338U,
  0x3d6960b23e1a215bU, 0xbe8d01ac3e04f31eU, 0xbeb280b7bd6295bdU, 0x3dcf80d4be40c594U,
  0x3d8c9c34be4c6cdcU, 0xbea4fc74bead00edU, 0xbcdefe42be3e1696U, 0x3d24826a3d0eb0e1U,
  0xbe115807bcb1714fU, 0x3e19d3f73cd7aec7U, 0xbcd6010cbebca134U, 0x3d42e0e73e3bf3ecU,
  0xbdd3ed0f3d5f73f6U, 0xbd6aa37ebe67ac82U, 0x3e438f16be73d617U, 0x3e3c624dbe8e7d79U,
  0x3d926b943e01e6ebU, 0xbe5435373e13a9baU, 0xbc2e896abd081820U, 0x3b0eda003da9751aU,
  0xbbebf3e43c711b16U, 0x3c5ba5d23b05f504U, 0xbe56b8bdbd5fced7U, 0xbd381b26be586b42U,
  0xbcda9d3b3d7c9e72U, 0xbe161327be848213U, 0x3d958e3ebde2dabeU, 0x3e604263bddacb5fU,
  0x3d955f8ebe67dd04U, 0x3d6ef7ce3ba20789U, 0xbdf2056dbeb3788cU, 0x3e1a83e1bea5b022U,
  0x3dc1aa183dd642d5U, 0xbe04dedf3e05ef43U, 0x3e1d05cfbdaafc82U, 0x3e1f4390be40d3e8U,
  0xbde2b9933cf014acU, 0x3e52dddfbde4fa1aU, 0xbe466265be2d50b8U, 0xbd8bbcdbbdd06bc2U,
  0x3df5d987bd181a2aU, 0xbf1cc89ebdebff37U, 0x3c0e86c1be0460d5U, 0x3e1f1996b86e687eU,
  0xbe7b5a833d17c963U, 0xbe99ebfbbe8ff478U, 0x3c34f55abea7b9d1U, 0xbbef2aeebe601591U,
  0xbd9e58afbe42dd12U, 0x3c815027bcc44bddU, 0xbd162d833cabf58aU, 0xbe83d9cfbe043ca6U,
  0xbe4ac3debded7b0aU, 0xbdefe550be4533dcU, 0xbe95bbbc3e039bc8U, 0xbc9a72543d0d4c9dU,
  0xbd848116bd941fdcU, 0xbdde2589be0647e0U, 0xbdb7a111bd4f946fU, 0xbdce0cd9be0562efU,
  0xbe59d6f8bc6331feU, 0xbf2aa250bf0914aeU, 0xbe739a23be7b6d59U, 0xbd6ae8bb3ca8e82cU,
  0xbba325efbdb5c194U, 0x3d868f993cfb4a77U, 0xbd6807d23dabfacaU, 0xbd837a343ca2b64aU,
  0x3ce23619be04577bU, 0xbac7e4dcbe57126cU, 0xbe34e77d3c47db9eU, 0xbd0d2bf63e009c4aU,
  0x3dbc475bbc76c2c4U, 0xbe1a91c3bedce79aU, 0xbc9fe0383b14e51eU, 0xbd95f677be373162U,
  0xbe9769f0bdff71d1U, 0xbf1cb301bd9a97fdU, 0xbd83928ebdbf68a6U, 0xbe5f923f3da868cfU,
  0xbe41d41c3c95ac69U, 0x3d6e3737b94c861fU, 0x3d8e19083e265422U, 0xbf07682bbd1ed557U,
  0x3e06fe4bbbdfb4e4U, 0xbd85f1873df2fed0U, 0x3e74f6983e1d14d9U, 0x3c74f580bcb3189cU,
  0xbe15a507bd1d1b3dU, 0x3dd40b6dbe768974U, 0xbacfdc6abc168c69U, 0xbe0ba6c2be2ed30fU,
  0xbcebe9a23a74869cU, 0xbd768a793d1079b5U, 0x3de48d32bde1aa88U, 0x3e13e1f43e20f1a2U,
  0x3d37bd7d3e0935a4U, 0xbdbb2e8fbc03217eU, 0xbd59fd41bbab5648U, 0x3d5b8480be2daa15U,
  0xbd6d6909bda1b229U, 0xbda0ed42be404c4eU, 0xbde54f3bbdd01b90U, 0x3d490f2abdb26f7aU,
  0xbd07a1473cb8b39aU, 0x3d7b6d91bd1cd775U, 0xbcab4d983dc097e2U, 0xbbb498e03c63ec38U,
  0x3cd3a8de3e8ac337U, 0xbd50448dbe28931dU, 0xbe0230643a458c1cU, 0x3d5bf2463e071b8aU,
  0x3df8f2fc3db94c4aU, 0x3dc4a9cc3cd2c71eU, 0x3d9bc4683dd925e1U, 0x3e0211a83e02e406U,
  0x3d213ff5bd01e852U, 0x3d84edd9be0f7c17U, 0x3e9b6e58bea2c6ddU, 0xbd212e70be53632eU,
  0xbca6a1443d44444dU, 0x3e3576cabd972c94U, 0xbc53c7023de7b553U, 0x3df1dc7b3e04aa61U,
  0xbe917d25bd4ddbc7U, 0xbef2987d3dcde35fU, 0xbc78d7713dc0eee3U, 0xbdf86c1e3e05782fU,
  0xbeaf2b263e6dc0f3U, 0x3c7fab1cbde9debeU, 0x3e5fa63fbd4a00a7U, 0xbe284ad7bd3de224U,
  0x3eae51f23ce1c23fU, 0x3dedfb7abcd70619U, 0x3ef01a75be05c752U, 0xbd8047e6bc75dfcfU,
  0x3dbeb4d1bd5c310bU, 0xbe8938f1bf0714f0U, 0xbe6fc0c8bd581c0aU, 0xbe18c4db3dc353beU,
  0xbd869ee13d76d23eU, 0xbd49bd05bdb712a1U, 0xbd00e1e0bd1febf0U, 0x3d627b02bc90b6bfU,
  0xbd41de813e464430U, 0x3d1ee663bcbd6e2cU, 0x3d39a1c93dd08802U, 0x3e37a824bd23e98aU,
  0x3e31887bbe2a892dU, 0x3cd80ae3ba472141U, 0x3d858b173d5296d8U, 0xbd945a733d809b84U,
  0xbc1df83d3e15450fU, 0x3cd7bdea3da6df6dU, 0xbce693fabe37addaU, 0x3e156740be7a35a4U,
  0x3c3ea5873e475f4bU, 0xbe5111b4be335af7U, 0x3d093f8b3e7c4959U, 0x3e0d05413e112e25U,
  0x3e1896433e85797bU, 0xbd239a503db49a51U, 0x3cb3bdcf3db38d63U, 0x3dd79fc93debe9bfU,
  0x3e0de14b3dcfc2c3U, 0x3d0902423db52799U, 0x3eaec8913d4f7266U, 0xbccb97003df11bc2U,
  0x3cf5077f3e16caf0U, 0xbe1ac17dbd793a04U, 0x3a1312febe467b5aU, 0x3e347566bd5f2a17U,
  0xbda16c38be26c820U, 0xbb75367b3d657313U, 0x3dda1a58bd8f9be1U, 0xbda3c49b3b26eb9cU,
  0xbd8cc8fcbe37cb2cU, 0xbd8b2bd73d9dbd0fU, 0xbd914c6d3e2e6c56U, 0x3d3560d3be2d45e5U,
  0x3e8032e33c46ac33U, 0x3de75754bdbe7e28U, 0x3eaff3acbe7ef589U, 0xbbcd6f80be882701U,
  0xbde60a52bd511fc9U, 0xbe11b7c0be5425b4U, 0xbe49c195bc4f0032U, 0xbd2dbea33c9e8c29U,
  0xbd82150dbe986f4aU, 0xbce2e6873b17c99eU, 0xbe40e30cbe522947U, 0x3c31c93f3d649b7bU,
  0xbd4b21d4bdb17c4dU, 0xbe6c59a2bd9efdf8U, 0x3c5e9518be5ab627U, 0xbc068a55bdaf0d4bU,
  0xbe4ab304be053d9bU, 0xbd551ababec4a516U, 0xbd36f7c1bec21a92U, 0x38d9c000be925245U,
  0xbc3f892cbe03a74dU, 0x3ceda1e03d81e5dcU, 0xbe18cffb3d125324U, 0xbd760ab1be0ae01bU,
  0xbcf8ba47bda1ca94U, 0xbd8f8217bdb6d86cU, 0x3dfcf22fbe56ba5fU, 0xbd1e2386be05b7c7U,
  0xbe0d7cfa3d555e3cU, 0xbdac830e3cb4c2d2U, 0xbde657ffbdea19b7U, 0xbdbcadaebc01864dU,
  0xbda3acff3d160c24U, 0x3ca6d920bd573791U, 0xbdc89141bdee2ca4U, 0x3d3bb45abdb07fceU,
  0xbdd22d1e3d3ed769U, 0xbca03842be1bfa56U, 0xbd1664bf3dcbbd84U, 0x3d6af7b7be3a1295U,
  0xbd9a1fbdbd7c774cU, 0xbd2181f13d89d886U, 0x3d1687dabe9ac322U, 0x3cf7aff33d965853U,
  0xbdf967eebdc6ea43U, 0x3d0396bfbd8c1ea4U, 0x3df9d74ebd940a62U, 0x3bac0f4a3ce50907U,
  0x3d689bbd3daf855aU, 0x3d223d0d3dc1bce7U, 0xbde1646d3cdc59beU, 0xba836000bcf11c54U,
  0x3e0782cbbe02c086U, 0xbc83a1503d3bf896U, 0x3c6c199a3d890103U, 0x3d4b2dd8be2c1ee7U,
  0xbe27ecd3bdc0310dU, 0x3def3f933ea2d426U, 0x3d6a6bb8be146d30U, 0x3d248bda3d74f9b2U,
  0x3c7f2ed53d64541fU, 0x3e337ba5bd628d1aU, 0xbddde0a0bd593c24U, 0x3df267e33daf27c1U,
  0x3de1f6e6bd81e972U, 0xbd63885a3e0f2185U, 0x3e9218233e8aa398U, 0x3d01a2f03d438691U,
  0x3dd3d20ebde43724U, 0x3e9da6d73e9ddd1cU, 0xbe1470943e8cf3a5U, 0x3c0e5793be06f20aU,
  0x3e04cd98bdcd1cc7U, 0x3d96b2873e9a3f33U, 0x3d09836bbd752b03U, 0xbd7c31813e2cba42U,
  0xbd9c9c92be3329afU, 0x3d953bc23d2324e8U, 0x3c929d373cdd89edU, 0xbc4304a93e22bb82U,
  0xbd34f51e3cc16955U, 0xbd8104593de0693fU, 0xbe636f283e58b824U, 0xbd43f0763e083c7dU,
  0xbe442dc33ddc1defU, 0x3dbe5db93e533acaU, 0x3d89bc0a3e8b61b3U, 0x3d6e46513d4a908eU,
  0xbde7428f3ca697b4U, 0xbe3c67c53d5cbb35U, 0x3d487b723d8fe6f7U, 0xbe0913b83d638b29U,
  0x3c7b2ff0bd19d84fU, 0x3b09f076bcb4185bU, 0x3e10d3fbbaf3a434U, 0xbd08c6f43d7357ceU,
  0xbd68703c3c438b83U, 0x3ddca3eabe31cf5bU, 0xbdc729f93d7fcd7bU, 0x39aa63003dab0182U,
  0x3dbfd2433c90c042U, 0x3caddcab3e3c3c19U, 0x3d3a8bfc3c016a39U, 0xbda2417d3bb8e1d1U,
  0xbe32c077bddac41fU, 0xbdc6ba20bd0e1c7aU, 0x3dc3fe053dd76901U, 0xbe9b04a93e3f21a5U,
  0xbe0079663df8a6bcU, 0x3bea8671be1d9463U, 0x3d51ae9e3e734638U, 0xbe055c35bcdd050aU,
  0x3e7beee8bdc800e2U, 0xbe60f00ebd8f98a5U, 0x3d64ebe93e17e0a5U, 0x3d6a08b63dd3191eU,
  0xbcc48734bd7be4c2U, 0x3e9ac722be41ccd6U, 0xbe5f73c03d9591f4U, 0xbe196070be508a92U,
  0xbe13416a3cf34625U, 0xbb2629a9bcddcdc6U, 0xbdf64f3cbd51a49fU, 0xbda287cd3e58fa9eU,
  0xbd85bde4bba4a758U, 0xbe2cb82ebe316bd3U, 0xbe17bbd03c465709U, 0x3dae302fbe210938U,
  0x3d52bfb3bd49b6c4U, 0xbe670ce0bcfa3de1U, 0x3d352dea3b52900fU, 0x3d9e8add3d9b22adU,
  0xbdb1e2e43dccc362U, 0x3e7f3dd13e26cdfaU, 0xbc0c02cbbd13021bU, 0xbe1867afbcc99257U,
  0x3e03bcac3e240f51U, 0xbd30dc27bd0ba312U, 0x3e54d6d33dbc0367U, 0xbd91e6693d6c8873U,
  0xbcd54eeb3d7164acU, 0xbe41aeb73c956f7cU, 0xbdbfff2cbd333fc4U, 0x3ddda4ff3d9c6984U,
  0xbe1fd8113dcee7edU, 0x3e42fe5c3e3abaa2U, 0x3dd6b7bfbe4b87e6U, 0xbb3e2200be160d65U,
  0xbbe351c03a9ddb59U, 0x3d34dfe83e017019U, 0xbd95ed16bddfc479U, 0xbd6c13493d5622aaU,
  0x3eac20e13de8ae9dU, 0x3e193fbdbe0c1d5cU, 0xbec85c8e3e6af35cU, 0xbc691bd1bdcbbe40U,
  0xbd96cb3fbe3f3d78U, 0x3e09f0ecbba7f694U, 0xbd858ff7bd0c76e7U, 0xbd6abd6abe376789U,
  0xbdca47e1bd958720U, 0xbe225caa3e8d3321U, 0xbd9bc9123e43f8f6U, 0xbc2d14e83dfc3ed2U,
  0xbe3893e13da5e9a2U, 0xbd53520bbd73835bU, 0x3d9d65c33dea445aU, 0x3da2419e3e84ad9cU,
  0x3dd9b7febc27e63fU, 0x3d992b8f3c81a6e6U, 0xbd89447b3e4b473dU, 0x3d8db53f3e46d654U,
  0x3d5fc7f8bc5ec502U, 0x3d597cf13b50a6a8U, 0xbdbe396c3c398880U, 0xbe02a9c7bd972c9eU,
  0xbd899f263d8c3a63U, 0xbcaf6f74bd68966eU, 0xbd2214213dd1be5fU, 0xbd7bf1563e220a9cU,
  0x3cdfbb63bda30b6bU, 0xbebd7a98bdf56337U, 0x3ba2d710bdb333efU, 0x3cdab45f3e2cae19U,
  0xbe5a0a68bd9fc8d5U, 0xbe8da5513e445ac4U, 0x3e19f5713e0741b6U, 0xbe015f2abd01913eU,
  0xbeb6db8abd44097cU, 0xbe6806eabcc7e65fU, 0x3d950dd3bdb70758U, 0xbe4b4f6dbe3e90bfU,
  0x3e2b7fb03c9f8db7U, 0x3d73ca873cd5aaf7U, 0x3ecb0734beb146e1U, 0xbc8a552cbeb73457U,
  0x3d8b0a3b3d452763U, 0xbec40be3bd9c88c4U, 0xbe7cdcaa3c7c1ff2U, 0xbe2b94c33d5d4323U,
  0xbe2154d6be858a02U, 0xbe918fc9bed9d0e7U, 0xbe0fd79cbe548244U, 0xbd853e8cbe5b0629U,
  0xbde5c0c9be811c48U, 0xbe3a80383bbc0c62U, 0xbe8316fbbe517537U, 0xbe17410cbdf1de88U,
  0xbcf1d00a3db3c493U, 0x3cbd46a7beaf9ef1U, 0xbe300473bd42eeedU, 0xbd2c2aa0be5fb936U,
  0xbb54dfe83d2ee5f6U, 0x3c6b0a6cbdbca3baU, 0xbdb1f742bdd48ddeU, 0xbd8479b7bea3afaeU,
  0xbe2785f8bc89cc3eU, 0xbe339e64bdf324e5U, 0xbc8c589b3dc2b78bU, 0x3dab6f09bd3344ebU,
  0x3be253c1bd448ad9U, 0xbca2c3bf3c096921U, 0xbe270419be095f51U, 0x3d01d93d3e2e8ce0U,
  0xbdb23321bc068198U, 0xbd219cedbb4be4aaU, 0xbda25ff1bd74738cU, 0x3c5d1b00bd8087b8U,
  0x3c00c3113d4b595fU, 0xbe694358bdada9f3U, 0xbca7b0c53d82a76bU, 0xbc9332343d28dafdU,
  0xbec7bdcebdf4ab03U, 0xbef7e6583ea9b425U, 0x3e9823ef3e5fe456U, 0xbe30637e3da2d82aU,
  0xbde50293bc1d1e51U, 0xbe3e8b3ebcef32feU, 0x3e475f043df10bf2U, 0xbd41e5c93c3f76a8U,
  0x3ead52833d46c508U, 0x3c3cd6823d913c14U, 0x3f0054a1be6cbb3dU, 0xbd241c0bbe54aa8cU,
  0x3c58f20d3d3643f0U, 0xbe84ee13bda0ca04U, 0xbe011f6f3e4157b3U, 0xbe1b3d843cfc3bc0U,
  0x3ce89c19be877e37U, 0xbd51adafbd16531dU, 0xbcd33b36bd4ba872U, 0xbccc6ca7bdcac466U,
  0xbd94dbe6bdd6900fU, 0xbe3fd19cbd84e11cU, 0xbcf4b1a1bcec3297U, 0xbc281009be0acfcdU,
  0xbe33c0363a747a6aU, 0xbcd07c27be3b78e1U, 0xbe359f66be55bb83U, 0xbd8e9538be06c0a4U,
  0x3de70d56bdf8d805U, 0xbd65f4e0bc2c91bbU, 0x3dcbb8533b793b51U, 0xbcd3fef3bd95d9feU,
  0x3d2bdf4b3c475f59U, 0xbe45e1c2bc3dc721U, 0xbe6bf32bbcae5798U, 0x3caeabd83dd1d707U,
  0xbd3be778bd5b2c4eU, 0xbdc925a6bd4deab1U, 0xbe53c93dbe6d5254U, 0x3ce56cce3d943fa2U,
  0xbe1bbd53bdcf885cU, 0xbddc97f5be08bb6eU, 0xbd9e7cd3bd911b61U, 0xbd9060b8be06d674U,
  0xbd6100793de4ff1dU, 0xbbb6ff38bd07a3b2U, 0x3dd45db9be61b6a3U, 0x3c32c525bd54a17bU,
  0xbdb29f12bcf7d568U, 0xbe3d6b873e1ee42fU, 0x3dfdcf193dee60dcU, 0xbe1e32e33dee116bU,
  0xbe84809bbdea9969U, 0xbde6c89c3dab8bb0U, 0xbddf8b6cbe357406U, 0x3d33e42fbd200af1U,
  0x3e166623bd909199U, 0x3d802a713e0d7b03U, 0x3e94f32bbdb55a72U, 0xbd82838bbc8cbfedU,
  0x3cf1056ebdbff63cU, 0xbc0e4020be1133b7U, 0xbebeff3a3cc31e5cU, 0xbe03949fbe10333fU,
  0xbf04bf2f3d367144U, 0xbf367acebe84dd46U, 0xbd7a7fc3bd6040efU, 0xbe80be8cbdf94b6eU,
  0xbca7323b3e4a6d8dU, 0xbba6a1dbbe0dd669U, 0xbb2fa3423e212779U, 0xb958bdd7bd0d8238U,
  0x3d8e8b743d0a952aU, 0xbd5633d23d79ec36U, 0xbd0da0473d98e2ffU, 0xbce5e16cbd4ac35dU,
  0xbab5b91dbd922d12U, 0xbdaa0223be2939edU, 0xbe7abf96bcec6faaU, 0xbd7018e7be76a238U,
  0xbe2bda6b3e5b7398U, 0xbd66b914be5d9202U, 0x3dbe5d9bbe013d51U, 0x3dcee54d3ced04aeU,
  0x3e4cf4ed3e046bb5U, 0x3e2016263dbe1665U, 0xbe01926a3e355316U, 0x3d28b27b3d3543bbU,
  0x3dd5f1173d1a9c13U, 0x3d1d50f23d763a75U, 0xbc80f5023e46de04U, 0x3bc3d1b03e42746bU,
  0xbd0803503c8c8845U, 0x3e1984ec3d32b9b7U, 0xbdf3805d3d891ffdU, 0x3d1da335bd710da0U,
  0x3dafb9f73cd9bc7bU, 0x3d4f09833e17d1ceU, 0xbd85452abd3ed2a4U, 0x3d8d8c3b3e5e4575U,
  0x3d6fd4bbbdad03e3U, 0x3e085ed63d91c8a1U, 0x3ce97673bd97d555U, 0xbdbc82543d5bbb9aU,
  0x3e0a3d753d60d03eU, 0x3e40b93b3e0b7f23U, 0x3e1a3d0bbd3a6ebdU, 0xbd4cd67bbd72977dU,
  0x3e140497bc8ee6dbU, 0xbad555933dd4048eU, 0xbdc5a9a1bd7d42f0U, 0x3d58579f3d961ec2U,
  0xbea42e61bc912696U, 0xbe8dad30bdb0e7d0U, 0xbe3a7688bd87cdc9U, 0xbe4d727abecaab60U,
  0xbe870a633de82d0eU, 0xbe3143993bac6ce5U, 0x3dbc4006be969b85U, 0xbd1ad7ddbdc1398aU,
  0xbe39ba393c6c2a5dU, 0x3cbcf346bdb70b06U, 0x3d0d3c85be97f96fU, 0xbced08a0be833be7U,
  0x3db56b03bd340620U, 0xbecca89abe7ab6a8U, 0xbe464139be499cc4U, 0xbe4a735fbd268c50U,
  0xbe30d06d3db056aeU, 0xbe842e38bec343c5U, 0xbd8c8c18be046368U, 0xbdaf3d24be55e632U,
  0xbc27efd03e3e7d5dU, 0xbca60afebdd56696U, 0xbe5197bb3c4a23c0U, 0xbdaeed91be0026e8U,
  0xbdcdb5603b955651U, 0x3bac34ee3d44783fU, 0xbcc8e9803ddcfb2eU, 0xbcac5b2c3da9b43eU,
  0x3d826cbebd9556f3U, 0xbcb99d81be79ff0eU, 0xbe327b7bbebe50bfU, 0xbdc31608bea5e7dbU,
  0x3e2f9d22bd889caeU, 0xbe7dfe1ebccc647aU, 0x3d910c65be6e0e9eU, 0xbca175953d34bbdeU,
  0x3c93911bbd643f1aU, 0x3d9440a8be18e90aU, 0x3e21c63b3ca13205U, 0xbe88b0d83d5d653fU,
  0x3d3dff573e0dfc58U, 0x3da630ff3c9294c7U, 0x3df3131e3e299f48U, 0xbd771ab6bd17b00aU,
  0x3d89f92b3d8b6a2fU, 0x3d37d41638fdd4a5U, 0xbd8580773ce3b3c7U, 0xbdac8e13bdbd72f9U,
  0xbe68d9f9bd339820U, 0xbd8aa53abd5a0debU, 0xbde5b1d83e00d5baU, 0xbdcc72b2bd994c8bU,
  0xbe99e6acbcec8a13U, 0xbd7ac32e3d8ac9c4U, 0x3e1e42a9be8ae750U, 0xbe64c9efbd51cbf6U,
  0x3d7611543e19b592U, 0x3d324fb4bdc5aca0U, 0x3e035b14be2badd5U, 0x3daa0d5dbe227a62U,
  0x3e4bbab8bdde581fU, 0xbf0376fcbe4b758aU, 0xbe850274bd80a858U, 0xbdb474453e3bf40dU,
  0xbecae0483e55288cU, 0xbe382008be2a17e5U, 0x3ce41e523d989eb8U, 0xbee1922f3db31394U,
  0xbeb64aa53d17934cU, 0x3e0cc536be4270dbU, 0xbb3ce5853d873340U, 0xbee7d342be5b418bU,
  0xbd0a1ab0bcca4fbcU, 0x3a19dddb3e74d2d2U, 0xbdd24db13dd18ab7U, 0xbd9b13183e1400c9U,
  0x3d07158fbdf2eda4U, 0x3df8b4b2be3cbf52U, 0xbe57389bbeab095bU, 0xbe85f6603dfecdfbU,
  0xbe9a0aa6bd8038c1U, 0xbe4b1b433e956bc7U, 0x3c79fd393d4d8d6fU, 0xbefb5d0c3e93eca0U,
  0xbe376b62be679883U, 0x3c5103c9be912cbaU, 0xbee4c9b4bcfd9222U, 0xbe532eabbe99d06fU,
  0xbe43db7dbd933b58U, 0x3d168466be1311c9U, 0xbe9852cabd86453cU, 0xbd787abbbd5c833eU,
  0xbdc90e05be350510U, 0xbc519bbc3e2a3553U, 0xbf033fad3dd7a62eU, 0xbee038013d7b3e04U,
  0xbdb635d43d9f0c31U, 0xbe3b829fbe847436U, 0xbc61715abe279a24U, 0x3d2a6235bd9411c6U,
  0x3db6eb143dfaaffdU, 0xbdea14fc3bb69a9fU, 0xbe1da72fbdc06e7bU, 0xbd8803cebd8e24fbU,
  0xbe557e97bcf85e47U, 0x3c9c4238be0de37fU, 0xbe906a48be8055f8U, 0x3d2b693abe8ab701U,
  0x3db95d673dc99482U, 0xbdb82181be44e31cU, 0x3db1cd15bd6e7e33U, 0x3d126b4ebd830cf5U,
  0xbd6927dabd0ae433U, 0xbde1f3303e743832U, 0x3d3e9286bc53bdfcU, 0xbe6d88fd3e241782U,
  0xbe5c469ebda3f6eeU, 0xbe06107dbdd7d3c0U, 0x3d3760d3be558329U, 0xbddeb3d5be004bd6U,
  0x3e41f7cfbc90f2acU, 0x3e1fb1d63db7fb38U, 0x3e8318d4bd8c81adU, 0x3d91c061be544106U,
  0x3ddc4e783dd3ff21U, 0xbe6d186dbd3c9ddcU, 0xbb16c67d3d2efa51U, 0xbd986e013cf33976U,
  0x3d69222f3cd785abU, 0x3e50d3e8be980ef0U, 0xbe0b4e2dbe4c9fabU, 0x3daf67f5be151e6aU,
  0xbc31c9653dc475eaU, 0xbbfe4d69bd86f9e8U, 0xbe2171ebbcd1f588U, 0x3ccd4c35bd07f1aaU,
  0x3df008d8be436133U, 0xbe3b60ad3d273cdbU, 0xb7886716be334abeU, 0xbda213aebe31011eU,
  0xbe388c86bd9580d2U, 0xbc7ed41d3d17ad6cU, 0x3d64fd0ebb7d9c22U, 0xbda3375f3abcfea1U,
  0x3d17a3fabc8ce7fbU, 0xbdcf843a3ec1597dU, 0x3e28b295bea606adU, 0x3b456323be33b132U,
  0xbd769435bbebb865U, 0xbe86f1efbb974babU, 0x3d8ebed6be135576U, 0x3cc7cd043d4dffdeU,
  0xbc561d533ca622b9U, 0x3dba4c5d3da9fc8fU, 0xbe1088aabdd574c0U, 0x3d87f661be20b64dU,
  0x3d616b23bcc577d3U, 0xbe8bd6fbbd3a3d5aU, 0x3d83c353bd14b50cU, 0x3dbbbfbcbe8d9972U,
  0x3bb1dad03d0c78faU, 0xbe9bff933d605db0U, 0x3d8b353dbe8db558U, 0xbe10ca77bd25c37eU,
  0xbdd6a9b13cafae5bU, 0xbdabf65fbe676a99U, 0xbe7cb34339741d09U, 0xbda03b26bce33319U,
  0x3e6ae0b6bd4f90a4U, 0x3c9839bf3df55f19U, 0x3daa25abbe15e1eeU, 0x3cfc7a00bdbd51d6U,
  0x3c8f9f6c3c691dfcU, 0xbe53aff53db1c13fU, 0xbe14ff1c3e1356bdU, 0xbe33d7d4bedeba84U,
  0x39e0f90ebcb324daU, 0xbc44adbcbe4141f1U, 0x3d3d3d56be055ce5U, 0xbe3150bbbe936459U,
  0xbdbf17d6bca0fde2U, 0xbe1721c53cb0d03aU, 0x3dacd37fbd98f76fU, 0xbd6dc83e3d1d8f0eU,
  0x3e0b402a3cc3467dU, 0xbe19f0f73d43a2e6U, 0xbe56693e3da2c4cbU, 0xbd4c1c5b3dc976a8U,
  0xbea58cbd3d69e228U, 0xbe849e1dbe186969U, 0x3d7179fdbe2c132fU, 0xbd926a103d8a7462U,
  0xbdded1a3be0c3888U, 0xbdbca1643e9eac68U, 0x3da4b9dfbbab8ccbU, 0xbdd442243db608e2U,
  0xbe498aeebe502fd0U, 0xbe0d1c3abe3570d8U, 0xbbf718b4be46401cU, 0xb70debdbbdcaa234U,
  0x3e923e6c3db6b994U, 0xbda79914bc4e96c5U, 0x3d1a11e03def1cefU, 0x3d6a7e323e2fc294U,
  0x3db7ffc1bdc17eeaU, 0x3d0b9c583e47c55bU, 0xbd3f89a53b4f3ff1U, 0xbe321e5fbde61cafU,
  0xbe443753bd5726d9U, 0xbde397efbe7e4b31U, 0xbd9e809abdd2ac70U, 0xbe15a7ca3d9e2527U,
  0xbe09741fb9dca91bU, 0xbe233b43be492665U, 0xbe28e06cbc9522f8U, 0x3d87bf40bdc61f0dU,
  0xbdcde009bddb5565U, 0xbe06b590bc9f0801U, 0xbd340dbfbdd1e23eU, 0xbd6730cbbe39403bU,
  0xbe2e30a23d6b0e7cU, 0xbd793517bd97f145U, 0xbcc6479dbd4c1390U, 0xbdf99fb3be38a70cU,
  0xbe31cf00be1569e8U, 0x3d21d544bcb09c1bU, 0xbd3b3425be3dfc15U, 0x3d400e6c3d223c50U,
  0x3e10fcf3bd8efe89U, 0xbd84c902bb9a59f6U, 0xbb9c8b913d94f7c8U, 0x3df371dbbda84e1cU,
  0xbe176cda3d090164U, 0xbe4571af3bf8aa70U, 0xbd07d2e0be45ef1aU, 0xbd92b878be30fe48U,
  0xbd9df4483c74ecb2U, 0x3e1bef3f3e67fbc4U, 0xbcf245fd3d370903U, 0xbdefa251bcbcd29eU,
  0x3c787c5a3d6d23c0U, 0x3e493d943ddd6ffdU, 0xbb90c059be0a5e45U, 0x3dc2ee27be19e7caU,
  0x3d8a34993dfeee3bU, 0x3d304b8e3cc290c3U, 0x3e8bee88bca78921U, 0x3ea0ec83bda44eb6U,
  0x3ed375d2bdf4694aU, 0xbd93b0123e848579U, 0x3ea64e7fbd76ee5cU, 0x3cdd11ec3e2102a4U,
  0xbdcf88cd3d46b684U, 0x3f13426d3f012ce3U, 0xbba51390bcbd51a5U, 0xbd4740e7bcddcb55U,
  0x3d4f773b3e1bbf67U, 0xbc2c90bb3cfbadd8U, 0xbd1dda11be889811U, 0xbacd28873d27e884U,
  0x3dad8a11bde4b2cbU, 0x3d0afd763e1cf8caU, 0xbe0ae6c33d843d76U, 0x3d89d17a3d33924fU,
  0xbbe16ba43d3e2b29U, 0x3c1940f53d72b2f0U, 0xbdb5ab18bdcf27c7U, 0x3da9afb93d8f5bcbU,
  0xbd583e773db75e18U, 0x3e1e02aa3e26a657U, 0x3d278b95bc06c132U, 0x3d67b567be1d1638U,
  0x3dc50fd03d84ee48U, 0xbc1e99843e2e060dU, 0x3e4a9e3dbe5f9a0bU, 0x3e17cb9d3cf0f591U,
  0x3db6cf25bdffbe26U, 0x3e328645bbdbb154U, 0xbd85a4713e1f2e25U, 0xbda0d93e3eb5fd50U,
  0x3e05dce93e23832cU, 0x3e1d85753e8667ceU, 0x3dbf6104bd3e16c3U, 0x3d8e3a793cd52d0dU,
  0x3e12e8a9bb926fbcU, 0x3e0ec4b13e1a8c06U, 0xbd1f498d3e50a4ecU, 0x3dc98138be623cf1U,
  0x3bc26a25bd355f01U, 0x3e1b4a753e468b53U, 0x3e592f39be293235U, 0xbbcdc930be2d5b4bU,
  0x3d80aaba3d280e28U, 0x3d329bea3d587ea1U, 0xbe035d39bd4b5e78U, 0x3e969d8fbdb47bebU,
  0x3e12e046bdcc116aU, 0xbd1358493b3f339fU, 0x3e096fb2bd799030U, 0xbc93e6cc3b6a953bU,
  0x3d25c15d3dc0e3e0U, 0x3e9ab2273d70be6fU, 0xbcc728c63e2dcd27U, 0x3db7d18fbe658ca7U,
  0xbbd5bfb93e08b235U, 0x3e601f773ea47b4aU, 0x3e58123abe862d47U, 0xbdbc7bed3dedf77eU,
  0xbd7b30eebe846700U, 0x3e5773093d923cb9U, 0xbdd965473d981a7fU, 0x3dc847003b0d0297U,
  0x3dad7f383cd1cd84U, 0xbd465a8d3e33ff23U, 0x3c1dd4eabc492332U, 0xbd86599e3c668fd0U,
  0x3cf645153d884563U, 0x3e93b76b3e9f2507U, 0x3db0fc3a3e1b7781U, 0x3c2205b9be8745f0U,
  0xbd903671be198d9bU, 0xbd917c053edd6335U, 0x3eaa61f1be91385eU, 0x3c2c6c083e1fc21cU,
  0x3d4ea048be4b31fdU, 0x3e5855a63cfb7ce1U, 0x3c00105d3d4f2896U, 0x3d632f013cd295c8U,
  0x3e98ad9a3ceaf5deU, 0x3d99a2e33da1ef5eU, 0xbe24e4a63e1bde99U, 0x3d5c89a63e494e75U,
  0x3d8633943d9c3383U, 0x3e7e01c73dd1a603U, 0x3e4d61583e7af2ffU, 0x3dd5fa47bea2b04dU,
  0x3c03224c3df9cc61U, 0x3e8115e43eae7c50U, 0x3e7e35b1bd53a932U, 0x3df5c4fa3a36f932U,
  0x3d9ac9cabd298dceU, 0x3e2f7f173c092c2cU, 0x3d8ff12ebd1eff0aU, 0xbdb3115f3c25726bU,
  0x3dfb0919bd0ab0cfU, 0x3d5d7a293dfa3256U, 0x3dfb6be53da33147U, 0x3d265f1a3d739773U,
  0xbb0d9bcd3ca25c47U, 0x3e13f5813e11e6a7U, 0x3d2b4a2a3e923e0aU, 0x3d95b12fbe301db0U,
  0xbc8eab3cbde16debU, 0xbd8b1f143ed6b659U, 0x3ea652a93ce95544U, 0x3cfe0ef93e720444U,
  0x3cd68ee5be4c67a0U, 0x3e694f973d5c5f8fU, 0x3dc5f44fbd8a4d61U, 0xbd13bf2a3dbd607cU,
  0x3e4c5fea3d25c7c3U, 0x3a01c8983dad9410U, 0x3daa3f653e478133U, 0x3d84751b3e6aa69cU,
  0xbcf61f343b41d14bU, 0x3ea0560d3df8306cU, 0x3dc059fc3e780ddbU, 0x3d3927d63c94cb84U,
  0xbde4b9febdea500fU, 0xbc8604713ed1762eU, 0x3e8d9a343aab48adU, 0x3e1396563e72c860U,
  0xba9044573def54d3U, 0xbe4e40923dbf882cU, 0x3e91739b3d478b16U, 0x3e897e0ebce10fc7U,
  0x3e8607453df49eedU, 0x3e095893bdec8cf2U, 0x3de94aebbe0168dfU, 0x3d8005833d2cd7a3U,
  0x3d65adff3d484481U, 0x3e5f716c3eb90172U, 0x3e63e9a73ddb52aaU, 0xbc33214dbde45234U,
  0x3e4ef7533d3bcbfaU, 0x3eaa3b5dbe900843U, 0x3d90a3acbda52c27U, 0x3ddbcf1fbe7c60baU,
  0x3d1997f63e27a0f4U, 0x3d50b3dcbd9ffa65U, 0xbc7bc10a3c436f0eU, 0x3e90a7003e02c74dU,
  0x3d8808e9be13f54eU, 0xbdf692fb3d0f1a5dU, 0x3de033a43daef055U, 0x3da509813e0acd38U,
  0xbd936548bc238a49U, 0x3e8d9d5fb992b80aU, 0xbe403b983d2efbc4U, 0xbd37cc2b3d4d1237U,
  0x3e9bb8713dccf9aeU, 0xbdcc64c83d2ace84U, 0x3e15efd03ce1a3e3U, 0x3d0a3e4cbdaaae4eU,
  0xbd01457cbee0e213U, 0x3e18ba823d047f1aU, 0x3d7ca999be27a8fbU, 0xbdf7976d3d15eae0U,
  0xbe8d6db33dc10cfbU, 0x3d0f5d993d3622a5U, 0xbf6500913da34b96U, 0x3c6933e83e095cc7U,
  0xbdabdc8bbbe6bc48U, 0xbe60aed3be2f11b4U, 0x3c050d603d6ef3f8U, 0x3dc0bf2a3e621e1eU,
  0x3e4f5da03e3b74f8U, 0xbe1ae0463dbcb4b6U, 0xbd4697bc3e3f608cU, 0x3b9d5ebf3d480264U,
  0xbb1aa233bd95b73aU, 0xbd9ec35a3cc9836fU, 0x3e866e0ebcc1ee42U, 0x3d67ba9fbe55f89aU,
  0x3ea0e7ac3cccef49U, 0x3e24329cbdd25e24U, 0x3ef8ebeebdfb8deeU, 0xbc66f298bda3f95aU,
  0x3d842efc3d9c358dU, 0x3e22c6733ead59dcU, 0xbd0d968fbd3db887U, 0xbd781a263d2fa202U,
  0x3d2ea8d33d18a32fU, 0xbd8ecee0bd7ec230U, 0xbc14978cbe233cfeU, 0xbe24c0983da61b31U,
  0xbe457c9b3e12105aU, 0x3cc2e027bd0596fbU, 0xba16b5c73d975563U, 0xbdb46b97bde77126U,
  0x3e09dc793cc9ebc8U, 0xbb073248be1811d4U, 0x3da4f9833ddf8691U, 0x3d0590ba3cf1ce94U,
  0xbdc0d95dbba5e8deU, 0x3e1d8548bdb77de3U, 0xbdf2a379bc315669U, 0xbdef9a70bdfe4770U,
  0xbe605b4bbdf84992U, 0xbf6cfd7e3b2e76ddU, 0xbdf63c35bd8cd565U, 0xbe1406383dc8ec11U,
  0xbe346796be97547fU, 0xbe03fe74bdbc28e1U, 0xbd25bc7fbd89ebadU, 0xbe7b0aeebdd21ed1U,
  0xbd9b80a4bd363d6cU, 0xbcfd445abd94310aU, 0xbf4bd0913dced336U, 0xb90400003dab7326U,
  0x3c74459bbc61c3a8U, 0xbe609762be8bbc88U, 0xbdbfeab2bda70ef9U, 0xbd99b662be4135c2U,
  0xbe0274f13ed137e3U, 0xbe040963bde97512U, 0xbe43b29bbd2e8a16U, 0xbd11ea40be081c85U,
  0x3da7d5a23ce2ce8aU, 0xbdb392ee3ccaa7daU, 0xbd3e62a23e519aa4U, 0x3cb806c23d9b4b87U,
  0x3ea2ca223bda4e1aU, 0xbd75023abd071970U, 0x3ed19ffabd862cb3U, 0x3cf1de803d9c820fU,
  0xbdc56f2f3e321b3dU, 0x3dc7e8963e993b6cU, 0x3e4fd90f3e972f80U, 0xbccc0f7dbe1ad1b0U,
  0x3c40b848bbd48831U, 0x3da85e8abe85ab08U, 0xbe3598783e53d7a2U, 0x3d4d3afabd3060fbU,
  0xbd6b9874bdadaa97U, 0xbe7832b93c527950U, 0xbe33b0cbbca56787U, 0xbe4af14fbc914fe7U,
  0x3c95f1fb3ce4695aU, 0xbd7629b5be8cd780U, 0xbe0b7862bc644be4U, 0x3c324018bdc4d7d6U,
  0xbde17007bda39908U, 0xbe34735dbe4d4ceaU, 0xbdec9b64bdf36a80U, 0x3c21c50f3e19871bU,
  0xbdedcd03be200e84U, 0xbe88ad67be28dbadU, 0xbe362d7d3e331faeU, 0xbc433ec03d3643ceU,
  0xbe9a6239bea9914aU, 0xbe81b28cbd0ffd04U, 0xbc8523f73d46fefbU, 0xbe5ce201be41330bU,
  0xbe99a17d3d63339bU, 0xbd568e69be85ad1dU, 0xbeb79711bce5c8feU, 0x3da66899bcf2e979U,
  0xbd6e5a86bd14d719U, 0xbb0f3fdebe83812aU, 0xbd1e4606be866746U, 0x3ca76d653e834ef8U,
  0xbec879013e1b7e4dU, 0xbedcf30cbebf3eb9U, 0x3d93c9663d24b595U, 0xbe112a503e20414eU,
