/**
  ******************************************************************************
  * @file    network_data.c
  * @author  AST Embedded Analytics Research Platform
  * @date    2026-03-30T10:30:56+0530
  * @brief   AI Tool Automatic Code Generator for Embedded NN computing
  ******************************************************************************
  * Copyright (c) 2026 STMicroelectronics.
  * All rights reserved.
  *
  * This software is licensed under terms that can be found in the LICENSE file
  * in the root directory of this software component.
  * If no LICENSE file comes with this software, it is provided AS-IS.
  ******************************************************************************
  */

#include "network_data.h"
STAI_ALIGNED(8)
const uint64_t g_network_weights_array[112582] = {
  0x3e5091783cfe3369U, 0xbe07cf73bdbfb2c9U, 0x3dfe4d7c3e30ff28U, 0xbe0f5ea9bdfb3171U,
  0x3eab69843e118a5eU, 0xbea8b914bc582ccbU, 0xbf09a94cbda89608U, 0xbec9f2c73c3e9504U,
  0x3e9a09b83da205afU, 0x3e497df63df5d257U, 0x3e0c92cd3ddda47dU, 0x3d85fe0c3e3a35d9U,
  0x3e25bb203dd4bf8dU, 0x3d73f9b7be02d7cfU, 0x3df35aae3e4c08a3U, 0xbd8a05b9bdbddeaaU,
  0xbeabe9023e843868U, 0x3e4adbe7be18d89dU, 0x3b93d2c33e8f2fdaU, 0x3e2b303bbe66b724U,
  0xbe92768ebdabcda1U, 0xbe62cdec3e1365f2U, 0xbb200d51bd8dd860U, 0xbeba0664be792fd1U,
  0x3e2692093db47624U, 0x3dc5de60bc3c96c8U, 0x3ca0f49e3e7b8be3U, 0x3e593c0f3ccbc92aU,
  0xbe4b0ef9be141393U, 0xbdbb3f3f3d05e2acU, 0x3e150aa9bd8fca44U, 0xbdf90ca93d8746abU,
  0x3e0aeec03e14b9ceU, 0x3d9d3d2f3da16a51U, 0x3ccb57fb3e0e7faeU, 0x3e1079d83d2df4fcU,
  0xbe4a3ebabcb5d5f2U, 0x3e86f748be8d58cbU, 0xbdd8d3d13d348546U, 0x3d735e693db70c3fU,
  0x3e5367613d5d6975U, 0x3e98873f3e1c3919U, 0x3c7e76533d5e4323U, 0xbe8f3190bb574b1cU,
  0xbe890a64be434152U, 0xbe65bff1bde9e760U, 0xbeb9c3a8be848c95U, 0xbd5e3e27be4a705cU,
  0x3e542df2bd9d8a99U, 0xbe286fdd3e9f247dU, 0x3daad2ab3deab980U, 0x3df76c033d273244U,
  0x3a5fdf043dddd1cfU, 0x3c32dc333e36b5c0U, 0xbe970b40be5194f8U, 0xbc64daa6be5b5c85U,
  0x3e59d55d3d696944U, 0x3e360ee63e828ab2U, 0x3e2e41a83b2f708aU, 0x3e8865f33e7738ecU,
  0xbda5be5bbc7127b9U, 0xbe73e6c1bcd9f360U, 0xbe441a89be4651e4U, 0x3d8152a33e2db183U,
  0x3e088ccb3e18d6f0U, 0x3e3727dd3cedffffU, 0x3e14bf5dbe255c00U, 0xbdea5fa23d424062U,
  0xbe41653fbe8f1bcbU, 0x3e2051ae3dd88559U, 0x3bf5154f3e1d80aeU, 0x3df4b9893e3bf2ddU,
  0x3e277ab53e3545d6U, 0xbe15bfe93de00e3cU, 0xbdeb9f323e1079a5U, 0x3d80a185bcb88567U,
  0xbe544f733e26a8cdU, 0x3d517739be52d6f6U, 0xbd93c3533ca3c1f9U, 0x3e4418c03e5d0050U,
  0x3e436502bbe450e5U, 0xbde3908abeaa2214U, 0xbe5a4bf83e3fecfeU, 0x3e9016273d799457U,
  0x3e097c443d5c8686U, 0x3e18a323bbc062ebU, 0xbd3c3893bde61b6cU, 0x3db8e69b3d9ca4acU,
  0x3de368e73e047667U, 0x3d93608abde0895fU, 0x3e25ad89be353adfU, 0xbe9c641a3e377199U,
  0x3e4a35633b4ecf04U, 0xbdb2418ebe393142U, 0xbe1061233e250132U, 0xbe3aaabf3b242dabU,
  0xbda6fa1b3cfbf229U, 0x3e38804ebbc1f4a0U, 0x3e462af63e1c15ceU, 0x3d1a8c803dd6ab05U,
  0xbd4a74303df1ed82U, 0x3d305d063e27d80dU, 0x3e012c893e3498adU, 0x3e26adbdbdbf364aU,
  0xbe907ad03db8c1b1U, 0x3ce066ce3e852889U, 0x3e4b876bbea94e97U, 0xbe34d053bd1377ffU,
  0xbe28db903e3b0155U, 0x3e2d2cc4be966365U, 0xbcaa00cb3dbec618U, 0x3d26d7263df7501cU,
  0xbd6fd17d3cdd6375U, 0xbdf2b7f93dc16e98U, 0x3c5aa68b3e825af8U, 0x3e9af280bdfc76c1U,
  0xbe886f8cbdcb8383U, 0xbe42d48f3e30efa7U, 0x3d64ada13dff44d7U, 0xbe2af8b1be9fe415U,
  0x3d02f085be3a4976U, 0xbe4456f73e922a00U, 0xbd00526ebeabf87aU, 0x3dbdc925becb2ca8U,
  0xbdbbfb153de6cdb4U, 0x3e85cc013de5edeeU, 0x3dea5c56bd82a88aU, 0x3db0567f3dc7ae55U,
  0x3e2631d53cfc1262U, 0xbe3c8a43bd6277c6U, 0x3e08cc66be22aaa8U, 0xbdaf84bf3dc70e43U,
  0x3e3b3f5f3d9b9124U, 0x3e15c8eb3e2f0a16U, 0x3dec0ddd3d90d7faU, 0x3d9f89b43e08d5e8U,
  0x3d9c761cbe47f6efU, 0xbe15bc2a3e551e27U, 0x3e3bd9b6be0bb387U, 0x3e043cbd3e27a00eU,
  0xbe1e99bf3cb17045U, 0x3e05ca3dbc498f8eU, 0xbddc543fbd9430e4U, 0x3e1de94b3e3b8c97U,
  0x3da757dcbcd760aeU, 0xbce8d9fdbd32d7e0U, 0xbc387e7e3c8332bfU, 0xbd2117f9b9cb9fe6U,
  0x3cfeba533db8a1ecU, 0xbcf3bf633d3d2b0aU, 0x3d5566573ca6d4ecU, 0xbb62539cbc9398deU,
  0xbbcfec76bc30cc1aU, 0xbbfc2abbbc65ba99U, 0xbbe43565bb282737U, 0x3caabebcbd2c41bbU,
  0x3c08d3b1bcbca461U, 0x3b0f667fba1273e3U, 0xbc94538ebaa9d9b2U, 0xbc189955bcea54aeU,
  0xbe18e38d3d31f0bcU, 0x3a8adba93d6097b2U, 0x3e391e58be00efd1U, 0x3d30fb233e26501dU,
  0x3d7b85c73d0e4dcdU, 0x3cd80297bccb7aa2U, 0x3d7726ce3d68b67aU, 0x3df3f3d03d32aba0U,
  0xbd846ccabc2f5dd4U, 0x3de6fd2f3cd89b7dU, 0xbcb73beebdba32b4U, 0xbd8ff1263c0ed247U,
  0x3c77026d3e266b4eU, 0xbe0eac79bdec3cc4U, 0xbcb5bc09bc4e9635U, 0x3deb09c13d59489cU,
  0xbbf14b873d470111U, 0x3ad5e7c5bd83f9d5U, 0x3e034a6dbca79981U, 0xbd6ea7083d9e8f7fU,
  0xbd85be103d4cbbb7U, 0xbc9d624e3bc88361U, 0x3d2b24a03e679ba7U, 0x3e1843b13d237c4bU,
  0x3cd769a13d5f8ebcU, 0xbc5b6b18bdb1a340U, 0x3d3cde9ebdeda7a7U, 0x3cb965f93d8324b2U,
  0x3e0027253dcb0b65U, 0x3d45a9a33d0ba24eU, 0x3baa33603d99ff63U, 0x3c4e56c2bd47f379U,
  0xbd7e55f7b900807aU, 0x3d53e3243d814e5fU, 0x3e3867dfbe288242U, 0x3d9ec1fb3c5410b1U,
  0x3d5cb8e63ddc5369U, 0xbd9876b43e387e0bU, 0xbcc611e73e6c35a1U, 0x3de4afb23d564b32U,
  0x3d89e0fcbd2aec7eU, 0x3db7840dbba9429aU, 0x3df42a52bd8ba186U, 0xbddb4c5cbda6052eU,
  0x3db1fa783bcb5187U, 0xbc2f4d373d8d6cf9U, 0x3dacdeb53cc39f8aU, 0xbcad44473cb8d220U,
  0xbd8669393da1c74aU, 0x3c1b78d83d207722U, 0xbdea55c7bd3481d9U, 0xbd61beaa3e24b239U,
  0x3d9cea9fbdb67708U, 0x3cc9eea6bd67d21cU, 0x3dc67aeebd6fb201U, 0xbe035336bd861dacU,
  0xbe7788783daf2232U, 0x3d5f97bcbd6b19cbU, 0xbe37f11bbc21d2b8U, 0xbddbedccbdb658b5U,
  0xbd584da7bd559094U, 0xbe7abc6bbdb33f90U, 0xbc75986a3de8b3a9U, 0xbcb3bc46bd29ac1cU,
  0xbcb060fa3bfc1053U, 0xbc8277debb1738c8U, 0xbcdd05c83d3ccd4eU, 0x3d39c0c0bd493839U,
  0x3d5056d9bd753430U, 0xbdb69625bdf234a7U, 0x3e26b367bd3d3080U, 0xbdc33a43bc90f274U,
  0xbe014fa33d3f2962U, 0xbd99583dbda1a990U, 0xbdd3f4eabd6855a0U, 0xbd9f26b53c64a21cU,
  0xba3004923d6230a3U, 0xbe07cc933ddc34caU, 0xbd2bf488bcaeaafcU, 0x3c8af2873c889081U,
  0xbd2b1f8d3da7a39bU, 0x3cfbe5863d2c379eU, 0xbc419587bdf8525aU, 0x3c7f500f3c8dc038U,
  0x3dfd5a9bbda8ca15U, 0x3d2b481b3a819c83U, 0x3e2b9c1f3d23dd5fU, 0x3d8b0b873db02585U,
  0xbd2049993ccf706fU, 0x3d42b4edbd6d8b07U, 0xbdae82813d724dcdU, 0xbd47ae533d333a36U,
  0xbdbceeb3bc850761U, 0x3d6197babcb0c01eU, 0x3d7c8f023d95ddbaU, 0xbc0266533d3ec780U,
  0xbde29301be16e9c2U, 0xbe16c360be2592faU, 0x3e266d43bddf1456U, 0xbe14adcebe447917U,
  0xbd6c3e2d3d3f2099U, 0xbe0aa9c9bd9dd95fU, 0xbe1d75c53e3c2021U, 0xbde84e3ebe2e724bU,
  0x3c0b1ab8be0c4438U, 0xbd84616cbe091425U, 0xbcc496a0bc3a4769U, 0xbcc8b88fbe09166eU,
  0xbd0d32b2bd85b84aU, 0xbc067a05bde7991aU, 0xbd8b0803be4f60bfU, 0xbdf7018fbe0f8ca5U,
  0xbcb0ec59be007377U, 0xbd9bb9c6be410ffeU, 0x3bf9b74ebe1bc137U, 0xbd1b8901bd4a04a6U,
  0xbc87e0b03dc45628U, 0xbe26efc63d871f9bU, 0xbc8e85f4bcdf4d84U, 0xbd3a066bbdc350ccU,
  0x3cceed6fbd465038U, 0xbe064be93c46110bU, 0xbda18293bde7b0a6U, 0xbe209f63bdfbee79U,
  0xbe35388fbe104658U, 0xbd77f678bd003bc8U, 0xbd6349b3bbb80595U, 0xbd4e815abd9a1d57U,
  0x3c14bff23d03ef90U, 0xbc1b7f74bbcae1ddU, 0xbdaa3a13bdc549b0U, 0xbd86c2b43cb5c8b6U,
  0x3dd1f891bb21fef0U, 0xbdc8868b3d8396bcU, 0x3d4730493d0d0442U, 0x3d29a9cd3cb92b62U,
  0xbcd5a8c2bdb3967eU, 0xbdca79163d9365adU, 0x3d835bd23d322fc9U, 0xbe39440fbdaa18dfU,
  0xbe3cb892bd9d4376U, 0xb78b45da3d8b3be1U, 0xbcad43563de22c55U, 0x3c049f0ebdb562d7U,
  0xbd4ea6b83dfb8179U, 0x3cbd9bff3e027800U, 0x3d92fa393de63a4aU, 0x3d2ed0893d99134aU,
  0xbc80a6bc3dce0b4eU, 0x3da1511fbd81b9c9U, 0x3d282f5cbd4ec64cU, 0x3d94314a3dc78a9cU,
  0x3dd5acd4bc35ec22U, 0x3bb3c1153ce6e532U, 0x3ca313233e5edb57U, 0x3e289cab3e04ff90U,
  0x3e111846bc0f9422U, 0x3d5f9a09bb131fa8U, 0x3c33bb103c7b0115U, 0x3df8aa093c4a0aa7U,
  0xbd49855abe034023U, 0xbde415abbd9241eaU, 0xbe6e527f3d8536b7U, 0x3d0c56c0be530d45U,
  0x3d089ab63ddf11dfU, 0x392f71c2bd0cb0fcU, 0x3ce1f70ebea50c25U, 0xbe850459bcd85339U,
  0xbd159677bd9b1228U, 0x3b1008903dd08076U, 0xbe18173c3e189242U, 0x3c723900bb81a3ecU,
  0x3c88bb893c800dfaU, 0xbdae40683db2274dU, 0xbd7c2be5bde2a63eU, 0xbd34f710bdccd364U,
  0x3e093f36bdcf113bU, 0xbe2185f4be2636a1U, 0xbe70f2a73d769d68U, 0xbdbb08f0bdf64d8cU,
  0xbb53f827bc90701bU, 0xbd9721813dad29afU, 0x3c25390cbe33943dU, 0xbe1af4dabca2f2c4U,
  0xbd5eab95bd7c418eU, 0xbdb7161abe1e3a9cU, 0xbdd90686bdeb7a6fU, 0x3cdcd63dbdc0706bU,
  0xbd53f4d3bd731f4aU, 0x3dcb37dc3b901295U, 0xbde428c8be09d6cbU, 0xbd3e5b56bd9b33a7U,
  0x3d7768fa3d38514cU, 0x3d8879983da80746U, 0xbd9db46a3e49e786U, 0x3cd7116abd548bd5U,
  0x3b9c078f3d98c2fbU, 0x3d673696bdd57d2bU, 0x3dca5180bc8e9645U, 0xbe1beb4b3d6b5c2dU,
  0xb8be05603c4cea4cU, 0xbcb3d2653c3f87d5U, 0xbdcc7b6c3d60a1e6U, 0x3e0fa2223c139ac5U,
  0x3d912bfe3d4c59e1U, 0xbd5bee223e0daae9U, 0x3dc34ff83d5f87a8U, 0xbd9a3dc63d8377d4U,
  0x3e376ad2bd6d6198U, 0x3c430eb3bc0d162fU, 0xbeb8682b3dffc4d6U, 0xbe194c1cbbe26951U,
  0x3c39ee0ebd643474U, 0xbe47c2123dae0a6bU, 0xbd8f825abe54d0beU, 0xbe22d0a2bdffd4ceU,
  0xbdffa2b6bdcc8c4aU, 0xbd33e937bd7ec907U, 0xbe0bbb103dac1fa1U, 0x3c659a02bddbb060U,
  0xbdbd2ea3be18026bU, 0x3d1f69d73e1ce909U, 0xbd871a79bdabd662U, 0xbd72fd57be33f3ddU,
  0x3ea4edc23d89b606U, 0x3c3ae564bc989684U, 0xbc864f9a3d3e5ab1U, 0x3e00d8453d8b80f8U,
  0xbdc823bebe215d80U, 0x3df70eea3e836789U, 0xbe28aec53e291592U, 0x3e3823a13b008f10U,
  0x3c8e8edabd27e1d6U, 0xbccb574b3da60c78U, 0x3dca8e9d3ce49d80U, 0xbe0c5001bc7d725bU,
  0xbdf6f90dbdbcfb18U, 0x3e6724133e1594dcU, 0x3cd4bb31bd8a92a0U, 0x3e149b78bb9d8534U,
  0x3e89ebdebd3600caU, 0xbe014f79bddc30b7U, 0xbe6282733d98a97cU, 0xbd8ff6c1b9ecf371U,
  0xbdace291bd6a75deU, 0xbda57625bd292fe5U, 0x3b11cb2bbe0ff5bcU, 0xbe74ee5dbe24e55dU,
  0xbdf36c16bd748646U, 0xbdd8abacbdd97e14U, 0xbdfafbdcbe294078U, 0x3db0a23cbe159b24U,
  0x3c970fb23c8a7286U, 0x3d5ff8cc3e1d9ccdU, 0xbe02d2f1be033445U, 0xbe172d90bdc4060aU,
  0x3e2a0724bd09131eU, 0x3ca2792dbe432afbU, 0xbe1b81ae3dbe2513U, 0xbd9125b9bd9c8141U,
  0xbe742546bda15fabU, 0xbde4ab03bd28d878U, 0xbea449e3bd8fbb3aU, 0x3d132f3ebe245b73U,
  0x3c6fd53ebe28c46dU, 0xbe0745ca3dee9f8fU, 0xbdd3b2283d5d14baU, 0xbc236679bd8b54b9U,
  0xbdb9cebfbe7b7e48U, 0x3e247139bd07eb21U, 0xbe35605abe1c17baU, 0xbddcc1e7bdfb72c1U,
  0x3d9993e23d410706U, 0x3da1354a3e205e7fU, 0xbd14ae82bd439937U, 0x3d235b30bd480c24U,
  0x3e1c6599be11f9f1U, 0x3de63a1e3db6118bU, 0x3db427f83baa613aU, 0x3ba1e50e3dece515U,
  0x3c7d7d37bcc9e2c3U, 0xbcc25cdb3d24f70eU, 0x3c74dc033e254d58U, 0xbb3906473d658c29U,
  0xbbdabb05bc70cf99U, 0x3d404e11bd2eace7U, 0xbd2520143e247b82U, 0x3dcdf0d53d3a6316U,
  0xbdb61bbe3b1e5da3U, 0xbdd26636bd18b696U, 0x3da561d9bda99b2fU, 0xbd4de9abbcb8aea1U,
  0x3d2aa7aabdc1dca7U, 0x3d78e40a3beecc4eU, 0xbd8402873e581900U, 0x3dbddb70bd0a81baU,
  0x3d8d5c4b3cd54c65U, 0x3ce4baeb3e3b3b51U, 0xbd3371b7bd1105c6U, 0x3df9964b3c651e3aU,
  0x3d43f030bd9de208U, 0xbba8bee6bd83d5f2U, 0x3b14b8a2bcbb8a34U, 0xbd199349bd5ba9a8U,
  0xbdcdd7e63c161926U, 0x3d2630b9bd4a6d41U, 0x3d7605183d3eedd5U, 0xbd7756843dbbd9fdU,
  0x3d8536773d6e825cU, 0xbda2c7f5bd907d59U, 0x3d12e5263d672afaU, 0xbd617c37bd89414aU,
  0xbd75e6fdbdab4beeU, 0xbda34abd3d9ee943U, 0x3c1eeb853cee0b11U, 0x3da76cf9bc991518U,
  0x3c33b0653ad225d9U, 0xbd3d02033db69a81U, 0xbd76b738bcb96937U, 0x3cb0c0113d119410U,
  0xbd1553463d047fd4U, 0x3c1d6a25bd11efd6U, 0x3dfa507dbcbddc46U, 0xbdf1ccb43e34869aU,
  0x3d83de853dff00a0U, 0x3d02d5173cf3942cU, 0x3d9107e03db6209dU, 0x3db9131cbc1a245dU,
  0xbd866508bd7daab4U, 0x3cf0fc8bbb367623U, 0x3d742d253cbf12f7U, 0x3dc68584be083191U,
  0x3d1c2bfb3d9c32cdU, 0x3c3c3a793c95dcd6U, 0x3d53744dbdbb42dcU, 0x3dc0e4343cd2024fU,
  0xbd351f82bb191803U, 0x3ccb656fbc2fce56U, 0xbb0bd55e3c433521U, 0xbcb54dd13dd40058U,
  0xbe069941bde188f1U, 0xba8d3a3fbdaea5bfU, 0x3c6d91fcbb2b8105U, 0xbcdbe7b8bd64dbfdU,
  0x3d7dc6413ce1eb45U, 0x3ace7b9dbd7c45feU, 0xbc2f8ad03d51d25bU, 0x3c249d0abd2aa989U,
  0xbae6ea6c3ddc3dc2U, 0xbe13c4d63cd48193U, 0x3cb670a3bda4dd5fU, 0x3d4505773db17809U,
  0xba122db23d2c1206U, 0xbafa76e0bc4ffbe1U, 0x3d7c4e92bdf2acafU, 0x3da84c603c5cb6daU,
  0xbd869dd3bde1dd1fU, 0xbd2bea613c55ec8fU, 0xbdf573753dacc9c5U, 0xbcf31b28bd77a7b9U,
  0x3cfa49cfbd28a655U, 0xbc0512003d113aacU, 0x3d5d9399bdf17a93U, 0xbcf9ef8cbcc38247U,
  0x3d7d86683dbb4c70U, 0x3d17546d3de60723U, 0x3cdb7e15bd375204U, 0xbd57f2043dc581fcU,
  0x3d7aa8543d071029U, 0x3a9d2a4cbc2cbc32U, 0x3c856fca3d2eb348U, 0x3d6203443d276e5dU,
  0x3dc49e783c9ed398U, 0x3db4f009bc061351U, 0x3c59c91b3b1cb5e6U, 0x3dcb49993d124072U,
  0x3bb87a1c3d8b82ddU, 0x3d729d1e3dd7fa63U, 0xbca27108bdb38367U, 0xbd912d0dbc838b36U,
  0xbcb36499bd9f8c10U, 0x3cdfee7c3dcad9f6U, 0x3d4d39abbc616c6bU, 0xbc142f1fbd81a62dU,
  0xbe47a39f3daf81dcU, 0x3b4346873da36819U, 0x3e55232abe139d33U, 0x3d8ba98a3db619e6U,
  0x3e5323ac3cb87122U, 0x3d216e18bdf3e58dU, 0x3e0aff283dfa56efU, 0x3c4f2d9b3c61764bU,
  0x3c9636f33d9a6736U, 0x3dbe746d3db9d992U, 0xbd8bdb83bdadc168U, 0xbc834ee0bd05a9bcU,
  0xbd98553eb9f5edccU, 0xbe593e723aed395cU, 0xbd047b3b3dcb570eU, 0xbd15bff13d3dbcd4U,
  0xbd403d233ce8f25bU, 0x3da269583da94234U, 0x3df764a8be396fdeU, 0x3d87fc873d37fba0U,
  0x3e16c7c5bd109f96U, 0x3d824499be005fe2U, 0x3de116283d9c9e8eU, 0x3d302d99bcb02456U,
  0x3d71e1543d8de011U, 0x3b1f47b8bce2348cU, 0xbcb10bcabddfe7ecU, 0xbe032c8a3d445e28U,
  0x3c9bdda23cf32866U, 0xbe340d883c426b7dU, 0x3d6bb9c43e0f0a61U, 0x3dd2fd173c4cff8dU,
  0x3d9516f43ceed92fU, 0x3d19946a3d1bb909U, 0xbc89d482bdd64cf7U, 0xbd9b20c3bcf75225U,
  0x3d791113bd733bd7U, 0x3cc4f5e13dd674ddU, 0x3dce74163e26fc43U, 0x3d658602bbe720abU,
  0xbc874e36bd282477U, 0xbcf1c8a5bdc2926dU, 0x3d42486cbdc8b72eU, 0xbcd77ec7bcfcf9a1U,
  0x3be5d5113be9fc61U, 0xbd8efdfa3d962d8aU, 0xbcaada8bbccbd094U, 0xbd76c5d83bdc4ae8U,
  0x3d0b1e63bd8e7336U, 0xbd9d441bbca9865fU, 0x3e832b0ebd90f2efU, 0xbdeaf6e8bd8da2f8U,
  0x3dbe6b213e524c34U, 0xbce10e8e3d87b2d2U, 0x3bca91843e83c14dU, 0x3dedc495be2ad4ecU,
  0x3d8be62cbe32827dU, 0xbdb4794fbda84b47U, 0x3e142986bd8c796eU, 0x3d788351bdb847e8U,
  0xbb8ff4a5bcc674cfU, 0xbd8844fc3d7750aeU, 0xbda90d1ebd9649c4U, 0xbcbaf79abda0c5bbU,
  0xbccd9e3fbe000d06U, 0xbd7c0c3dbdded328U, 0xbcdd10cebd58151cU, 0xbe447a4cbdd97739U,
  0xbc91bad43c873d06U, 0xbe252922be1d0821U, 0x3cbffd913c3dff35U, 0xbe39ac37be10b41aU,
  0xb9a8f7fabe1677e4U, 0xbe3ac106be270844U, 0xbd8dcac73d785497U, 0xbde31005bd9310ddU,
  0xbd2f26d0be01d824U, 0xbd7794e2bdc4d231U, 0xbe2710e4bd44d793U, 0xbd83234dbe48d416U,
  0xbe43796cbc2a5fc4U, 0x3ce3309ebe183e30U, 0xbe362298bdbc668fU, 0x3bedfb70bddc08a6U,
  0x3ddb93ffbd5f0be4U, 0xbe0a59e6be075e1bU, 0x3dc65eeebe505afdU, 0xbe44038b3c949d9fU,
  0xbd327795bdc2324bU, 0xbe0919203c1bdfc8U, 0xbe8902ef3e28ab0eU, 0xbe2d0c8e3ac4a79dU,
  0xbe611863be117211U, 0xbe4f5ff6be649d54U, 0xbd8d1dacbd32bbffU, 0xbe4005e8bd8e0c79U,
  0xbd81791abaf42f20U, 0x3c3015723dad5349U, 0x3e0a612fbce7fd0cU, 0x3d48b0ac3dc3b571U,
  0xbe8cdfab3e4a6475U, 0xbc98ca6e3e47331bU, 0xbdc978143e728e2aU, 0x3de0eb7fbd0a495fU,
  0x3d34d9713d856c6dU, 0x3e0f5dd03cd1f6efU, 0x3d7098773d30b111U, 0xbc1b33dcbd0879f8U,
  0xbcc8c47d3e22a0dbU, 0x3da4db99bdaa1267U, 0x3dd9c528bda73384U, 0x3d04b06d3d7fc161U,
  0xbdc175853d4c741cU, 0xbcf3e0c73cb65e95U, 0x3e65a346bd011248U, 0xbd76c7b83cff0e12U,
  0xbe8a4b023e5b55c2U, 0x3c9e0e283d745e07U, 0xbe86dd883e4ba25cU, 0x3d7c2ce33ba75a90U,
  0x3df31430bd8db6e8U, 0x3d5017a3bd97deaeU, 0x3d37242ebe05805dU, 0x3df08d57bce48300U,
  0x3da7ccc33cd9c15bU, 0xbd2318edbe26d9e0U, 0x3d538b4dbe2ca9cfU, 0x3c13acad3bf60a02U,
  0xbe46172cbe4d26acU, 0xbdc421eebd135d40U, 0x3c728fd6bc9ba575U, 0xbe00b3d5be21fa8fU,
  0xbe649fa53e06a44cU, 0xbe4e8406be5bf7a4U, 0xbe131c03bd2af4b1U, 0xbe0a90d2be5fa7c5U,
  0xbd900a11be476829U, 0xbcf969cabe468bb1U, 0xbd68c3edbe2887d9U, 0x3e2a1e7fbde452e1U,
  0x3e0b62773d9b5597U, 0xbdddb701be2a2a59U, 0xbd96f1ccbe0c9600U, 0xbd73beb5bde17cc9U,
  0xbda415d5bcce4401U, 0x3ddb32cf3c7e6f40U, 0xbc52c9113c478275U, 0xbc48f0a7bd2c5d35U,
  0xbe0ace5ebca14717U, 0x3c697f34bd0cea6dU, 0xbdf86621bd68ff8cU, 0x3dba3cdf3dd15fc6U,
  0x3ca2bd763dbbd115U, 0x3da17932bbb07d33U, 0x3d94443f3e0fedb8U, 0x3d90e4a73d351894U,
  0x3df9b95bbc9f74ccU, 0x3db6a3b53d02dcf0U, 0x3df6e3d63c2e66e7U, 0x3c8751d4bcca59a3U,
  0xbd5fc28d3e2271c0U, 0x3e2e67153d7f209bU, 0x3d75abd23d8cc143U, 0x3d6c201b3e6018c9U,
  0xbe621aae3e075d05U, 0x3d00ca76bd9d1a6dU, 0xbd7a68193c11c447U, 0x3d654d9c3a981a4dU,
  0x3ddea9ac3e28bd94U, 0x3dc55c95bcbb4e30U, 0x3dacfedb3e1b0303U, 0x3d91cfb6bb17fe96U,
  0x3cdcae853e39bed3U, 0x3df27be3bd7b073fU, 0x3e2137f4bc3a866eU, 0x3d977d0d3d8374d9U,
  0xbe5680ad3df03bafU, 0xbd22f00f3d953042U, 0x3e5bbb0d3c97c40bU, 0xbc830cf03cf76590U,
  0xbeb1804b3e25f8a6U, 0x3cc0cdb3bbc5e9c7U, 0xbe546b243d59fbe9U, 0x3c9f8b783d5d1a1cU,
  0x3cae6ec63cded6dcU, 0x3e18043abdedefceU, 0x3e0b7d1ebd858e74U, 0x3e2256713caab7abU,
  0x3e17a5453e38017eU, 0xbc76aaaabdd05ef6U, 0x3d5a44f2be29ad5aU, 0x3e2f62ac3d48909aU,
  0xbd8f0a01bd93bb52U, 0xbdd9720dbc894bcfU, 0xbdd63c4a3e151ec8U, 0xbdb25bb83c84a706U,
  0xbdf569563db5bf34U, 0x3da0c260bd883ba0U, 0xbd5b3da6bda746dcU, 0xbcc98522bcc67ebcU,
  0x3d811e663d96a3dbU, 0x3cf57723bd90d336U, 0xbdc5e884bdc6aca6U, 0x3e11658bbd3db326U,
  0x3d59d1913c998525U, 0xbdaa050fbcf2317fU, 0xbcfa0e7ebd439dfcU, 0x3d1d2e9f3d118959U,
  0xbd04a06cbbd22f00U, 0x3d8fa38a3d7a01efU, 0xbdad27a83cd6c673U, 0xbc449e1c3d1d6c23U,
  0x3c8be599bdaa2b6eU, 0xbd4ba8603cd3afc3U, 0x3dedff13bd9df909U, 0xbccf77013d9d59a0U,
  0x3d9fde6abd7c1e3dU, 0xbd2034053db37c36U, 0xbc88ab813de3d955U, 0xbac29b4e3da31b24U,
  0xbd73ca4cbda2e722U, 0xbbdd13c03cca4842U, 0x3d5499f5bc092e3fU, 0xbd83bb523c79bcdeU,
  0xbdbddba03deefa08U, 0x3e140a2ebd5a2c88U, 0x3d4f43a2bd207e1dU, 0xbd4ab5ccbd56cb85U,
  0x3e3494e73ce11bd0U, 0x3da701c8be1e258aU, 0x3dbed59e3d7715f4U, 0x3d68ed91bd328fcfU,
  0xb84f8d4d3d123f79U, 0x3dd8a472bd2ef4cfU, 0xbd0aa0303d965a22U, 0xbd8825453c84c66cU,
  0xbb1133083e0a4e3fU, 0xbe2c0f67ba6cbd03U, 0x3dd75c943e1d5a41U, 0x3d610c2c3de69271U,
  0x3d72a6bd3d03b1d2U, 0x3bb6ffc53da78aa2U, 0x3dc76f553e381a40U, 0xbd291a993e016beeU,
  0xbe52b4593dad9654U, 0xbd5a29e3bd870e78U, 0xbe12ffebbd89e2c4U, 0xbc8f933ebd6e7ee1U,
  0x3c7b738c3da62f40U, 0x3d9cd2db3cec9397U, 0x3c18f6f3bd8fe589U, 0x3d7185843d046f8dU,
  0x3dcedd453d945ba2U, 0xbc410a163dcdcd19U, 0x3dd680213d4c58e4U, 0x3dce1b123b550cc3U,
  0xbd581f38bd2f08aaU, 0x3bc217abbd8eea06U, 0xbc55c8e33e08f7d1U, 0x3cae2193bd2174a0U,
  0x3d073894bcac567eU, 0xbce59a3dbdb6fb67U, 0xbcc574da3c56a02cU, 0xbd928a04bd4d3d40U,
  0xbda5b563bdbbb8d7U, 0xbd00683b3c5c9364U, 0xbde0dc53bd7938e2U, 0x3d06577d3d94989dU,
  0x3db475b13d828bb6U, 0x3b958eee3d701259U, 0x3c832d8dbd8d49b7U, 0xbd945af03d107705U,
  0xbd31eb17bd6436feU, 0x3d631b363cbd418fU, 0xbe071988bd397b1fU, 0xbd8c75c63d3d8a51U,
  0x3d996600bca8c16aU, 0xbdab8ccabd6c6da6U, 0x3e1236b4be00a49bU, 0x3b762500bdda2c71U,
  0xbdf5a6723c7d35c8U, 0xbe0a7db7bdbf4e8eU, 0xbe071a6b3e0066e5U, 0xbda3ffa7bd8ca7d5U,
  0xbda9a2ecbdb2ee62U, 0xbe03fcadbc06c14aU, 0xbddc0bc13c97544cU, 0xbc29b59fbde38a24U,
  0xbe1b23923d665401U, 0xbcfe1c793d694b37U, 0x3d216557bcc11634U, 0xbccfb0a7bdf8348aU,
  0xbe28006b3c7aab72U, 0x3ca38a0fbe5385d3U, 0xbe72c96bbe1a2d38U, 0x3c11977a3d54ba06U,
  0xbd898312bb7c6ff7U, 0x3dc29f3ebbb5f7baU, 0x3d5666653d5b64bbU, 0x3dc624b13d877e09U,
  0x3c8bdb843cc439dbU, 0x3c1dceebbda9ea18U, 0x3daaa338bc25bc3bU, 0xbd07a4443ce71fadU,
  0xbdff3e9dbc07ef08U, 0xbe14adeebda9c722U, 0x3dc05a8b3cf7547cU, 0x3b1478a3bd9010a4U,
  0xbe59fc1e3cc2f024U, 0xbd8a258cbdd53493U, 0xbdcc62b1bd921354U, 0xbd7a8243bd6cdcd3U,
  0x3d58714dbda4cdc5U, 0x3dabee7bbd4fe34aU, 0xbd189ec0bc1e1dffU, 0x3e04f0503cb43c64U,
  0x3d90833d3dca11ddU, 0xbd481cff3d1b5e42U, 0x3ce73cc4bd3c8f30U, 0xbd4837b13ccab40aU,
  0xbdba51edbc2e8f30U, 0xbcac8aecbaf0d108U, 0x3d6b455bbdee5fbbU, 0xbd2d7e5ebd4a5a6cU,
  0xbdef0085bd32c8b7U, 0xbd58391fbd1a8539U, 0xbe11c9df3cfe5dd4U, 0x3c878b9dbe087dbbU,
  0xbdade52b3cb619dbU, 0xbde9886a3cedd17bU, 0x3d9b9afbbb9a85eaU, 0xbdd440a4bddf6777U,
  0xbd1561ebbd417520U, 0x3cad5cf8bddb659bU, 0x3965cf23bdda9911U, 0x3d026b11bd88c808U,
  0x3dd8a2f6bdbc7ed2U, 0xbc8c777d3d7e9e8fU, 0xbcf588ebbd07f196U, 0xbd5e259f3d94eb54U,
  0xbe35b2f3bc92027bU, 0x3d9dc7913da04ba2U, 0xbe76c6a03e012551U, 0x3d1b4dcebc6beeccU,
  0xbc214f9239a0d3daU, 0xbd9be44c3e0cf623U, 0x3d689dc63cc76bc5U, 0xbd1159fcbc841cffU,
  0x3e235c41bd1879feU, 0x3e2367003e3902a8U, 0x3c0aeceb3d08abe4U, 0xbd88ead63d04354cU,
  0x3cbf819ebd080ca2U, 0xbde031963d9eea69U, 0xbdb39d993e067faeU, 0xbd0da423bd4211b9U,
  0x3e35c9f7bdbffa62U, 0x3d831cfa3d8600baU, 0x3d3ed66c3d9ec07eU, 0x3c0260fb3d303e39U,
  0xbd0624d3bcd02d43U, 0xbd51d4a93d872d25U, 0x3ccbe145be166fa6U, 0x3d267ea93b97a48eU,
  0x3b07176abe0da4d9U, 0x3c76c11cbda58273U, 0x3caaf84f3da6f1d9U, 0x3ccac4bcbce4f4b6U,
  0x3d8530d13c8f67d3U, 0xbbc35e4b3d07e378U, 0xbd170f66bd46ce32U, 0xbd98e92abd7a162eU,
  0x3e036e10be12b20aU, 0x3c009d8a3dad5143U, 0x3e084a143d2b1570U, 0xbd7c27dc3d382203U,
  0xbcd7855d3cc7092cU, 0x3d1a7fff3d60116bU, 0x3c87ed9cbdef0cd7U, 0xbc11abc63d5f1dd0U,
  0x3cfbe815be074f95U, 0xbd296fe63de71206U, 0x3cb856cc3bd1b003U, 0xbda3867dbd0b86ecU,
  0xbe082332bba32b10U, 0x3c7d7f9cbd006ba4U, 0xbdc49b0c3e63d82bU, 0x3d7da9c03d668398U,
  0xbe0480b5bde53145U, 0x3b8d32b8be74f913U, 0x3c244215bbf263b2U, 0xbda017873d8cd4d5U,
  0x3d25e7373dafadcaU, 0xbd8ee76c3d24ce32U, 0x3c80784d3d9ffd42U, 0x3e1498adbcb7724aU,
  0x3e0becb6bd484169U, 0xbd8f3fd6bd91833fU, 0x3d633bce3d805149U, 0xbc0a5a9a3dcd593cU,
  0xbc9a0fca3c57d293U, 0xbdbaaa18bd9090cfU, 0x3d88c90f3e16b894U, 0x3c0a96213d26d7e5U,
  0xbe2316663c29152aU, 0x3ce478c3bc9615e0U, 0xbde1a9813d49d63dU, 0xbb5d3dd3bdcc6887U,
  0xbd8d7ba7bdab585dU, 0xbd8ccf91bdddf23dU, 0x3d5d9950bca135f6U, 0x3d7a8b09bdcfbcf1U,
  0xbd46b2503cf4eff5U, 0x3cee5ba7bc9b8488U, 0xbbd52157bdd6fc9bU, 0xbd48557c3d9f15a0U,
  0x3d5587d9bce86180U, 0xbdadd47ebd0d9e7dU, 0x3cb1832bbc7add8eU, 0xbda078dc3dde1d7aU,
  0xbd89298bbd59159fU, 0xbdefeae93c95c360U, 0x3c332d543d12960fU, 0x3d94bf14bcda1d90U,
  0x3d480864bcd21af3U, 0xbd85e3563d3e9719U, 0xbcced85b3ca43b21U, 0x3da4b04a3b1b6539U,
  0x3d7eedca3d482a75U, 0x3dd484903d267850U, 0xbd7d35b3bd3561a1U, 0x3d358a3d3c032b1eU,
  0xbe6dbba0bd1581ddU, 0x3ba8ac76bcc753a8U, 0x3db23f81bc1129e8U, 0xbc3491773ca02dcbU,
  0xbdd4085c3c5bd029U, 0xbd8cb663bdff8c4dU, 0xbdca29f5bdc3b105U, 0xbc56f264bc7b6a58U,
  0xbc61dc513c9c6009U, 0x3c7a93943ce3129bU, 0xbc595be23d4b8bdaU, 0xbcac3e3fbd203d47U,
  0xbdad7d1a3dd0767dU, 0xbe08138e3dd10f57U, 0xbc8d2cd03b0d0ffdU, 0x3d2d2a923d171971U,
  0xbeb71af13d6d26f6U, 0x3d1ef4b93c436a5aU, 0x3db5a0d0bd4a713dU, 0x3c2a5b463c80ac80U,
  0xbdb713c63cfa20d0U, 0xbd889515be3def7cU, 0xbdc3b200bd00f54fU, 0x3cc82fc0ba28e033U,
  0x3da118263d9e3432U, 0x3d2246c0bb957026U, 0x3df30cf73d174a83U, 0x3d2c3dd53d2be00eU,
  0x3d416a2d3d71ae36U, 0xbdf9d09ebe0bb86cU, 0x3db4e8b8bcc776cbU, 0xbd03e5253d0fb930U,
  0xbd96f781bc59773dU, 0xbdaf37edbd046c7bU, 0x3dd286c63e06143cU, 0xbc6dfb66bd8d5c5aU,
  0x3e2f3de6bd863761U, 0x3c9f8526bd995ab5U, 0x3df096db3da8c242U, 0x3da1f860bd9a1e9fU,
  0xbcea69cabc619111U, 0x3cc0b2b3bafcad77U, 0xbd20918fbe617612U, 0x3dab00a23d437cc7U,
  0x3d9b57773ccf45b1U, 0xbd043e7abe5a334dU, 0x3d6b67b3bd03c400U, 0x3bd0b868bc923273U,
  0x3cc6b56f3c1bfef1U, 0x3d95e297bc8942f0U, 0xbb8f335fbe166217U, 0x3d043a44bcfb9003U,
  0xbca86c7fbd04fcacU, 0xbb0bac2cbd915458U, 0xbc76cce5bb6c481cU, 0x3d3ef7d03dd5c5baU,
  0xbdc63e263d9cd396U, 0x3d6052d03d79e9b3U, 0x3c2cca9f3d33c0c2U, 0xbe11ebe23da3a5d8U,
  0xbdb5c8b4bddbad70U, 0x3cf977ee3cd9725fU, 0x3dbe35e7bd71aff4U, 0x3db8eb99bc8a03d3U,
  0xbd58d793bba081f0U, 0xbd8e9a723d8ee22cU, 0xbd5a562c3c9bb045U, 0x3d27e56bbccd4b9aU,
  0xbdaa3fa9bac4824dU, 0x3d71f2d83dc79b84U, 0xbd86558e3d970810U, 0xbc9b26303c6ea12bU,
  0x3cd69f35ba3f337aU, 0xbc01c0e03d5711b3U, 0xbcb90f27bdf4b646U, 0xbdc0ec5cbd74b932U,
  0xbd8932ddbacfafa4U, 0x3b54cbe93cae48dfU, 0x3c1a0c64bc3bc35cU, 0x3bfbd3583dc9a252U,
  0xbd315cda3ce0771aU, 0xbd0678a43d45b459U, 0xba7f1e393c036698U, 0x3ccaf479bdac95e0U,
  0x3b975f0dbdb3dcedU, 0x3d9b7f9d3d45dab2U, 0x3d1e9a6dbd1ae4deU, 0xbd6b05c43d719036U,
  0xbd2617e93bb0f73bU, 0x3d89511dbda76c7aU, 0x3d5ab95dbd907f7cU, 0xbd97019b3dad8ec8U,
  0xbd80112b3d032115U, 0xbd0232c3be106078U, 0x3dc1a2df3d87f1cfU, 0xbc10b04e3cefd18fU,
  0xbdfd30683c38a84dU, 0x3d8ae9c03cc94369U, 0x3cf66027bc377293U, 0xbd4e8f88bd38ccd2U,
  0x3d4534a5be110d21U, 0x3d6dd8a8bd7e3ac5U, 0x3c7197ebbd41eb34U, 0xbdda7d223d3408edU,
  0x3d187df1bc43360bU, 0x3b8e72ed3d67f520U, 0xbd82703d3cfcd033U, 0xbdab88513daf52a9U,
  0xbd1eadbebd11fbbbU, 0xbd41c8c5bd89961aU, 0x3b96a09fbcc22f4aU, 0x3cf0f1edbd89d791U,
  0xbc1ba806bcefc1e3U, 0xbcaa9b103cf36fa2U, 0x3d107500bdd9d33dU, 0x3d18740cbde61beeU,
  0xbd65bd9abc33cc20U, 0xbdb4d81dbcd8ca09U, 0x3d21b107be0283daU, 0x3cd0ac973daf950aU,
  0xbe0aadd5bc40e30dU, 0x3c47cedabc89d0cbU, 0x3c96c737bb8a3c81U, 0xbe06001c3d28a716U,
  0xbc21320dbcb9e12bU, 0xbdcc235abd324f41U, 0x3d9a535f3d78489aU, 0xbd10ab59bcb55365U,
  0xbbc5a4e0bc982bf6U, 0xbd1efe6dbc34ee6dU, 0xbd6d5f16bd4ebacdU, 0xbab1a694bd5f3a0dU,
  0xbd84afbdbdda33b7U, 0x3d4abdf8bdf5e69fU, 0xbd481ee5bdb677d0U, 0x3c4fd4d23d5e40c9U,
  0x3c642ed13d7ffe0aU, 0x3d1acbe1bda4bd14U, 0xbd4cb0bbbd7f5150U, 0xbc7d44ddbd904c9aU,
  0x3d980f0b3cdc8b53U, 0xbd5a41b2bd861543U, 0x3c7c0ba23d9be1a8U, 0xbba034da3adcebcfU,
  0x3d93216bbd822e7fU, 0xbdaec41cbd351c21U, 0x3cb8e223bd3690f7U, 0x3cac7267bda7cafcU,
  0x3df6e989bd3dbb80U, 0x3d0f4b6c3d035d6eU, 0xbc73dbfc3db32759U, 0xbd3e964cbc9f553bU,
  0x3c641ddbbd9d454cU, 0xbc65eb513d819768U, 0xbd782b44bda0822aU, 0xbd2a7af6bd8a3f26U,
  0x3da79f563b0d8619U, 0x3c622920bc7e8552U, 0xbdb11b2abcee4adeU, 0xbd3d1797bd39f8e2U,
  0x3d1f77203c028e86U, 0x3ad041203d677964U, 0xbc0a0edcbc71f017U, 0xbdacfaadbda9ecacU,
  0x3d9c5080bbc7891cU, 0xbdaea54a3c313e8eU, 0xbcb297453cdc68d4U, 0x3d48b34b3ccd9746U,
  0xbd9aa0c5bcb9827eU, 0x3c9bfea2bc313ab9U, 0xbd260a723bc02dc3U, 0xbd97e05f3d5a5201U,
  0xbd8240b23c165b84U, 0xbe03763dbbc7cdf2U, 0xba59ff1bbc07e77dU, 0xbdaefb443d5fdb23U,
  0xbe200ef83d0f74dbU, 0x3ccc50223d236ee2U, 0x3d4ba1efbde8af18U, 0xbd3576b5bba3fabfU,
  0x3d4abdb03c7e222aU, 0xbd277bacbd823a1cU, 0x3d3624573ca73924U, 0xbce60ba63d6bfd63U,
  0xbe163c0b3ccde050U, 0xbd9b88adbe1b8b92U, 0x3d730a6a3d3c776aU, 0xbd6edcc6bd307759U,
  0xbda910ef3d9c85baU, 0xbd521696bdbf86b2U, 0xbda6248f3d9e068cU, 0xbda231b63da15b62U,
  0x3d008da83d28b0baU, 0x3dbae480bd9fe3f3U, 0x3d9cdd823d001d1eU, 0x3d7597d73daa02cbU,
  0xbdc370fdbe14e7e1U, 0xbb9a45d03db4c6c1U, 0xbd2ca1793d6de402U, 0xbd9563c2bcb0a928U,
  0xbd9ab0653cd95e02U, 0xbca4a8b5bdaa1d3aU, 0xbd0427edbd68d032U, 0xbd9283b73d9b7ad0U,
  0xbbf6c9103d74ce0eU, 0x3c0e980d3e0ab134U, 0x3c871724bc420385U, 0x3d91efd0bb2285d4U,
  0xbe097e4cbd35805cU, 0xbd5ce9e6bc49d563U, 0x3dd5fd6cbddca73aU, 0x3cc7b539bcb6ff28U,
  0xbe39d9b1bda3d6c6U, 0xbafb155e3d3283dbU, 0xbe6b0750bd6339deU, 0x3c0be1573c84de7dU,
  0x3ccba72c3d49bf26U, 0xbd5e9907bc261eccU, 0x3b358883bdf43b02U, 0xbd1b6365bd49243eU,
  0x3bc8a6693cc75583U, 0xbd8fe970bd8f7374U, 0x3db70afebd0b9c13U, 0x3d833ab33caa6fbfU,
  0xbd204267bd97e336U, 0xbda5ccab3bf23909U, 0xbd6fbc19be2ece7fU, 0x3d334354be0aec51U,
  0xbe9b6e703d12dda1U, 0xbc92998fbcde7479U, 0xbe645614be0e7e72U, 0xbdc98b35bc68bb10U,
  0x3d777aa23c4d4657U, 0xbd9540a63d0eac6eU, 0x3cb1e7d7bdb5a509U, 0xbdb1402d3d2d9f9cU,
  0xbcdbad4cbdcceeacU, 0xbb89d459bdcd425bU, 0xbd0bf024bd97c4a6U, 0x3b61a541bde2aecbU,
  0xbd34a182bd4b32deU, 0x3bc207eaba516a12U, 0x3c38a957be01462bU, 0x3ddc266b3d87be2cU,
  0xbdcfb667bde9be81U, 0x3dcea1cabd9ad49bU, 0xbc8e43783d5465eeU, 0x3a8808513dd1a2c1U,
  0xbd0b00093d485643U, 0x3db884323d787e8eU, 0xbd427a14bd9278cbU, 0xbe1661e63dbeb904U,
  0x3da26b74bc5747bcU, 0x3d441c2dbc518763U, 0xbd3287703d5d3ee9U, 0xbd7f35a1babdbf18U,
  0xbd48944e3dec9c53U, 0x3d00249d3dcc5ad8U, 0xbdab2621bc83e9fbU, 0x3de0ed46bc7feaffU,
  0xbcec28f93cb0d476U, 0xbd5410aabd130541U, 0xbdb93209bd43474cU, 0x3cd16ffb3db8c02bU,
  0xbd2a01063d2944a9U, 0x3db106d2bc802c76U, 0x3d2b06c6bc61cd85U, 0xbd2e494d3d9cd3d6U,
  0x3af67406bd9b218dU, 0xbc2748cfbdc9dc3cU, 0x3ca32281bd4586b8U, 0xbc6abb2e3d7bececU,
  0xbde095e4bdbad21bU, 0xbca1789b3d906cc1U, 0xbd20504ebd531c79U, 0xbc0d1647be0c7b2fU,
  0xbd875617bde665e9U, 0xbd7a5e9bbe26b425U, 0xbd894cfdbe075731U, 0xbdd910c1bd02a3d8U,
  0xbd82fb8cbc2bd6eaU, 0xbc966930be0a65a9U, 0xbdb50e2abddc6cccU, 0x3d15234c3bfd24a5U,
  0x3d9b734fbd447e05U, 0xbe5f29f1be2891c2U, 0xbc5ac4efbd1980f8U, 0xbc9e4993bd005fe3U,
  0x3e4c9bdb3dae381cU, 0x3d969b14bce4179dU, 0xbdad6c84bd9bbe00U, 0xbcaac24cbd9c58e3U,
  0x3d6ffd1abe4fefe8U, 0xbd795fa1bdee8498U, 0x3e0e013cbdff1f80U, 0xbd959945bc9e25dbU,
  0x3d1c79b63b85de4bU, 0xbd66e1463b280a8fU, 0xbdc5aa543cc16750U, 0xbdfe6c553b95e139U,
  0xbdac63bbbd902bb3U, 0xbd2946453cd5cbb5U, 0x3d9bb7e8bc520a23U, 0x3d5faac9bda5b874U,
  0x3d8ecf4a3dede9b5U, 0xbcb0cf65bd5614e6U, 0xbdca521c3d2ea615U, 0x3cacac8a3def37b1U,
  0x3dc62b82bcd4f0c4U, 0xbcf500883c184210U, 0x3db6c42a3c17483dU, 0xbda96cb13d53dcfeU,
  0x3ce274703dd03fc1U, 0x3da3a8c4bb694e98U, 0xbd35d594bd0a11d7U, 0x3d099d823d65640cU,
  0xbd05d7363ba19accU, 0x3d9db1f33d4f0a5aU, 0x3d7d2c2b3bf1faa6U, 0xbcc827643dd26903U,
  0xbd0b3c44bbc79c8bU, 0xbd12a8ed3dae4034U, 0xbda6b5503ca4b38dU, 0x3da631e7bdfa7997U,
  0x3d5608eb3bbd6575U, 0xbd415825bddc542eU, 0x3bf1bf45be3ecf44U, 0xbe0773f8bd77b5e7U,
  0x3b664a673d7313b8U, 0x3cdd4990bdcfa728U, 0xbde20737bdb7f547U, 0x3d281f163d4836e8U,
  0x3cce5393bd38a9acU, 0xbc9b5fa9bda04efaU, 0xbca2e6823da5f718U, 0xbbdaac093d1531c3U,
  0xbe08f80c3e007924U, 0x3d45ce483d814adfU, 0x3deb3cab3e2286b1U, 0x3c46160d3d36bc9fU,
  0x3d46ed2c3dc6a236U, 0x3c8a0b46bdb3e125U, 0xbdb30c45be183a6bU, 0xbdb589633cfae25dU,
  0x3db795eb3e06b4c2U, 0x3d335effbd867740U, 0x3df436523d90ff00U, 0x3e61cdd93d5bfe2cU,
  0x3de4ff583e1c9eb3U, 0x3db62f87bdb2fd57U, 0x3de2bcf73da46098U, 0x3d5e278f3d961757U,
  0xbce7f82abd900c1cU, 0x3d372f92bd3eb905U, 0xbc930c333d632e4cU, 0x3d4f4c38bcb504b7U,
  0x3d5cfd2e3d81d455U, 0xbd566f22be05585eU, 0x3c46bb42be24b419U, 0xbe306c10bb755259U,
  0xbd92623e3d7f4379U, 0xbd15f34c3cdbfd6bU, 0xbd047ac53d41a5c9U, 0x3dcaef3d3c771ad3U,
  0xbd5f26183d55d7b1U, 0xbdd04d3f3ca552b1U, 0x3dab8ce9bdb774d0U, 0xbce80bd93c73a5f1U,
  0x3e0649a2bddec4c5U, 0xbde006bbbcc45caeU, 0xbd8446413de7a997U, 0xbda281e6bcb91928U,
  0xbce53a783d45e1dfU, 0xbd9eb5b93ac589d9U, 0x3c4bc5e7be7c5fedU, 0xbe0f71533c5d485dU,
  0xbe3a182bbd1fd2d8U, 0x3d429d76bdeca92cU, 0xbc65c9cabb2e21d2U, 0x3a64613f37ce4628U,
  0xbcd7d6483cb24525U, 0x3d38d1f4bdacf54aU, 0xbd2a0a973c757af9U, 0xbc15cb04bd08c666U,
  0x3dd0475e3b422ae8U, 0xbd6e1cc63cc49c8cU, 0x3d5050b43deaf162U, 0xbcefd4e2bcdc146bU,
  0xbd2786a23de78f10U, 0x3e082cb0bcd60fdaU, 0xbd0d3895bdd9b5e1U, 0xbca2525e3dfb38ebU,
  0xbcb2c8b03dfa2600U, 0x3dc065c83c8c8b57U, 0xbd21b9e1bca4284eU, 0x3daf33a33d1f6901U,
  0x3e3199073d15559bU, 0x3d7e4de73d819b5bU, 0x3da3f16c3da1bbb3U, 0x3d858a4e3e0f756cU,
  0x3a6677cc3bc38b46U, 0xbd66d864bdacb5efU, 0xbd996a7fbb311f2eU, 0xbde1fafbbc184df5U,
  0x3cb37c2c3e10cb3bU, 0xbd414a28bd81e64cU, 0x3d20e453bdf49f20U, 0xbe1ed88cbda747edU,
  0x3b38eb47bdde2602U, 0x3b9639dcbdbb50b9U, 0xbd00c2bd3bcf15ccU, 0x3ce0e891bd83b7ecU,
  0xbdb9a2e23db34523U, 0xbced9e693d7d87f1U, 0xbdb1e3f1bda55568U, 0x3d20a540bd861938U,
  0xbd373385bd8c1722U, 0xbdf95b46be0f612bU, 0xbd3a4a8ebdb81e1eU, 0xbdccadfdbcbcfac9U,
  0xbdcd863c3c5352b3U, 0xbde7d601bcbd99b5U, 0xbc658a68be4dcc95U, 0xbe17381bbdbe44a6U,
  0xbcdf7beabe068b6aU, 0xbd700cfdbd43ab8dU, 0xbdebcb3cbd6de0caU, 0xbdbf22cabd8859b9U,
  0xbe0cc7aabe18854cU, 0x3d8f1f2cbd72cdd0U, 0xbd2f2534bd9314e0U, 0x3b65dab4bc7de54cU,
  0x3dbf5d96bdc8dd86U, 0xbd2dbfef3a851ba5U, 0xbd9450bf3e1ea6b5U, 0xbd1e4f00bdd070f4U,
  0x3dde5ac7bd3d968fU, 0xbd2366e5bd5a4ee2U, 0x3d96e095be9150dbU, 0xbdb7c2973d62866bU,
  0xbe589358bcdb7c3bU, 0xba91e9dabd4a2fb3U, 0xbda596d2bd83e3ceU, 0x3d884abd3c8f2715U,
  0x3dbaee9b3d7e3583U, 0xbdf204893e36319eU, 0xbc47f8073c544d31U, 0xbdd43d84bd01567aU,
  0x3cbc5d8dbdcb2aa5U, 0xbdd8e4b7be1967ebU, 0xbe833333bc8345b7U, 0xbe1f47b9be07ed2eU,
  0xbbfd3a99bd8e5e12U, 0xbe468103bd68bfd2U, 0xbdd5c540bdd4d7f4U, 0xbe5e5dbbbe4ef1dcU,
  0xbe0db0b9be0a5cceU, 0xbdac57afbdea2c2aU, 0xbde8161e3d75c36fU, 0xbdcf0825be03b853U,
  0xbdfe6531bdd3cfd5U, 0x3cbe020c3ca18334U, 0xbe13827cbdc42877U, 0xbe3b2373be657b7aU,
  0x3e05f38ebcd123d4U, 0x3cac6d8abdd3e0afU, 0x3b79bce0bd691c63U, 0x3da54ecc3dbafe61U,
  0xbdb058a5bd165bf7U, 0xbd541a043d6ff1e0U, 0xbcf6c714be01faebU, 0x3c84852abc36d4d6U,
  0x3c44f60cbcd4d32eU, 0xbdba07ee3d81eb2aU, 0xbbe64f353d820100U, 0xbe1eaeb1bbcae4edU,
  0xbe23c22cbda600d0U, 0x3dd176d43ccd2bf1U, 0x3c968e1abdccb0ecU, 0x3dcf98ae3da48b8aU,
  0xbdfc8e8d3a1cc8b0U, 0x3dd904ea3d7968e6U, 0xbd6ed714bd909921U, 0x3d00d55e3d2b4b9aU,
  0x3d4740d7bd9d60c2U, 0xbcd5290ebca976b4U, 0x3b606cefbcb4b5e0U, 0x3bfb868b3d8ee1cbU,
  0xbce5d52e3d672e76U, 0x3be236153ca05865U, 0xbd197e813dc1cdebU, 0xbdaf85fabd869fe4U,
  0x3d673ec33c529f07U, 0xbe23867dbd174ff9U, 0x3d0dd7743d99f3e0U, 0x3dcfec253bcb8090U,
  0xbe6963933dd47fd8U, 0xbc1509afbd90f187U, 0x3e66a565bcfb977cU, 0xbcf152ec3e3702a6U,
  0xbd9b13603dbdfee2U, 0xbc8c3c35be0581a9U, 0xbdd46b893d90cbb9U, 0x3d83456c3d0cc731U,
  0xbcfb76243d6406f7U, 0xbc2b26b3bb5ff7eeU, 0xbc940b403dcea25eU, 0x3e27d847bd69024fU,
  0x3b8620803cef9cc6U, 0xbd4e004dbcd005d5U, 0xbd734dea3d3aee78U, 0x3cf466803e1c771dU,
  0xbe29e6cabe0daa4fU, 0xbe387d71bdaf866eU, 0x3dc63e323d6adb52U, 0xbd17221cbe18ea35U,
  0xbe06806b3d9a08b3U, 0xbe034775bd9dab25U, 0x3c6c528a3dcaf44eU, 0x3cd5624abe2a23f0U,
  0xbdc24063be177001U, 0x3ce90a59bd827e10U, 0xbd4dc0e7bd40f87cU, 0x3e30f75fbdc08843U,
  0x3d9e0de53ded50bdU, 0xbdafc957bdc1d74cU, 0xbd36799fbd518ba3U, 0xbcb69d94bccb9210U,
  0xbd14685abd8fe601U, 0x3c97314b3c18ac6aU, 0xbdbbe1603d4d0bb4U, 0x3d3842b1bda1220aU,
  0x3ccdc227bd7868b9U, 0xbd9c05b8be01622aU, 0x3be55071bccf9c52U, 0xbe017092bdd78551U,
  0xbd2b884dbdfd9d73U, 0x3ce10aa73d040adfU, 0xbe3aa4853d0d9296U, 0x3d5e9aba3ce2d6b0U,
  0x3d1b080bbc121a5cU, 0xbd32620c3d74bec8U, 0xbdf093d13c26d5ddU, 0x3c590d93bceab0e9U,
  0xbea7b6fa3e1a6841U, 0x3e354386bce59c15U, 0xbd9c29d7be19d017U, 0xbd82bd2b3e5290e8U,
  0xbbff237ebdcd70ccU, 0xbca3fc20be2a0564U, 0xbd9581a6be0fb0c5U, 0xbd55e8763da45d72U,
  0xbd8804293dbd00c5U, 0xbcc096373d904ab0U, 0xbdf6b8453e3bee05U, 0xbc739a0bbd809893U,
  0x3d5dc460bc65fa63U, 0xbe26093bbd7266ceU, 0xbcc8ad243d8899bfU, 0x3e08a2f13ca688b9U,
  0xbddbec7b3d39cd97U, 0x3d5fc337bdaf299eU, 0x3e17b96e3d91a48cU, 0x3b9747ea3e0a25a5U,
  0xbe8917d83e23336eU, 0xbd412a5cbd258610U, 0xbe26bb8e3ca7ea73U, 0x3d1cd575bcbe2906U,
  0xbd355dacbd455f44U, 0xbc61ca8bbe025c28U, 0x3da84a89bdaca096U, 0x3e49d1a1bdc8ce5eU,
  0x3e16f6ee3d7834fdU, 0xbd4064ab3cd51c48U, 0x3d68e2febe478820U, 0x3d26900d3dde6cc5U,
  0x3dc85a7fbd4e9d08U, 0xbd8e3812bc9d5918U, 0x3dc1046a3d276c74U, 0xbc4ba3da3d35898fU,
  0x3d2d81fdbdc7bbb7U, 0xbda58d1fbb372028U, 0x3d5e40ce3e318698U, 0x3db62376bda9683fU,
  0xbcae2050bdf63530U, 0xbd003b5a3def2490U, 0xbd2a288fbd350c92U, 0x3de7a3e8bd55ffb1U,
  0x3d04b530bcf84018U, 0x3df701da3da470d0U, 0xbe07e236bdab7bdaU, 0xbdb468fe3b97979cU,
  0x3c6358ce3d6aa89dU, 0x3db7c67fbda6e40cU, 0xbc38da153da91e96U, 0x3d5c4e253de8f0dcU,
  0xbd344857bdeccb80U, 0x3d753d2fbcc4eb9fU, 0x3ce286693a330fe0U, 0xbd96f6d63968e5f2U,
  0xbc4c80cebd802619U, 0xbd654ea43e1d3e71U, 0xbdc486ee3ddd5186U, 0x3be318033d065fc1U,
  0xbd7a5b85bda90b3fU, 0xbcaf26213e10d10fU, 0x3bc2ea213de5405fU, 0x3d2842f3bd2e44b1U,
  0xbe534d673dc2167dU, 0x3d4bdb423d981a84U, 0x3e22b6a7bdccd901U, 0xbd3fd0b23e4893d8U,
  0xbd6b68473df09289U, 0x3d881ea1be0f34faU, 0x3d4926a1bd128388U, 0xbb92faefbb076b96U,
  0x3ce166013d9967e9U, 0x3d4655f3bda3eedbU, 0xbcdfefc23e30ff4cU, 0x3d8249703d15f232U,
  0xbd18ab573e00994cU, 0xbe1882e63d8a34acU, 0x3d05ff793d76c044U, 0x3d1668d83c864230U,
  0x3ce6b394bd110974U, 0x3ca63943bc3d8b80U, 0xbe57d23dbd87b564U, 0xbcb18dfabc7db6cdU,
  0xbe82692cbe2a4f57U, 0x3d12ffddbdca36efU, 0xbe578c13be58aa7eU, 0xbc9f0fe9bc36f36fU,
  0x3c852a8dbcc6bbfbU, 0xbd1cee673dfb827cU, 0xbe008bdb3d6061d1U, 0xbdafa4b3bc95eddfU,
  0xbdc979b7be5fa89dU, 0x3ddb85db3e1d703cU, 0x3c70a1a9bd23b1bcU, 0xbc221566bdbc2ebfU,
  0xbcdbd5c43d99c0beU, 0xbb2b937c3d0ec3e8U, 0xbdcc143a3e26a08dU, 0x3da47c5b3de70515U,
  0xbe49b39dbde7f5cfU, 0x3dc5f985bd6b16a9U, 0xbe96a954bdb73c87U, 0xbce6ed5dbccaa098U,
  0x3d5b31513da11abdU, 0xbc85f4b23d8201d3U, 0xbcce83613d75299aU, 0x3da5b5433d58ac31U,
  0x3c83032b3daa8630U, 0xbd3d235dbd0183c7U, 0x3d01366a3cd85857U, 0xbbd3b822bb496695U,
  0xbd478427be091506U, 0xbdfd9dc33d8363daU, 0x3c3b513a3db89b47U, 0x3a69e3f2bdca1b07U,
  0xbe08ecb9bd6ab4c8U, 0xbce06f2f3ae79875U, 0xbe321e15bd56acd2U, 0xbdddc0d23d1b0572U,
  0xbba543dbbcc024b0U, 0x3d045c0b3dd30682U, 0xbdb4bc133da2c80fU, 0x3e3c1a0f3d7dd5cbU,
  0x3dd786803da388cbU, 0x3e1b21adbd179a91U, 0xbbbc68913bd27b2aU, 0xbd7a8e4ebdcc84a6U,
  0xbcbc1f1d3d7f3ccbU, 0x3d3660d33b50284dU, 0xbd5e58cbbe1782daU, 0xbcee635f3d0f79e4U,
  0xbe4aeefcbe2433cbU, 0x3da317c6bda993edU, 0xbe65bb38be145828U, 0xbbed7a1a3c44610aU,
  0xbc216e12bd954447U, 0xbd9698d73db6bc73U, 0xbd50456d3de2266cU, 0xbdcfb2cfbd24a233U,
  0xbda3426cbe0a137aU, 0xbd0bfa0bbccbe840U, 0xbc8510003d546ba1U, 0xbd15fc87bd39bc36U,
  0xbe238e073cdcadd3U, 0xbc8912c43d6f9e53U, 0xbdb23a2f3e1350c0U, 0xbc250eb9bd766ef7U,
  0xbea5b344bd3a82e3U, 0x3d61a82fbdd8bbc3U, 0xbe94a1a0be65632aU, 0xbde667643d9bd1f8U,
  0xbc8d88563d64c2c1U, 0xbd2edce4bd7b60d4U, 0xbcd6ecfe3d2e3f74U, 0x3d287b8dbc3b4c5eU,
  0x3d419cdebd3466dbU, 0xbe075539be5d780aU, 0x3d1ee5c0bd0eef70U, 0x3ddceafa3dbac43cU,
  0x3c76a0463d3f52b4U, 0xbd476ed43bc6564aU, 0x3d18fbc73e084c51U, 0xbd006c023d6a2b05U,
  0xbe4e493d3ce053e9U, 0xbda355db3de8f36cU, 0xbe9f7490bc628684U, 0x3d60d2d5bd3a7bbfU,
  0x3c804475bc44c573U, 0x3c1473283daeac50U, 0xbccf6180bdad809fU, 0x3e0dc1943d98e4d4U,
  0x3d5fe4433e048bbcU, 0xbd0e1b75bcb45ef7U, 0x3c8bf495bcdad10cU, 0x3dacdb673d0ca56dU,
  0xbe438b2abc56f3e3U, 0x3d69a7e53cd801acU, 0xbd3b9b9fbddb7805U, 0x3d642bdcbd9e008bU,
  0xbe110f37be00b8abU, 0x3c48ce71be254c5cU, 0xbe2f2959bdf58e3bU, 0xbdecb3f6bd166df6U,
  0x3d82001a3ce9cf14U, 0x3d28e0c83d9be5a6U, 0xbc8eb6ed3da02180U, 0xbe10ab683c02132fU,
  0xbd72a6fbbdd98e0eU, 0x3c3e84acbc245456U, 0xbd24f245bd544ea9U, 0xbb38e91e3d47cb00U,
  0xbe0e26ad3ae20c1eU, 0xbcd2f4d33dba7eafU, 0x3d9004593d7d9cb8U, 0x3de868843cc2100dU,
  0xbc0b1c78be00b8cdU, 0xbc269980be61ecf8U, 0xbe3842b8be05ae35U, 0xbc8ed129bc7a5d52U,
  0x3d5c13aa3cc2ed83U, 0xbc1d908d3c062f95U, 0x3db46695bd1b7c40U, 0xbc9d56093db0dd4dU,
  0xbc07ea473cd6f713U, 0xbe61bbf0bdfea676U, 0x3de59d0d3acd756fU, 0x3dd04a8b3dba852fU,
  0xbe4eb210bd0143ceU, 0x3c5daea3bd5e13faU, 0x3e545a32bd8a80e4U, 0xbc881d9cbd42a176U,
  0x3ddc844ebd8acdf7U, 0x3d9bea51bc59ed9cU, 0x3d7ad2a83e448bf8U, 0x3de752ec3d299bd4U,
  0xbbf4209d3d9f401cU, 0x3e0c57843db3f9afU, 0x3c885e8cbdf65c59U, 0xbd921d383daf6cbdU,
  0xbcaad0873cd5f3d1U, 0xbddd3422be0d26a6U, 0xbce9adc43dc33833U, 0x3db8e13dbd1a46d7U,
  0xbde88fb03d2ae26bU, 0x3d13ca25bc24d219U, 0x3d0f8286be232594U, 0x3d4c06fbba205a2fU,
  0x3dfde153bb7ea058U, 0x3c4cd03ebe63ce8aU, 0x3e2678593d910aa1U, 0x3d59d9a73de2b8d1U,
  0xbc81e2793e03055fU, 0x3dbf1dd6bd08d05fU, 0xbdafbb2ebd16c8e1U, 0xbdb1ed51bcd0ae5bU,
  0xbd2be090bd8df31fU, 0xbdd75c243d2132dbU, 0x3d998c803df5b7f7U, 0x3dc174123c0ec4edU,
  0xbec217673dec688fU, 0x3c8dabd6bcc1fc3bU, 0x3da12f07be5dfa5aU, 0x3cf5a8523d12f77aU,
  0x3d903bb0bd5357b7U, 0xbd1ae124bddfc826U, 0x3c975b6d3c24117fU, 0x3daf7df33d74e824U,
  0xbd733699bcba035eU, 0x3df6f43cbe366b22U, 0xbc8bcca33d16271dU, 0xbd65665c3d5f902bU,
  0xbe0ceb663c874c7eU, 0xbe91b690bdc2c72eU, 0x3d6afd153e0347b0U, 0x3dbc00c73d4a640bU,
  0xbeafd16dbc10d899U, 0x3d8cff263c194377U, 0x3e219e88be36fcf3U, 0x3d668aa9bb9824abU,
  0xbe19218b3e3ad716U, 0x3d9c88d0bb2c321eU, 0xbdd5cb353c98e9eaU, 0xbb6f7ec53cbd2747U,
  0xbd52c6a53d358721U, 0xbc8c5f01be2e7522U, 0x3dc832433be1108aU, 0xbbcb5165bd3077e3U,
  0x3dc0a7a93e264d56U, 0xbda0617dbdce0b31U, 0x3daaa68bbc9c0ec5U, 0x3e00c5f03df01f56U,
  0xbcb76a20bd2bb6acU, 0xbcf2b96ebd9c9437U, 0xbd520d64bd3dcc9fU, 0xbdbf93aabd8f9a0fU,
  0x3d23db44bd1c0395U, 0xbda31b8abd806628U, 0x3d8ef642bce98900U, 0x3d3341d7bd4dac29U,
  0xbd28d5ef3d3509dcU, 0xbdec516f3c3b14a0U, 0xbd9989753c6f4fcbU, 0xbc210533bdc5e65aU,
  0x3cda12dbbde5e20eU, 0x3dbc25623dd725c7U, 0xbc489135bd755c5fU, 0xbc9143d6bdbaa919U,
  0xbe19b0cebc5ed279U, 0x3c054503bd9bbb16U, 0xbd4224c9bdd8f6e2U, 0x3d310a61bdf8ee8eU,
  0x3ca6459bbdfc220bU, 0xbdde2a63bdc60999U, 0xbcda659dbd99cfe8U, 0xbd6e3fefbd3ac3b1U,
  0xbd983151bccf061eU, 0x3c1a31e53cf3e257U, 0xbdf328cb3c1f1488U, 0xbd69ea683d1fddbfU,
  0xbd346f49bd9d0421U, 0xbda511ab3d5e72eaU, 0x3c3fa6b3bcb21af6U, 0x3c422015be19fcfeU,
  0xbebe428a3e21c95dU, 0x3da7b1763d9f5d36U, 0xbcfa9b25bdaffbcaU, 0x3d8dd05b3e09bde5U,
  0xbd5867463d6506caU, 0xbcec65c1be3477a8U, 0x3c758964be2610ffU, 0x3ce327e3bd32f874U,
  0xbdacef2a3e08f229U, 0xbc43245e3ba78536U, 0xbd626c663e121549U, 0xbd3e7188bd4883a9U,
  0xbdb185823d69ae9fU, 0xbda6bea7bce9706fU, 0x3d92b1f83d31de83U, 0x3dfb4ce93e027376U,
  0x3e310bf2be174f1dU, 0xbe2507db3aec2831U, 0xbd53517cbcd6a6d1U, 0x3cd2b6a43d190c25U,
  0xbc8950c6be0b6cd0U, 0xbd9e4df83e6d6338U, 0x3d42af123e1f44f0U, 0xbd54f6f43d056accU,
  0x3da5fc5d3c6bfc72U, 0xbc7cab2d3c1eb394U, 0x3dc00abebdbbdad9U, 0xbdf3663f3d03dbfeU,
  0xbd475b7abc2d9b9dU, 0x3e2132fa3e08c2a9U, 0xbd942c09bda1721aU, 0xbdb677c9be0bddeeU,
  0x3e0449f5bdd5e242U, 0x3ca2bebfbd09d256U, 0xbdc3dcfbbd4ae5bbU, 0xbdced762bd16d926U,
  0xbd92b51abdab0da9U, 0x3bf7f4113d78cbd6U, 0xbdc17e153e0b470bU, 0xbd459fe2bc903dbfU,
  0xbc9f0c19bdaea1b1U, 0x3bdfacca3dbe03abU, 0x3baa21483befae31U, 0xbd88d5b93bb687f9U,
  0xbb1da9d2bd501c8aU, 0x3d079ce73cce7f75U, 0xbd718c683cf91b83U, 0xbd204b4bbe145ddbU,
  0x3c8469d53d3493baU, 0x3ddb7bad3d0e012cU, 0xbe39b7c2bd959a3bU, 0x3cfa937dbd623820U,
  0xbdf5dc6abe55fe7aU, 0x3df7c323bd80dc53U, 0xbc9e0b51be2483fcU, 0xbcf73bf03d2f577dU,
  0x3d15df843dd3a423U, 0xbd9ed4e33d865943U, 0x3d11df4c3d27b444U, 0x3c55bd4abd898f47U,
  0xbcadfddbbd2b8837U, 0xbb302cbd3d329f38U, 0x3d441a133e0391c3U, 0xbc03b90d3dc5c942U,
  0x3daedc3abd02ac07U, 0x3d8479f1be1d551eU, 0xbd108528be4a7425U, 0x3c21fc3ebd77dbd6U,
  0xbe05b5f4bdc442c8U, 0xbd8c29bd3bf973b8U, 0xbe3c9ec6bd4d9ec5U, 0xbddd7e403c8d8bd9U,
  0x3cf18b8dbdc2bfa2U, 0xbc9cbfd8bca73f38U, 0xbd6dd7a63d0798bfU, 0xbe48bb00be051a4eU,
  0xbe82ab5cbe5cb4a7U, 0x3cd6eb83bb78433fU, 0xbdf8e0c3bc591035U, 0xbdfec301be2af92dU,
  0x3c0441dabd502c6bU, 0x3d2d25cd3db9ea8fU, 0xbd000325bc19fd9aU, 0x3da351fb3dd6a8fcU,
  0xbddb2987bd8ebeddU, 0x3bce1c5e3e091227U, 0xbe6acf40bda4d83aU, 0xbd0e161cbd20b625U,
  0x3aa176f8bcea1007U, 0x3d8cf2833de3913fU, 0x3d11c252bd00dcf3U, 0xbd8540d43de5e48bU,
  0x3ccb671abe0e1914U, 0xbcf6ed0c3e27d784U, 0x3cbb926dbdbba164U, 0xbd1df8e8bd7453f5U,
  0xbc0b0d9dbd37c8bcU, 0x3dacbdeb3d0dea7dU, 0xbd1ccb11bd54c1b0U, 0xbca0f549bd907db3U,
  0xbdc4c379bce3b27eU, 0x3d89c13a3cbb0a2aU, 0xbd3ce0e03c987c47U, 0x36e023043da22d64U,
  0x3c405344bcd67e45U, 0x3dac31ce3ddc6ec3U, 0xbd80e4e53d957eadU, 0x3d36ef633e0350ecU,
  0x3c91f3f73d619ca4U, 0xbc11f760bd8ae7fbU, 0x3d8de7fb3d1a9bd3U, 0xbd167ed3bcbd6226U,
  0x3c44aade3bcc61adU, 0x3ded723bbd5c0de4U, 0xbde10e64be508473U, 0xbccd46813c536f51U,
  0x3c8bee13bde65019U, 0xbd1b610ebd04bb04U, 0xbdb24b20be150cf9U, 0x3d9dcefd3daf9e49U,
  0xbcebe4de3d8dc2b1U, 0xbdb481103caee130U, 0xbdd9291a3d311f7eU, 0xbe890c403d1d3d48U,
  0xbe5723f5bdb9f02cU, 0x3b168bd73da7c9d8U, 0x3c7038083c5d9beaU, 0xbd5efaf8bd4b96e2U,
  0xbcbcc8fd3d861258U, 0x3d6fdc4f3df68661U, 0xbd9db11a3de618fdU, 0xb8675a3e3daee525U,
  0xbdfe1924bcab4a93U, 0x3e133ff9bd0b51a8U, 0xbe48acf8bc88084eU, 0x3ce910d63c9bdedfU,
  0xbb870a533d0fc38aU, 0x3d301b973ddc1108U, 0xbd0cf9413d3841d7U, 0x3d9ff7f9bc39767cU,
  0x3db22e1bbd34528cU, 0x3dced627bde96722U, 0x3dbac388bcd55cdfU, 0x3dbcadb2bd46474dU,
  0x3e19f85fbdb3cd18U, 0xbdd4f0303c061981U, 0xbd6f85ef3d9f8d1aU, 0xbd0e8e9bbe0de2dcU,
  0xbd3e7d63bcc0540eU, 0x3d6289b7bd67cdd4U, 0x3d95ba5abe1e41c1U, 0xbe17f8233d66aca3U,
  0xbe0f8f283d2eda8dU, 0x3d8f07383d09f164U, 0xbd88ba98be33ccf1U, 0x3e3910a93d6b1090U,
  0x3df5be7f3d9ad520U, 0xbe4b87503c642f98U, 0x3d1f3487bbcfa910U, 0xbd823201bd87176cU,
  0x3bc2af78ba46bffaU, 0x3d6fd06c3d296eeaU, 0xbdc05178be1a7e36U, 0x3d846ea1bd847608U,
  0xbe1aeb8ebe540444U, 0x3d14c56b3e047b40U, 0xbe30e14a3caaaa4bU, 0x3da465b5bd870d5eU,
  0xbc3c28cfbc9446c6U, 0xbd86e53a3c38c5e9U, 0x3d748b753d90b335U, 0xbdeba5cc3d6782aeU,
  0xbd3fa40fbe117760U, 0x3e1fe3583dcbff6fU, 0xbc3e232cbd5d1c53U, 0xba08b8283bc54908U,
  0x3dbf0c063dc92934U, 0x3cdecde23da970aeU, 0xbddabbfc3e2f4cf7U, 0xbbe9464d3bd96521U,
  0xbdf513f1bd8bdcadU, 0x3d68f912bd1af42fU, 0xbe20b914be5c55abU, 0xbdf228b53bccd0e6U,
  0x3d95989e3d6c1c88U, 0x3c8b26383dfc5122U, 0xbd630e6f3d74c0faU, 0x3d8e0db33dd75031U,
  0x3d389f7c3d01c5a2U, 0xbd2be3c03c5bce0cU, 0x3c2c97f0bc703c0bU, 0xbb72d3383d840366U,
  0x3d7baf42be1056a9U, 0xbe16fbe5bda57ac4U, 0xbd6da0ec3e2f17d3U, 0xbe17150fbe10bddcU,
  0xbd675927bcd61b19U, 0xbdcb57edbb183af9U, 0xbd771805be3d7267U, 0xbe014b4dbd52815eU,
  0xbe021e1ebd1ce206U, 0x3dadc3e5be5224d6U, 0xbd3722b2be84bb81U, 0x3e28bafd3d22dfdeU,
  0x3c7c41c03e1d14c8U, 0xbc35aa7bbd27fc6bU, 0xbda032e0bd9cb319U, 0xbd89f96b3dd302e0U,
  0xbd99070d3dee5dc1U, 0x3dd97d563da74d58U, 0xbd7a96a43d129773U, 0x3dc33fafbcc4845fU,
  0x3cbce7d03c60b3c7U, 0x3c86e44e3c956749U, 0x3ccdae9dbd9f76a6U, 0xbdc5dc343ca67cd8U,
  0xbd51fd1c3b177648U, 0x3df16bbfbbe7e002U, 0x3d78e58ebd0b2064U, 0x3de923363cc17e04U,
  0xbbf39c0c3dd1b34aU, 0x3d3e9d733b4453feU, 0x3bc83b6c3d851fdaU, 0xb9e5bb123d2ce771U,
  0xbdd067d03b9a4dd6U, 0x3e06ca3f3dfed23fU, 0xbdd42c65bd77d755U, 0x3dc6ffd13db8d47eU,
  0x3e35f5ebbe60568cU, 0x3d81e8903d213511U, 0x3d8342533d42a0f9U, 0xbd5c4e9a3e0027b2U,
  0xbb849e0cbd0d3721U, 0x3e00932b3dfb9211U, 0x3d07b8973ca7ff63U, 0x3d0436fc3d65a9cfU,
  0xbcd400ffbddd6a6fU, 0x3d8a08ccbdb2d397U, 0x3c963fee3ca27388U, 0xbd26d4f93d0af381U,
  0x3d9034ffbd4fb1feU, 0xbb9184373d44413dU, 0xbe270e56bc7a2417U, 0x3defd857bdb35f10U,
  0x3dd5a6babe1e2eb4U, 0x3de4c512be6ad0c2U, 0x3dcfabedbd555a6cU, 0xbdb3e6883db01ac1U,
  0x3d6132bcba1a1ba6U, 0x3d490eb1bbf803e7U, 0xbd68921fbbddecf3U, 0xbd33873c3d7648a8U,
  0x3d37d669bde8e3e0U, 0xbcca6911bc84bf31U, 0x3d0fb9153dcf74a2U, 0x3c996ff0bcb71edcU,
  0x3e0a295fbd29c0d9U, 0xbd84299a3d523b12U, 0xbe30e61b3b65b23cU, 0xbd9ebc70bc39050bU,
  0x3d068cd6bcbf3de4U, 0xbdaf93cdbd8bf958U, 0x3d173675be19f01cU, 0xbe00eca03d648901U,
  0xbd208fb73d9c85ddU, 0xbd121e0e3ccfadcbU, 0xbd30dda53d942f8aU, 0x3d9be0f23d40cce0U,
  0x3dab7c54bbcee866U, 0xbd284b503e0b5439U, 0x3d95b4edbcdcd4a8U, 0xbd6de2f13d1c9b2aU,
  0x3e396113bcbcc7d3U, 0x3d0e3bd2bcf491b5U, 0xbdedaf4d3cb74e25U, 0xbc4ec48f3dec4685U,
  0x3e5411f5bd62dd3fU, 0xbdf95ef93e17aa04U, 0x3e2495053a0626f7U, 0xbd283375bdf7fa87U,
  0xbc356b29bd1d62c8U, 0xbdd4b0f2bccc6e68U, 0xbbf8a7683d04c826U, 0xbd81689bbd8274e2U,
  0xbd67578ebd359b17U, 0x3a96f9073e4f943eU, 0xbd5c574b3d70198aU, 0xbd407647bd1c6299U,
  0x3dddd7febd8e4c99U, 0xbe0887d2bcbebfe6U, 0xbd04c5593db0af31U, 0xbdc3e01c3e13bdc2U,
  0x3d68e0f4be170fa4U, 0xbdd5a00c3dab6cc2U, 0xbbeebe643e089af7U, 0xbcffececbd9f4df6U,
  0xbe2f319abd80203bU, 0xbe32d353bdd635ecU, 0x3c86d530bdf07241U, 0xbe0527993c2f57b2U,
  0xbe187dfbbe2cbfa5U, 0x3daa141bbd8ffa7fU, 0xbe229535bdc0e0eeU, 0x3c40fce4be080a95U,
  0x3db2149cbdb622a4U, 0xbe25f2fabe265aceU, 0xbe8567a53db5d1cdU, 0xbdec28f2bda626aeU,
  0xbd430fcabdf3726eU, 0xbe081a2dbd35ee45U, 0xbe3293d0be0945e2U, 0xbde4f649be23798aU,
  0xbdbf7b19bdf99931U, 0x3a1e9e8b3d87e87fU, 0xbcd66df83d5d91ddU, 0xbdc80301be18cbdbU,
  0xbe129446bd8378caU, 0x3df10aaa3e15bca0U, 0xbdac82a2be895442U, 0xbe0dd49bbe47d9deU,
  0x3e1e98e03d25010aU, 0xbd4a74e4bcea05bfU, 0x3b33d37abe43111aU, 0x3db9c99f3d3f9ba5U,
  0xbe7901c6bd803eb3U, 0x3d8f57713e011248U, 0xbe0d964f3e3eaae9U, 0x3d8461e93d850307U,
  0x3d0f6e0b3ca2cd24U, 0xbcfa1cbc3dcb567fU, 0xbd0553dc3db03e34U, 0xbe544203bd881df2U,
  0xbe048958bdbff405U, 0x3df772393dc7f67eU, 0xbd2145423d1b309fU, 0x3cd0d67fbd957464U,
  0xbe042d5d3dbd5058U, 0xbdaa48a1bc06cd9aU, 0x3e10e4adbd74af64U, 0x3d5a229ebca32c58U,
  0xbc3e88393c75784aU, 0x3c39a500bd0bb74bU, 0xbe25a75b3e193606U, 0x3dac94dfbc9b7f3cU,
  0x3cc2d9b4bc7d5232U, 0x3bf3f885bdafea90U, 0x3c4e4368bcb8e9f3U, 0xbe162988bd0bfdcdU,
  0x3dc3f4f9bb961578U, 0x3d1c96b0be51a819U, 0x3dce4648bd06fbb8U, 0xbd6b10153d433ee7U,
  0xbcc03b2b3cea6486U, 0x3c3bf0cb3d200004U, 0x3c4956263d8bd72bU, 0x3c11b0af3dbbaabaU,
  0x3d0b1c2bbd24fbefU, 0xbda1a5853d2e63edU, 0x3d2e80a53e10c3e1U, 0x3dac4ae53cd798e7U,
  0x3d6aafe33dad8d49U, 0xbd877d5f3d087a37U, 0x3c48789d3afe52a0U, 0x3c6f5fe6bd5d57d9U,
  0x3dbee9febd176a18U, 0xbd1c0a1f3dc7da8dU, 0x3d738cb3bc3fbaaaU, 0x3dd3281dbc20b2feU,
  0x3d92023f3d6d3d30U, 0x3d22a434bc414bf8U, 0x3d50792b3afe7ccbU, 0xbd849af73e18f063U,
  0xbcbcf3c13dbf93a4U, 0x3d7f9a6e3da8476fU, 0xbdba2b0e3d805693U, 0x3dad4447bd46147dU,
  0x3dcf8ea4bd151464U, 0x3d100f213d38eb87U, 0x3ae18108bded7cfbU, 0x3d19cc0dbd0ee93bU,
  0xbbf318cabc114fe3U, 0xbd9444b33e14aafeU, 0xbbbe1cb5bd48b24cU, 0x3dfe5f153d6c40eaU,
  0xbca9beb8bdb32146U, 0xbd744dcebe2a915fU, 0x3c4654a0bd2ef031U, 0xbdafed423dafecb2U,
  0xbe42ba593cc59312U, 0xbe0847cfbc1d3401U, 0xbe0b409e3d69fd3eU, 0x3cc079a5bdacef71U,
  0x3d6e8c71be040df7U, 0xbd164ea3bddadb91U, 0x3db82640bd9b529fU, 0x3d9aeec8bde0bc14U,
  0xbacbfa673de28192U, 0xbcad66a33d52b7ceU, 0xbd54a58cbdb748d4U, 0x3ca4c08dbcce4fe9U,
  0xbd705f7bbd905b4fU, 0x3b262b613ca251f2U, 0x3dd3b696bb72909cU, 0xbcf9e77c3e060829U,
  0x3d8e27d5bdd5e4bbU, 0xbc8d226bbd489db0U, 0x3e489e633e2ef068U, 0x3d5db3cfbc85c0a5U,
  0x3cd2463abd65c79bU, 0x3d2e6caf3da994d6U, 0x3d374a0bbd5df4ffU, 0xbd4e9f063d0d4ea2U,
  0x3d405056bbdb82f5U, 0xbdb463bf3d94719cU, 0xbd96f8743d18084eU, 0x3da24ae3bd3f217eU,
  0xbe12d88c3d572d17U, 0x3daeeb323d8e354bU, 0x3dd09d4ebd45292cU, 0x3da1331a3d5df5cdU,
  0x3e4e9d5c3cddd6f3U, 0x3d705e51bdb36ebcU, 0x3e74059a3e2746ccU, 0x3ddddb943dbf6d74U,
  0x3d6cd9023d7cd4b1U, 0xbcebbd313bbc4b63U, 0xbd454cae3ce413b5U, 0x3ccfe1293bc57055U,
  0x3df9cca0bc43f8f3U, 0xbd9f59b1bbd9bebbU, 0xbd6a00ac3d80e4f9U, 0xbd2bc5963cea4145U,
  0xbdff5071bd031079U, 0x3da28386bd9e2d71U, 0x3e1189d93c3b6bbfU, 0x3d34eb6e3e64beecU,
  0xbcd84f7cbd2cc2bfU, 0xbda73aaabdf5a700U, 0x3aa44b053d8f5497U, 0x3d048aa13d4f760aU,
  0x3ccd0557bc427fccU, 0x3d4468cfbd0590dbU, 0x3d999d9abd3c730dU, 0xbb23b4903ccf3645U,
  0x3d230fd7bca1b43cU, 0xbd8266e53d0a1d93U, 0xbd97b3b33d016c9dU, 0x3d2963dc3dbd8589U,
  0xbd3815ba3d58ad93U, 0xbd9b695b3cd04f03U, 0x3d15ac48bd717eb8U, 0xbc960d2c3db2717dU,
  0x3e22686f3d8ff58dU, 0xbda9338fbc576fd7U, 0xbaec13353e21984eU, 0x3cdba8bdbde38b67U,
  0xbd2284bcbd14f659U, 0x3cd03b10bd9c092cU, 0xbc649676bcd91eb3U, 0xbc8fd80f3ce1a18eU,
  0x3ccbaa353d259fa1U, 0xbdaf5b0f3e13e3a2U, 0xbddf68d93d525e17U, 0x3d3c9c343cc611deU,
  0x3c69c5963c8a3d2eU, 0x3d2857f5bd9dc27cU, 0x3dc355f0bd0a79baU, 0xbda29eae3ded3345U,
  0x3dedf1903d0a07a4U, 0xbb93799fbd6d49ffU, 0x3c55080e3d5aac10U, 0x3d9e5027bbcd44bfU,
  0x3d0136bb3b93a7b8U, 0xbba78aa03d5b448bU, 0xbce398013d87f878U, 0xbe0103a3bd8d214bU,
  0x3c11deed3d38e261U, 0xbd2e61b93e028afdU, 0xbdca2dc7bd5b2405U, 0x3bcce418bdea9dc1U,
  0xbc51665ebd541b2cU, 0xbaffbab73c9dbc89U, 0x3d2918eabd523e22U, 0xbd1630d43dff8819U,
  0x3d7f1e3e3d74e38cU, 0x3d5f9ce8bdbd45c0U, 0x3ca9698b3da12abcU, 0xbd74c8333d09e8c5U,
  0xbc18384f3d828ff4U, 0x3d6dc7133c42075eU, 0x3cbf64323db08d84U, 0xba0f37143d1d2369U,
  0xbb232c3e3c0d2aafU, 0xbe08d8f8baca6bb1U, 0xbd9fc83cbab5152fU, 0x3cce02b6bcbb82f9U,
  0x3db14160be1dcbe9U, 0x3d60b0b0be2632a2U, 0x3ccf469c3e4f1060U, 0xbd21a0f83dab2571U,
  0xbdba12c93c8a80d5U, 0xbe28de113d342f71U, 0xbdaf8bacbd273e78U, 0xbd96d1e6be0989b7U,
  0xbcccde23be0911f9U, 0xbe048bedbcb91566U, 0xbe001440bb6a2682U, 0x3d49fe8abd2398e4U,
  0x3d9d2cabbd986dcaU, 0xbd6ce675bcdb937eU, 0xbe17013fbd7175ffU, 0xbdf654c5be207e8fU,
  0x3d7507203dcb8601U, 0x3bac69e5bbe94afaU, 0xbddc7f393d7694d5U, 0x3daa7a733d1728a3U,
  0xbe4a3f8abdfee258U, 0x3d393b563dc22e0aU, 0xbe55f64bbdc078e0U, 0x3d8b031bbd24af34U,
  0x3d838e70bae37330U, 0x3d1eda8a3e11f390U, 0x3d2d4c733def935fU, 0xbe0a10e1bc53da54U,
  0xbe0c9bbbbe078268U, 0x3daa9c393da98b71U, 0xbd2ed949bda330fbU, 0x3d1a96e0bc40742cU,
  0x3e00cbd4bd401fffU, 0x3d5b4d3f3d7533acU, 0xbca533bf3e10f12bU, 0xbcb41ea73db824baU,
  0xbe272db9bd7b842bU, 0x3e14ee263d8cadeaU, 0xbe1d9428bdb584f8U, 0x3de568283d65fa3cU,
  0x3dc437593d8da45aU, 0x3da1d6f63bc0638aU, 0x3dcc4d6f3d67f0f5U, 0x3c8f7c893e05299fU,
  0x3d56e4aabc084c3fU, 0x3e08174f3e30dcf0U, 0x3b9345713dba74fcU, 0x3dc05f51bd4889beU,
  0x3c3a0280bc6a3019U, 0xbdf48d84bdf043bfU, 0x3d4240623d87e32cU, 0x3c2c36923d4edb52U,
  0xbe3f85a33cfe0af5U, 0xbd5c40673d55d0eeU, 0xbde98b81bb4cebedU, 0xbcd7c6e1be01a81bU,
  0xbced8774bda151c7U, 0xbd5519913cf1dad2U, 0xbd1ca717bda6c374U, 0x3d1e72ea3cae76d7U,
  0x3cfa86603d9eb76fU, 0xbdae82cdbdbabf98U, 0x3cec43353ccaff0eU, 0x3d24f9ba3d4a68dcU,
  0xbdeeee6e3cde420aU, 0x3ddfb9c8bc8f3655U, 0xbdb79a0fbda38cfdU, 0x3cb144323d9fda5eU,
  0xbda1f065bc936503U, 0x3de52bbcbc223a88U, 0xbe06e826bdd4fea7U, 0xbdaf6d293bd5a503U,
  0xbc3bf5e73d363d12U, 0x3c0bd64a3d93b178U, 0xbd314b3b3dc8deecU, 0xbdd5d2c5bd9d555fU,
  0x3b6e69d6be109854U, 0xbdaa94343d711cf2U, 0x3d94d91c3cfbfdb6U, 0xbda9e6893d8da432U,
  0xbdb502a53e1ea088U, 0x3cfef0dbbd308a4bU, 0xbd5723d1bd404c98U, 0x3da1aa093de006c7U,
  0xbe8e2cbabda87ffaU, 0x3d39cd0dbe4ae4f4U, 0xbe5a5122bd87de68U, 0xbd561ff03cbc1e10U,
  0x3d43a1a83da97324U, 0x3dd64832bcdde59eU, 0x3a95ae0f3dadc2a1U, 0x3d95e0c53ddc8128U,
  0xbd0571823de537d4U, 0xbce5982abd6daf93U, 0xbc265b14bc53487eU, 0x3dce484b3dd6e4e7U,
  0xbe5735ba3c0eaffcU, 0xbdcccfdfbc64949bU, 0x3dd4e6c9bb2927b2U, 0x3c6dbbf7bdec7a12U,
  0xbdcfec66bd41c213U, 0x3c6c2029be555286U, 0xbd353480bd5b3482U, 0xbd94d85abdbcae6cU,
  0xbbef8aed3ae98675U, 0xbc291709bddf6aeaU, 0x3d675c2bbd5d3fa7U, 0xbdbfef2ebda14511U,
  0x3cd765b03e0da12aU, 0xbe00529cbde8bf35U, 0x3d9d711dbd55b8a1U, 0xbdcfa5e63d408f76U,
  0xbe5c70133ddc06fdU, 0xbd44ce38bdbb14f1U, 0xbd1066dfbe1ab85aU, 0xbd1eb5c2be0346ccU,
  0x3d9d719ebd8c1f98U, 0xbbffe304be5191bfU, 0x3df7bcfcbe63e252U, 0xbe154a0f3d71a231U,
  0xbdb0839f3d0a1ba1U, 0xbc484d8f3cd26a42U, 0x3cb85e1d3d7b0cf9U, 0xbe33a7123cc5c3bcU,
  0xbe2574a9bcddd876U, 0xbd1e1db03bc65b3aU, 0xbd0cc1e83d26a199U, 0x3d4572d73d8bc0bcU,
  0xbe9d45253e3d0565U, 0x3df3f87b3d143a2dU, 0x3e2eaa49be4c0276U, 0x3d4b93e8bcbebbcfU,
  0xbd3743cabd6ba1ffU, 0x3cc54bc1be3cc06aU, 0x3dbd492dbe3809c5U, 0xbaeac5fe3dd4c3c4U,
  0x3dae8b913dfb8d3fU, 0x3cadf6f6bc7b88e8U, 0x3d702df33e01097aU, 0xbddba63c3db705b7U,
  0xbde1a4cd3dab80d4U, 0xbe57584dbd0d4225U, 0x3e1dd7ac3dfba795U, 0x3c36bc233cb0ec6fU,
  0xbe16985d3d3bd5a2U, 0xbd045cbcbc7696d9U, 0x3da24143bbdf040dU, 0x3d53c71a3cef6da0U,
  0xbc0f0c143d950e50U, 0x3d92a14fbdee7b29U, 0x3d0974763da035d6U, 0x3ddee823bd04c61aU,
  0x3d055d98bc6a9fcdU, 0x3d8bd70abb8ceebbU, 0x3c7b2ba3bd85e49aU, 0x3d3108e13d8ba832U,
  0xbc801a993d50a188U, 0xbdda4c8cbe2805ffU, 0x3d99c229396360c0U, 0xbd1eddb43d6c4957U,
  0xbcc32023bb9a2d4fU, 0x3d4143c33d244b83U, 0x3e090ce6bd01be11U, 0xbd10506bbcb715abU,
  0xbd7cfbaa3c571041U, 0xbcc44edebd20ff99U, 0xbc93147c3cd835feU, 0x3dcbee85bc939b92U,
  0x3d8371773c920806U, 0xbd6800c03c79a782U, 0x3dcfe8b3be10af2bU, 0xbdbf96e63cc7586dU,
  0xbc7b09853d02d736U, 0xbd60d1cabba2478eU, 0x3d5893383d652f1cU, 0x3db0962a3d840753U,
  0x3e3810aebd65077dU, 0x3c663387bbc1d1c8U, 0x3d868c53be018c95U, 0x3d930fff3e14140eU,
  0xbc89aca33d5fe294U, 0x3bfe8d573e8ade32U, 0x3c9b798c3dd95c24U, 0x3e3ebef33d89cebcU,
  0x3e20f9f83c1f567bU, 0x3d4eec263d8ce1e8U, 0x3e098c2ebdf23913U, 0xbddacb3bbc3984fcU,
  0x3d8913683d267013U, 0x3e0acc503e258497U, 0x3de551cdbd1c4c9dU, 0x3ce612be3dc05d12U,
  0xbda885433c787f90U, 0xbc1840c03a617e6cU, 0xbd3409dabd8a6e29U, 0xbc9e912fbda79af1U,
  0x3d37c1453bd0a840U, 0x3d37a714be7559d4U, 0x3e039e7dbe2564e9U, 0xbda985453cb25467U,
  0xbe0294db3d394cccU, 0xb96ab24dbe2a74acU, 0xbe000bfbbdf7591aU, 0xbd932113bdb31b82U,
  0xbd75c6b7bbe56ca5U, 0xbe7f5a28bdcf3729U, 0x3d087a053d9ef269U, 0x3cad75cdbbf99186U,
  0xbe21ff833b9d05a4U, 0x3a71ef4abc485291U, 0x3d8dff74bdf007d2U, 0xbd2023e8bc831e93U,
  0x3d93f098bc8972daU, 0xbcc6c80cbd45b040U, 0x3e1308a3bd4c0119U, 0xbc8b9aac3d8d3e41U,
  0xbdc863143ced6be1U, 0x3d9aa9afbe2330b9U, 0xbddee48dbdb3a55bU, 0xbe36c969bd038961U,
  0xbdd4f2113d827ebbU, 0xbe17f615bc396f61U, 0xbcdd339a3e097864U, 0xbd23ba293c153a00U,
  0xbd82baeb3ca6a0e9U, 0x3c084e863b1e4f8dU, 0xbc3561e0bc13e956U, 0x3c3b7526bd2807c5U,
  0x3e5f5beabe3ace5cU, 0x3dc5104ebd974115U, 0x3e65852a3c568775U, 0xbbefacc93d0686e4U,
  0xbdcf91f43d409394U, 0x3dba5621bcf74ef4U, 0xbdc4a240bd3b3588U, 0xbd24aa173d387795U,
  0x3cc705b13c592387U, 0xbe052fc33bb4a420U, 0x3db560233d5102c3U, 0xbded0b4f3c474addU,
  0xbe3a82a23cc5711fU, 0xbde9b03abcd1a662U, 0x3da827d03d2bd72fU, 0x3c4a6a7fbdbe3e3cU,
  0xbda5d2943cbb45e1U, 0x3d0c7a54bd9b00fbU, 0xbd432eeabd27edbaU, 0xbd94a5bbbdda657fU,
  0xbd1aae9e3b1452deU, 0xbc95f200be31ac55U, 0xbdcfa094bdb0b870U, 0x3da527c3bc91e238U,
  0x3c923791bb86c5d3U, 0xbe285031bdcc5e55U, 0x3d39c321bc20dd2dU, 0xbe0260663d0aaa6bU,
  0xbd1e99b2bd95fcbdU, 0x3d285e46bdbf0fabU, 0xbd48d370bb433a44U, 0xbde9b5233d0280e5U,
  0xbba537453d7977bdU, 0xbda33dfbbda14904U, 0x3def8e64bd677ce7U, 0xbd47d1bd3ca041d6U,
  0xbd940ae8bd34c54eU, 0xbd59a398bdf042d7U, 0x3d5365b93d2fabc7U, 0xbb4a851abd8ec244U,
  0x3c2c3edcbddf008cU, 0xbd7f77cdbc60e4b8U, 0xbdb037d73ca0f491U, 0x3bf9ccebbdcae3e5U,
  0x3e33d5e6bdd1f0c2U, 0xbdbebd47bdc3a608U, 0x3d3eb5043b33ad78U, 0xbe1920673db8ba9cU,
  0x3d2e4f253de0b3efU, 0xbe1da0123e2462dfU, 0xba38cdd73cdf3706U, 0xbd4563a6bb15737aU,
  0xbd9c0ca1bc182402U, 0xbdeea201bd992d4aU, 0xbbe80e0dbd95223fU, 0x3b26a7bcbdcf9639U,
  0xbdaaf3adbdaf8ea0U, 0x3d08e1b93db3ece9U, 0xbcfdc511bd7a7a8dU, 0x3d18fd62bdb61897U,
  0xbe54edcc3c9f8ff7U, 0x3e159623bcb579d1U, 0xbe0577a0be058eefU, 0x3cd1aa283c7d44a0U,
  0x3d1b17a4bd7963b2U, 0xbc00b8aabe24e441U, 0x3d0f74d3be12aa32U, 0xbd504d523de0afd3U,
  0x3c27980cbd010172U, 0x3aca93ab3c9f45f1U, 0xbdc3b2003e52807dU, 0xbdb9a6753d4b7066U,
  0xbd9f041abd192e7cU, 0xbdc293f13bc63dd6U, 0x3db296d73df8c087U, 0x3c3b67183dd9600bU,
  0xbe4a9bfe3d91407bU, 0x3df613853d232206U, 0x3de26e91be2d8c4eU, 0x3d443d133dcfe36cU,
  0xbd38971d3da14667U, 0xbd1e460bbe01f2d8U, 0xbc556dce3d7adb03U, 0x3da4b1693d7cf72cU,
  0xbd3bbfd23dc92e0dU, 0xbce6288ebd92ae99U, 0x3d0964523d777507U, 0x3d9fc8f93da02b46U,
  0xbccba0323e2e7aa9U, 0xbdcb9252bc898ee7U, 0x3de295f93d402bbfU, 0x3e3cfcf83dd8be54U,
  0xbe44fa98bdca13b8U, 0xbe00af95bd84b396U, 0x3e57e8353ab5047cU, 0x3c7290c3bd46d053U,
  0x3d189ac33e13e264U, 0xbdbb0ad93bee9583U, 0x3cae9bfd3df106bcU, 0x3d98af68bd82275cU,
  0x3cc540c13cb91253U, 0xbc8ed5f6bdb7b742U, 0x3d20f2e1be3b537dU, 0x3e235f0d3d79781aU,
  0x3d9637053d913216U, 0xbe48187ebe31e7f9U, 0x3d72d678bddb042bU, 0x3da8c5403c7579f1U,
  0x3d2762fdbd0544e6U, 0xbc56c7ffbde829f2U, 0xbe3fee67bd570a2eU, 0xbdf4de5ebe149309U,
  0x3d817916bd3a118bU, 0xbc9aa04ebc8a71a5U, 0xbd1c34d7be59efa2U, 0xbe24f177bb475fe6U,
  0xbe1fb6cebd6dd895U, 0xbdacfc3038ed1047U, 0xbe3eb9303d176e82U, 0xbd5a22f2bc9ecc10U,
  0xbe2c4a11be340f3bU, 0xbd2609a33d4f85f9U, 0xbda0bec7bd9d4fa8U, 0xbde78580be1c0d26U,
  0xbe9c4d8c3cf91e23U, 0x3d0507da3d1dba6dU, 0xbc9418a0bde20fe8U, 0xbcd861933e0f7aa8U,
  0x3c0d1c6ebd68b302U, 0x387ed102be2b4143U, 0x3c766523bcb35122U, 0xbcee5cdb3ddef6f8U,
  0xbdee83b63d5c3b5aU, 0x3dd7995ebd01ea88U, 0xbdf19aff3e4b7bd7U, 0xbd354725bd45ade5U,
  0xbdee80603d96a4b8U, 0xbd9174083d790c69U, 0xbd0663d03bcba68eU, 0x3d2268b33ba6cab7U,
  0xbea432053dabfcbaU, 0x3d4919733dd48f93U, 0x3e821987be314a04U, 0xbd575a1f3d5483e0U,
  0x3d94057c3e6c6f10U, 0x3d724387be1a0280U, 0x3c8550773e23ac39U, 0x3e134b323ddb9941U,
  0xbdd3e4763daffe0aU, 0xbb398629bdd2af9aU, 0x3e1189aebd1e9c4bU, 0x3d0f809d3dcad193U,
  0xbd74df163dcc0d26U, 0xbdc456e8be1edc2dU, 0x3a00fe183b785fe1U, 0x3e39492f3e406673U,
  0x3e756017be0c4809U, 0xbd9f2578be2604caU, 0x3cdb8a8cbc9d5c4aU, 0xbdb85bb73d86273cU,
  0x3dcb95793d167f01U, 0xbdbea9583d688a52U, 0x3da469b23d7330e7U, 0xbd5d4bccbe13d1d4U,
  0xbd6f7a13be035d75U, 0xbe3b8b14bc39e56eU, 0xbdf470bcbd5b26a6U, 0xbe5ab522bd524705U,
  0xbdd86752be2a2fbbU, 0x3dfde0e93e02f786U, 0xbde3d524bdd40011U, 0xbdbf5ea1bdab08efU,
  0xbc9e80a23c33b54fU, 0xbd4bb1cebe0701a8U, 0x3c91bc1abe0edabbU, 0x3d1ec460be1b5dbeU,
  0x3d2816ce3ba66f76U, 0x3d2c5e2ebc1dc9bcU, 0x3e164176bd576f05U, 0xbe0e61593caa4fc1U,
  0x3b2d5d22bdf3caceU, 0xbc89f67f3db64900U, 0xbd8c501f3b94de1aU, 0xbe26ebd9bd3f4b0eU,
  0xbd9044c0be2c4b26U, 0xbc8315e93d235557U, 0xbd94bdfe3db51b0bU, 0xbddd385ebd709da8U,
  0xbebc5c8a3d8107bbU, 0x3dfad25b3cfadc05U, 0xbcdd04dbbe818702U, 0x3d825dc4bbc6a080U,
  0x3df5e0b53d1c02b6U, 0xbcab283ebe717a00U, 0x3e26bdcdbda0b6efU, 0xbd1572ca3dedd607U,
  0xbddb74dcbd6fedbfU, 0x3d848459bde7375dU, 0x3ccffa9f3deb5e88U, 0xbdc8bc41bcca8a86U,
  0xbe1eadbebc8090d0U, 0xbe4f2f5fbe7e5501U, 0x3caafa0f3d21a20cU, 0xbc5068b0bd17c22fU,
  0x3c75b1e33a9b3bc7U, 0xbcc53c36bd8f5b6eU, 0x3d031d773de3e62bU, 0xbdc3b98b3ddb8235U,
  0xbd393fbe3e02b41cU, 0x3d27d440bdae9c12U, 0x3c3f1d203db550b1U, 0xbd96fd83bcb5b00cU,
  0x393c5e053cb8b20fU, 0x3c0a1654bce241aeU, 0x3d8fd13e3d1a39a6U, 0x3d19210ebd17c29bU,
  0x3d9bc3813d4f92cfU, 0xbc30bbdcbd168d5aU, 0x3d1d5d303c05c60aU, 0x3c5429b5bc0aa3e4U,
  0xbda5ca9c3d08a0daU, 0x3def2b01bddda03fU, 0xbe0b88de3d724de7U, 0xbdda5d59bd2584e3U,
  0xbcda60a8bdbf72feU, 0xbdd0327abda6b5b9U, 0x3bc8c3dcbdfb0231U, 0xbe123a08bd47bf7bU,
  0x3d98e311bd59293eU, 0xbbc07eee3ce1adcbU, 0xbd87595b3d0d1acfU, 0xbd61f5b5bc93cb2bU,
  0xbd1a96ffbd503978U, 0xbd6146963ce1a580U, 0xbcc5f7573dc6c54cU, 0xbde820a4be16c440U,
  0xbe135ebb3bd9de35U, 0x3dec6a1fbd69ae90U, 0x3d9ba4c9bce3f053U, 0xbc42c0ca3dd09726U,
  0xbd834b8f3d21ffccU, 0x3d80241bbde217d7U, 0xbcb32480bdc7392fU, 0xbd583a443dd2e471U,
  0xbc70508b3d917857U, 0x3d583fac3d9e8eb7U, 0xbcaff2fa3e475b10U, 0x3e2263773a77faf3U,
  0xbb7873963cab2734U, 0x3cf3bfd63b3c8bdbU, 0xbc1bddee3dbfaf72U, 0x3d7c62b63e1ddfcfU,
  0xbdb666973dcd3960U, 0x3ceca3e23dcb90f1U, 0x3de4c6e53e1a088bU, 0xbd9f10bd3e447957U,
  0xbe3e15503d3f6281U, 0xbd72b24cbdc777ebU, 0xbe286c9bbc66bffcU, 0x3c9cfe283d680fc5U,
  0x3d4afc203cfd5d74U, 0x3daffa0bbbdcd6a9U, 0xbd37193f3d75b7ffU, 0x3e2068c13d1d9aacU,
  0x3d88440e3e040ae1U, 0x3b5b47813d027d48U, 0x3d906d78bd414b29U, 0x3dc34d463d66fb6aU,
  0xbd0fe4d2be0fc631U, 0xbb0c447cbdc03c05U, 0xb8bc0f3a3dd5e8caU, 0xbe03a80fbc8406e5U,
  0xbdf992d23e26deb3U, 0xbdeaa3b9bda8a5ccU, 0xbdb53bd73d2154bdU, 0xbdfc2056be197ec4U,
  0xbd0a470dbdf82f40U, 0xbdb4f62dbce96d31U, 0xbd937ed63dabb422U, 0x3dd19ababd222a8fU,
  0x3c18eed13dd1c17eU, 0x3a7b85c5bc8598d9U, 0xbe20975bbd2aba55U, 0xbe047c5dbe1b8d23U,
  0xbe296d2d3e185f9aU, 0x3d9dacabbca35ea1U, 0x3d0637173d65bb3fU, 0x3de5cdbc3e6488ebU,
  0xbd9e7e55bc75af1cU, 0x3c890c4abdbf126cU, 0xbc82c4f1be17570eU, 0xba9b34a23d3944ebU,
  0x3cdd7df23dbef18bU, 0xbc466ac93e18551dU, 0x3c3482f73e3c9b42U, 0x3d7a8cd4bcbb5b77U,
  0xb98fc602bd6b6fc5U, 0x3d3f992e3e1bfd89U, 0x3cfda40c3ced0c35U, 0xbba7fa063d785587U,
  0xbe1e7cb63da364b5U, 0x3e2e1857bbd8cdd4U, 0x3e0f97f1bda96edbU, 0x3cfaddfc3e65014aU,
  0xbdfd4586bc7b9cb3U, 0xb9f28046be09bf1dU, 0xbe187197bd37ee36U, 0x3c32b3363dde4a01U,
  0xbcb6e52f3dd9e50aU, 0xbd01d0df3db612f1U, 0x3d0746243e6fc515U, 0x3d062d703d3339bdU,
  0xbd7c79853cae65dcU, 0xbd1107ca3c27cbf5U, 0x3d934b45bc34b04cU, 0x3db0c96c3e1cab91U,
  0xbde707e93bdb5600U, 0xbe2343853d906e99U, 0x3dd966623d8caeaaU, 0x3c4a6e9b3d7c1171U,
  0xbd82c4203e229bdeU, 0xbda3cf69be508a73U, 0xbe3f3fe23db751cbU, 0x3db07233bdc1a3b7U,
  0xbcd472e3be003309U, 0x3de331053a426453U, 0x3cfdd28cbe0b5a99U, 0x3e1ddbb23c0260e6U,
  0x3d9c56ea3dc2f6cfU, 0xb99823c7be39f86bU, 0xbc99dd11be35ae06U, 0xbcdaa4513d1227a5U,
  0xbe15867cbd3eaa52U, 0xbcd75755bdb7809aU, 0xbd3fe9dfbc4f91b4U, 0xbc0e95893d0f274dU,
  0x3dbad9bb3d91a1b6U, 0x3d9bb30cbe21448fU, 0x3c1810503d010f8dU, 0xbd8064b53c93d87eU,
  0x3aa41028bd1da2dcU, 0x3c7584b13e128522U, 0xbd9fdffe3e792cbcU, 0x3dab6473bd6924d5U,
  0x3cf389d3bd9fce04U, 0x3cfdda173e1ca417U, 0xbde5149c3c80073fU, 0xbd8022ffbc9f6fdaU,
  0xbd7889e7bb95c6a9U, 0x3daa68b3bd8d5119U, 0x3dac674fbe4e5897U, 0xbd324eeabd864e58U,
  0xbdaa93d13d3bc48fU, 0xbd157c4fbdcbc43cU, 0xbdba9aed3da3e6b9U, 0x3d3893ba3dacb230U,
  0x3df990d9bd682e5bU, 0xbc94e0af3d2cc0cfU, 0xbd266caa3de0a4d2U, 0xbdca99ad3d682306U,
  0xbcf9d602bc9a3ae8U, 0xbb8e7bcbbd9329b9U, 0x3cd384b73dc57f6eU, 0x3d19d39dbdafa880U,
  0xbe220eadbd5ec126U, 0x3da7e58a3d733e21U, 0xbcf89bbd3e1acbb8U, 0x3d3dfc023d1eb573U,
  0xbcb377d53d236e41U, 0x3d2c9685bdbd9f08U, 0xbdfeac78bd9d2ee4U, 0xbcee1ce33c994a29U,
  0xbd407445bd09679aU, 0xbd68d20cbdad94a3U, 0x3d588003b99c8f9bU, 0x3dcd75b5bced14a2U,
  0x3ded79823d528100U, 0x3c29ed423daa9ea3U, 0x3d24a177bd82971fU, 0x3d634d6d3de3ec2aU,
  0x3ab7e4f73d7d4eefU, 0xbcb001203bb6fa26U, 0x3c97f4b6bcd6b382U, 0x3d9bbb013cf7170dU,
  0xbe4ad4ffbdc5ee3cU, 0xbda822a53db335b7U, 0xbdf671023bb7dc98U, 0x3d70d04b3cd5815eU,
  0xbca6c3ec3d458d58U, 0x3d8e59363dcc0f6bU, 0xbd863f26bd081358U, 0x3d39985c3d905395U,
  0x3b36f5113d863f64U, 0x3d607ada3e5b6222U, 0x3cd09b0f3d8317e6U, 0x3d9296473a46db65U,
  0x3cd7844cbda26553U, 0xbd93b9d4bd69ee06U, 0xbdcd1e0cbc331cbcU, 0x3d0db4fdbd86a29cU,
  0x3c4e3683be13925bU, 0xbd8ab300bdc814bdU, 0xbdff7bebbd791775U, 0x3b1507123d38ae57U,
  0xbd4458ac3d9b5cebU, 0x3c04c27b3c9f4187U, 0xbd56a8ee3d4c8c04U, 0x396030983cefc68cU,
  0xbcbfed39bd3e0d5dU, 0x3c21b92a3c9c6c23U, 0xbd4d55e53bff0afeU, 0x39b17dcf39de9980U,
  0x3e19cffabd38bcf0U, 0x3d28a243bcb125c2U, 0xbd0eef433de42272U, 0xbd1f5c4b3dc1060cU,
  0xbe46a46bbda74eafU, 0x3dc642983ce41760U, 0xbe3560f3bda50747U, 0xbd136f86bd9d92a8U,
  0xbd61e4583cebf33eU, 0x3d5004743d7f7e65U, 0xbc66dd17bd4e6f31U, 0xbd1c62dc3caa48caU,
  0x3d14e2b7bbb353b8U, 0x3caafec53db21ea0U, 0xbd2fc9ba3d3a4519U, 0x3dd699cd3b0482e2U,
  0x3e2afb3ebc3d4288U, 0xbd8cf9b73d040e3dU, 0xbd7327c03e23ec33U, 0xbd018421bdf362fcU,
  0xbc96f27abdbdab91U, 0x3d8194cc3b198f6bU, 0xbdce30c9bd9e53a6U, 0xbd6f73403d363740U,
  0x3daa3587bc1ad93dU, 0xbd5b40b03db5ecbbU, 0xbcc4034cbdd24984U, 0x3e0a4a053d5e1bbdU,
  0xb7d8d98e3c27838cU, 0x3dabb995bc8f966eU, 0x3d9d7c603ca5174bU, 0xbd26682fbd3064fdU,
  0x3ddc99933b913616U, 0x3c9308ae3dbfade1U, 0xbcd23058bc5d8f96U, 0x3dc2edffbdd8fc03U,
  0x3d05bf0bbe13140eU, 0x3d5469be3d65b768U, 0xbd166e213d5188cfU, 0x3ce0709c3ae70439U,
  0x3deac6ce3d1e2b18U, 0xbd35f82c3dc0c4bbU, 0x3cd0eaecbd963bacU, 0x3d137c9d3d50ceefU,
  0xbca508a1bdb08cdaU, 0x3e0aab993deba1caU, 0x3d459ce73c1af248U, 0x3d2b97bebd0444a6U,
  0x3e203bf83d98720fU, 0xbdf168403d816b34U, 0xbd8ff8d63d97a921U, 0x3ba5ba74bdd6aa91U,
  0x3d84dc69be0a75e2U, 0x3c492679bd0b1639U, 0x3d157bd9bdf71c51U, 0xbd8f43e2bd4216e1U,
  0xbd0a4b593c1b38bfU, 0x3c53be243dac4bcdU, 0xbdcf3ab1bd0cad7cU, 0x3cfcf0343daf75fcU,
  0x3d0aa80abe08c0e5U, 0xbd4e5f4ebda92849U, 0x3bfef3723d82c697U, 0xbd0277e7bd66ce73U,
  0x3e1000a43d6b29afU, 0xbd8e762e3d738562U, 0xbbd91d7f3dd30175U, 0x3d4b0acabd64eef8U,
  0x3d12fd37be046d27U, 0xbd2611f7bc0dfbf6U, 0xbd395f7ebcf6cf20U, 0x3da0a4dabcc13d15U,
  0xbda690163d9c9430U, 0x3c4d0bba3c5ab4deU, 0x3d443a50bd9f4848U, 0x3d183298bd8bf0f4U,
  0xbc0e5fba3ca6241eU, 0x3a574c953d0fb9b7U, 0xb9225407bd2f6e63U, 0x3c404b1a3dc011dcU,
  0xbd886babbd5aa685U, 0x3cb15b80bc5b499fU, 0x3df59c413ccefd45U, 0xbda864593de128bbU,
  0xbd97e844bc87bdfdU, 0x3d7cc59cbc17ad05U, 0xbd2afccc3e0c43f6U, 0x3d76bdf03be53ed2U,
  0xbd666b7e3cc440f5U, 0xbd8b53063d10da6dU, 0x3a74c5183db1de07U, 0x3d3d4bbdbd83ccfbU,
  0x3d8a5d8bbc30814bU, 0xbd3073693d3f5cbbU, 0x3c130b2a3d7a30f2U, 0xbcd7eefc3b10416bU,
  0xbdbf2be0bd46fa66U, 0x3ce323cdbcb55d91U, 0x3cf87f1cbdd0ee1fU, 0x3cb30c293dc8f354U,
  0x3cd4b61abdc2ecbfU, 0xbca9c744be15abc1U, 0xbd8bcefcbcb33974U, 0x3d5bbd463c1a461aU,
  0x3cf325383cdd23a5U, 0xbbcbe6253d09fc24U, 0xbddc2bbfbd4eddd6U, 0xbdb3fc7e3ca0c2baU,
  0xbd5b4448bdaaea38U, 0xbcef5ec5bdebd45aU, 0x3d0fb63a3ce5399eU, 0x3daa692e3dd7d727U,
  0xbe77ef77bc6fa347U, 0x3dd00747bc1626ccU, 0xbd5865edbc42d3f0U, 0xbbf4014e3b1db9caU,
  0x3c2dd4a1bd9afed2U, 0x3d44bc81be282d56U, 0xbcb0ab0cbd3448baU, 0xbdbc9c94bd8127b9U,
  0xbdbcda293d2f540eU, 0xbd9d7c88bd7e73bdU, 0xbe139d263c2248a9U, 0x3d913ca73d8656daU,
  0x3d6bb3c3bd84114cU, 0xbd19358abdadac9cU, 0xbc911050bcdc3ca8U, 0xbd5722473d43b8e4U,
  0xbc65b989bc6c749eU, 0xbd0c50d3bdbc9fe9U, 0xbdcc87123dcb216dU, 0x3b5c46e5bccccb69U,
  0x3db8c6abbde4a201U, 0xbd8156d1be3787f6U, 0x3dc58ab8bdab12fcU, 0xbc2ce90c3ca55ca0U,
  0x3cac9d13bcd9c059U, 0xbce7ba043d9a0868U, 0xbc6b6293bc4f013bU, 0xbc07b2fb3c7754beU,
  0xbbbf2911bca9b3d5U, 0xbd00a02e3d415e82U, 0xbda502f33d63265dU, 0xbd10a12ebddc6613U,
  0x3c8bf9aa3ba9b53fU, 0xbcea327abba52661U, 0xbcda56efbd1e5b28U, 0xbd36c13e3d5a48bcU,
  0xbd1c99e4bd362b96U, 0xbd9fba18be21c53bU, 0xbc24c27bbe61d86dU, 0xbd32113ebd490e24U,
  0x3d6146433d898580U, 0xbcb7a6823ba5a528U, 0xbd0121673df1b868U, 0x3d1aa75bbd64b9a2U,
  0xbc5eafed3d1c0409U, 0xbdbb72db3d9f4704U, 0xbd95e2fd3dae88a4U, 0xbce503cf3d08a01bU,
  0xbe84516b3d742f5eU, 0x3d858c2a3d201f96U, 0x3e7885da3c848707U, 0xbdac5aaf3e55c195U,
  0xbd7d68e03e1a354aU, 0x3d976be1bdcd9e9fU, 0xbd6f1103bdd961c0U, 0x3d67cf05bd31cba2U,
  0xbc4783663a88aef0U, 0x3d80f5363d4e0288U, 0x3d590d003de255a9U, 0x3e352893bc6a3133U,
  0x3dc41d823e4c905cU, 0xbd90cbee3d01387fU, 0x3d70087d3d5d913fU, 0x3d1eaeef3df219bbU,
  0xbc0cfb9ebd82404dU, 0xbe29afe53c8d452eU, 0xbd67709f3db9f7d5U, 0xbe2482913d96c7e1U,
  0xbd725eecbaad4476U, 0xbe0a36753d29dbf7U, 0xbd4ce7ff3c6d38bfU, 0xbe0686b0bd9cfb19U,
  0xbe1d45ccbdb2ec3eU, 0xbcabdd2cbc00fb4fU, 0xbd918406bc13b568U, 0xbd4238dbbda4abd3U,
  0x3c6583ab3d616093U, 0x3d4e2c6b3d14c0cfU, 0xbd83d6933c514983U, 0xbdfedc22bdd9870eU,
  0xbdc5fe75bde7379cU, 0x3d0022f1bd907fb6U, 0xbd8d38b73d2edcb3U, 0xbd33c86ebd7f49c8U,
  0x3d1425713c0efd8fU, 0xbd90c0aa3cae347dU, 0xbc7dd53abddeb880U, 0x3aea67bcbdb9ea97U,
  0x3dcfe755bd3c9b62U, 0xbd2f24663d141bc3U, 0x3d40e46cbd013d6bU, 0x3bef934abd25f628U,
  0xbdd7bf2bbdcde4d4U, 0xbc0226f03bd69973U, 0xbd711be23d3de6f8U, 0xbd1424a9bc8e608cU,
  0xbe4945023e400b78U, 0x3e2d12dd3d5b29cfU, 0x3e2adad03d3f3054U, 0x3c7eea933e372e61U,
  0x3d9051b1bc4090bbU, 0x3712e80dbe3fc09fU, 0x3d8fe471bc0e5955U, 0x3cc180283d93931aU,
  0xbce79ded3d47be01U, 0x3ce7051a3d94f1e2U, 0x3dc5a0ae3e3c944cU, 0x3ddaafe33cae4bfcU,
  0x3d9fc1883d607752U, 0xbd8e44453da0c3f4U, 0x3d5f842a3ce473e1U, 0x3d02d9273e24020aU,
  0x3c8fa0153d34d71dU, 0xbd44322d3d55c565U, 0xbdcdbe09bcb9505dU, 0x3c463a693e0b9abdU,
  0xbc1f37d2bdf630b1U, 0x3daca3b73e0fdff4U, 0xbda0990cb9a8a1c7U, 0x3d1f21d83d2ae8edU,
  0xbcdee0593d149a65U, 0x3d67cd173e15cf8fU, 0x3d4b5ed33dbe8b90U, 0x3d14171d3d1ee176U,
  0xbc7fad0cbe06b918U, 0xbc25c0db3de1d091U, 0x3d1afd303c420b74U, 0x3d2fe302bd15d20eU,
  0xbdc97039bd686f60U, 0x3bfbe6c63d584021U, 0xbddcc7693da57a7dU, 0xbd3d87463dba56f8U,
  0xbe12bae3be0f8e4aU, 0x3d6b18a33d4ec0f2U, 0xbdd465d6bda7632dU, 0xbcfe60bbbd9959b1U,
  0x3d078c513c1d3f0bU, 0xbc4127113ddee290U, 0x3d7bb205bd3b19ceU, 0x3d6a56be3daff3fcU,
  0xbc9f40043d4c2e24U, 0x3da06ad0bd0bbd65U, 0x3d911f4fbc0a66e3U, 0xbd56bdff3d173115U,
  0x3c4f32d8bda96be0U, 0xbc5aaa22bc8ebcadU, 0xbd3e927a3df81432U, 0xbdd5c7f6bd02f384U,
  0xbc949a3b3c5f9ad2U, 0x3cfbeac33d6b3bb9U, 0xbcbdde01bdda3022U, 0xbb5c2b29bdc12a5cU,
  0xbd386b903c4417a5U, 0x3d55b8963d2f9402U, 0xbd58b9b1bcb269daU, 0x3d5585143d1b46d9U,
  0x3d1eda07bd608a72U, 0x3d64b6273daecd25U, 0x3d44a7cabdb92fd7U, 0xbd951102bd42deffU,
  0xbdb3915a3d418919U, 0x3dc80674bd768eedU, 0xbdc49f573ca647b6U, 0xbccb520dbd5f51e5U,
  0xbd7aa2dfbe07201bU, 0x3d405785be17c298U, 0xbd15ea38bc99747dU, 0xbdc34a0ebc1fd69eU,
  0xbc5b018abd495cf0U, 0x3bf49196bce6bb11U, 0xbde6ea2cbc4afe87U, 0x3d713293bdb78bccU,
  0x3cd425973a94f4f9U, 0xbd7ef14cbca156d2U, 0xbda990bf3db92988U, 0x3d07262ebd0d9924U,
  0xbcc40e92bceb6808U, 0xbbb5b1da3cf5d9e0U, 0x3d5f0ac7bcfd4aa1U, 0x3d3d2d493e33ea66U,
  0xbdc1371ebc30b7a1U, 0x3cf9a75fbd82d961U, 0xbdc1d84bbb06686bU, 0xbd3e52843d5f28f9U,
  0xbd53e4793db743a4U, 0xbba16c29bd827838U, 0xbdab04eebcf27024U, 0x3c8128c1bd845e19U,
  0xbd0f640dbd99bf38U, 0xbd9797603c8f4076U, 0xbd66c5ec3b8c6a12U, 0x3db155a73cb54c41U,
  0x3dbbac563d35da82U, 0xbdd047803c6451c0U, 0xbc7adaa73bf426f1U, 0xbd5711053da3957cU,
  0xbdefde6cbd105c99U, 0x3d4cec093da5690cU, 0xbdf871d53d9dbe85U, 0x3dae74873c8031fcU,
  0x3d477a9ebc83955bU, 0x3d4c040b3d3304baU, 0x3d7cb777bcc66a28U, 0x3ceac6453d9acf9aU,
  0xbd1c25303dbbcbc9U, 0xbd0ef2643dc9d53dU, 0x3c8f97563b335412U, 0x3db9e57abd60c36fU,
  0x3da00983b9d99162U, 0x3dc0a1d93be25db9U, 0x3ba1a5d33d18a22bU, 0x3d81fb4a3daa2fefU,
  0x3d52ad0bbce1e7abU, 0x3d7062bfbd7e9f87U, 0xbcd5efa6bbfe804dU, 0xbd8d4cbc3caddbd4U,
  0x3d28443bbd93ddcfU, 0x3bc7b2143daf7ef2U, 0xbdd219c33d2673a9U, 0xbddebcb23cbc359dU,
  0xbd439c2f3d239f83U, 0xbcbc459d3e031ecdU, 0x3d5d90cabd896e81U, 0x3d3363d13d2f3256U,
  0xbe2cc4ba3dd4cd84U, 0xbd3cff003c09e261U, 0x3d5ef76bbdda8981U, 0x3d0af91b3e555c6eU,
  0x3da6333abda95eb8U, 0x3d721f77bcacd25bU, 0xbd97c9763e0a3b7fU, 0x3d9971a13b9ce667U,
  0x3d35ff9c3d035bbfU, 0x3da87d853b29ae74U, 0x3d556e78bd62f60dU, 0x3c992e3dbb397c44U,
  0x3aeceee3bb22c8bdU, 0xbdedd9ddbce20137U, 0xbd2d3a733da582deU, 0x3db81425bd361f2dU,
  0xbd91bc86bda4120bU, 0x3c67e732bcd244deU, 0x3ddbc962bd1b30e0U, 0x3d70b5a43b9a9665U,
  0x3dae40dcbd5252f1U, 0x3d796464bbcc758cU, 0x3de4b3663d0b1ec5U, 0x3bca1c553d654f95U,
  0x3d3e00633cf9391aU, 0xbd00db6a3d881c16U, 0x3d0998aebe288d75U, 0xbd81bc503d8ab1afU,
  0x3b8930363ccdaa40U, 0xbd43bc1ebd433c8dU, 0x3d8bf454bcbc5e79U, 0xbda839c6bdab669cU,
  0xbe527d2e3c6b0f21U, 0x3d7f9c3dbc92ebd2U, 0x3e33ee753bc32737U, 0x3d9a651a3df99b2cU,
  0x3ca48a953db1a877U, 0xbce8658bbc290294U, 0xbdb0bbab3d40c30cU, 0x3dc112b7bd39888dU,
  0x3db26f0a3d218554U, 0xbc64409f3cb0af37U, 0x3d69f4653dcec5dbU, 0x3ca49252bcdd4470U,
  0x3c512aa83e11ed30U, 0x3d14bed5bb4b6ac9U, 0x3dac133ebd60c459U, 0x38bc6d9d3dad28acU,
  0xbd9a041cbd44f1b2U, 0xbdacdb53bd04d746U, 0xbb4b58d33dffe559U, 0x3d5733f13d477a28U,
  0xbde627643de60cf4U, 0x3d8f4f4bbd9ff77cU, 0xbd9af45abcacdca6U, 0xbd194d62bd1ba8dcU,
  0x3de54239bd3ba687U, 0x3d5f37273c927dc3U, 0xbcb8eddb3d1bf6eeU, 0xbc72b923bb7664afU,
  0x3dd1b9e7bc8f9241U, 0xbdbf813d3c05af70U, 0x3da92f6e3d7495aaU, 0xbd2d5e3b3dbf161bU,
  0x3d3d3b79bcff312aU, 0xbd8195bf3d47354eU, 0x3d52704b3cee77d2U, 0x3d5871163d7791f3U,
  0xbd1af2e5bdba4589U, 0x3cc125383da0189fU, 0xbe4382033da911aeU, 0x3d8f9da03d9534b3U,
  0x3d6e58bbbcf0977aU, 0x3dc47d163d44bc0cU, 0x3d87c751be086510U, 0xbdd858cd3d0f4f5cU,
  0x3c2f34f03cd7d78eU, 0x3e03537d3d2ab851U, 0x3da4f7cc3d138c41U, 0x3d6dea883d989b7fU,
  0xbe12f31e3db1b242U, 0x3ce755923c39551cU, 0x3dcfbe2dbd20f98eU, 0x3d3c45cc3d1f521cU,
  0x3e017bb13dd3740aU, 0x3d55a81cbe1d2f29U, 0x3e16c2dd3cc4531dU, 0x361541c8bc305921U,
  0x3d3310d43d983d53U, 0x3dbd98cbbd8236dcU, 0x3d3773a73dca6665U, 0x3c60b1483bdfb53eU,
  0xbdc221633ddb909dU, 0xbda3ef853c99b2b9U, 0x3b34a6143d8e1690U, 0xbc441abebd075482U,
  0xbca1f0953d8b6c31U, 0xbc021933bc137603U, 0xbd53b2e5bd4b8139U, 0x3d0db2273d5dca3eU,
  0x3de3de613de57b8dU, 0xbd273e9d3bb25d93U, 0x3d8a2dbabd02474dU, 0x3cafdcee3d991950U,
  0xbd546ae73dc18ff2U, 0x3d07e1a0bab12a65U, 0x3d93eba6bda45511U, 0xbdf0097e3dc12a64U,
  0xbd7198f0bd270bfcU, 0xbd3325fdbd950611U, 0x3de2c3f9bd498dbdU, 0x3db97d3e3c73e469U,
  0xbd3e360bbda5d5e1U, 0xbd8db1673da5fb8eU, 0xbc453cab3d4f64c9U, 0x3dc31205bdc9a9bbU,
  0x3d934827bcec033cU, 0x3c9363c43e20c91bU, 0xbd06d8183da807a2U, 0xbbb721493d5d2c40U,
  0xbd39fff8bd70af9eU, 0x3dd0f0d6bd7e938fU, 0x3cdd858abe4b33e8U, 0xbc57feddbcb72afeU,
  0x3d9e89333c559d63U, 0xbc3d7179bd99d01eU, 0x3dd3c74f3d8afe9aU, 0xbd44801cbd46f55cU,
  0xbdebfa3bbcf55917U, 0x3da48a72bd21c835U, 0xbde2cdd6bd074426U, 0xbe1853abbdd03094U,
  0x3e09a9c63d074ca1U, 0xbe125151bdb82a51U, 0x3e16ca2bbe6d6597U, 0xbe393f6bbdd6a8c9U,
  0xbdbe4385bd3cce01U, 0xbddecd22be21919eU, 0xbe3d2be93d5ad6a5U, 0xbe4db42dbc000796U,
  0xbe3c1dcebe260492U, 0xbdf04eb83c832ce6U, 0xbd3862e13d19e586U, 0xbdcfd4adbe118448U,
  0xbdb54c783d82a01fU, 0xbd03b36dbc9b9092U, 0xbe2e886bbd9feeadU, 0xbdca3a403a7a9949U,
  0x3e3d079bbd5a7751U, 0xbdf9d250bdcc29cdU, 0x3d16b4d8be2d2a1eU, 0xbe29fcddbd77765cU,
  0xbe45bcb5bd9778bdU, 0xbd8183b5be2e3f89U, 0xbe3252bb3cb45105U, 0xbd92aed13d15f87dU,
  0xbd85f6acbe65df2cU, 0xbdcce067bd0c371eU, 0xbdcfa2713d893f47U, 0xbb54bd18bde15f31U,
  0x3e033b28be1b6ddbU, 0xba0546d53cb40c42U, 0xbe3c0163bc6c85f5U, 0xbdcecc4b3d13958fU,
  0x3e453719bd371db1U, 0xbdf78e21bd9736e3U, 0x3e2ec6fbbe7908f5U, 0xbe7057fc3c225b5dU,
  0xbe122effbdc2e9aeU, 0xbdced14fbe989255U, 0xbe3f8fc2be7e864eU, 0xbdba84d7bdf37e03U,
  0xbd0621e3bd0a8649U, 0xbdd4363ebdac4290U, 0xbddca44dbd4924fdU, 0xbe1301ebbdf45564U,
  0x3d4dd9793ce19395U, 0x3d60c0b9bcf67b63U, 0x3c9f46c53d828dc6U, 0xbd37b9adbd4a9015U,
  0x3e2013abbd9f79ecU, 0xbdaf20763d5590a0U, 0x3e347f28bc12e5feU, 0x3db74225bdc9753dU,
  0x3b84e2b33d11fc91U, 0xbd2d616c3cbfa5caU, 0xbd22a52cbd1ad6f8U, 0xbd925749bd9e4c20U,
  0x3d88de633d326dd7U, 0xbb3b765a3e59bb36U, 0x3c9e9fa23d86d3cfU, 0xbcf5414fbdbba30aU,
  0x3d487448bd96f2b7U, 0xbd0f652bbd14aee5U, 0x3e3dbf8b3d450074U, 0xbcdb759a3d5d1d71U,
  0x3e0ce711bd989005U, 0xbd1eb9fabcd42da6U, 0x3e19b0b33e09354eU, 0x3d04ca38bbfd98acU,
  0xbdac95c6bdc279c1U, 0x3d2cfbf83bdba34aU, 0x3ddc617e3d42288dU, 0xbd4e2661bd3bdfb8U,
  0xbd3e7f923cfa2a98U, 0x3db209c03e4d4d11U, 0xbd9b4201bd9a685fU, 0x3d3f08b73d9fd534U,
  0x3cdbea18bde5899eU, 0xbe037ed0bd9590e6U, 0x3e3519dabe0e54bdU, 0xbdfa05433e19bb1fU,
  0xbdaae1813d7afe10U, 0xbda2e1fe3ca236ddU, 0xbd67bffa3d2c6246U, 0x3db0e3b8be2338a1U,
  0xbdb84e4cbdfd6242U, 0xbdcbca45be3d51bbU, 0x3c788576bd776d05U, 0xbe1a2ff7bd2fdda9U,
  0x3c3951703de4dda3U, 0xbd871b033d43e108U, 0xbe0726e7bdd75b39U, 0x3d8553e7bc8885e3U,
  0x3d45185cbe1044c0U, 0xbdc2404ebd17d8c8U, 0x3db52a913cd6746eU, 0x3c9690c83d34ebb8U,
  0xbdd35aa6bdf1f794U, 0x3cf2c6dd3d6ddedfU, 0xbe0a74433d810c21U, 0x3c48000cbc815aaaU,
  0xbd40a4323bf8532dU, 0xbd9674923d2dccfdU, 0x3dbcf70bbd4ea53bU, 0xbce824e7bd23c8c9U,
  0x3c998fcdbd591fc6U, 0x3d9afbe13e065382U, 0xbdce665bbdd582faU, 0xbd808b14bd13dcffU,
  0x3cbde0f1ba67fefcU, 0xbd736ea8bd69d669U, 0x3d844713bd8e7dd6U, 0x3cb08c0b3d0766c3U,
  0x3c9495a3bdacaf07U, 0x3dafdb6b3d686f84U, 0x3cd367ee3dc01515U, 0x3d75743c3c708c45U,
  0x3d327bd63d91a317U, 0xbd6ef7b93d16f031U, 0x3dcef2cd3cfa19c5U, 0xbdeea5d93d3f2239U,
  0x3dad94b33ca6a1f0U, 0x3d9c117d3e33195aU, 0xbd2b0fd3bccdf325U, 0x3b6c342a3c631a23U,
  0xbbca16453d3a3d6fU, 0x3d64933eb9b78bacU, 0x3c33e6adbe155a1dU, 0x3d1f74883df6f54fU,
  0xbcaa0f7b3d26d088U, 0xbd7fd8f03ca122ccU, 0xbd451650bb703446U, 0x3c1b62753cff1d79U,
  0x3c773e023c518d4aU, 0x3dc0f4f03cade6bdU, 0xbc0ac738bd8e12d3U, 0xbe0d6e9bbb1f8c75U,
  0x3c76acbb3ce8d184U, 0x3cad9a0a3d87cdd2U, 0x3d96d73fb824d2eaU, 0x3d5b479dbd1a7471U,
  0xbd5162f93c5e5632U, 0xbda512983c93b848U, 0x3d5de659bd5e226eU, 0x3d7c05e23de1db93U,
  0xbd429f62bde8055fU, 0x3dc9d549bca9eb69U, 0xbd4542db3e48501bU, 0x3e1cad863c5ab531U,
  0x3c3317a63c8bffffU, 0x3dad58773e1db9abU, 0xbba8bdb1be076da1U, 0x3ccff3683dc622e6U,
  0x3dc9450ebc39775cU, 0xbdcc51f7be0b3e15U, 0x3d4d4f8b3d5da2ccU, 0xbc4fbc183d8d017cU,
  0x3e10bdcd3db01e64U, 0xbc93b0be3d617848U, 0xbcf80a0d3d8a6b0eU, 0x3d46467f3d36b545U,
  0x3d16bd5cbd42a1cfU, 0x3d8a51a5bd86f372U, 0x3dd163593e27f234U, 0x3cf56caf3b952c97U,
  0xbc8362323da4077cU, 0x3bde20763ce6ff74U, 0xbd1e1863be18ab0fU, 0x3ccf41a1bd0e689cU,
  0xbc7a58d63d7054bcU, 0xbe1f85bd3d97ed66U, 0xbd6e9e233d07ebb6U, 0x3d033b29bc03a73eU,
  0xbd3171083d5ea52dU, 0xba5c74a1bd84c4e1U, 0xbe0c59e5bde114caU, 0x3dacda1e3dc00a79U,
  0x3d6abfdabe390a91U, 0xbafd8386bde7585aU, 0x3d389543bbb71465U, 0x3d3251c93d7bca8fU,
  0xbc9ed6373cee601aU, 0x3c3acdb13d4b9cc1U, 0x3d0138e93c57d6e9U, 0xbdf296453d9d8814U,
  0xbd51980fbdab0744U, 0xbe3162b83d794ef8U, 0x3cb8896e3b8b4a06U, 0x3b291bbbbdac90a1U,
  0x3de87621bd11020fU, 0xbd41d39c3d31b7edU, 0xbe1aee51bd52aa1dU, 0xbd7c63e9bcb23e07U,
  0x3d87f181be61893cU, 0x3d7b7a2dbe47e0fcU, 0x3d615ec8bd27c7f6U, 0xbd35a0193d68e8e9U,
  0xbcb99d81bda580ccU, 0xbc8f980fbc57a246U, 0xbcb35ca53e56e46eU, 0x3da976e8bbc92a19U,
  0xba8b5d0c3bddbbabU, 0xbdbdd1783da529bdU, 0xbd652a7c3e03bc6eU, 0x3b9600ba3d4e3fbeU,
  0xbd4c1da13d23558cU, 0x3de84f8abd86e300U, 0x3d4bdb1abc8374d1U, 0x3d9974bf3da8745aU,
  0xbd1643eb3d80a976U, 0x3cb455a8be72d342U, 0x3dca065ebdea03c5U, 0xbd31a079bd8a0469U,
  0xbda8edcebd0ee40bU, 0x3ca3f15cbc12b62cU, 0x3ce721ae3d917ac6U, 0x3d849ae6bd97fe02U,
  0x3d93c0893d8c711dU, 0xbdac053fbd493ed9U, 0xbb99f0e6bb8a7209U, 0xbc0edba03dcfef1fU,
  0xbe8ca9783db0b228U, 0xbc43210abd5100e2U, 0x3e0bdb02bc84ea97U, 0x3d4db0febe0ca7ffU,
  0xbe30d9f33dec2a3dU, 0x3d8bc265be712485U, 0xbe4deeafbc9e0e4bU, 0xbd6cd2513d67c2b2U,
  0xbbb9ddde3c58f4caU, 0xbd6b320a3a9db92fU, 0x3d61cc4d3cba3268U, 0x3e0693ce3cd77759U,
  0x3dc78f1a3e14e6efU, 0xbe1e7b4dbde4a1acU, 0xbd96b01dbd139ce6U, 0x3d807a073e0152a1U,
  0xbe109db9bd160dfeU, 0xbe0110963cb7c7fcU, 0xbcbecc6fbc0f5cd2U, 0xbc6c9fd5bd17db64U,
  0x3bc853a13c647e6fU, 0xbd95c732be437a84U, 0x3ba4455f3da747b8U, 0xbd695808be0706edU,
  0xbe019dcabd533668U, 0x3cf24904bdeaeb33U, 0xbdbbeb67bdd72e0eU, 0xbd3db6cebd75439bU,
  0x3c80126d3b7bc817U, 0xbdc68636be45d0a8U, 0xbdc6074dbd9f653bU, 0x3c40a3ed3d052a08U,
  0xbdf25722bcef2b1aU, 0x3d8834cfbe0e6930U, 0xbd4d74edbdcb5381U, 0xbddde7c93c51eb96U,
  0x3dab7252bc9eebecU, 0xbcf57c6abcac3f66U, 0x3d252906be2beb40U, 0xbdf68ee6be0c0ebdU,
  0x3cba0b243d13b330U, 0xbe1469c4bd8fdcbaU, 0xbcb22be93d9e230fU, 0xbd97ee94bd91beeeU,
  0xbd3c2b51bdd4840fU, 0xbd37c7933ddcbb9fU, 0xbdf25b46bd8c75eaU, 0xbd76bb49baf9fd50U,
  0xbdeeeacdbcebef59U, 0xbb8f43d73d49cdacU, 0xbe22fc703d4a1b9fU, 0xbcb4c3f33e1b2853U,
  0xbe31b7bdbda48650U, 0xbd43619ebd7d7285U, 0xbe57acfdbe45bdfdU, 0xbe12fef53d67332fU,
  0xbbdeac8e3cb9ec8bU, 0x3b75aa4b3c477adeU, 0xbdb80e183da0ba45U, 0xbc85e8edbd68f914U,
  0xbe06fdc13cec377cU, 0xbdb58487bd0d5e90U, 0xbd930268bdb5b098U, 0x3d9a703bbcb6ae6aU,
  0xbd69a8643d50e086U, 0xbd834ff43b236ce8U, 0x3e612ac4be188f3aU, 0x3d0a68923e49c3c1U,
  0xbd3600363d5b49f3U, 0x3db1129d3bf9d6b2U, 0xbd68e7543e64a344U, 0x3ddf8e31bd0a225eU,
  0x3e01e6d7bc99ac20U, 0x3e01d4ee3c71fcddU, 0x3e5cf994bcea2364U, 0x3ccc410c3cb11ee3U,
  0x3d4fe27f3e0a89b4U, 0x3d1f5e4f3e25a541U, 0x3dd46eacbbe6e067U, 0x3e2f3c7d3e03250eU,
  0x3d8473c9bd676b97U, 0xbe3a58ff3dd2dad0U, 0x3d9134b2be07ed97U, 0x3d0f9081bcb4e5c1U,
  0xbc605e51bc1a7de3U, 0x3dbb94353dd3b145U, 0xbe3ac8e73e4e13b5U, 0x3e41781ebd06896dU,
  0x3dd951f9bdb73cc6U, 0x3dc557ca3e31f0dcU, 0x3e4d2a98be0399ebU, 0xbdac4bc63e02430cU,
  0x3e1c60bc3dc06316U, 0x3e3d9b9f3d56660cU, 0x3d22952c3d4b8419U, 0x3dd0a7513d21e649U,
  0xbd879fabbd23b02cU, 0xbd2096d03cb76317U, 0xbd844a163d5e65ccU, 0xbd3d1f06be2436a0U,
  0x3e02a774bd983bcaU, 0x3ca50b30bc77234bU, 0x3dc2d0af3e269657U, 0x3ce270b63d3a2a10U,
  0xbbd8f3b0bd41a8aaU, 0x3d81bc9e3d7b51c9U, 0x3d5622eabda63fc9U, 0x3ccb08cf3da1ca9bU,
  0x3e139e333c185512U, 0xbc95e6efbcd66b5bU, 0x3d70fde13db630fcU, 0xbc5430bc3b01012dU,
  0x3da33d393c93d9cdU, 0xbd9ffd7bbdaf101dU, 0xbd4ef8fa3deafcccU, 0xbd2a706d3df721cbU,
  0x3e4cc99bbdbc08ddU, 0xbcb89d813dcc7a2fU, 0x3d427f82be092170U, 0xbd974d063d1f3f95U,
  0xbdb892223c7e9a07U, 0xbd8d3a6abd2f3e74U, 0x3c4f84eabdb9bef8U, 0xbd181f943d69dc2cU,
  0xbd1a13b3bdad6136U, 0x3a0de54e3e0630fdU, 0xbd0f0cb9bd275defU, 0xbd5263a5bdb46d79U,
  0x3e1046e13bb86a91U, 0xbe0a57dbbd12b31eU, 0x3d46708ebc880786U, 0xbd9b44033da24571U,
  0x3dad1af3bd86b1b3U, 0xbd322b4c3e2f505fU, 0x3d96f5c43d837afdU, 0x3dc5ca22bdce638dU,
  0xbd6bc1ac3c4a359dU, 0xbdad6907bd120358U, 0x3dc313eebe173e6dU, 0xbe16c5d2bded1855U,
  0xbe0c2253bdee5b5bU, 0x3c83e2fa3e371e30U, 0xbdad7d54be18cdb5U, 0xbd264ffcbcf4f8bbU,
  0x3cb51d91be032c23U, 0xbdf2d80ebe0af15dU, 0x3df91828be6825edU, 0xbd7199ea3d8d74d0U,
  0xbd9d45d0bd15f11bU, 0xbd5828303e1a94c6U, 0xbe2814033e12dcfcU, 0x3d82cb23be044dd6U,
  0xbbc9face3bbe5a62U, 0xbd6c9653bdb6c6adU, 0x3e1b331abe294508U, 0xbe7732053cd7e400U,
  0xbcd8cb84bcfe591fU, 0x3cd547fbba12e3e4U, 0xbd948cb9bd8c6674U, 0xbcbb83f73b9287c2U,
  0x3e28fac3bd99e766U, 0xbdb00f84bdac206dU, 0xbd6207a5bd9112bdU, 0x3d6f209b3db469f2U,
  0xbe16f053bda46774U, 0xbd23cd543d9ba1a5U, 0xbe2d4c77bb7c228aU, 0xbc8223383d0173a7U,
  0x3c50b9df3d51daacU, 0x3ca86ad63daa6b38U, 0xbc800cb6be19ebe4U, 0xbd9de045bb5af6ffU,
  0x3d0fad0bbd74d3fbU, 0x3e1e20063e307ba2U, 0x3d3102b73ca98561U, 0x3da86c1dbd4facc4U,
  0x3d06b3acbd7f2f83U, 0xbd4b4a353dbcbe73U, 0x3da2ed6ebe2e6adbU, 0x3dc3e792bc7747d0U,
  0x3d5bdb74be2d3697U, 0x3db6b4273df933a7U, 0xbd8371c93e0fb01eU, 0x3de5935a3d3923e5U,
  0x3d7f58063c0e9368U, 0x3da994723e02051fU, 0x3c944f39be00713bU, 0xbdcba927bcbdecfeU,
  0x3cc7a13cbd932483U, 0xbd02b4d9bd91552cU, 0xbca069203caa3b3eU, 0xbaea5ec9bd98be5aU,
  0xbc49427cbd3edfd6U, 0xbd4cf5e33d9a4926U, 0xbd747041bcffdd47U, 0x3ce961edbd9d7dbaU,
  0x3d9636f83d018b39U, 0x3db8fb973db6eee4U, 0x3db4f9523da6ad2cU, 0x3e0321443dbc1854U,
  0x3df6fa3d3daf6ceaU, 0x3d3153103c9414baU, 0xbd5bee24bdf746a5U, 0xbe29d63f3bfae275U,
  0x3d53d8693c9ec720U, 0x3d474c59bdbba9cfU, 0x3cd472813be3c1a9U, 0x3d2747abbd854d3eU,
  0xbd838f833da103b4U, 0xbc8d159b3de41b95U, 0xbd8be724bd3a28c4U, 0x3d68c5413dab04d2U,
  0x3d8f5d0f3bb92a79U, 0xbd2566b9bd03d6d5U, 0x3d9a475dbde8e972U, 0xbcec5e17bcdb249eU,
  0xbccfeec23c659b07U, 0xbd266774bd6a1641U, 0xbc41b7b7bd2a34d7U, 0xbd07fc5abc3cd9ffU,
  0x3d90703d3d54b9ffU, 0xbcad72dfbc4c62edU, 0x3bb435c33df508e1U, 0xbc703235bc99cefcU,
  0x3d8dce5c3d6d335dU, 0xbd33e0ab3d314b50U, 0xbc66f9e33d208d23U, 0x3d4dafe2bd2f739eU,
  0x3cbf82dbbde8beeaU, 0x3cd6ecd93d6a501aU, 0x3e013184bd04820dU, 0xbd916370bd0da793U,
  0xbcbfca7ebced18c8U, 0xbd5ac0003bd59307U, 0xbbe973d4bc8ffc20U, 0xbd8d88a33d15cec2U,
  0xbdab98683d193d2eU, 0xbe015ca73c1706a4U, 0x3daa247d3dc6f0faU, 0xbd7cdd3b3d611c58U,
  0x3d94f379bb879e9fU, 0xbca3eb61bd3b5ae6U, 0xbe3a7b61bd836677U, 0x3bcc2ee0bd7bbbdfU,
  0x3e317806bdaa6eebU, 0x3d28f51e39b5e01bU, 0x3d8ae486be23373eU, 0xbda25d8ebd86fbdfU,
  0xbdbc96313cacc311U, 0xbc2cad32bd9fef5aU, 0xbc390387be2134e0U, 0xbe3da4c83d2badd7U,
  0xbd4f1646be3a2ef3U, 0xbe2c415c3d3c94b8U, 0x3d0fc909bd5dec10U, 0x3cb128cfbcc0d049U,
  0xbd274d5dbcedd81eU, 0xbdf3868ebdad7334U, 0x3d07227b3c774a2eU, 0x3cff4781bdad1fdcU,
  0xbdf425fe3b9dc966U, 0xbdcd1996bd27683cU, 0xbd0b233ebd24760aU, 0xbc2f525fbddb5c82U,
  0xbdc2f14bbb99194bU, 0x3bf95d66bdca57feU, 0xbd30aa3f3d7299e3U, 0x3d171632bd2d7786U,
  0x3c60ccde3ca54b57U, 0xbc3c4c9b3e089e5cU, 0x3c9afbefbcc0bbddU, 0xbdf2cb0dbd90fb61U,
  0xbc4f29c9bca968cdU, 0x3c6e2954bdb91ad3U, 0x3d3e4458bdfadc8cU, 0x3ce92e0bbe06cf83U,
  0x3d37db71bd36bb69U, 0xbda40415bdbfff49U, 0xbce983b3bd566508U, 0xbe0228d5bdcfa790U,
  0xbd8c4d713c2f43ddU, 0xbca9dded3b67381eU, 0xbd2de2023d7e4ff8U, 0xbd972eabbda4be37U,
  0x3d0dd9123c41e38aU, 0xbd9fb551bcd7b580U, 0x3ce32c483b6100dcU, 0xbe087f5d3c80a939U,
  0x3d3578ef3ba9b8eaU, 0x3c09fc71bbf99b5aU, 0xbdb2afcb3d417ad0U, 0xbde660933b0a71bdU,
  0x3e2c62bdb890e506U, 0xbcc53e6a3d9eb24eU, 0x3e0ec1023da4ff73U, 0xbdad3a763c31c88fU,
  0xbd94e67bbd2e1f32U, 0xbe079052bdf455eeU, 0xbd29df77bcf23d55U, 0x3d15abe5be09835aU,
  0xbdf2370ebe02e7eeU, 0x3ba3debabe1faf0aU, 0xbe0e2d01bdba1062U, 0xbdea95e2bdc5d5b1U,
  0x3d8fb5f53d01c32bU, 0xbda04af0bdda31f4U, 0xbdd809943d82365eU, 0xbde3c7d03d6c8a4eU,
  0xbdc8215e3d0e1050U, 0xbd2827663e3608e8U, 0xbac2e3973caeda64U, 0xbd813af8bd3e3dfbU,
  0xbd02cd2fbd4fdf3aU, 0xbd95bed53d2f6b24U, 0x3d0db99b3de2f6c3U, 0xbd51e45ebd75ff7dU,
  0xbcb675c83cc93e4bU, 0x3d92eedf3e33c47dU, 0xbcced3f7bd2686c8U, 0x3d1d4908bd8782b5U,
  0x3d888c5cbb456f71U, 0xbe015baebcc5e10cU, 0x3da9f85cbd3091eeU, 0xbd0a3709bc4693c5U,
  0xbd924d00bd11100dU, 0x3da0c3a53dc6b0b5U, 0xbddd33e93dfd3837U, 0x3debdbf1bc17dc71U,
  0xbd7c583bbdb1dfb1U, 0x3cd27ecc3d92b6a7U, 0xbc8d9935bd1f2cbfU, 0xbe005cb9bd247d1dU,
  0x3cc53b28bd77e53fU, 0x3daa8fbdbcfe4d5aU, 0xbd0ac296bbf080caU, 0x3dabfcb33d43dbeaU,
  0xbc20c3d5be0153f2U, 0xbde2cb083d48205dU, 0x3e046de2bd684b19U, 0xbd91f8583c941c70U,
  0xbe1275d43dfc7775U, 0xbd6e217fbcb483afU, 0xbdf2653a3df8f946U, 0x3dcdaa5bbccacee0U,
  0x3b49502abcb0109fU, 0x3c67efe73ccc5d3bU, 0x3d39ddecbdd088f2U, 0x3cf400ccbc003bb6U,
  0x3cfbc81cbc00306aU, 0xbc8f2d13be04027cU, 0x3a7a1064bc582434U, 0xbd5ca42ebd0c8ab4U,
  0x3d604bd9bcc10051U, 0xbc1da4843e037bcbU, 0x3dfd97fd3e0473deU, 0xbcb2b927bd39ae44U,
  0xbe02963bbc282ec8U, 0xbb9e8a0c3def6bb4U, 0xbe6b5eab3d7e4464U, 0x3da2c6c7b9f78199U,
  0x3c571ec43da94a34U, 0x3ca1d0703e1ea30dU, 0x399411053d1f0baeU, 0x3e2db9563dd849f2U,
  0x3dea6f923d5a71b0U, 0x3e2ab4dd3e276469U, 0x3da0aa1bbd54264bU, 0xbd5e00383d454d88U,
  0xbdbfb5643d987836U, 0x3dc1b717bd9657d0U, 0x3c639ba1bdbc75a2U, 0xbcbcec6fbdda5bafU,
  0x3d50634abd8b8287U, 0xbd05ee2bbda34503U, 0x3db27c0b3cba8616U, 0xbda2c803bd66104cU,
  0xbd3897f03d3846a0U, 0x3c8fa30dbd00c1d4U, 0xbd6e08dbbdcd4a69U, 0xbc72182e3d4aee8dU,
  0xbd2cb7b83d159e1fU, 0xbd31c1e3bdb17d9dU, 0xbd6d0f1c3b0fe051U, 0x3d6d4d7a3d867c05U,
  0xbdbe4e0b3e0a9dadU, 0x3c3121873d1afa6cU, 0x3e11c662be3f782eU, 0x3da393c83d267158U,
  0xbd3b03df3cc6b515U, 0x3d798d753d878a13U, 0xbb1f55843c5c318aU, 0x3d83b9423d99de37U,
  0x3d2e55a93dccc146U, 0x3dbdd4e33d17700cU, 0x3dafac89bc367481U, 0xbd777a9e3b4a82f2U,
  0xbdc443d13d8beea1U, 0xbb287c473d8c02bcU, 0xb8ccc6da3dbf1e5dU, 0x3e0489f83d10b3b0U,
  0xbdc1938c3e1efa69U, 0x3dc3c9dd3d2ffcfcU, 0x3d84c4893cf85bd3U, 0x3df08a27bd520a3bU,
  0x3d8b13cbbd3725d8U, 0x3c43d071bc2ce9b1U, 0x3e2913dabcc0496cU, 0xbb9b0a803da517fdU,
  0x3dc2cd1a3db169e8U, 0x3d3167923ddd0b63U, 0xbd95ef813e235ed9U, 0xbdcb4a0f3d503247U,
  0x3c924188bd4b5db0U, 0xbd84fafcbca5253cU, 0x3d928ff83e14b3e9U, 0xbc1b7f573dec2c3dU,
  0xbbaeffa23c6caeddU, 0x3da4e77f3dd17c23U, 0x3dc0f94b3d29b62dU, 0x3e0a32833e05e174U,
  0x3d4b2dbb3ba46ea9U, 0x3d4de06c3d5b01f0U, 0x3e3a57303c8b06b8U, 0x3da497ee3dc6d7c0U,
  0x3e16fb3d3da160feU, 0x3df214b63dd90c34U, 0x3d99c4013e343d96U, 0x3c6d888c3d777f7cU,
  0x3c9350183c381391U, 0x3db5dcc23d9ed783U, 0x3d8785db3df9196bU, 0x3dc48b693c4c11c7U,
  0xbd2b12983d08219bU, 0x3de7cb9c3dcb744fU, 0xbbea2f023d62bba1U, 0x3e205db73d13862eU,
  0x3e52b6553cf815aeU, 0x3d9bf68fbd59a05bU, 0x3e2c7d743e1f5125U, 0x3da1fd303e25995dU,
  0x3dadead33c0a5ba0U, 0x3d398e04bd3219daU, 0x3d264bf8bd3ee46eU, 0xbd0dd3343e0d62bcU,
  0x3d2bc0febb80ff98U, 0xbc8b93e8bd1bef62U, 0x3dc5b2903da3a328U, 0x3dcbf6503df241d3U,
  0xbd9bc027bcf05d2fU, 0x3bd2a963bde89474U, 0xbe133c89bdec453fU, 0xbda249ad3ddd011dU,
  0x3d574e87bc9fb402U, 0xbdf7c6dbbdb756a7U, 0x3c299b08be82e213U, 0xbe4c6c4bbdcbbc57U,
  0xbe43bde4bd598d44U, 0xbde07dbf3c5e2dabU, 0xbe0e39cd3e23e9b1U, 0xbe06d03ebd354a46U,
  0xbe818d18be1bbb7aU, 0xbcdfbe893e302800U, 0xbceeab0b3d990416U, 0xbd6e22d5bcae7332U,
  0xbdd4190a3d3184cfU, 0x3d0a55dabd2d94c2U, 0x3cce6b4fbd7e9defU, 0xbd64d3173dc8c17dU,
  0x3e42e53dbce6e347U, 0x3add9a68bc99cfe3U, 0x3da05b5dbd992159U, 0x3b47e7a93cf236f0U,
  0xbe169622bce1af4bU, 0xbda7b670bd593fe1U, 0x3c41bdfe3beb7887U, 0xbdb193e9bc56c37eU,
  0xbe5535f9bda3bed8U, 0xbdc39d7bbd3cdc1bU, 0xbd6c06173e1664f6U, 0xbd5bcb0dbd284181U,
  0x3e7c3b1dbc793a42U, 0xbd87d458bd93ccbaU, 0xbe1aa0cc3e1c86faU, 0xbd3cf25fbc6c011aU,
  0x3e4742b3bd876dafU, 0xbc8c555b3d4b811aU, 0x3e62561fbd91344eU, 0xbdacb69e3d06283cU,
  0xbda970bbbd24e513U, 0xbd9a1808be14af61U, 0xbdd5bcd5bd887f07U, 0xbd0041f7bd8d89a3U,
  0xbd9b823bbc50a09cU, 0xbdab6b063d78732aU, 0xbd3667f13d7290c7U, 0xbe13ef2cbe038d25U,
  0xbdeafd7bbe5de378U, 0xbe78e954be24b59fU, 0x3e617af3be5612e3U, 0xbdeb2556be1e2cddU,
  0xbe1805983df8787aU, 0x3ca620ef3e224034U, 0xbe83f5313e8fab4dU, 0x3df68ef5be29c74eU,
  0x3dc19fe9be0d14a6U, 0xbd82b9cabd502e97U, 0x3e07afbabbe9f6a0U, 0xbe1ec1eb3c32633aU,
  0xbcdce71f3da10018U, 0x3c04db9abdce3bffU, 0xbdcf3223be7f5029U, 0xbd93e380bde5e1cfU,
  0x3d823e69be204afcU, 0xbd9aff8bbd7b5c00U, 0x3e24af14bd3dd35fU, 0xbd98489cbbc272c2U,
  0xbe2f34333dcfa9a7U, 0xbd2c8dce3e395b4aU, 0xbda34dc73e439204U, 0x3df88e1ebd88cb70U,
  0xbcf01d17be1b146bU, 0xbd9c25f5be12d5c1U, 0x3d6d8b7fbd79a59fU, 0xbda0229fbd8fae68U,
  0xbdae3471bdca4af4U, 0x3ddc2602bd2f4a37U, 0xbdd57223be347e3fU, 0xbd66e731bde006ecU,
  0x3e18067fbe142e1dU, 0xbd9178c5bdc1622eU, 0x3dc0f247bd9a9b40U, 0x3cc2e98e3be02ed5U,
  0xbe537921bdd4f8c1U, 0xbd9da85f3d0e079cU, 0xbe4a3e4a3e797dc7U, 0x3e0685e6bc553ce8U,
  0xbb95a296bdbc5674U, 0x3cb4f176bd8df0c7U, 0x3cc1ce90bd614f92U, 0xbe7a8d64bca4da4bU,
  0xbdc4354dbdbfba81U, 0x3e08cd5ebdd3d0c7U, 0xbdc08660be364e09U, 0x3d8d45cbbca67843U,
  0xbc62e5853d5c90dfU, 0xbb8591fe3d2737ccU, 0xbcc383e13d8cc0ecU, 0xbd4835363d834337U,
  0x3cf6182cbe1c0075U, 0x3a8ff90dbdebc002U, 0xbd556522bdabd948U, 0x3b09ed4abae97a1aU,
  0x3d84e8023d322abbU, 0x3d60756b3d56c191U, 0xbda3871c3d547881U, 0xbd51bae1bc99d362U,
  0xbd7a04fc3c99c529U, 0xbd87792abd151090U, 0x3d7969d73d83c19eU, 0x3c028b443c963385U,
  0xbbdf3a6ebc9a1752U, 0xbd1f0c983d5f4227U, 0xbb9327b83d378017U, 0xbda9d25f3d239228U,
  0xbdd3a9173d5ce866U, 0xbaefb9b1bda88fe5U, 0x3c43af9c3d7c41cfU, 0x3cb38cebbb95c34cU,
  0xbc984d3c3b944584U, 0xbcb066b2bdb17828U, 0x3cf2dcd8bd5951ecU, 0x3d5e3868bd6ba21cU,
  0x3d58db43bd7df7bbU, 0xbcba8c053dbcbb1eU, 0xbc8a04d53c8b6f69U, 0xbd3a34a4bd3b5095U,
  0x3e29bf70bd4761b6U, 0xbd81b2963bb30ce0U, 0xbcd2dd103de949f7U, 0x3d2241d33e68f2e4U,
  0xbe184121bdcafc55U, 0x3dc6d0193df418f5U, 0x3b775e433dce9204U, 0xbc9a59b23d211e5bU,
  0xbbcc5f2bb98c03bbU, 0xbd83eecf3d56c42dU, 0x3d77609c3d0ea322U, 0x3cef857c3d73a4a3U,
  0x3d2800fc3d54f88eU, 0x3e5c71d53e17caddU, 0x3d99b4403cc3fe67U, 0xbcf6b1d7bd872d94U,
  0xbdcf87493d40dc00U, 0x3de4ff7fbc8d2719U, 0x3d88482dbada95ceU, 0x3d59af7f3d276985U,
  0xbd8ac89d3d51e865U, 0xbb323e7cbd2fa9b8U, 0xbd49b1bfbd96897fU, 0x3c83f4993d44da1aU,
  0xbd0106d23bba6beaU, 0x3d8e224bbd95cf06U, 0xbdbdfa8e3dd27246U, 0xbd48ad2cbd94b2f8U,
  0x3d049a5b3dffd0b7U, 0xbd41efa83babb292U, 0x3da728b53cdea918U, 0x3dd02d393d8505afU,
  0x3b742101bac93dc3U, 0x3d9f6c2fbd1d6f55U, 0x3d52405c3d0b2e7fU, 0x3d609ff93e5a99acU,
  0xbda124563dc68be7U, 0x3c7532713cf88786U, 0xbd9f40e43decb860U, 0x3e4010043da02d71U,
  0x3d941dca3c15ca72U, 0x3dff7b1abce0b17fU, 0x3e187462ba8d3c85U, 0x3cb4d0f43dc1a5afU,
  0x3c57c1633e161033U, 0x3d62db9f3e0ae316U, 0x3dab408dbcca9bd0U, 0x3daa543e3db300e7U,
  0x3d082a593d6616baU, 0xbd352a5b3e098b4eU, 0x3d36d1d0bcddeeb4U, 0x3da7c7eb3dcf4111U,
  0xbc5014dbbd9bd6e2U, 0x3db36ea43e4e8949U, 0x3da09f063e3d07e1U, 0x3ddcd1af3c90f47dU,
  0x3e232ba03ba75300U, 0x3e00df473e4085e6U, 0x3e09ca893ccb8a8dU, 0xbdeb849d3aff0f10U,
  0x3d9d4186bd02ba7dU, 0x3de08f473d075731U, 0xbc20db683c73b062U, 0x3d1a0ad03d79393dU,
  0xbe9cf4ea3d90f66cU, 0x3d02450ebd9c2a2fU, 0xbe006d07bddfb50dU, 0x3b497cb33dd834cbU,
  0x3e25562a3d9d781fU, 0xbdf90ce9be268578U, 0x3e2bb61ebe371678U, 0xbe178c07bd384485U,
  0xbd261e93bd17c3b7U, 0xbd85e9f2be072432U, 0xbe207bb73e6bdf42U, 0xbe076953be0374a5U,
  0xbe047f59bb875df0U, 0xbe302ae53d0040b5U, 0xbd8642d7bcb3f54aU, 0xbd93a8debda5b395U,
  0xbe42b56d3de22640U, 0x3c8487babd02d6edU, 0xbdfda4b0be024467U, 0xbbd6432a3dc09f74U,
  0x3eab59703d617ce9U, 0xbd9f358bbe05f2e8U, 0x3e4b983abdee102fU, 0xbe4bd0fdbd4b5756U,
  0xbe48d15a3c6830f2U, 0x3d2b5933be06b5d8U, 0xbe4a90ca3c69e03eU, 0xbe1c5b3dbddfa9bfU,
  0xbe2be2f03c806d54U, 0xbe8187b7bdca50c3U, 0xbdcbb8ef3dc15299U, 0xbd5320523bfc9715U,
  0x3e4c22c7bd699029U, 0xbd5f97933d195bfcU, 0xbea1b4213d148dd6U, 0xbdc44bdebd41fd58U,
  0x3e6ad294be06eec4U, 0xbe0b8199bc90413cU, 0x3ea71305be7401d2U, 0xbe716fa9bda23dabU,
  0xbe0f5a85bdea638bU, 0xbc634aacbe85f46fU, 0xbe6744bebd30ee7bU, 0xbdf774d1bdfec9e5U,
  0xbe1f4331be30c1bdU, 0xbe182f48bd230694U, 0xbdf017603db928e3U, 0xbdb6f2aebcfb3da2U,
  0xbe161b443e04fc50U, 0x3e2337ab3deb5760U, 0xbd4d37e23d475a64U, 0x3ccc16773d5afb19U,
  0xbda6d827bcf679d1U, 0x3dd580d6bd955706U, 0xbe0f879fbdfe003cU, 0xbd72eeff3de89bb3U,
  0xbd2dd08d3d8e6b98U, 0x3dc852ba3d23fe92U, 0x3dd405ba3dd0d07aU, 0x3d98adf53e126c44U,
  0x3cb902e23dab4635U, 0x3d820b69be16b770U, 0x3d04c89e3d484463U, 0x3d8a26ad3e00b6a1U,
  0xbe180df73db2bb86U, 0xbcc2931d3db6fdb9U, 0xbd19922a3de3ec9bU, 0xbdb12d72bde2dd19U,
  0xbdbb7f1a3e3e03e3U, 0xbd7ea33bbda37340U, 0xbe2369c8be5c8807U, 0xbdcf8bd43d12c987U,
  0xbdbcde3ebc887e82U, 0x3be04258be175e18U, 0x3c8d9770be13cb04U, 0x3e53b1e0bc23c9f0U,
  0x3e00f8193df1da5dU, 0xbe431521bd8f3aa9U, 0x3dfeee21be111333U, 0xbc06ab403cf834dcU,
  0x3d1b4169bdfd7085U, 0x3d92e8f6bdee5cd0U, 0xbe0f0e213d0f2dbbU, 0xbddca8b3bdd023a4U,
  0xbddec3703babfc40U, 0xbdcd2b7c3d43c850U, 0xbe32c0e6bdb8ca3cU, 0x3d19b7e43c94173cU,
  0x3c75214ebcb844ccU, 0x3d0a1e983dccc3abU, 0xbe0726303e1c389bU, 0x3db2181abe0fc304U,
  0xbd8f2e5e3c30f805U, 0x3e2146f83e00b0f9U, 0xbe10758dbcd9f51cU, 0xbd857bc1bde15f9cU,
  0x3d1fd5933e08ee93U, 0xba945fb33d8e4dfcU, 0xbe14a5203e044050U, 0x3def47ecbda634a4U,
  0xbdc718abbdb565f2U, 0x3c3a3c7bbe196eafU, 0xbe0a2dfdbe97666bU, 0xbcd120b13cbf46fcU,
  0xbd9dc8a43d82b825U, 0x3c99fad2bc5b6e8eU, 0xbd140ce03e1a641dU, 0x3e0f7b7c3cf016daU,
  0x3dc59a3e3d500bd9U, 0x3d4c30ee3df12b12U, 0x3e070e823d8d0858U, 0x3da9aada3da56015U,
  0x3dcd13a0bd3f3375U, 0xbe0832153c52a47eU, 0xbe1525803dd8c29cU, 0xbdbd69babe4b1f01U,
  0xbd5df0333e023f0fU, 0x3c8efe573d8a7bf0U, 0xbd13f662be8854adU, 0xbe690e0f3d5bec85U,
  0xbe2654ed3d2967aeU, 0xbd005062bdb7ec77U, 0xbe112306be06a009U, 0x3e30cbf0bccf256bU,
  0x3e10497e3ded7915U, 0x3da64e203e06b2a9U, 0x3ca4801ebda49f7bU, 0xbd31e429bd72421bU,
  0x3d30e402bdc5a2a1U, 0xba32d647bd9159e9U, 0xbe02d9d5bdc3c195U, 0x3d7fc114bdef063cU,
  0xbe075acdbd9a13d4U, 0x3d8d1ae3bc67d6f0U, 0xbc43d39cbe029e06U, 0xbe03528bbd9ba8f4U,
  0xbcee9ab0bd06d619U, 0xbcfe7a46bc3c77b2U, 0xbd6e3ada3e1bc7e0U, 0xbda610673c61955eU,
  0xbd9d0137be2e3e8fU, 0x3dc44f4a3d008a26U, 0xbdb059edbdaffa21U, 0xbdb35bc6bd1a5049U,
  0x3e6ea3b1bd06c5a6U, 0xbd03e4843e128312U, 0xbcca78d73df6d857U, 0xbd1758453d3bb468U,
  0x3d9725673b54ae20U, 0xbc804311bd5d84c6U, 0x3a1cade4be6f99c6U, 0xbddf435c3dc228f2U,
  0xbd76ed9c3d98cfe2U, 0x3e0464e9bb19f989U, 0xbd43bbccbd82deacU, 0x3d01ec7bbbe240c3U,
  0x3c74f1543d219eceU, 0x3e0c759b3de66b86U, 0x3c1abc833d8b0b31U, 0x3db147a93de470feU,
  0x3e50639abdad2852U, 0xbd3187fdbd79e8f5U, 0xbd46ef203e46e6fcU, 0x3c25e1aebd48abdeU,
  0xbd44be783da9d9f0U, 0xbdf987193c69790fU, 0xbe1cbc9abdd6a27aU, 0xbce0b192bcd25d03U,
  0xbd928341bc144398U, 0xbdcbb83a3dc0ebe7U, 0xbdeedec4bde23d0bU, 0x3d447119bd6f1b42U,
  0x3c9fcf263c6d731bU, 0x3de392863e2728a8U, 0xbccfe544bdba793fU, 0xbc0870d5bdf37dc7U,
  0xbdc0bb5bbd624cbaU, 0x3c894341bd194708U, 0xbdf64f72bbc86eaaU, 0x3d7c58a9bcad8b1bU,
  0xbcd8fcec3d345150U, 0xbce4dc72bd2fb756U, 0xbe05c28ebdc9a2edU, 0x3c11500c3c8f4a40U,
  0x3d494cd7bca4e619U, 0xbdd8fcc53b0716edU, 0x3d3b24153e0b5a86U, 0xbdf297dbbd71a7c3U,
  0x3c552a70be193da3U, 0xbd3d1f7bbda28ceeU, 0xbdd6595ebc949d57U, 0xbb1a67b43beebea7U,
  0xbd71bde93d84c2faU, 0x3d6ddcb9bd25a450U, 0x3cc4ffe13cf5f8cbU, 0x3d3dd1533e2648c7U,
  0xbe08b9353a840f4cU, 0x3c5ea5583da95b30U, 0xbd086852bcbbcd37U, 0x3c5086533d55df76U,
  0x3db92a0dbd0e1981U, 0x3d46adbb3d9f0ff2U, 0x3a4d43453e0e2694U, 0xbd8e994dbd20cbc8U,
  0x3d4a06163cce8ddeU, 0x3cd93457bd78b6feU, 0x3c1068543c181435U, 0x3d38da47bcb4dfb1U,
  0xbcc075373d4eaea2U, 0xbc74bbacbd3b061fU, 0x3d586986bc812a59U, 0xbdacf9dd3e1490efU,
  0xbe247116bd127921U, 0x3d9e2b0e3df88236U, 0xbcc8748a3d1a7053U, 0x3a1a3006bcc3e59bU,
  0x3dc8cfbfbd2606aaU, 0x3c9f6dcabd1936dcU, 0x3d90eed4bdeea893U, 0x3d06c6f7bd541ca4U,
  0x3da1a4fc3d12f839U, 0x3d78f3a03dd4b33bU, 0x3d6003013ca9f7edU, 0x3e14e7e63cd9c96dU,
  0x3e16dea83cd50952U, 0xbda9e1d9bb4a672bU, 0x3e1b8a7bbd8313f7U, 0xbd808f7d3e03d59eU,
  0xbd367eb33d78698bU, 0xbdbc82653e77d0abU, 0xbbdd2e2f3e443325U, 0x3e19d719bdd73259U,
  0x3dbff434bd09ba84U, 0x3d3e240f3dc06448U, 0x3e12cf13be00ec49U, 0xbc665369bdb33012U,
  0x3d52fde23dbf8bc9U, 0x3dc914ea3dcf890bU, 0xbc5e39a9bd251bb0U, 0x3c84586d3d4d2a5dU,
  0xbd4283323dd90399U, 0x3d7ae86abcdbd936U, 0xbcfdd929bd1ca58fU, 0x3d080428bd331f14U,
  0x3bfc88f1bdb3419cU, 0xbdbb12a3bdf5e59bU, 0x3dbcd4cdbde6d6e8U, 0xbd2c034b3c6660feU,
  0xbdccd1f8bc0e4e09U, 0x3cdcfd9c3d25a486U, 0xbdf0ef923dec436eU, 0xbdd812b93c88e521U,
  0xbe4d2e4abd635e86U, 0xbd5162333da68314U, 0xbcdd5baf3d3f1223U, 0xbd24e3e0bd803177U,
  0xbd6126c73dfa7bc4U, 0x3de6b84f3d42b5ecU, 0x3d6ddb953c9286c3U, 0x3d4000b5bcd92092U,
  0x3e13db41bd3fd350U, 0x3dc503f5bdb25e08U, 0x3dcd53ac3d5f2a77U, 0x3ca33e233d27a7edU,
  0xbc19ff99bcfdbb2bU, 0x3dd138103cf8e5bcU, 0xbdbbc69c3d60f948U, 0xbd8071333d8ecd91U,
  0xbe18acdcbd0574b5U, 0xbc409dc13df2c0edU, 0x3dc48c4e3d1f85afU, 0x3d8303453dcdcb52U,
  0xbdd675663db3e6acU, 0x3e08a98dbd1c78b4U, 0x3e52a208bd1c03caU, 0xbb16d5763d02d6afU,
  0x3da6bd193d9edd50U, 0xbb0f30723d0890f4U, 0x3df131003df586c1U, 0x3de9cf3abd02c765U,
  0xbb23c0153de56bc9U, 0xbbee1152bce28243U, 0x3c412f31bb9b34fbU, 0xbd897bc8bd10e31dU,
  0xbd99d7113e180d83U, 0xbd9e2617bd54abd7U, 0x3d7a2b623d3d0242U, 0x3c9b459f3e1b233fU,
  0xbd152c65be19ac36U, 0xbd7863b5be32e462U, 0xbd6e5ae1be324b82U, 0xbe4478efbd19079bU,
  0xbd0d59d43c86528fU, 0xbd200170bd017a87U, 0x3d302b883d1b21bbU, 0xbc89e12dbe10d627U,
  0xbd762106be063746U, 0xbdea6466bdddc2baU, 0xbdf77e643d53c6c0U, 0xbe764452bd957d01U,
  0xbe4ba607bddc96a8U, 0xbcd26a3f3c47c17bU, 0xbe35196cbdb43abeU, 0xbd2618debe2583f9U,
  0x3ca419c03bf5d1d5U, 0x3bc1c423be20d853U, 0xbdd7ec15be1c25feU, 0xbcb8141ebc0ebde4U,
  0x3e2e37b43dabc756U, 0xbcb14347bd72d186U, 0x3e2bffd33dd2fcb2U, 0xbe05a78cbdf2f181U,
  0xbe02f842bd0d460cU, 0xbdd1190ebdc123efU, 0xbdf2194e3d735dc7U, 0xbe623ebfbcad1742U,
  0xbe0eb762bddf3508U, 0xbd3b51663cc82e54U, 0xbdec4443bcaee013U, 0xbc951c48bd27b736U,
  0xbd444dd2bd7aabffU, 0x3d66b16a3cc7d1ddU, 0xbdd28887be663043U, 0xbdcc21983cff0dd0U,
