/**
  ******************************************************************************
  * @file    network_data.c
  * @author  AST Embedded Analytics Research Platform
  * @date    2026-03-30T16:51:56+0530
  * @brief   AI Tool Automatic Code Generator for Embedded NN computing
  ******************************************************************************
  * Copyright (c) 2026 STMicroelectronics.
  * All rights reserved.
  *
  * This software is licensed under terms that can be found in the LICENSE file
  * in the root directory of this software component.
  * If no LICENSE file comes with this software, it is provided AS-IS.
  ******************************************************************************
  */

#include "network_data.h"
STAI_ALIGNED(8)
const uint64_t g_network_weights_array[112582] = {
  0xbdf3bfe63d18bd57U, 0x3de791b3bdb8bdeaU, 0x3ccfaa473c8cbdf1U, 0x3c8431e73d857ad7U,
  0xbef72593bba2e9faU, 0xbccf58b0be03eebbU, 0xbd8e3ef13dba56b1U, 0x3e0015093e1169d4U,
  0xbdd02ef33cb3204bU, 0xbebfa910bd382454U, 0x3dc3bd4bbeb185e2U, 0x3e6b1323bdcc7319U,
  0x3de781e9be107e3bU, 0xbcba6eec3de28e2cU, 0x3dde3398bd71736dU, 0x3d1b999cbd8db7ceU,
  0x3dd20cb13dd1b748U, 0xbd4b57003d32dccaU, 0xbe92c3b2bd93c456U, 0x3de4629ebecd0311U,
  0x3e772b603e254005U, 0x3e06b33fbcf4ec1bU, 0x3e28d9793d95d714U, 0xbe32cceabe03fd97U,
  0xbdfb3d033e3b4695U, 0xbc13e7e0bd07e3ceU, 0xbd8f038fbc90237bU, 0x3c3aed76be90bfc8U,
  0xbc6bfc87bd518eedU, 0x3ddb38223e43ffedU, 0x3dd3e07abe2a9bf8U, 0x3d3d3452bd386206U,
  0xbb2a7778bdb16b65U, 0x3e278913be1c23a2U, 0x3dedcb63bcdc09a1U, 0xbd3bcc013e77cd68U,
  0xbcf090a83cc4c2c2U, 0xbcb3b61ebb531605U, 0x3e67c1d43d6ec83eU, 0xbbc7f67e3cc29a22U,
  0x3de3f735be2b0f75U, 0xbcd9b21c3e739a52U, 0x3c13d825bac991c2U, 0xbda89e483e6e2a88U,
  0xbec82de8bef88fd8U, 0xbe184d0c3e153cbfU, 0xbc1c3a6d3e0c2c8fU, 0x3cb12093bd001894U,
  0x3d4500cb3d061c1dU, 0x3e8fd84dbc008937U, 0xbcba0bfb3e1a2068U, 0xbd4db5d8be73181eU,
  0xbe065a3cbfb0969aU, 0xbf187b3c3def9be8U, 0x3e3c911fbebd1d41U, 0xbdc28d803d27f642U,
  0x3d27fb473ea03a2bU, 0xbe1e48b8bea2a61bU, 0xbd08d386be2e992dU, 0x3d600db0bda4e98cU,
  0x3d51920f3d9a5dedU, 0x3e31f284bc9526afU, 0x3e4d09e43d11d6caU, 0x3db615a03d82aa2fU,
  0x3df6feb2be7f6113U, 0xbe31cb353ccec589U, 0x3d1853db3cf28371U, 0xbf25182fbdb6b3acU,
  0x3d71477abdf34a83U, 0x3d91afa5bf2d0e20U, 0xbe93fe613e419533U, 0x3e5b77e63ed7c85eU,
  0xbd5c9361bcf11cccU, 0xbde568123e857f7eU, 0x3de2c281bf28efbcU, 0xbe8ae6c33eb6faf6U,
  0x3e248a8e3cae603eU, 0xbd89fae4be308e72U, 0xbc90fc13bd99623bU, 0xbe503c183d93b463U,
  0x3ec09c71be8ede7bU, 0xbd9828c7bdf103feU, 0x3dfaf44bbe0199c1U, 0xbe2e91873cd91a47U,
  0x3d77e5e93e4717d3U, 0xbdbbdcbabe55a8a0U, 0xbd34bd87bd139035U, 0x3c0295173e32c429U,
  0xbc73319e3e241585U, 0xbcfa2a113e2e8b98U, 0x3d2d3e10bb951322U, 0xbee4b9c1be40fc1cU,
  0x3e414a763d6c85c2U, 0x3ddff651bece90ebU, 0x3d6611653e04fcd4U, 0xbd02d93dbe6f0ea0U,
  0xbedabcc63e1f9310U, 0x3e09b134bd04cce6U, 0xbcb9606cbe9928cfU, 0xbdad722c3e9c3abbU,
  0xbe961b39bdd44083U, 0xbd4d67d3be4e0399U, 0xbe701ffabd717d5eU, 0xbeaf6b753e83ea7eU,
  0xbe8ce0ebbe8ce994U, 0xbc690efcbdd28433U, 0x3ded25f9bb26645dU, 0x3e93df823e270cb6U,
  0x3dda2f1fbc73bc72U, 0x3da6b430be6954afU, 0xbe4e000b3ead8a56U, 0xbd9859e5be80000aU,
  0x3d024fcfbfd3e6d9U, 0xbd8c907f3dace967U, 0x3dcb1d303dbe62b0U, 0xbdf342223e255256U,
  0x3de7864cbd39c3c4U, 0x3e19ebf0bb343871U, 0x3db619c7be83ea60U, 0xbeb162673d41dbf1U,
  0x3e43f3143e3a2ed2U, 0xbd82b3edbe040b92U, 0xbd0a3360bbd4343cU, 0x3d4172f93d02def8U,
  0x3e8492d9bde8f561U, 0xbe851be43d489d29U, 0xbc88be87bc29d396U, 0x3d86c1afbdc17405U,
  0x3da3cb423df0ab47U, 0xbdf7826a3dec2070U, 0x3da55566be471273U, 0xbd110f983ceb6de7U,
  0xbd4ff479be533b14U, 0x3e2242b63ded8d47U, 0x3dbea79a3c5bfc32U, 0xbdbc2f3cbd8e5a20U,
  0x3dd67aa4bd6c1143U, 0x3dcede603dea58b5U, 0x3d6f1c223d56aef3U, 0x3da768db3e4b68a1U,
  0x3e1f66723dee555eU, 0xbd39ba8f3dbdf56dU, 0x3d0edc78bc8cb2e1U, 0x3e015423bd70d3bfU,
  0xbc9537bebca8bda6U, 0xbd780b6e3bae247dU, 0x3c3d08f23bb6acddU, 0xbd12d968bc7a1becU,
  0x3b666267bd02b6dfU, 0x3cebd82abd56aaaaU, 0xbc77e2febcd92176U, 0x3b9e8f183d3d28e6U,
  0xbb57bf5dbcedcb8bU, 0xbd8d96e3bb282b72U, 0x3c595052bc00af2cU, 0xba91a68cbd26d3b1U,
  0xbc7083413d3c373cU, 0xbbbf9aab3cd4d717U, 0xbda51065bd8dc88aU, 0xbdb75285bc597ccaU,
  0xbdd34384be5260ccU, 0xbe2a687abeb10678U, 0xbe177f2abc4f054aU, 0xbe9268ccbd904453U,
  0xbdfedabe3c227412U, 0x3cdc4341be16cf26U, 0xbe62466abdac726fU, 0xbed8a23ebd72166bU,
  0xbe2f89403d9375c2U, 0xbe571e69be374f66U, 0xbdeb48b1bd592d75U, 0xbeb5b60ebd69d9d3U,
  0xbe24ae4cba889989U, 0xbe4d6f51be180cdfU, 0xbe9bd6babdd69393U, 0xbdbd84eebe188f8dU,
  0xbe0db11abdbcfe37U, 0xbd964225be892cebU, 0xbda82790be24d2bbU, 0xbe3c8d073cf677a7U,
  0xbd7bf556b81c08c1U, 0xbcfa3270bdce0334U, 0xbdbc8dd3bdb8f1dbU, 0xbda1c04fbd1bf172U,
  0x3d3d1c583cfee64aU, 0xbe7f4e93be1aeacfU, 0xbd93d7263d200ca7U, 0xbe6549a7be1c9e3eU,
  0xbd4125193bd340edU, 0xbe1587e9bdd56a4eU, 0xbe2019b4be194817U, 0xbd8d2520bdba37faU,
  0xbe4049a53d06b71dU, 0xbd171fe5be892190U, 0x3d1c2053be494472U, 0x3d29a5433dfb614cU,
  0xbe35ce8b3d478261U, 0xbe38ec6bbda64e7bU, 0x3dd64231bd246fb5U, 0x3b47792fbd08779cU,
  0x3de369453dce6254U, 0xbdbd19533d8dd40eU, 0xbd7f1b55bd27baacU, 0xbe28a259bded9de3U,
  0x3e40a63abe261b68U, 0xbc8fa893bc21156fU, 0xbd2ed7c83d55fb54U, 0x3dc7859ebc19d68bU,
  0x3e07fe263e219571U, 0x3da5b54d3dd35b63U, 0xbc5ac4b13e2ab53dU, 0x3c1a636f3e0d7762U,
  0xbe84250abe116143U, 0xbe4d42783cf940deU, 0x3cc50859bceb946aU, 0xbd69cb2e3cf4fb50U,
  0x3dcdaf803e7d2befU, 0x3dc3ed023e392014U, 0x3e1cd23e3e1ab6b1U, 0x3da38c0dbcb00f45U,
  0xbddc082cbe30d13bU, 0x3e446ce03e1342b5U, 0x3c424f873d83488cU, 0xbdf8a6683d7a54f5U,
  0x3c216c1cbda02cefU, 0xbd974b03bd94f615U, 0xbe0787d8bc5a982cU, 0x3c77a9e23d8cdebdU,
  0xbe4cf822be5230e3U, 0xbe43656cbdbd14ceU, 0xbda23e2bbdc14bb0U, 0xbe2d63123c27a854U,
  0xbe578a44bc6114e6U, 0xbd1392a8bbdf67bcU, 0x3da889f1be1af486U, 0xbd8b9137be904ebeU,
  0xbd987914bc9078b0U, 0x3dd18c933dc14f6fU, 0xbd8727b1bd24acfcU, 0xbe4fd14cbd903adeU,
  0xbe256071be258c01U, 0x3d93f79dbe7c7129U, 0xbc5ab496be52a6e8U, 0xbdfba4123cd7317eU,
  0xbd2ba642bd3330faU, 0xbdd7c9e9bb3ef9e2U, 0xbdb06870bdd56d48U, 0x3dd5bd78bd5e44afU,
  0x3daec3d33d8b72e5U, 0xbe665767bd478642U, 0xbd1581a93cf5978bU, 0xbe355d70bdaa77b7U,
  0xbcefd36dbe187cb4U, 0xbddc36ed3a79fbb8U, 0x3d71a9d8be1a40f1U, 0x3dbca17a3d0bfe79U,
  0xbe2a47333dbf4b1aU, 0xbd00cf08bd1029e9U, 0x3e745652bcdf4c82U, 0x3d0e73d13dda2cb5U,
  0xbd46d6b83d849f4cU, 0xbd8d78aa3cda6cebU, 0x3d457a8e3e7bc8cbU, 0x3d3f26043c5f4917U,
  0x3e2ab76f3e79676bU, 0xbcf5f14d3da46e44U, 0x3e3bbf703ea21965U, 0xbe41932c3d87fe54U,
  0x3df591c2be6b0451U, 0x3dfce1883e419213U, 0xbdbba3cf3de458ceU, 0x3d82b1ddbca2a326U,
  0xbdde10b13d2c6fa9U, 0xbdd2ee27bda0128bU, 0x3e42e76c3d17d6ebU, 0x3d81aff63daa8084U,
  0xbde2105b3c1b70e4U, 0xbd4480ff3d2920c7U, 0x3da5be83bd938c01U, 0xbd873a413dd06a04U,
  0x3a8048af3bec2bd0U, 0xbce0c2ad3e4d902fU, 0x3d3c67e6be2d064cU, 0xbda818dcbe104e86U,
  0x3be28ee6be74aecaU, 0x3dc06fa63db826ecU, 0xbdb26b0cbd33793eU, 0xbdaffcd0bd6df3afU,
  0xbd1de7aabdad4732U, 0x3d006770be56b849U, 0xbe05b67fbe19bd52U, 0xbd9854643d118d65U,
  0xbdc4ded2bd8790cbU, 0xbd9e00af3ca5dd6eU, 0x3ce2ae17be4ad7feU, 0x3da0c602bdddb6e5U,
  0x3d9fafe13d9b4755U, 0xbd1f4c4abd39fc78U, 0xbd038581bcecb58dU, 0x3ac7920dbcf6f4dbU,
  0xbd889fa0be89adb9U, 0x3d4258e63cf6584fU, 0x3bcc8a29bc821332U, 0xbcf175453cd64bdaU,
  0xbc5d5911bbe9bd3dU, 0x3dd0226d3e316988U, 0xbdf51a663db1603cU, 0x3cfb3cee3de7303dU,
  0x3d99ebb5bd84552cU, 0xbe063d0f3d49c62dU, 0x3c660f913dab0e67U, 0x3d69b877bdaae5ebU,
  0x3deb9e503defc305U, 0x3d16afa3bd70403dU, 0xbc152e02bd01e49aU, 0x3dd7f5fb3d4b4c90U,
  0xbd86c913bd9c851dU, 0xbdb817bebd86f676U, 0x3dd677873d1dc02dU, 0xbcd2cd943d526199U,
  0x3ba26ad23c981d59U, 0x3db87a2dbe11c88dU, 0xbdd49020be479132U, 0xbc9dc191bd0557cfU,
  0xbe0ee828bda8cfd5U, 0xbdd986f73db1603bU, 0xbc0e6e613db7ff17U, 0xbe39c2d3bda63f2cU,
  0xbcbe745cbbe74ed7U, 0x3d4bd380bcf62741U, 0xbdf7c7f3bc8c308bU, 0xbdaeab59bd2480adU,
  0xbd4d85fbbe04fa2cU, 0x3ca5dbdabd895921U, 0xbd866995bd0dc297U, 0x3d0b2c62bcba845aU,
  0xbe60af67bd6fa215U, 0xbd07da57be36a555U, 0xbc66ebf2be31c021U, 0x3c491c75bddbe98eU,
  0x3d3cd60e3cb5ae38U, 0x3d9102c6bd137436U, 0xbc4f2f91bcf3b143U, 0xbe5db618bda47e61U,
  0xbcf8d820bc0174cfU, 0xbe268641bdabcb7bU, 0xbb6c9fea3dda64edU, 0xbe68d6933e5fb59eU,
  0xbd804806bd995667U, 0x3ccf7f19bcae7a45U, 0xbcc3856cbd20eb7fU, 0x3d7b5859bc98b60bU,
  0x3d5963d5bd6dc15aU, 0x3d19c931be3efb01U, 0x3c328ddd3ccb91f0U, 0xbd8f092b3bc268ccU,
  0x3ce192373e181b6aU, 0xbd939e6fbd877751U, 0xbdc5772b3c9b990bU, 0xbd8b39223cb8820eU,
  0x3da3bbd93d92701bU, 0x3bcd5eb6bd0ab935U, 0xbd0e4e11bd3ce17bU, 0xbe17824abc32ea4bU,
  0xbc82c105bd96aa66U, 0xbd40d293bdf8cedbU, 0xbd28effdbc3ee403U, 0x3bfa2d28bd95074fU,
  0xbb98ec943d2042a4U, 0xbbffdb70bcc2c900U, 0xbdc47d0fbcf9b4e7U, 0x3d174a0a3dc9b8caU,
  0xbdafffb1bb3b1cddU, 0x3d7e7ae0bd708c65U, 0x3d661d303e807764U, 0xbc42e7cabcd876c3U,
  0xbd07fcc8bc0a1712U, 0xbdb12f26bcbfd2f6U, 0xbacca2173d5fc863U, 0xbd48e5493de2abe2U,
  0x3d2ca3b13db4e7c8U, 0xbcb2b65b3d4c676fU, 0xbd5e680b3d1a5d75U, 0x3d1ec72d3b95c377U,
  0x3cc1767a3d8a865dU, 0x3d4b6b48bdc78710U, 0x3ded41f5be13a4ecU, 0x3cd36ce9be11552cU,
  0x3dedb728bdfae11bU, 0x3cedd7b9bb0fca6aU, 0x3c1898ae3dbf7ef6U, 0xbe32ccb43dd71394U,
  0x3e0b2ac83e41c867U, 0xbd04a9423d50f6f8U, 0x3e96ad9abdbc84d2U, 0xbdfa5a213e22c715U,
  0xbe20ab6d3e60a14cU, 0x3de1d1663dcf269cU, 0xbb9ee952bcaa6aebU, 0xbd84d3d3bd0eacb6U,
  0x3d196a68bd683d0fU, 0xbd96e00c3d981ebeU, 0x3d0970c13dc2d28fU, 0x3cbb72b3bdadee02U,
  0xbba0a415be0143a1U, 0xbd272976bd0b14e6U, 0xbd9b11cdbdc51848U, 0xbcf848ca3d6d9355U,
  0x3d5c6c703d24560dU, 0xbc899f85bc184653U, 0xbd2d1f03bd82a082U, 0xbd3d98c1bc5bd4a6U,
  0xbe0064dbbdb87822U, 0x3df12b323ca0d1e2U, 0xbd196276bd5c844aU, 0xbdbb1d67bdc9261dU,
  0x3d81ea6bbd02c5c7U, 0x3c56a821bd6b5dbfU, 0xbd88e1f4bcba8d02U, 0xbbaef2043e1dea04U,
  0xbd4b0da03dfad155U, 0x3d3127f83db1eed5U, 0x3cdbb2bf3e601598U, 0x3de827a8bbdf874fU,
  0xbd246c5e3dc39029U, 0x3cb1dc3cbdc6f1f7U, 0xbc1f4d2c3de088aeU, 0xbd5bce873ca06768U,
  0x3d8b9cd33e04d144U, 0xbde1028abd63cda3U, 0x3d8537e2bd3e969aU, 0x3b48851bbd191c1fU,
  0xbdbc923bbcae9dacU, 0xbdb1fac33e03da7dU, 0x3dcd3abcbe001617U, 0x3cb2dfcbbd667e96U,
  0x3deb7f6abdb6032aU, 0x3e3c4ed83d51dbd9U, 0xbd75db113d5f15feU, 0x3d61c9f93e38cd7dU,
  0x3ddfeeb73c863703U, 0xbd7da8623d8c42fbU, 0x3e9009f03d9117b7U, 0xbe5f81853e6d584bU,
  0xbd6a17183e1ada58U, 0xbcd7d16f3e28815bU, 0xbadeeef63cc90cafU, 0xbdb9ce2ebdbcd669U,
  0x3cfbaece3c6f5133U, 0x3d866cd23dcacb2aU, 0xbe1b6542bdc3f2c3U, 0xbd1624e63cb283c6U,
  0xbe49fccfbe09d2dcU, 0xbe0c4453bd64c927U, 0xbdd7294cbbb4b9a2U, 0x3ddee27ebde0e7ddU,
  0xb8e7423fbd8f5007U, 0xbd276fe6bc93934eU, 0xbdf0f5593c73e6ddU, 0xbb1fe2793e008fa0U,
  0x3d9511dabdb64953U, 0xbc1f59d03c6d82e8U, 0x3d47f4e73c907b54U, 0xbd59e5ca3a714083U,
  0x3d7ffa35bd8f9c2dU, 0x3d57b3d8bd010115U, 0x3d0a8ab1bc53e5d0U, 0x3cc4e6123d6969f6U,
  0xbdeb8d3dbdab4bbeU, 0x3d46f38abc39e012U, 0xbcfe155e3d015b94U, 0x3e190f313e3586d9U,
  0x3d81ca973cf6d3e4U, 0xbc40a7823e1bb6d3U, 0x3df787973d409f8bU, 0xbc20f140bd00a544U,
  0xbd4dc1bf3d8b483aU, 0x3e20aa6e3df1eceaU, 0xbd8040e33d855f1cU, 0x3cb3b832bdb8726eU,
  0xbdb035f7bdcd69c2U, 0xbd9c81013d1846beU, 0x3da8c1e4be1cd293U, 0xbe2f6f1abdd60873U,
  0xbd90e860be1da55cU, 0xbb49e85fbd0bbd5bU, 0xbe0d7852bd28be85U, 0x3e21d3583d2c17baU,
  0x3d9ecb033cdc4183U, 0xbdf91a583e0be3f2U, 0x3d9c61653e60cbe4U, 0xbc8c20a93da6bc8aU,
  0xbe0e85febe5f58c9U, 0x3d3bbefd3ab31621U, 0xbd7b09f9bd56cbffU, 0xbc7d3771be12ace5U,
  0x3cf0650fbd9774dcU, 0xbc60d4803d1f90a0U, 0xbc3b4f23be1f595eU, 0x3db059e73d486907U,
  0xbce58cfbbc09a3e6U, 0xbd911cdebd17fca1U, 0xbb59daad3d96b128U, 0x3e377f65bdd84cd9U,
  0x3ddb03533d97b981U, 0xbdb85abfbb2681fbU, 0xbd48d2903d0904feU, 0xbd2e4b8a3de9553fU,
  0xbd8fdb353de02a97U, 0xbdc7d3073c940f65U, 0x3cb362e43cafe281U, 0x3c03dd063d3341beU,
  0x3d5f4616bd2cf150U, 0xbd3d24f23b26c253U, 0x3dd65ccfbe1565d4U, 0xbc9599863d3a1dc2U,
  0x3ca6ab9e3cd4abfcU, 0x3d94127dbc4e6222U, 0xbb2758a0bcc39fb5U, 0xbd4485923e3dcd3fU,
  0x3d9896f13deee8e3U, 0xbc87c8da3d9b6cc9U, 0x3e243dafbc8bac87U, 0x3d406d5fbce3bcb7U,
  0xbd8459193e00c71cU, 0xbb3d980f3d94f8b0U, 0xbdb2dcd23d89d706U, 0x3cb2b282bdd94f5eU,
  0xbd0c0d3b3cbd2155U, 0xbce80fc53c8eeb75U, 0x3db97dd6bd88a7a6U, 0xbd46632cbd8a3deaU,
  0xbd5c79a5be2dcaa2U, 0xbc92eca43dbd2923U, 0xbe1c411cbc8d55edU, 0x3e095c10bd60d2b7U,
  0x3d199253bddcfe76U, 0xbd54da5dbd75e9f8U, 0x3db4724dbb57583fU, 0xbdec0c86bc469c16U,
  0xbcc8ead2be3c6dbdU, 0xbe1a0559be2345c2U, 0xbd1845a7bd246c09U, 0xbd1dcfc3bc0fd524U,
  0x3dba299abd893d3bU, 0x3d9d016abda6effeU, 0x3dc023c8be0cdc75U, 0x3d8166723e16033dU,
  0x3c2e40ee3d605836U, 0x3e0f88103d809459U, 0x3c8034b13c4e0a6aU, 0x3e32e742ba6a00ceU,
  0xb993d839bdfde068U, 0x3d2ddf1c3c964855U, 0xbc687a253c896b87U, 0x3a0fe02f3de85e5aU,
  0x3c0306653e2725cfU, 0x3d46ea37bcdd6503U, 0xbd4cce273d854ee6U, 0xbd89a959bd0f41eaU,
  0xbde535f1bd9bd098U, 0xbd918734be1c20d1U, 0x3d96c0aebe37ed02U, 0xbcfc9968be0dbe77U,
  0xbbf03915bd7f36a1U, 0x3e0289f13d5a8ae2U, 0xbcee63acbe890ca2U, 0xbdfa6c933de6ac57U,
  0xbc7d3c47bd9c826bU, 0xbe173038bddc6937U, 0x3de7ee5dbd20a46fU, 0xbe2cb9703e355caaU,
  0xbd0ca0763e1a4ad6U, 0x3c86589c3ccfea51U, 0xbd12ee343d910ebbU, 0x3d6526adbd5b6dc3U,
  0xbe014fc43c7e03ceU, 0xbdf8c6953ca71d7fU, 0xbe0eb482bdeeaecaU, 0xbdfbbab7be15a7c0U,
  0xbe82cecabd33fa7cU, 0xbe862ab0bd388124U, 0x3cd3318a3dd75cb1U, 0x3e0ff858be1296aaU,
  0xbce3d78cbdd99e15U, 0xbe014e3cbdd17b0aU, 0xbd6e11443ca8589fU, 0xbd76b69fbe36d90bU,
  0xbde12041be11504eU, 0xbdfa59d6be67d3ccU, 0x3d099437bdb5ddd0U, 0x3cbe9987bce7ddccU,
  0x3ca2a409bd29801bU, 0xbcee521a3e316fb7U, 0x3dbd8b8d3da8bcb8U, 0x3d4ccdf83e18db03U,
  0x3ddf58bbbcec3810U, 0xbd8ac4623d4d5717U, 0x3da4f3a33e62f2bbU, 0x3e27c4efbc8ed355U,
  0x3e0839c03dd13e25U, 0xbd71e09f3d3dcde2U, 0xbd0bb7693dbaea06U, 0xbd220f933e86b9bdU,
  0xbd7862e2babd9328U, 0x3c8b052fbdc55bc5U, 0x3cad01d93c343c39U, 0xbcff729c3b6bd0bfU,
  0xbd8145d93c43d20bU, 0x3d92285abc0413b0U, 0xbd6119e1bdfcb14bU, 0x3d82f7613e0f3baaU,
  0xbe3906403925730fU, 0xbe10c779bbc4ded7U, 0x3c1d47f13e19877cU, 0x3b9652e73b8edea7U,
  0xbd885db1be0df71bU, 0x3c0b091fbdb2817dU, 0xbd431ef7bcad6d87U, 0x3cec52bbbd9668dcU,
  0x3d22bad7be733baeU, 0x3d0ef055bdacaac0U, 0x3d982cb53d0f0ef7U, 0x3d91181dbd97f601U,
  0xbd1559c63d645db9U, 0x3da1182d3cbf1a45U, 0x3a1a47cc3de3dceeU, 0xbcebcdeabd97df3aU,
  0xbe1f64783c346b6cU, 0xbe3ef88a3d949813U, 0x3b29e4193cdd927bU, 0xbd354ffb3da1b365U,
  0xbce5c0edbe30d979U, 0x3da22f3d3dc03f04U, 0x3b4e516fbd4d451aU, 0xbd0e972abdff2c16U,
  0xbd829cd3bec94e7bU, 0x3d73d5aa3db811e6U, 0x3b57f20ebda30977U, 0xbc40ce693dcc1fddU,
  0x3e18f251bca908e5U, 0xbd27b2093d9ee256U, 0x3d31350e3d92eee4U, 0xbd15f52b3e1a5194U,
  0xbdd8eb313bec4800U, 0x3d8aa4a03dcf638cU, 0x3dd60add3e209e79U, 0x3e313be93cea7a25U,
  0x3cde27e33e8a86eeU, 0x3d654fb93cbeeb06U, 0xbd6b53583d9204f9U, 0x3c9dcf9e3dd3f1edU,
  0xbd3d9fbabc83a5d4U, 0x3d2a12ff3c5bfbaeU, 0x3add9ec8bd3ade24U, 0x3e00d7153d4ee3f1U,
  0x3c8b6c6f3d12a5c6U, 0xbc3aafd4be0b12a3U, 0xbe09066abe5aad4aU, 0xbd12c50fbd012ac9U,
  0xbe656014bde7008cU, 0xbbf9117f3bb41fe8U, 0xbc3ed2803daf983eU, 0x3d5d0c7dbd83cc57U,
  0xbdf303123cad1ae9U, 0xbd9cad533cb390b6U, 0xbd6848d2bda4495fU, 0x3c5e8c403c58f811U,
  0xbd50d27abe4b928dU, 0xbd358daebd300a56U, 0xbd5b6453bca0d854U, 0x3da420163d4c48e7U,
  0x3cf5856c3d3503b4U, 0x3d2620993cbe48b0U, 0xbc8972cebc89fd39U, 0xbd843dafbe06ce8eU,
  0xbd8dde1c3cfdb67fU, 0xbe0bdc003c698eb1U, 0xbba95432be11540fU, 0xbd80da59bca91617U,
  0xbdaae06cbe81a8b6U, 0x3da6daa9bd3760e3U, 0xbd791be4bd473d21U, 0x3dab4a54be0c92cfU,
  0x3d00bf7ebed9d7b6U, 0xbdc90daebcbf6b52U, 0x3d9975b4bce9a0a5U, 0xbc9dcec33d100a5eU,
  0x3d6b7a973d1c519dU, 0x3d6b7af8bdd956afU, 0xbd62f4d0bd87bce2U, 0xbccb2d67bd1d4813U,
  0xbe21b173bc73b48eU, 0xbe4a455dbb8198ceU, 0x3ba7a598bd9c9070U, 0x3ddffdb0bd42b682U,
  0x3d2a9f063db850c9U, 0x3daa09c8bdc79c39U, 0xbd9d5663bd6754beU, 0xbd3377db3e344daaU,
  0xbcbb9413bdf558b9U, 0x3dc461c2bda8b69cU, 0x3daf98af3d361ca2U, 0xbd15208d3ca8200dU,
  0xbe0b15ab3ccb80f6U, 0xbc9fdfd3bda59cfaU, 0xbd92b156bdb06020U, 0x3df87cffbc5bfa5bU,
  0xbe554d1d3ce6db9eU, 0xbe675e7e3ce96c66U, 0x3d654d373df474d8U, 0xbd2d07933bc472fbU,
  0xbd4098b3be59841aU, 0x3dc8a35e3cdc500eU, 0xbe0379073dd332b0U, 0xbe09c883bcecbed4U,
  0x3de051edbdb12e8dU, 0x3da78b0fbdbb84feU, 0x3d942ac4bc90d508U, 0xbc27bdab3c6bc25eU,
  0xbd8113303c8c0531U, 0xbc1d4a14bdded758U, 0x3ce28b8abbb7f1dbU, 0x3d95b548bd5a9515U,
  0x3c89c3433d0a9c82U, 0xbe48e3b0bc279de9U, 0xbd1e0532bdfeb698U, 0xbdb1b87dbd87c06bU,
  0xbcc32af2bd4e1da2U, 0x3d1ab8e0bc546cf4U, 0x3bba019cbd3463c0U, 0x3d830aa43d82476cU,
  0x3da38311bebbd0fbU, 0x3dad1408bd433f66U, 0xbd37dfec3dc577f2U, 0x3d5b13a83d917777U,
  0xbdc1a6d23ce2c29cU, 0x3d618ccabe2d4d2cU, 0x3d1735e8be21943cU, 0xbc18af1dbcb09dd6U,
  0xbe0dd9973d4f9a5eU, 0xbdc729493d23cdacU, 0x3d664aab3d5bfc41U, 0xbd6f21213e26ed23U,
  0xbdea1448bd5f33dcU, 0xbdc114963dbfe4afU, 0x3cfeffa8be073f59U, 0xbdb9aa91be8315e9U,
  0x3d809134be2c4245U, 0x3c66cee53d239bcbU, 0xbd18e3a53c0dd527U, 0xbc9b6202bc8b3027U,
  0xbdd2031abda9a8c7U, 0x3d951f3fbd8751afU, 0x3ca0ab0bbd2fa542U, 0xbd2ba75d3d669871U,
  0xbe24b2bf3d8fff79U, 0xbe1baf523d206114U, 0x3d0f4812bcf0ad77U, 0x3de61194bca26fa5U,
  0x3e0ce0d9be946583U, 0x3d2fdf3abe352a2eU, 0x3c41c59d3e5815c8U, 0xbcefce8e3d42392cU,
  0xbd686eb5be9484afU, 0xbcaf20d3bd007fddU, 0xbda32ce8bd653a4aU, 0x3b64f1b2bcafdc31U,
  0xbcbd70753d10cdbbU, 0x3da588533ba6da1fU, 0xbbeb32dabab06616U, 0x3dae6b613e0fa018U,
  0xbd43df233cf5766dU, 0xbc9e5fa63d8ccab2U, 0x3db986d9bd43f4bdU, 0x3e35593a3d1d09bbU,
  0x3d6b490cbea6ce12U, 0x3d832e463d9b5d09U, 0x3c22d1813e07b46eU, 0x3def120b3df9d91dU,
  0xbc5142b3bdf1fe4fU, 0x3cb626f5bcc2cfd0U, 0x3ddfaff53d10b813U, 0x3d0bb329b9ee0080U,
  0xbe7c6d76bb063fa1U, 0xbc8471e6be0e17a1U, 0x3d92bd0bbdc09994U, 0xbd958e52bda5a019U,
  0x3dcc0e9a3d64a943U, 0xbcb0962abc887f94U, 0xbe0cf060bd108285U, 0xbe469dd73d8a056cU,
  0x3e603f683bb99f42U, 0xbe4b10eabd2d69a6U, 0x3d01fb26bd871388U, 0xbe75cc353dde2d00U,
  0x3c2137fb3d4fc84cU, 0xbe1a4c1d3d8e25c3U, 0xbd186da3bdadaf3aU, 0x3bf739abbd9ff353U,
  0xbbcb93dfbd3841e6U, 0x3de2b45d3a705c69U, 0xbd2c24e63e00cc51U, 0x3da6d6ea3e295296U,
  0xbdf81fa13be3c93cU, 0xbda936d83deff8d8U, 0xbc41133c3dea2862U, 0x3e2acbeebdd18ed2U,
  0x3e5f7423bd2ab9f8U, 0x3dfcdd223c6b302eU, 0xbd67f5dd3e651514U, 0x3b9678843e6d6e15U,
  0x3df9acc43e0b5044U, 0x3d10c0d9bde9ce72U, 0x3e28bbd53c122ac7U, 0x3d06fba4bca1ef1dU,
  0x3df60e1d3d803584U, 0x3d379f3b3ca8165bU, 0x3d2612323d713750U, 0x3bd278073e443b01U,
  0x3e0403633e1a6165U, 0x3e25ced13c0361c4U, 0x3c74dd5d3e2c28b4U, 0x3e5272403dad5240U,
  0x3ca31e5b3ca2c172U, 0x3dc7fcc93de29d3dU, 0x3dbce3713ebae69cU, 0x3e66fa743e6a5aaeU,
  0x3de8a33c3c99879cU, 0x3dbc58953d2266d8U, 0xbd0f5ba23da98f14U, 0x3e03cc1d3dc278ffU,
  0x3cf9028dbdd1449cU, 0xbe6b4703bde341afU, 0x3c7a6ee13cbcdd3dU, 0xbecf02babe03cd7bU,
  0xbadcd3363aee92ffU, 0x3e35e3a8bd778ef9U, 0xbea54cd73d31799cU, 0xbe064d28bd858e96U,
  0xbcce12a33e460063U, 0xbec837913daf9a02U, 0x3da9c748bdca3cd9U, 0xbd6095983d7df64bU,
  0xbe1a4d47bd86b122U, 0xbe44c973bcc91affU, 0xbde2dc09bd95c14bU, 0xbdcf0c66bea2150fU,
  0x3e990d9bbe3226acU, 0x3d16f15a3da887e9U, 0xbddcc1843eadd3c9U, 0xbea94f13bd64d03dU,
  0x3db51e453dd20965U, 0x3e071692bda57f93U, 0xbea0f88a3ea70e59U, 0xbe7ed023be19737dU,
  0xbe9d2f1f3e8efb1bU, 0xbe7727813ce911aaU, 0xbe54ee1cbe89ea5aU, 0xbd74e124bd65f7b2U,
  0xbdbcfbe53e5f20abU, 0xbe848511be024f78U, 0xbe27ad3b3d92fd02U, 0x3d85899fbe8c3cb1U,
  0x3e990d62be52f9a9U, 0xbe3480c13e99a710U, 0xbd1fcf433df705a3U, 0xbf2526d03c21d063U,
  0x3e12e4503d9796bbU, 0x3eef8af7bd5a405dU, 0xbeeaeee33ec44fbeU, 0xbeb9a40c3bdbdd88U,
  0xbec1c8253d8324baU, 0xbe8336e5beda331fU, 0xbd0b3cb1bea4ece4U, 0x3e53ef553e8e94e7U,
  0xbe241c2c3e8d237dU, 0xbf015650be8a5e49U, 0xbe7b845bbdb08624U, 0xbd036647becbc583U,
  0xbbf46f19bd612ef0U, 0xbd9aa51bbdd2b826U, 0xbd3d07bdbdb5654dU, 0x3cfef4e8be50b31fU,
  0xbd16f378bd950e77U, 0x3cca8bc63c213383U, 0xbdbefcc7bd6a9a42U, 0xbe52bbfcbdc6fc6dU,
  0xbde0de943de1ef0aU, 0xbd5386af3b4bc11bU, 0xbd8e6e63be3e4adbU, 0x3c29e7c8bcc8cb6eU,
  0xbdb4b8b13c2aeff6U, 0xbd9ef672bde09473U, 0x3cc88659bcfc98deU, 0xbd466775bd8fce6bU,
  0x3cfcae97bca4446dU, 0x3d7368df3df28e80U, 0xbdd78275bc846e40U, 0xbbd7f107bce3f9f4U,
  0x3dcea566bb0d07acU, 0x3e213d66bc90a4b5U, 0x3bf5a1b33e4bf7beU, 0x3c6057c7bdcd5a11U,
  0x3da1e9633e3553dfU, 0xbcfdc6d4bc52905aU, 0xbd3eba373d3278e0U, 0x3dc5e97f3e3cc114U,
  0xbd362d7a3eaa32c7U, 0xbd952f77ba36a0cdU, 0x3dcc74c7bd844387U, 0x3d07fea4bdb63e62U,
  0xbd11df46bda30eeaU, 0x3d17c597bd875601U, 0x3b3694edbe255801U, 0xbcdf8fae3d73f5c7U,
  0xbdfee399bd4ac37cU, 0xbe3eb846bc96afc3U, 0xbd78ad933d89546aU, 0x3e3673583b23afdcU,
  0x3b0f35fd3da6e101U, 0xbda2b9babbeafd21U, 0x3c9ad2cbbd42a5bdU, 0x3d2d0c253da22689U,
  0x3ceeca0cbea2b69dU, 0xbde3d2b13bbd2476U, 0x3d41cd243d2a6667U, 0xbce28f523d72cf44U,
  0x3d99ca183d60d3f8U, 0xbdc3f7c8ba2b0375U, 0x3b44a1ae3d3ee9c7U, 0x3d6b0c37bdfcd9e6U,
  0xbdab989fbda449d4U, 0xbdec0dabbd7b28ccU, 0xbc1b9464bdd564a5U, 0xbe1743babd774fa2U,
  0xbcd90d06bdb3af62U, 0x3d2987f8bd36e83aU, 0xbd502e2dbda052f8U, 0x3db9600cbdb02366U,
  0x3d2638493c610c63U, 0x3cdc0ebd3cedba15U, 0xbd910456baed3d48U, 0xbb7856393da25004U,
  0xbd30c32abd16db3fU, 0x3d7779363e0a12bbU, 0xbd0f21983d000edaU, 0xbd019f2e3d98de50U,
  0x3e2df26a3d380933U, 0x3db6906d3d178104U, 0xbd1902533e6be99aU, 0x3d380e68be3ea8b9U,
  0x3ca606cb3dd6d4ebU, 0x3d222631bcef7bf8U, 0xbcb5ad41bc590958U, 0x3dc893433dcedc08U,
  0xbd4b3ac13da1dd65U, 0xbbbec24dbdb5a544U, 0x3c814ca43d107487U, 0x3cbc7a913d6bf859U,
  0x3d94c23abd3b0f87U, 0x3b678370be0c9965U, 0x3d72596abd9eb0e8U, 0xbd6d88aa3d905069U,
  0xbe3189b6bd9435e0U, 0xbd8d3d943db3ec34U, 0x3d45b71dbd895d7fU, 0x3de2f5e7bdaede95U,
  0x3d2748be3d5141daU, 0xbdc96f4b3cea6864U, 0x3d4018e43d1f5ba7U, 0x3d5aa8043e11c996U,
  0x3cd0e722bdd96556U, 0x3cc75732bcec0c2dU, 0x3ba24c9abd29beabU, 0xbd6c0f9dbdc9e719U,
  0x3cbb86b73d8749e5U, 0xbdc235dc3d8afa0aU, 0xbdeeb56bbac49a5dU, 0xbd8ba7e4bdb409d7U,
  0xbcbcc8f53d828931U, 0xbdd81ef4bd99afb3U, 0xbbb84079bd04278eU, 0xbd3f87cfbe0af0caU,
  0xbd3fb645bde88eb7U, 0x3db2cd9ebb805fa8U, 0xbde25778bca4aadeU, 0xbd4be852bc9dcb16U,
  0xbd97658b3cdc2abfU, 0xbcd18368bd6f836dU, 0x3c1310bdbd5113d1U, 0xbd6a3a0ebcf66aa1U,
  0xbcd8526abd81f48bU, 0x3d3bce57bdc67dc4U, 0xbd12e24cbdc309f2U, 0x3d9c833fbcad81f0U,
  0xbded1913bdf6d459U, 0x3d48502fbd32b65bU, 0xbd12d6903d128c9cU, 0x3d5ea96fbe081324U,
  0xbdcfb217bd95fe0eU, 0xbcdbd925bddd8431U, 0x3d010e04bcb2f8bbU, 0x3c72d0b23d1ca86dU,
  0x3d485c7c3d312c79U, 0xbd2d1025bdfdff39U, 0x3d2087d3bd5b9468U, 0x3d9dccb8bdc1748fU,
  0xbd730caabdc034a8U, 0x3c20d329be78addaU, 0x3d6585d5be3314e7U, 0x3b46231f3d7a27faU,
  0xbd6d3d39bd89832dU, 0xbc86f209bb6b7538U, 0x3d1e3b64be1123b3U, 0x3d58cf30bd8bb31fU,
  0x3dc59f9a3d2e8483U, 0xbc65091fbbc52020U, 0x3d0c30503d94a767U, 0xbe32fb783bb73e7aU,
  0xbc4a3e35bcc09bb9U, 0x3bb8a8a33a086082U, 0x3b806807bd89776fU, 0x3b478fde3c7db602U,
  0xbd0f8db7bc0ac7e9U, 0xbdea01cdbe848b69U, 0x3d6b29c8bdb70cbfU, 0xbd0e7157bd520f8dU,
  0xbe80a0efbdec00cbU, 0xbe19b6efbcc99d52U, 0x3d4b4a55be2adec6U, 0xbe32c6f33c9b07c4U,
  0xbd0b25683d2e49adU, 0xbcd2642b3cccefa5U, 0x3d86903bbd843602U, 0xbe88a25abe99494dU,
  0xbb85c70dbcc8387cU, 0x3d002fe93e020180U, 0xbd72eaa83d1b3689U, 0x3d974aa7bd8b249eU,
  0x3c5312063d701755U, 0xbce35726be8f0ec7U, 0x3a6d5cac3cccd030U, 0xbd564345bda23a60U,
  0xbe02866ebc89f622U, 0xbdb0f4d6bc2e552eU, 0xbe0dfd94bc90f8a5U, 0x3d9441a9bcdf1c0bU,
  0xbe1a49043d5e6076U, 0xbc5c6962ba90074fU, 0x3d2fafef39755e54U, 0xbe754eafbe60dbd7U,
  0xbc38a307bdf71356U, 0x3dedee3f3de61d08U, 0xbdbe45e7bcf2883aU, 0xbc8e5b2238c5806bU,
  0xbd9cf35ebd2d28e3U, 0xbc4703bcbdddc75cU, 0xbd3dc361bdc2f39dU, 0xbdd82eb33c84461fU,
  0xbe0fce97bd9a43fcU, 0xbcde9744bdf5d8f9U, 0xbdceee4b3e3bc410U, 0x3d821a593c9be815U,
  0xbd8dd7ddbc073cf9U, 0xbdcf050c3d44b985U, 0xbda4b4bf3dda57d2U, 0xbd542a0ebd8731c7U,
  0x3d10fa6bbe08eedaU, 0x3d38f6bebdd498d9U, 0xbdc85e03bd776bdaU, 0xbe037602bdba468eU,
  0xbd94663cbccce0a3U, 0x3c159beb3daf7f99U, 0xbd7dfbe0bd38a7cfU, 0x3d1a5ffa3dd17965U,
  0xbc068070bdd78099U, 0x3cd7a86e3d966a88U, 0xbc5bf151be03c6c8U, 0x3ccd0949bdbcd649U,
  0x3d2dd0b33d05d7eaU, 0xbdc2d590bddb23c0U, 0xbbbd269b3e1d2299U, 0xbc2619dabc629dcbU,
  0x3d9e6bf63cb3bac5U, 0xbd83a9acbdaf0571U, 0x3d12871bbd0743ecU, 0xbc632444bd731d19U,
  0x3cc5df70bcbae16dU, 0xbbc2796dbe79eab9U, 0xbb3cb60dbe2dd286U, 0x3dccb4e1bda66c60U,
  0xbe73dca4bcff04f0U, 0xbccfbcb3bd8f3c4bU, 0xbd47cf383de6dd38U, 0xbdf0f083bce0fc64U,
  0xbe541dbc3e137c69U, 0x3ac784343cfd98d0U, 0x3d22908fbda2434eU, 0xbdb7e293be95e9b6U,
  0xbc60dfc83db34176U, 0x3dcce9d93d07d673U, 0xbdc3d96abdcf8009U, 0xbd85bfbfbdc3b12bU,
  0xbe2bda17bc319d04U, 0xbd9a7d1bbc765064U, 0xbde27757bd15d2a5U, 0x3bb3174c3cb922faU,
  0xbe2b704dbd8bbe03U, 0xbe2a7a2bbd9b4699U, 0xbda1f1c33e3e940aU, 0x3da01c28bb7c18e8U,
  0xbd8a49e4bdaa978cU, 0xbe0870da3cbeb78fU, 0xbc5e27b73e3348a8U, 0x3d8cb72dbd836df0U,
  0xbcf33f78be33ee2cU, 0xbd52b898bca7df3fU, 0xbd92b626bcdf7223U, 0xbe103373bd93426eU,
  0xbe28cb88bd1b6c92U, 0xbd93c65b3cf23439U, 0x3d9c19343d673ab8U, 0x3beb35583e4eb13eU,
  0xbdf6f2f73d2d5ab7U, 0xbd7abd1c3c6b1c1aU, 0x3d2443cc3e8694fbU, 0x3e3c334abe0d41acU,
  0x3dcd0a9bbc1c45f8U, 0xbcf49470bc8b41faU, 0xbd8d1a673eb4173eU, 0xbd6cb2493e177af0U,
  0x3d6844dbbd00c59aU, 0xbd9d5a9fbe193c41U, 0xbba1ec4a3c312540U, 0x3d2006d53d37c183U,
  0xbd71347b3dfdc25aU, 0xbd56eba2bcfe7130U, 0x3d032b2fbd0702f3U, 0x3e0a738ebc74aba8U,
  0xbde80007bd1cff21U, 0x3c98c6db3d92a9fbU, 0x3d361a703deb5485U, 0xbe14d6103dc9d501U,
  0x39fe03993e00aa17U, 0xbd213b323ccecd72U, 0x3e035eefbdc60bd9U, 0x3c8ef4dfbe07a9baU,
  0x3dd4bb383d45bf03U, 0x3dccb65d3e0d0dafU, 0xbb8cf8213cbcd272U, 0x3d49a2d73daa9369U,
  0x3da6f82abc9f5057U, 0x3d85bd143d41c9ecU, 0xbd75cebebd26adc9U, 0xbd2ce64cbc06b3b8U,
  0xbe015f963d30102bU, 0xbe6a656bbb26981aU, 0xbd2eaf5e3e41c96aU, 0xbd0ae2a0bd03e766U,
  0xbd044642bb03fbe0U, 0xbd4d89f03d95712dU, 0x3de324623aa6dd1eU, 0xbc877550be85ce43U,
  0xbdb5d15bbe3c128dU, 0x3dd311ce3b169c35U, 0x3d57bc0cbdb4a9faU, 0xbd02bf493d170d65U,
  0x3d4d5356bc7f841bU, 0x3ae05c0c3e3cd60bU, 0xbd8b2a193d57d7a5U, 0x3cdba6c33db8bb50U,
  0x3bd090573da41288U, 0xba026d323cf86304U, 0x3da934c13ed5df53U, 0x3cbf7f76bdf2166dU,
  0x3b9cc5d73e0aa4c2U, 0xbd8cdef9bd62bbc2U, 0xbce330013c86ca6eU, 0xbda74af23e056a40U,
  0xbd2dce6bbbc48253U, 0xbd95b7873d9bc3c4U, 0xbd93fdf7bca1723bU, 0x3ca5d0673d6ad815U,
  0xbd25fb353dab8124U, 0x3d0c9b353cf859ceU, 0x3d620fe0bd479221U, 0x3cc49cec3d4911e6U,
  0x3d77631bbad8c8e5U, 0xbe7169803d2ab698U, 0x3d9cfb413e2b9d80U, 0xbe2de2763c5a2735U,
  0xbd3f8615bcad377cU, 0xbd3c0a9bbd2cecd1U, 0x3d802edfbd7732cbU, 0xbd248fb33d9629ecU,
  0x3d9d59f2be8b6e0dU, 0xbd4974bbbdd7fcb7U, 0x3cb119a0bc03bd8bU, 0x3d6d30463b8c3a93U,
  0xbd6861a0bcfc5db1U, 0x3d896aa7be4ec738U, 0x3c896cc8be0be83fU, 0xbde27f89be024a51U,
  0xbda56d53bcb0c42eU, 0xbe3e94803d061348U, 0x3d899b583d39e48eU, 0x3d0886ae3dc27954U,
  0x3bce46e7be00b8ceU, 0xbdf29202bc3c0ddeU, 0xbe0fc312bd61bcaeU, 0xbc82bbe3bd955f3dU,
  0xbce3dfffbe759827U, 0x3e01672e3d13ca79U, 0xbd501331bd3269cbU, 0x3dd2ee893d3bd524U,
  0xbd2a1a853da5f24aU, 0x3ca2c04e3dc5b5ebU, 0x3cddac80bd8552d6U, 0xbd229103bc38014eU,
  0xbe35b1d8bd96efcdU, 0xbe9316f7bd029030U, 0x3be2d5ab3dc22d28U, 0x3d347749be0efd8bU,
  0x3b84175ebcec00adU, 0xbd39f9e5bddc186cU, 0xbc81addfbd00b010U, 0x3d369a973d55d7deU,
  0x3c7980b6be6eadf6U, 0xbda09d31bcbcaac0U, 0x3ddeb8fcbcd3c6e4U, 0x3cc78d8a3d82ab79U,
  0x3cb56760bd130d20U, 0xbd9edf3b3b0d238dU, 0xbcd12e52bdfffa5eU, 0x3d6b0c7bbdcf3964U,
  0xbd41730d3dbdc120U, 0xbe1350a43bc92948U, 0x3d92066dbde6cda2U, 0xbdcf29d7bd835f22U,
  0x3c4a5fa3be4f474dU, 0xbd9f647c3cdd9431U, 0x3d738ef03d3f332dU, 0x3dbf5e7cbcc1eecaU,
  0xbd746cebbe421d9aU, 0xbd4435973d024ec8U, 0xbd10045cbd3606e9U, 0xbd5af4a1bc74638dU,
  0xbd6b6671bc1e56efU, 0x3d0095b3bd0b8492U, 0x3dff890fbd68e461U, 0xbdb718ab3c5216eeU,
  0x3d196d383c34d9f7U, 0xbd6d1c4ebd87ebaaU, 0x3d2a46e33cf41d08U, 0xbc13879c3d8e11f7U,
  0xbc85a959bdd7ce14U, 0xbd5b93c53aaf5c3fU, 0xbd0368043c282456U, 0x3d9fd68e3d9d7becU,
  0xbd947c7abce7a7d6U, 0xbb439dfe3d1bce7aU, 0xbd0e9c7f3d898c92U, 0xbc1eba19bc9d04e6U,
  0xbc29e0333cebec7aU, 0xbd240c8ebe17ce79U, 0xbcad17a4be8e56a4U, 0xbd80d2013da07ab1U,
  0xbe38dd813d7f5711U, 0xbd0c0b7c3d7d81c9U, 0x3d846074bddc6352U, 0x3c3decab3d10973cU,
  0xbe121ec5bd56e41bU, 0x3d8f7724bc783d73U, 0xbdd16ac63d780b32U, 0xbe130661bb109454U,
  0xbd56f6b03e354cacU, 0x3e0b7f7cbbdced90U, 0xbd353b243dd6cc89U, 0x3c803f8e3b9f5894U,
  0xbda24057bba07bbeU, 0xbc7944c9be81d1ebU, 0x3e05ad1dbe41b564U, 0x3d4dcb42be017735U,
  0xbb8a0e3fbc8c771aU, 0xbcf8a52c3d8202a0U, 0x3cee1ed03c05c7d5U, 0xbd3ec2b43d9fb144U,
  0x3ceb350a3d411f82U, 0xbb4975c23d8b88b9U, 0x3ceceb93bb069b50U, 0xbe08b5e23d1dae99U,
  0x3d25b63abb9820e9U, 0x3e09c12d3dcf15d2U, 0xbdc9ca763c3e4604U, 0xbd0f2605bdc54177U,
  0xbd569f77bb04abadU, 0xbd5ecbb1bdbbfe63U, 0x3d17b122bdce563bU, 0xbde40aaabdd0fc0dU,
  0xba0ad4173d771871U, 0x3e08da40bc5657b0U, 0xbbc3abf43d8502adU, 0x3c3db2e9bd2e98c8U,
  0x3cfe9e60bdaed416U, 0xbcea23413d9aab6aU, 0x3d9b3fd5bd9c249cU, 0xbd30e2663e1dc50bU,
  0x3d22f562bdbe9288U, 0x3d64a84abcb9336eU, 0xbdc492143d2042b2U, 0x3ca05bf83c78560eU,
  0xbc0550fbbdeb4f02U, 0xbd003a023d277b55U, 0xbdb8cb88be3d4b7fU, 0xbcda95a43e273da2U,
  0xbcd4a60ebd1ac2feU, 0xbe3ffe1dbd6fd986U, 0x3c8f76fa3e59f7b5U, 0x3e222bd3bd9d475fU,
  0x3d19f3d53cf30626U, 0xbcfd3f1cbc8042c7U, 0x3d8e66043e0a3a25U, 0xbde0f108bd672c40U,
  0x3d3f1a3dbddd1af2U, 0xbe01228ebdbcb143U, 0xbbfa8fdfbdc91949U, 0xbdad550abd88a276U,
  0xbd225c37bd8efd8fU, 0x3ce9bd72bd540ba5U, 0x3db007c93c5684ddU, 0x3cfaa2f4bd51b657U,
  0x3d724191bd01b1baU, 0xbe35250cbdd426f0U, 0xbdef58083c33a0b1U, 0xbc95708a3dd6a274U,
  0x3d1f288ebc832c0bU, 0xbe168e02bdbf44d8U, 0xbcd24dcabcbbecf1U, 0xbde02574bdac02dcU,
  0xbdc86499bec4dc96U, 0x3da285ef3db34cc1U, 0x3cf8d7aa3d516bfcU, 0xbdd6644abc898401U,
  0xbdbc5694bdcb937aU, 0x3d824697bd97e70aU, 0x3db799e4bc48dc87U, 0xbdc5fd61bdbe53fcU,
  0x3d164c4cbada5a53U, 0x3d0d6108b8d75ab0U, 0xbd707e953de68ea6U, 0x3d8a41693ce81da9U,
  0xbd3281b5bd4186c6U, 0xbde5c413bdda1cc0U, 0xbcbfd2923d02a992U, 0xbdf5a31fbd9008e6U,
  0xbdfcd121bdff8fc3U, 0xbd2efe253bc97a1dU, 0xbd9fe940bc3aadc2U, 0xbdd89c03bc9fb293U,
  0xbd5b3f12bcc295abU, 0x3d5971e33d0401a9U, 0xbc8676493c57f0daU, 0xbb78521e3d73f5d3U,
  0xbe223f69bcd39b61U, 0xbde5278d3d8116b7U, 0xbb8dcd343dc88e7dU, 0x3d099828bce2dbdfU,
  0x3d8e2fc9bc9c18c8U, 0xbda8fe80bdb43b71U, 0x3d82ad4f3e19573cU, 0xb9c53c1e3a859ccfU,
  0xbd11f80abd9a9a15U, 0xbce5f0953c9a932eU, 0x3cde1c713bb26944U, 0xbd3b797b3d3f3c4aU,
  0xbd977acd3d36eabaU, 0xbd0ad720bd2c2617U, 0x3db49da4bd758065U, 0xbd03baf1bd6b40d5U,
  0xbb9f6b5b3cff48dbU, 0xbe5c090abceab7b0U, 0x3d2005333dbb2eabU, 0xbd70c9943c27ab40U,
  0xbd7c89f8bdae67afU, 0xbd4500c13d86e74dU, 0x3daa606bbc862557U, 0x3d97fbc7bde5a0ecU,
  0xba3b33c0bea8b4ffU, 0xbb2d6bf73dcd4e75U, 0xbdbe07f23d3c4f5dU, 0xbc5e3f303bc61a91U,
  0xbd6150ebbd4406aaU, 0x3d2ea5e03cc85289U, 0x3c2773b43c44b3d2U, 0xbc94bf3f3d3895feU,
  0xbde130b2bbb1910dU, 0xbdfac544bd96a0a9U, 0x3d2ca6df3d121b16U, 0x3bd239e2bc1096acU,
  0x3d1e6144bd61b7fdU, 0xbdd58141bd63e15fU, 0xbe1c9989bbc633b5U, 0xbd11b9dabdfa2d7dU,
  0x3cd15430be181b4eU, 0xbda3b6a13d34ac8dU, 0xbcf44f4b3c93eff2U, 0xbb14e058bbdafc40U,
  0xbdb8fda1bdb1b260U, 0xbcff4f353d074224U, 0x3db76c50bdf87dfdU, 0xbdff93153dbce2c6U,
  0x3b26a794bd98606aU, 0xbe094bd93d18b435U, 0xbd6242b6bd2b073bU, 0x3d877445bde8a3b3U,
  0xbdf5cc683cbe8757U, 0xbd76a620bdb4bebeU, 0xbac52d1d3dbd5528U, 0xbded3b11bd6137daU,
  0x3cb79f66be17a62dU, 0xbe18cfc03c9e56dbU, 0xbd95d2633c0641b3U, 0x3d4872b9bd645333U,
  0x3d14b9313d42d52dU, 0xbd8ae29ebc4bd90eU, 0x3c1615823cab7d13U, 0xbc3ed89bbb8d2f94U,
  0x3d8075063d6f7a81U, 0xbe605d0dbd82c735U, 0xbd3d071d3d2a5211U, 0xbe2961dfbd6305adU,
  0xbc933249bd095df2U, 0x3de19376bd5712e2U, 0xbd4e4610bd5edaa7U, 0xbc0516fdbdb686abU,
  0x3cd1dabfbdafc664U, 0x3cff3e0abc9f84b1U, 0xbd85b6293d7ad155U, 0xbd5d498c3d8ba0f7U,
  0x3dcccccabda62925U, 0x3d86a6c6bc3e073cU, 0x3c5bea013dae93beU, 0xbd405939bd127906U,
  0xba7e38a23d6be11aU, 0xbd900704bd8bfae9U, 0x3db8ea5f3de180fcU, 0xbda78b203d15487aU,
  0xbd53c5d5bdc0d971U, 0xbc4d90b1bcdf91b0U, 0xbd01a1c5bd171768U, 0xbcc1f46ebdc00e9fU,
  0x3b5a50f1bd668043U, 0xbdb08d15bdbe1d92U, 0x3d7fc770bd8c7575U, 0x3d04ddfe3d9ef5ceU,
  0xbe47e05bbe1432b3U, 0x3d032c3fbe845a2cU, 0xbe307dfebec97cc5U, 0xbd4dcc393d317753U,
  0xbe2707a23d5f51aaU, 0xbda3eae7bd0c6842U, 0xbd3ed7a7be27c93cU, 0xbe242726bd8be9b5U,
  0xbde17e7dbd822ebfU, 0xbe0fb11dbe4746b0U, 0xbe18db1abd1b4e97U, 0xbe28ce6abc78c291U,
  0x3cfe0b6fbdf19dedU, 0xbdfb3c1fbd979512U, 0x3d564927bde8b8efU, 0x3d6befd4bd1d73efU,
  0xbe0268e13d333a42U, 0xbd1172b93c2c8c1fU, 0xbd0fab63bc6704d1U, 0xbc9d0226bd2011b2U,
  0x3c36df163cd24e73U, 0x3d500b963d139f29U, 0xbd2850343d891239U, 0x3cd04c6f3e31a82aU,
  0x3d0d5fa8bd2ebc24U, 0x3d7eed94bc545b1eU, 0xbd8edec23de2304eU, 0xbe380403b9c3a3f9U,
  0x3c423ee43e51140dU, 0x3b0a6e693dfc9cf2U, 0xbc56a85c3d7f4a7fU, 0x3df53700bd4c8d70U,
  0xbdae45edbc83bf39U, 0xbdc8a286bd39e71bU, 0xbc9618573953b5e7U, 0xbd2c57edbe4a8982U,
  0x3c861a1a3d62f9d5U, 0xbd1fe2b63d4557e6U, 0xbd586de03b21ae4cU, 0x3d58245dbd0dec58U,
  0x3d5539633e43def0U, 0x3c4278893d4615dfU, 0x3d92a500bc780d45U, 0xbd3a90db3d854c38U,
  0x3d115ea0be28241dU, 0x3d455f4abcad4a60U, 0xbc19fe503cd92a47U, 0x3d9b91bf3d5c3dedU,
  0xbdd5419cbdc28bf6U, 0xbcea7c08bbd3541cU, 0xbd38017abe0b390fU, 0xbe036e0e3dd242e7U,
  0xbe29be26bdb407c2U, 0xbdd746863dca2bd5U, 0x3d492f3f3d7557c0U, 0x3d36fde5bde5d567U,
  0x3e4330213c8d4d85U, 0xbde73ed5bdb042b7U, 0xbcebb8643e15b284U, 0x3bb987843d8731efU,
  0x3d98c44ebe23b07eU, 0xbe5b02da3c752002U, 0xbcbfc1e0be072334U, 0xbc85a27dbd832544U,
  0xbe00ec5e3d266d65U, 0xbd8d5350bde235e4U, 0xbb7ab971be4b1a79U, 0x3dc9e7f33e0ccfa2U,
  0xbcc93c543d3f86dbU, 0x3d93588c3cc76ffcU, 0xbd4503a73dff9ce0U, 0x3d215fb33dd1623aU,
  0xbd50a78f3e41f864U, 0xbddf7b063daa98b5U, 0x3e0cb76a3d33debfU, 0xbe13e812be014e37U,
  0xbc42abb03dbe7f58U, 0x3e1f305f3e6232c0U, 0x3d1d6bd03ce432efU, 0x3d0b58803d039e49U,
  0xbe2bcbeebd058495U, 0x3d88f96cbcdc2decU, 0x3dc2f992bda612faU, 0x3d86ca81bdfaa50fU,
  0xbdf7dcc6bcf81816U, 0xbe1fd9d53d791cf1U, 0xbd8f2daf3c267b27U, 0x3dc1d4a7bddf79bbU,
  0x3d4cf3793de88b87U, 0xbdb10747bd06a259U, 0x3dbf03403d06ebb6U, 0xbd1e62d63d65065bU,
  0xbd973baabe536d78U, 0xbc2f77dcb982076fU, 0x3d7c0c5ebd201503U, 0xbd147151bd6e4320U,
  0xbdc4a7d2be096f0eU, 0x3d92a557bcf98febU, 0xbe3e7c833c7477d2U, 0xbd906d823d91acdeU,
  0x3dc531883d1ac30fU, 0xbc2fcea63d2f4ae4U, 0xbdbf38003e5cb666U, 0x3e09c303be2159c7U,
  0x3b0dac0f3e1ce638U, 0xbd9ef389bdd0620bU, 0xbe30f5243df3e8b8U, 0x3c5e2fdc3d806363U,
  0x3d87edf0bc9a5246U, 0xbe5640febdf6ed0cU, 0x3cac6cadbbbaa94aU, 0x3c9578ddbca6c8eeU,
  0xbd6295dd3c65a4ecU, 0xbd931fffbd36a1f5U, 0x3d625fc23e038eb8U, 0xbd2f58ff3d0a33eaU,
  0x3d5ce372bcc8260aU, 0x3dbb5088bd17111dU, 0xbc7184293e64d5fbU, 0xbe26d1493d2b94e7U,
  0xbc7fec333e56d46fU, 0x3d4e6fa43db2ab46U, 0x3d7e17c0bc947db1U, 0xbd0843e7bdb6a630U,
  0x3d8e17cc3deebf38U, 0x3da32ec33dec77c0U, 0x3d3655eabd2fdc9dU, 0xbcca2cd1bb992e0cU,
  0x3d88d0d53da21b03U, 0xbcae29ffbd4f77f2U, 0xbd03eaec3d7803e2U, 0x3d3b651cbcf552b2U,
  0xbd72d903bd94d40dU, 0xbd3bb7a837ceaed1U, 0x3d099a5c3decd531U, 0xbdb1ea31bc4344b7U,
  0xbe167e183d8ee7f3U, 0xbd8b9ca4bdbff150U, 0xbd7bf8d6bdcec411U, 0x3d3682f1bcd7a15aU,
  0xbad7ec123dd14d2cU, 0x3d40e172bdc8978eU, 0x3d9d94c8bbfe9a46U, 0xbd3f229ebb9c7c30U,
  0xbd6611a6bda9583eU, 0x3d96f6ecbc41402aU, 0xbc125b173d09d23aU, 0x3d2b84b93e27cbc8U,
  0x3cc40358bd69fe97U, 0xbe1aedd4bd594d5eU, 0xbddbf9ae3e1d2a4dU, 0x3da11a7abd1f7a69U,
  0x3db045fbbdb726b3U, 0xbd614e87bddf2625U, 0xbddf9b6a3d80de91U, 0x3d058d9a3e1d2b24U,
  0x3c496a0abe08b59cU, 0xbd0e80733c7fc0b3U, 0xbd8bd3ecbd44942eU, 0xbd7ce5373d43f3b6U,
  0xbdce4e98bd16ebe0U, 0x3d219e9abde2f380U, 0x3d002bc4bb31d65cU, 0xbdd63aac3cf43116U,
  0x3d2e8819bc3e9658U, 0xbd77fc86bdcd70d3U, 0xbdc644553e0ccb81U, 0xbe324c0b3df94a56U,
  0xbd318d973c0d0634U, 0xbd9e49223d801135U, 0x3da8b4bcbe2a4af1U, 0xbe0098f1be8f1226U,
  0xbc389ed83cbc137fU, 0xbcb0df443ccad26fU, 0xbcb504183cadbb6eU, 0x3c92b8ac3c8d0e98U,
  0xbd59b3a2bd733c15U, 0x3d159844bdf093bcU, 0xbdc56a7fbceb24b2U, 0xbd2db222bd67f669U,
  0xbdcf4f963d3e08edU, 0xbd984498bdf39247U, 0xbd4776233c262f21U, 0xbdcec7b2bbb19e96U,
  0x3cd78e7fbdae0e1dU, 0xbdba4e60be3ab724U, 0xbe03ec00bda4cce6U, 0x3d47c789be61fe5aU,
  0x3beefe56bd1ce076U, 0xbd8581a4bd7e56e0U, 0xbc711ad1bd002ca7U, 0x3d7b5cdd3d66529aU,
  0xbd3e4de0bd32f392U, 0x3de5a98abd577106U, 0xbe13aa34bd2ecb23U, 0x3da41f833d95432bU,
  0xbe13ab56bd013e6eU, 0xbda4346e3d37d398U, 0x3c57231c3d382590U, 0x3e22daadbdb61145U,
  0xbc5cb5afbd8c46baU, 0xbd7528d33cc83c72U, 0x3d46c3903d171351U, 0x3cb491cbbd03f6e4U,
  0xbdde1113be0e2477U, 0xbc6f0bae3dbdb2fbU, 0x3db73e55bd8e4b50U, 0xbcdcccd63c85c534U,
  0x3c1303313b95a793U, 0xbd8132283d0accc2U, 0x3cb952ee3de25e1cU, 0xbd7d8b1e3bbdc07fU,
  0xbd1e68463d5d80deU, 0x3d35c84dbb446e1bU, 0x3d60e7e4bdb05642U, 0x3da969813d4a3f88U,
  0x3db0c9183d0604e6U, 0x3cde985a3d77c977U, 0x3d9051393cdcaf33U, 0x3db1e0983e02f341U,
  0x3d823077bdb246c4U, 0xbc7bd3febdb7f276U, 0x3d4ce5293daad3d7U, 0xbd43c17e3d0a050cU,
  0x3dd06ddb3c1699a5U, 0xbb58a984b96832f2U, 0xbd8e0a973df45013U, 0x3d8d299a3e08884dU,
  0xbdd253a63c8921fdU, 0xbe478d853da8d0edU, 0x3d9f1720be008071U, 0x3d3c521c3d025467U,
  0xbd942908bdce7d9fU, 0xbab826be3d753fa4U, 0xbda6bdc1be12bcebU, 0x3d12af61be291671U,
  0xbd9f9849bdd6a6b2U, 0xbbbef911bcf8e7efU, 0x3d9a59763c21f339U, 0xbdae68a5bc3842cdU,
  0x3d6d62243cd68886U, 0x3b8b6ea8bd22ed8fU, 0x3d9027a03d17f235U, 0xbd7bf4c83dc46f7dU,
  0xbb354bce3d497892U, 0x3e2284b3bdb5e675U, 0x3c9852163d989a35U, 0xbe60ffe33d150271U,
  0xbe64f003be0d7d80U, 0xbc0c00033d157d2dU, 0xbdf12b9fbe9d8b36U, 0xbdebdb8b3e3dd846U,
  0xbde2805d3e472c49U, 0xbd5231663d28bad3U, 0x3d063cb83dd763c3U, 0x3d8a9a96bd1551caU,
  0x3e8e0f03bdfa1dc6U, 0xbd45ded33df311c1U, 0xbd40c9dc3e3558c0U, 0xbe9e16723d93d2eeU,
  0x3d8f0336bc466c66U, 0x3e0bdb4fbd6ebcb8U, 0xbe83f7163e32fd0aU, 0xbd123904bc3a4f1bU,
  0xbe075b14bbf35e36U, 0xbe37a139be18429aU, 0xbcae9accbe26ee97U, 0xbe854b9a3e34e025U,
  0xbd4490403df60d0cU, 0xbe44e0cdbe3a99c1U, 0xbe0d1b25bd8e5405U, 0x3d9340fabe6a8209U,
  0x3e05e65ebdef011dU, 0xbdc1a9f23ceffb14U, 0x3da0c86f3dbda99dU, 0xbe60aa64bd3adcaaU,
  0x3dcda45b3d9e3de0U, 0x3e2398423d05ca9eU, 0xbe7bac573defc364U, 0xbe146d6d3d774618U,
  0xbde63b433d2dbd44U, 0xbe533c59be287e34U, 0xbcfb9105be03777dU, 0xbdb075513e036f8aU,
  0x3d940fe53e7da4d0U, 0xbd9f0b9ebdea11ecU, 0xbcb9e5eb3cc7e52eU, 0x3d0d667abd9bb3a7U,
  0xbd9cba923de23f85U, 0x3d8bc6a1bd49434cU, 0x3d8d914cbca176f2U, 0x3db3a8583d04860eU,
  0xbda0b40f3bdaa49cU, 0xbe87ce98bbbbafd7U, 0x3d654f273e7472f1U, 0x3cb2e5383d735c27U,
  0xbdf5fb103d01f05cU, 0x3dbff9a23afa8781U, 0x3d7ff8a1bcf3c2a7U, 0xbd4890cabdf70908U,
  0x3d93ebbdbea0b0e1U, 0xbca10a123ca6c974U, 0xbd05973ebd6e46a1U, 0x3db6a0e23c230780U,
  0xbca9e3c43dbb4c29U, 0x3d81c04b3e0c327eU, 0x3dd6f10dbc769c46U, 0xbd2afa8a3c2195fcU,
  0xbe01c61e3ce911e0U, 0xbe2a29cfbc8dfbdaU, 0x3d624779be21617aU, 0xbe19a66e3d441f8dU,
  0xbd2051c03d9f0f48U, 0x3dc81db83d473f5eU, 0x3da1e7623c413afcU, 0xbdb137cbbdb9ada4U,
  0xbcd4cd8cbeb490c7U, 0x3d3abffb3d892f7dU, 0xbd02f1a03d1d01ecU, 0x3d779aac3d344a69U,
  0x3cf0f77c3cb45120U, 0x3d03fb5f3db7259aU, 0x3d8c803d3e46d9dbU, 0x3d98fcb43df4463cU,
  0xbd0f85ebbdb05a2aU, 0xbe0116cd3c48a3caU, 0xbd16a7f93ca3834cU, 0xbc2791d4bd00395aU,
  0x3d925c6fbd1d7b4cU, 0x3d8b24f13da4db81U, 0xbdaf9ce03bcd0d98U, 0x3e2840afbe1646f3U,
  0x3b55271ebebfe421U, 0x3dda12223dd63ddeU, 0xbd02fa163c27fea3U, 0x3d22de313d91f6bfU,
  0xbc53787e3cb0c4ccU, 0xbbd4eb2dbe2c5aa3U, 0x3cbcf47bbe308bd3U, 0x3ce066fabd4d58caU,
  0xbd10c2de3bc00947U, 0xbe7e2e9e3d934e11U, 0x3ca36ca9bcccad5cU, 0xbe0fc89abdc09aeaU,
  0x3ccc3fc9bcf6a06eU, 0xbda6fedabd1dcaffU, 0xbd5be2b43d6de6e4U, 0xbe16e321bdaf00d4U,
  0xbd2135d0be9934d8U, 0xbcf07627bd20f84cU, 0xbc8228f33c9c94baU, 0x3db89faf3d2218fbU,
  0xbdb54f0abbd9f80eU, 0x3d805abbbe07e086U, 0x3cb2cedbbe42604dU, 0x3c3bca20bdbb8b7bU,
  0xbdae02983c3df43bU, 0xbdf0fda53d739658U, 0xbc958f39bd8be8a0U, 0x3c88a23e3d42df91U,
  0x3c7156ccbdacf686U, 0xbc33db41bd682870U, 0xbb6338b4bdc5d12cU, 0xbd91c399bd8eadc5U,
  0x3ab79125be8f7d73U, 0xbce07210bd0f479bU, 0x3d15f882bd922cafU, 0x3c4c61e3bd2eb521U,
  0x3da909eb3d3f5be8U, 0x3dd1a93abcb8650dU, 0xbd686b8c3c870b06U, 0x3ccef54bbde13d02U,
  0xbda259a33c82f26fU, 0xbde99781bd2237adU, 0x3d9492e2be1441e0U, 0xbda6ca00bd68830dU,
  0xbcce04d9be3c0c4cU, 0xbcc950c7bc8fcc9eU, 0xbd0b056cbd600d08U, 0xbca6f763bdc6ad75U,
  0x3ccc4fa6be8f55e2U, 0x3a75f513bcebc748U, 0xbccb8261bda010faU, 0x3cc668b43d4095ecU,
  0xbd85325c3d54ad63U, 0x3cca9a7f3b8bc4d3U, 0x3abbc815bd600c9bU, 0x3db58aa63de17cf1U,
  0xbd0b12c93c8f6c42U, 0xbe6fbf833d851662U, 0x3dbec4f63d14eac1U, 0x3dbb8c97bb3e5873U,
  0x3d8ae0eabd8ba3fbU, 0xbd3eaf5fbd719f24U, 0xbd83d133bd29332dU, 0xbcf0c3a0bd82e925U,
  0xbd45a6afbe61c107U, 0xbc7f95eebd2606ecU, 0x3b6e58bf3b79c4f1U, 0xbbcbdca23ce90bc1U,
  0x3d5393413d2bc0b1U, 0xbcf3fdcdbd817671U, 0x3da134bdbda83e85U, 0x3b933599bb4bcc5fU,
  0xbae368d0bbf7e314U, 0xbc566ebb3c0ec3aeU, 0xbcf01238bd8232a7U, 0xbdf067dc3dbbb5a7U,
  0xbb828f7fbde7165fU, 0x3d9406dd3dae5ef1U, 0x3d0e7791bdb42de1U, 0x3d7f8dcbbe1cf41fU,
  0x3db7dd47be2cf226U, 0x3d90c95b3bec3260U, 0x3b9134db3daca543U, 0x3d5fe344bd5f437dU,
  0xbca7cd023d20f9b9U, 0x3d88abf7bd48892eU, 0xbd0f85a0bdc98838U, 0x3d0b2ee03c89df63U,
  0x39603d96bd86e2b3U, 0x399ea7f23ce97502U, 0xbd1d535cbdb25ad7U, 0x39456fda3ce3e438U,
  0xbdb40f63bdc9d534U, 0x3d4aa83cbd911922U, 0xbde7957abd54bd1aU, 0x3c93dc17bdb9f778U,
  0xbcdb4002bdd61af8U, 0xbb8ba500bd7f97cdU, 0x3d042e5f3c4eb215U, 0x3cdce6a33c4c1a12U,
  0xbd8aff07bcf86a12U, 0x3d770d593e5f9b2fU, 0x3d15c5d23bfad41fU, 0x3d1db0cb3e7f9d76U,
  0xbe5624983e07bd50U, 0xbe6bf59c3df28bdfU, 0x3dda78ce3e20c1afU, 0x3eb44138bda32565U,
  0xbd0518cb3d874947U, 0x39e8703e3ca6bdc2U, 0x3c3609203e150d7cU, 0x3d43a3973e86eb46U,
  0x3d313869be96ebbcU, 0x3d2d6f74be13c8caU, 0x3c0ce48cbbf52fe9U, 0xbc8b5e6dbb09d280U,
  0x3d5352d2bd740f4cU, 0xbd734cc3be10531dU, 0xbcc19150bd2453f2U, 0xbd779b8f3dd1d9f1U,
  0xbd651ca83dc337bcU, 0xbe64dab8ba433817U, 0x3d35b369bda488fcU, 0xbdbe54dcbd65f961U,
  0xbdf2c031be185a3bU, 0x3dfda63fbc73910fU, 0xbc05292cbded8deeU, 0x3d7ed1b0bdbf02f2U,
  0x3d75190abeac5dd4U, 0xbde71c52be68eefdU, 0x3d63b1ba3ccb395bU, 0xba3dc27e3cca4c88U,
  0x3dc19db03da6bd7aU, 0x3d5ca7ff3d978a62U, 0x3df35c803dc5d120U, 0x3da690723dcaa439U,
  0x3dc1c2be3d7b9b8aU, 0x3d50f3d2bc05d410U, 0x3d82b3c4bdd90604U, 0xbd1354c8bc9a0e54U,
  0x3c71dca6be3c2dcdU, 0x3d4e9495bb9490deU, 0x3c4aed5f3d15e1e8U, 0x3d8e24f6bdc502a0U,
  0x3db445ffbe4c9710U, 0x3d9dd584bd938917U, 0xbd409b063d767984U, 0x3da2a3753c399a1cU,
  0xbd40ed4c3dd3cfc5U, 0x3d85ea643dcc3296U, 0xbcacf334bda81567U, 0xbd39daf53e2721b9U,
  0x3d463c79bd5f29d6U, 0xbd5d99653dee9436U, 0x3dd1f6193d97b28aU, 0x3d2d0595bd2262d6U,
  0xbc56c8f0bd27aa4aU, 0x3c6485753c69cc78U, 0xbd1f8a5cbcaaa488U, 0xbdb4e8fe3da2652eU,
  0x3d6bf6cb3d598a3eU, 0x3d20af2cbd62027fU, 0xbdd603483d9088a4U, 0x3d8f2d843d5b3956U,
  0xbd6ffdf0bd8c2e49U, 0x3c80ce43bdae715aU, 0x3bf24afdbe17a9e7U, 0xbc05d3e7bd05e7f7U,
  0x3cd0c7bbbd2250dfU, 0xbdbe97c83d2cbb38U, 0x3cb0577f3b6061c4U, 0xbe210c02be0a6744U,
  0xbd81c6b8be02a991U, 0x3cb83196bd4fab07U, 0x3cda2cfebddfd1fdU, 0x3dd1f0183e0e3eccU,
  0x3d29fbb43e05bb0dU, 0xbb0bb850be161f62U, 0xbd45bcfcbd3e8f9eU, 0x3caf71b7bda777b8U,
  0xbe03c89f3cea59bcU, 0x3d2fbbd4bdadb5efU, 0x3da6d108bdd0889fU, 0x3ddb85ca3d8d2dfeU,
  0xbd6822af3cdcb110U, 0xbe3377993d34b00fU, 0xbc9f1d09bd85ea48U, 0xbe0e19193c8e9688U,
  0x3db5ba0bbdc67f85U, 0xbd08e6053d673706U, 0xbd63774a3d47c3c6U, 0xbda4065f3d47b157U,
  0x3cdab631bd964a74U, 0x3d69b3103c2f7df0U, 0x3a60e3e43d7b4bfaU, 0x3c8af28dbd1d8859U,
  0xbd9a67d53d38360aU, 0xbddb9ce3be772a3cU, 0xbd176915be902451U, 0xbceed536be2ea6c4U,
  0xbd121792bcecf21cU, 0x3db127b2bd96af9bU, 0x3d7d518bbd699366U, 0xbe95db39ba80af2eU,
  0xbe319e7d3d612472U, 0xbd99f8b63d1ced7eU, 0x3d0e7d4dbebca3f7U, 0xbe5374a63e05d31fU,
  0xbda147083dd2e5baU, 0x3d884ced3d593a62U, 0xbdd16a5a3c0daf34U, 0xbd3aaef23d4501faU,
  0xbe2adcfebd8f1bc6U, 0x3d499e46beb0c46fU, 0x3d76d37dbe5f9e4aU, 0xbe190d91be4ab233U,
  0xbcce85eebc522292U, 0x3e5007b2bd4d0d8cU, 0xbc80a8073e13805aU, 0xbd6113d2bcd8dbb6U,
  0xbc94d2fa3d035a3eU, 0xbe3bc31bbd650593U, 0x3d8e804b3cfcac51U, 0xbe7defae3e4226c9U,
  0xbc130ea43dc38640U, 0xbdacc894bba6f0eaU, 0xbd61d200bd795366U, 0x3d8b5300bdac6b7eU,
  0xbe636088bd22ac19U, 0xbd928d73be5f7386U, 0x3d133767bdf271a8U, 0xbdd4a29ebdbe98d1U,
  0x3cad3332baa072e3U, 0x3d84bfce3d466f75U, 0xbd89d07f3ccd5acbU, 0x3e379acd3d282c3bU,
  0x3d012e123dd078a6U, 0xbe5bd9a93e0dd35bU, 0xbb755c493e2de4b0U, 0xbe7f2a053e3d9cc0U,
  0x3bf5d6c03d86985bU, 0x3d4f709f3dde655eU, 0x3b41e566bdce413bU, 0xbc8f88dfbe0063bdU,
  0x3e2884dfbd92fc32U, 0xbd5b5fcfbc4f8112U, 0xbe9c7da9bc5284f6U, 0x3c8119a8be7d5430U,
  0x3e1b6ae0bc0dfbf9U, 0xbdfbb4053d0e2497U, 0xbddba1913e9de4adU, 0xbe5b40d3be8aa8d6U,
  0xbdd5b5843d9b5b27U, 0xbc8ef30abe79a70aU, 0xbe65c79bbe0d7162U, 0xbca7f7ee3d398af4U,
  0xbdd13aff3e4502ceU, 0xbe9e8eddbe9bc57cU, 0xbd3065c5bcbe989dU, 0x3db78c72bdbceb39U,
  0xbd5c72ba3d870ccfU, 0xbda0bcef3ea59a03U, 0xbde423093e832b06U, 0x3bc7272ebd958660U,
  0x3d82bd86bdebf84cU, 0x3dd8809abdc7bf27U, 0xbd8f80473e26e4c8U, 0xbd6257f7bdfb6fbdU,
  0xb9b6b10b3d6fb58aU, 0x3d6e6908bf0b31eeU, 0xbea3fb2e3dad73abU, 0x3d3143923ec978d1U,
  0xbda8c0993e832f9dU, 0xbf0448afbec2528dU, 0x3d8a7e3dbd9cf70cU, 0x3d887d42bd6043ecU,
  0x3de5e7cf3c83df44U, 0x3d3196453dbfe911U, 0xbe0fcad03db71041U, 0x3a5eb22e3ce17c07U,
  0xbe464259bda8e634U, 0xbe389974bd9ebe8eU, 0x3de577dcbe92e23fU, 0x3bcf0181be883189U,
  0x3dbc5aef3d931efaU, 0x3e27c9d8be476baaU, 0xbe550a123d4f30e0U, 0x3e2f87253e8d3a1dU,
  0xbc640a96be4df805U, 0xbe4e9b91bed6f8ecU, 0x3d928d16bd54146eU, 0x3d1ac8a53ddb0946U,
  0x3d8cc04dbb138628U, 0x3ddeaca23eb558a8U, 0xbe2d02383de573f8U, 0x3d4622d43e31608cU,
  0xbe148efcbe17a0c3U, 0xbce4f4d03a83873aU, 0x3d8beea0be39d086U, 0x3e23c31cbe8eab37U,
  0x3d300b9fbe649974U, 0x3d79c365bcb4e00aU, 0xbdda7bba3d934916U, 0x3e0ff85c3eb82e9aU,
  0xbd062e673dc22d4dU, 0xbc859ad7be15b69aU, 0x3dd1b003bc33042bU, 0xbd2c15a33dc84c9bU,
  0x3daa5d193d834669U, 0x3cd324323de599ebU, 0xbe8996d23e025d6aU, 0x3c5cd1bb3e27145fU,
  0xbe2d8af53d3588d2U, 0x3cb5527e3dc20d19U, 0x3dd8c1b23d83a17cU, 0x3e0c507ebeca18b4U,
  0xbbf1216cbcd964a3U, 0xbd407423bd28ba77U, 0xbe264ed93dbba89cU, 0x3d111e8a3e91d3f5U,
  0x3d196ea43d1ae0b3U, 0xbd50d198be1d3dcdU, 0x3d5a89023d970dabU, 0x3da54f2b3dd54ddfU,
  0x3ddce4e1bc93bf4aU, 0xbd3370a7bdc78a52U, 0xbea9984f3c187604U, 0xbc70e2d23dacb7e2U,
  0x3d156ee43e231f8eU, 0x3c58f74a3bdd83b1U, 0x3db42d65bcbbdc16U, 0xbd3c22cabe3bed99U,
  0xbe5d3593be79367bU, 0x3ddd60aebe49f2a0U, 0xbe506b3fbe7576adU, 0x3dddfcbdbd371088U,
  0x3d44656a3e5effacU, 0xbcda9f4cbe923fc9U, 0x3ca327a23dc251ddU, 0x3c815a62bcda80a0U,
  0xbd0d7e783d416897U, 0x3d8e04f3bbe78411U, 0xbe484d1abdac47a5U, 0x3d62cf103e48b84aU,
  0xbe1b16d2bd5594dbU, 0xbe1b24973c404d6fU, 0xbd4293903bcdfae7U, 0x3d92ba96bd801b08U,
  0xbd45b458be8181d1U, 0x3ccf3c9b3a8441cdU, 0xbd1494c63c0a5582U, 0xbded7682bd3f12c7U,
  0x3c4edac7bea9bd15U, 0x3e54463c3e1cdcdbU, 0x3c3c7093bc46d14dU, 0x3cf76936bd5ae686U,
  0xbdaabfb0bd7aea54U, 0xbd1b3aa2bd87a1e4U, 0x3bd8a456be8f5389U, 0x3d40cfc9bc646558U,
  0x3dec29773dec30b9U, 0x3e7c272f3d65dea4U, 0x3d8fb2eb3de3d794U, 0xbe45b0dd3dc9a932U,
  0xbd09d0b5bd9d481dU, 0xbdb0b9673d073cc8U, 0x3dafca3fbdfb81edU, 0xbdcd695a3c6d478eU,
  0x3d05ff453e697e5cU, 0x3c08db1c3d918abcU, 0xbd1bfc6a3c7a6014U, 0x3cc0009d3cf01c00U,
  0xbd8075af3ce1f5a2U, 0xbd09c8aebdbc7817U, 0xbcd1e2a1be8b0f48U, 0x3d5c0191be45d04fU,
  0x3c754f0cbdbcca0dU, 0x3de2d6323d2dcc74U, 0xbdde8737be04c3c3U, 0xbecebfb6bdcaddceU,
  0x3e062dc53d413d57U, 0xbe2eba5fbdc4b380U, 0x3da5e676bcc3a928U, 0xbca7e3163edea4e6U,
  0xbdd7ecba3e53ed90U, 0xbd531b7dbd840c16U, 0x3e4235bd3c9cd2a2U, 0x3dc2ceffbdf49202U,
  0x3d44f4bd3d5b3b36U, 0xbcc2600e3d8f7961U, 0x3d79a57f3e313fe2U, 0x3d9eef05b8891816U,
  0xbd20af3e3dd0c200U, 0xbe14310e3debeb49U, 0xbc92f3a6be398313U, 0xbdbbeadfbc08c986U,
  0xbd8e45df3d7049a9U, 0x3cda253dbc4e70c6U, 0x3d9392143af2a52aU, 0xbd073e25bdd062a4U,
  0xbbb2b684be17d46dU, 0xb9808f2cbd60c967U, 0xbd3c4a1c3dc86991U, 0xbb2ab2f2bc83b2e7U,
  0x3c9151b23d7c86d1U, 0x3d542956bd04b1ceU, 0x3d4bacd13e503494U, 0x3d569994bcd2a076U,
  0x3e4275e23d32a28dU, 0xbd79580cbd57ded3U, 0xbd8e4bbf3d67ddd1U, 0xbd6fdabcbd4915abU,
  0xbc8994213e6a40a5U, 0x3d2a613ebce6df98U, 0x3d8775a03d804819U, 0xbe7a91f3bd252774U,
  0x3d5f252dbde97daeU, 0x3d8f705e3d9f68b2U, 0xbda1e92fbd32f1aaU, 0x3c5c8713bd96904eU,
  0xbc31e1f9bd697e0eU, 0xbd181cfdbd0826a1U, 0xbd7535373cd84cadU, 0xbdf73fccbd827648U,
  0x3da762373cd1f426U, 0xb8d3c4013d83757fU, 0xbd32c6f13d647a25U, 0xbd01f74abe143077U,
  0x3cc6f4573e18cca3U, 0x3cb45f0abe006830U, 0xbe1048b43cc52f16U, 0xbe2d7eddbb484519U,
  0x3db5ba46be1d9cfeU, 0x3ce1908bbdeec4f1U, 0xbdfc102f3a56da99U, 0x3dd57394bd428b84U,
  0xbe7363e2bd838b53U, 0xbb76ec2cbd92ab0fU, 0x3d805570bdbde7bcU, 0xbc87a26f3e16d5faU,
  0xbd19599fbd4e9ed1U, 0xbe232d313dc107f7U, 0xbacd6c9bbc7dcb41U, 0x3c939e863dde5d11U,
  0xbcd85226bcdc2afbU, 0xbe2671903dbc8015U, 0x3da8c9d83d8d014cU, 0xbe8f6ff7bd1ae6a7U,
  0x3c58b469be869e74U, 0x3bfc7d7f3dbbe86eU, 0xbcf7ef853da8b64dU, 0xbb7f30e1bca8c049U,
  0xbda306a13ab9bdc2U, 0xbd0c6ef93db14582U, 0x3e36a38d3cebe542U, 0x3d9294e43d94213aU,
  0x3d06f017bdaf95a2U, 0xbc7c47cc3cdc83fdU, 0xbc84c4663d45d542U, 0xbdba47a13e351b9dU,
  0xbd292bb73ea74dedU, 0xbc21f7a43dc38dc2U, 0x3daa3fe63e10c8e5U, 0xbdad3eeabdd3a690U,
  0xbc7062ecbe73b9acU, 0x3e06c82d3e1ad103U, 0xbdda5ac53d9a6e1eU, 0xbdd6bfee3b2885ecU,
  0x3d3c02043d215719U, 0xbca36014bd8f80cdU, 0xbd4bf7693c86b276U, 0x3da09ca2bdceaa35U,
  0xbe21912ebd8c78f1U, 0xbe1b3740bbed11caU, 0xbdb513183d9d76c3U, 0x3db5dccfbe01ba7bU,
  0x3c9243413e2ae944U, 0xbd63dbf13c939b76U, 0xbd57268f3cd68790U, 0xbd2552f3bd8e2e9cU,
  0xbd859d44be95dba5U, 0x3cd241f13dc2c98dU, 0xbd6dd82fbe295b0bU, 0xbe16572dbe0460a7U,
  0xbe5c49653cb34b85U, 0xbce39104be1b71fdU, 0x3d5ffa71bd10f4c3U, 0xbbf4f1103dfbb6d1U,
  0xbc5798e13d466bc5U, 0xbe1c9d923c06e681U, 0x3c5115383e4ebf3fU, 0xbca50aef3ce1ee20U,
  0x3dc6eeb03d8ee8e8U, 0xbc209d103d98e725U, 0xbdd4ec4a3cb3faa1U, 0xbe3166c4bdfbc4b7U,
  0x3d3c8e53be876b19U, 0xbd8def243d2646b0U, 0xbccef5f13c759918U, 0xbd34946e3caac409U,
  0x3c840d443d999346U, 0xbd2ae8a2bd321dfaU, 0x3e241b323e291a29U, 0x3d5845163dddc7e9U,
  0xbdd493f5bc96fd30U, 0xbe7392e23d77466bU, 0x3d24521e3e059aacU, 0xbdc0ed533e1fd3e7U,
  0xbd84fb013e06aa4dU, 0xbbad6e153c748882U, 0x3d376ad3bc07d0c1U, 0xbdba865dbdd06cb6U,
  0xbc9ce284be3db77fU, 0x3ced9a4a3d1a9cc7U, 0x3d41c37cbb817d94U, 0xbbb1a5a43d6179d0U,
  0x3dfeca993cbe790bU, 0x3d512670bd69424dU, 0x3d86acf23cfb73d6U, 0x3de032ecbdcd6a44U,
  0x3d5ca5a53d207d70U, 0xbdbd5ab4bdc4bd6bU, 0x3d06ffa53d8ccb0eU, 0xbcb6ddcc3e1322e7U,
  0x3c2760883c892909U, 0x3dae360e3e04e53eU, 0x3d720767bcc8ac82U, 0x3d4c7593be39f511U,
  0xbd288b23bdb116deU, 0x3e32364c3e1a5653U, 0x3c9645253d81a774U, 0xbdd47e22bc674cccU,
  0x3d840dd5bd7d6a64U, 0xbc92de16bcd4c536U, 0xbce16c283dd79a72U, 0x3d28458f3c88eac8U,
  0xbd557517bd519566U, 0xbd2b25f9badc6b12U, 0xbd398ce0be2840d4U, 0x3d1a9396be0b4a89U,
  0xbdd94808be306122U, 0x3db60c353d50d053U, 0xbc8b8ac4bd4b029eU, 0x3dee1f47bdaa6479U,
  0xbc6e420fbdf41cdbU, 0x3d547761be0106fcU, 0x3bd6764dbd90d37fU, 0xbd1777cfba8606c2U,
  0x3c38843fbc489082U, 0x3beb9838bddcc069U, 0xbd1008623daa3c79U, 0x3d5b36943dacd034U,
  0xbe3951c9bda6c635U, 0xbbf49bc7bdcd1efbU, 0xbbd52c19be2d8385U, 0xbcc1d429bc635d0bU,
  0x3c6b27a4be22a167U, 0xbc1b6cca3ca664d6U, 0xbdca1e51be1a5fd8U, 0x3ddb3464bdfa0022U,
  0x3cddc643bddc68d4U, 0x3cb56f223dd6e64cU, 0xbb24db80bd353b2dU, 0xbd3f4eae3c500c9cU,
  0x3ce68c923c7f5f59U, 0xbe1f5774bd708248U, 0x3decaf1abde1060fU, 0xbd9a72ddbdbad7e2U,
  0xbb7215a4be585a55U, 0x3da87145bd1cabe6U, 0xbd88bd11bcb861f8U, 0xbd87e37b3e23ce78U,
  0xbd2e1c6d3e47add0U, 0xbe1b67413e348108U, 0x3e530ae3ba001772U, 0xbcb132c8bdbff2d8U,
  0xbe13670b3bee9333U, 0x3e4dd0ad3dc25680U, 0xbe43cd9a3d5fd90dU, 0xbd8dc5e8bd9daab0U,
  0xbddb8944bb07e809U, 0x3d499e26be947dd8U, 0xbc2dc1b3bda47f78U, 0xbdaadfc93c945700U,
  0x3c0cf7fabcbd0314U, 0xbcbceb10bc924285U, 0xbde778113d2286bdU, 0x3ca063d6bdef61cbU,
  0xbcdc5c6bbd0f7c76U, 0xbcc3374f3c23958cU, 0xbd6e7eb9bdd63fb4U, 0xbe080446be5a38eaU,
  0xbd12921cbd3ad252U, 0xbd8b141fbda1df49U, 0x3bb3a781bd091796U, 0x3d4ef7a0bde54c8dU,
  0xbd722e40bd7e842aU, 0x3d4aceddbdaf9b18U, 0xbdf700363c35b675U, 0x3d58827e3d8d139aU,
  0xbd3681ffbd3dd8bbU, 0xbdce13b03bdd9945U, 0xbb5ebcdb3dcaf79fU, 0xbc5f32fb3c570694U,
  0x3e20dc6dbc52a305U, 0xbd289b64bc8519adU, 0x3c8a268b3d0d7a67U, 0x3d906b7b3d69f0dfU,
  0x3bac654abe236a39U, 0xbc2708663d27fc5dU, 0x3c00a92abd2a3fcbU, 0x3c951ec93bc97210U,
  0xbb0ab13b3e153812U, 0xbdc572f13e03655eU, 0x3d9776463e1e54e9U, 0x3da0d3ecbd217cacU,
  0xbd99ccebbe03ccc4U, 0xbb976fff3d836e4bU, 0xbbece789bdc22450U, 0x3d27b1f63e0b0dc9U,
  0x3bd755373d7ef8b2U, 0xbbcbd00b3e532b68U, 0x3e6d81de3d8e0a7bU, 0x3d911172bdb94f95U,
  0xbd9cdf86bd010c8fU, 0x3d943f983e542d1aU, 0xbca4caa13c9c1d36U, 0xbc3a8b29bda9bf94U,
  0x3c3920f7bd1de336U, 0xbda6f172bd447c69U, 0x3bcfec4abddbf595U, 0xbdc1b967bc8329daU,
  0x3d0b3085bc0343c2U, 0xbde2629bbd3b4361U, 0xbe4a93fabd205384U, 0xbc83162fbe1fbfe5U,
  0xbd89cbb4bc10878eU, 0xbdecdc90bd2413deU, 0x3c8d2e4b3d2423d8U, 0xbe0c0499bd9bfb14U,
  0xbe269cebbe1709c8U, 0xbe1664c0bd505310U, 0xbd860654bccd58ddU, 0xbe0cc220be6350c6U,
  0x3e22beaabe23950bU, 0xbd9dd9a2bd47536aU, 0xbda353073d1c22a3U, 0xbe2d795a3e072b11U,
  0x3db5197e3ce5399eU, 0x3c956a41bc7b6287U, 0xbe2ac7c63e9d7d33U, 0xbd65cc7fbdeb599cU,
  0xbd7fce143e71e3a1U, 0xbe12939dbe5ac071U, 0xbdb9d9633d88f3fbU, 0xbdab64b03bf72d44U,
  0xbd92cec53d2729bbU, 0xbe482d8cbe336c39U, 0x3c6830cabdb88b00U, 0xbc1ffb8ebd8565baU,
  0x3ddf5fd3bd22e526U, 0x3c64625dbda6b813U, 0x3db1ceba3e83ba33U, 0x3c80ed61bd083e34U,
  0x3da45fb3bd51bc43U, 0x3b790b48bca84201U, 0xbdd945393e76f59eU, 0xbd55c7e4bd917c98U,
  0xbcd8fb56bc73cedbU, 0xbd073bccbe19e1ebU, 0xbdc08dfa3e3fa665U, 0xbe22d3cb3ddbfda0U,
  0x3cd8ffbf3dfd23d6U, 0xbe1cdae6bd119e64U, 0x3de3b4f3bc3bd049U, 0xbbc8f66fbc0a2e37U,
  0xbd028376bd319ef5U, 0x3cf9a66a3ce23364U, 0x3b2fe2c73dfcdd25U, 0xbd4b504e3c0a7f3eU,
  0x3c7c3a2b3d40c472U, 0xbdf11c5f3d3e8b66U, 0x3d0b6a493dc1c38aU, 0xbdd229b7bdd2031eU,
  0xbceb53083d904060U, 0xbd4196f03d642f71U, 0x3cc54c023cc4bd0fU, 0xbc628c5cbdde9c0aU,
  0x3cc01441be2fb7edU, 0xbcfa39be3d936f71U, 0x3d04cc5c3c818eb8U, 0xbdeeff023d66a024U,
  0x3d8309f0bd18c783U, 0x3ceb46ff3d961002U, 0x3d4dc29e3d85e65dU, 0x3d56833a3d7e46d0U,
  0x3d42d15abdc7b539U, 0x3d2cdd78bd96e174U, 0xbccddf3e3d61c770U, 0xbdd88b903d3d864bU,
  0x3da780463d35fd62U, 0x3c8fcc233da57748U, 0x3da449023db7a042U, 0xbd83d5653cef06e5U,
  0x3ce591193dce3675U, 0x3ded87503e0d94deU, 0xbd6676df3d8e3407U, 0xbd628025bce9e67dU,
  0xbc0bd3303d269cbcU, 0x3c8e4f363c07d28cU, 0x3c9361f53bb43367U, 0xbd5fa9ebbd4a0b34U,
  0xbdae0939bd90e2a7U, 0xbde73faabdc8e937U, 0x3d42b8c33d33c23aU, 0x3d5f2ef2bdd3dc9bU,
  0x3c06a8603d88af99U, 0x3d819b43bbd97efaU, 0x3d17afdc3ca8a173U, 0x3d52ace4be089149U,
  0xbdac65e5bd17a6f1U, 0xbd9e287ebdc3d31cU, 0x3d7d6399bc2a8973U, 0x3d4dde58bc9d9f68U,
  0xbdbac32dbda5bfa2U, 0x3d1d0e5cbe65526cU, 0xbc3ad984bdb26c89U, 0xbdc56d533dc554b7U,
  0xbdb35d0b3c860591U, 0x3cb05683bd8163cbU, 0x3d1306623c757710U, 0xbd60954cbd5c7308U,
  0xbd02fa1b3d83eadcU, 0xbe1c55533cfec22dU, 0x3cc5947c3cca7fcfU, 0xbd630261bd1afc16U,
  0xbd874372be0f32f7U, 0xbd76c8e5bd3eedddU, 0x3acf5853bcceb56aU, 0xbd2d3932bc90b5bbU,
  0x3d02ba29bcdf8fecU, 0xbcbd3bcbbd39d9d5U, 0x3e14bab8be00ead8U, 0xbc85a96c3ca6af33U,
  0xbd4e76d93d7a0d19U, 0x3e13053fbb6dc75aU, 0x3a8e84a53d1a7b30U, 0x3d10c8d83e0622a2U,
  0xbcf283fa3e007760U, 0x3b4896143db75427U, 0x3d8d48713d3ddd38U, 0xbd2a18193d6171adU,
  0x3d87cbb83e0a6149U, 0xbb69d0043e006fedU, 0xbc74aba13d834c6dU, 0xbd6aa3e2bd472ebdU,
  0xbe1e6c893d26eda9U, 0xbddd8160be191522U, 0xbd6a9ffabe2bac43U, 0xbd96e640bd87fbefU,
  0xbdd3d7fbbde8b069U, 0xbe030003bd43ed75U, 0xbddd5191bde70525U, 0xbe2bf885bdd05df8U,
  0xbda8bde83d93043dU, 0xbe1eeb77bd413ec8U, 0x3d2c0a383d06c7dbU, 0xbdb82220be3b09a3U,
  0x3c836447be204267U, 0xbd3451e2bd06d998U, 0xbdacbf8b3d843bd8U, 0xbcf0adffbdf6f62aU,
  0x3d5490e7bd01be65U, 0xbc84c406bd47d20fU, 0x3d15ebf4bbd24a75U, 0xbb9714443d6c9139U,
  0xbdd4749fbd254106U, 0x3d4b90e73d814e3eU, 0xbd2367663d967620U, 0xbc96787fbd65debdU,
  0xbce5c18d3d8b73dbU, 0xbd37d03ebd368138U, 0xbd1720e13d89670bU, 0xbd888e713cc753b7U,
  0x3d1ed0d93d061fa9U, 0x3c954ab53bd058cfU, 0xbd334d8f3c9fbfd6U, 0xbd455917bb68ee16U,
  0x3d089e58bbb5b0feU, 0xbd88734bbe25d362U, 0x3bfc48fcbdc9d004U, 0xbd1925953dc7375aU,
  0xbe724949bbb1a14bU, 0x3d79b8503daf4190U, 0x3d1820723cd6eba8U, 0x3e2d6de03ca74be0U,
  0x3d65d40f3ca24cebU, 0x3d01818c3c0bbb73U, 0xbcf2f34b3e3220b8U, 0xbdd2ca80bb84ff3aU,
  0x3d7e33a0bd16ed75U, 0xbbc61ba53de882fdU, 0x3d3dd64a3cdf6b4bU, 0x3d5bb8f83da3ae8aU,
  0xbdfc717ebb87497fU, 0xbdd126e1bd15c357U, 0xba0c7641be22cff6U, 0xbd405f98bd139a78U,
  0xbd666d93be04059bU, 0xbe06a6ac3d1f9f8cU, 0xbda717dcbe07e285U, 0xbe4e1fd23c45c502U,
  0x3b118be03e79c611U, 0xbdf85e593baf22d3U, 0x3e4bffc4bdb75a83U, 0xbd48ed9fbd0fa456U,
  0xbdeaec8fbddee34bU, 0x3db2b9953d544bebU, 0x3c4ee131bd84676bU, 0xbca4a88b3c8e3e25U,
  0xbd2b98f9bdff8a49U, 0xbd2b6357bc6904ddU, 0xbe117ffbbe6411c5U, 0xbd8ff1aa3d5a1c25U,
  0xbe84aaa4bdbf0d12U, 0xbd967cc6bbd61278U, 0xbc236967bda3ece8U, 0x3cda03d6be54a2e5U,
  0xbd08a351be7879ceU, 0x3cd27eb3bdd78cf0U, 0xbe271b6d3d8307acU, 0xbdc9d3693d834958U,
  0x3cba3eb7bcf63fc8U, 0xbe730a01be3eb824U, 0xbb9189dfbddc7e79U, 0x3c76fa733d8f1a74U,
  0xbac07876bc86797aU, 0xb9a7bae2bddfe2a7U, 0xbe1bae09be7c2745U, 0xbda8486f3d4167b5U,
  0xbe7d7a44bb2a5c32U, 0x3bc4370d3bd2b2fdU, 0x3c0beadfbd98ba22U, 0x3d13516fbdd1e7efU,
  0xbdac8151be1c8e2aU, 0xbd5fbf0abd0df4e8U, 0xbdfb386ebcd17279U, 0xbda14a73bc8c1131U,
  0x3d7277d73e1ecf30U, 0xbdcdaa9bbd99615fU, 0x3dedbc35bd9f2833U, 0xbaf770643c057f33U,
  0xbe5bd5c5bcd41123U, 0xbd05a525bdbb3134U, 0x3de68becbdee63f7U, 0x3cce5800bd1da45cU,
  0x3df28c68bd759c8cU, 0x3d1e8773ba078934U, 0xbd038da0be2bf014U, 0xbd8e1a093db458cbU,
  0xbd676d633e6e272fU, 0xbd67a6f93d8ccfd6U, 0x3e3c7fabbca4d4d7U, 0xbd886f1abd91787fU,
  0xbda3137a3e0650d2U, 0x3d12d63e3e5e8d7aU, 0xbbdd8d9bbcadb75eU, 0x3d2794f9bda29b2cU,
  0x3cd3f0e33c739753U, 0x3d6171a83aa122a4U, 0xbdc2dbb8be374c67U, 0x3d9328d53e25959eU,
  0xbea3282fbe0fec93U, 0xbe0472f43c97af64U, 0x3abe9b6b3cd1a99fU, 0x3d58e13cbe155aabU,
  0x3cd390c4be1f740aU, 0xbddd9fa0bd90bfe4U, 0xbe2208d2bd87698cU, 0x3d3f116a3d9e5a68U,
  0x3ce098ffbe5dad5cU, 0xbe39a3febe96f4e7U, 0x3ce078e9bd98a255U, 0x3d7842f33d9879acU,
  0xbe0a7eba3d257b48U, 0xba032785bddcacc2U, 0xbe367b30bd883031U, 0xbc316e41bc1b6e7dU,
  0xbe90a973bc03814eU, 0x3da3e382bbefb517U, 0x3be3a354bcc142a2U, 0xbdf899e63d4b7126U,
  0xbe058f95be7431cbU, 0x3ded476e3d23e336U, 0xbe0fa5cbbe2ddc1cU, 0x3d2c6747be28fdd8U,
  0x3db3e8663e0ed45dU, 0x3cb3776d3dd7d1e0U, 0x3d88af1bbd27d51aU, 0x3d559258bb52ea91U,
  0xbe1a70883c771b37U, 0x3d6afb5c3d894514U, 0x3df208cf3bda1777U, 0x3b94253c3cb01d80U,
  0x3e1f7a6abd0b4de0U, 0x3df3378a3e070660U, 0x3d212963bdab8f63U, 0xbcefc38f3e5eaf81U,
  0x3e2e6ce43e96c616U, 0x3d2d6e9d3d39d727U, 0x3e91786f3aa05404U, 0x3d0383ab3e41afd1U,
  0xbc95ebb93de31433U, 0x3e09ded13db34c72U, 0x3dd348ca3d95da8dU, 0x3dbe7085bd2a5f78U,
  0xbd79a2763d8730baU, 0x3c83163ebde338d0U, 0xbe8b3cd0be38bea0U, 0xbdef204e3e07c693U,
  0xbdee4ab1bc370e00U, 0xbe537a74bc5165a4U, 0xbc6ec31ebd7e1439U, 0xbe16f6f9be8021c7U,
  0xbe28911bbcfac3acU, 0xbe1aea0cbcf00f3bU, 0xbd51fc27bdeeebf8U, 0xbe431851be6447a0U,
  0xbcd7fdaabe540e93U, 0xbe593011be9af31bU, 0x3c8f0633bde7f4c8U, 0x3d3725d03d83675cU,
  0xbd82250cbbdd2302U, 0xbcd3ed0abbf05467U, 0x3cf14d18bd965037U, 0x3cbf4efcbbd3edf1U,
  0xbdb44ad33e08e54cU, 0x3d002d9d3d8269e2U, 0x3de7d8993cc53b1aU, 0xbde22c1d3df5f786U,
  0xbce5b330bdfdc0bcU, 0xbc73dca53d85e03dU, 0xbccd03dbbcfd6179U, 0xbd68cd23bd953bcbU,
  0x3dcc56ef3db3a8c7U, 0x3dd855b73cb0153cU, 0x3b81c5443e022294U, 0x3dc90b743ce38d74U,
  0xbd5b19bc3e1144b3U, 0xbcbab2babd019016U, 0x3e2130383d93abe6U, 0xbd42f7c9bbb90371U,
  0x3d79fb8e3d8b8de4U, 0xbd760af03e51f75eU, 0xbc90bb8d3e0ec577U, 0xbd9509c6ba9faa59U,
  0xbda5ea673e65c29cU, 0x3db37fa13cc3fcd0U, 0x3e45d014bcc00c2fU, 0xbdba3f783c792b54U,
  0xbd332e523e466d42U, 0xbd75496a3db471aaU, 0x3d95d0c73d1c0e1cU, 0xba6da517bcf41a26U,
  0x3d6c700d3de22817U, 0x3d4c19933da035ecU, 0x3de657373d56e23aU, 0x3d8f19d7be23cc71U,
  0x3dd0c1633d96c14aU, 0x3dce468b3e03629dU, 0xbc3c9cd53e1ca397U, 0xbdf1a6453cc78670U,
  0x3da3a3533e229457U, 0x3c32495dbd1e56c6U, 0xbb4cfa02bd95cfcaU, 0x3d22dbf43e8a7ccdU,
  0x3cf32ed03ea3569fU, 0xbc9653c2bc5944feU, 0x3d95930ebb101816U, 0x3d282fa23c92b057U,
  0x3e1d07a4bcf2ff85U, 0xbc9684853e3914e9U, 0xbd3051613e2a54a4U, 0x3daa7f9b3d663ef0U,
  0xbde3ff303d4c171aU, 0xbdfec6643d902819U, 0x3cdb4db43e18d4cfU, 0x3df41d2abe4a295aU,
  0xbbb7e4003d168732U, 0x3e0fa853b9ce8a5fU, 0xbd639a463ca67e0cU, 0x3db598f73ea87164U,
  0xbd55f326bd8c8c51U, 0xbc859999bdf38f40U, 0x3d59a13fbd07ffe0U, 0x3ddbb0823d961379U,
  0x3e01041cbd384ec1U, 0x3cad3dd13e0004a7U, 0x3cc3cc403c18f2a1U, 0x3d3c89033d6bcc66U,
  0xbe21e1193b86657bU, 0xbea86381bdb2cb46U, 0xbd2dbef8be6d517bU, 0x3d8ca1fcbd475012U,
  0xbd9c7d73be22e744U, 0x3d1c08c13dea85b1U, 0xbdd0298ebd9339a5U, 0x3a2b571a3c93ce79U,
  0x3d30c690bec6f374U, 0x3dd87d14bc282d60U, 0x3db0a7a23d860153U, 0xbd0d28503d61d026U,
  0x3d13c744bc4dcac2U, 0xbb38af5e3e1d8cb1U, 0x3d89597d3ddd0b48U, 0x3d6792793e16baa5U,
  0xbe0a6aeebd78bb82U, 0xbc14d6363e031f0eU, 0x3c5f1534bbee04abU, 0x3d8a524ebe14c67dU,
  0x3d334f8abd419218U, 0x3dcfadf1bb0e937fU, 0xbd9a93a13cb697d3U, 0x3c8ae7393e8b9fa5U,
  0xbd5079f8bc5a4530U, 0xbc44274fbc827aadU, 0xbc95b5e2bdb8ddf3U, 0x3cc35368bd843fbcU,
  0x3d6503683d041a22U, 0x3d99757c3c8db3e2U, 0xbda1f762bd90aaf5U, 0x3d41b36f3daac519U,
  0xbeaeef86bd56d9fbU, 0xbe503f52bd4b7aadU, 0xbc95bdf23d8c557cU, 0x3b8ae5f3be47a0b1U,
  0xbe362163bd3b9239U, 0x3d6d5641bcdcfe67U, 0xbe0a6128bdbd7d3cU, 0xbba9ec603deb6f05U,
  0xbd520fe0bdf3d6b6U, 0xbda0a4c7bda59d5bU, 0x3d95ba7ebdc37190U, 0x3da66e343da5a5f7U,
  0xbd9ae5bd3d468849U, 0x3d8cdc58bdd4fbd8U, 0xbbbf376dbde012a9U, 0xbd7a06d6bd99cee7U,
  0xbbafd6003e049427U, 0x3d10f7dc3d98edb0U, 0xbce5f971beb82d00U, 0xbe1dd6703d56decfU,
  0x3d74135dbe806577U, 0x3ba4b544bda51d60U, 0x3da208e7bc80024fU, 0xbd169b53bb38e1aaU,
  0xbcad6704bdefa8d2U, 0xbd7711d03da3094dU, 0xbd59cf933da34200U, 0x3ca92cba3d1a017fU,
  0x3cf75f1e3d4b3123U, 0xbbed96e53de9c5b2U, 0xbe004f80bdb46eb2U, 0x3df94c133dccb8a5U,
  0x3a5473ddbbb6ecfeU, 0xbe8822be3c008275U, 0x3dee9e733d9dccceU, 0x3e2efbf9bcc5fc82U,
  0xbdd19642bdd62be9U, 0x3dc4b117bb95e4deU, 0xbdd7b3d2bbc1785bU, 0x3d96c7cd3e3c7b00U,
  0x3d171c413d806b1eU, 0x3d30a0ca3ca8d470U, 0xbc53c6ea3d96a460U, 0x3d751420bd541c3dU,
  0xbdaa55df3d0be396U, 0x3cf78a023e01ca21U, 0xbdf3db82be0d6204U, 0x3af2299b3d46155cU,
  0x3ddd16d03d4cb04dU, 0x3d7c98a0bd495d27U, 0x3dc4f2a93d8088a8U, 0xbda4e778bb98c3cdU,
  0xbd6e3a55be0b3bd0U, 0xbbd66688bda18167U, 0xbcfbce47bd7a7055U, 0x3d132cbe3d5e5b7dU,
  0x3cce1a763e8174c3U, 0x3dfdb5163ccf3038U, 0xbd449d043ca3ab2dU, 0xbc059cdf3d9effe4U,
  0x3c945ab63c16d075U, 0xbc1535a7bd01eb17U, 0x3d5e2a733d0cfb81U, 0xbc100c21bd1b5717U,
  0x3dbaec433e30777eU, 0x3d4326d1bd59b150U, 0xbd0697eebdc88ca3U, 0xbe7a1a683db1323bU,
  0x3e355915be50b575U, 0x3b520c923d760a9cU, 0x3c9c608c3d105013U, 0xbdb9f59f3e74a93bU,
  0xbcd0d15dbd733cb2U, 0x3d6526703dca4430U, 0xbc8b29d93ca0cf11U, 0x3ddf31a1bd4f3bbdU,
  0xbe47c7763d8ef1acU, 0xbe004df7be40834fU, 0x3dbc12dcbe0a57ccU, 0xbd259d0abddb4525U,
  0xbda8cecdbb62b460U, 0x3d1e65d0bd5179c9U, 0x3d4758d8bc2180faU, 0xbe724f443daf9162U,
  0xbd4e0c33bdb1f565U, 0xbe350d553e02156cU, 0x3d3f4233bd71c46fU, 0xbd649b633c3219d5U,
  0xbde31ce93da4e570U, 0x3e33363e3de217dcU, 0xbe026b073deae147U, 0x3ba8adf0be107944U,
  0x3ca998d8be094718U, 0xbb44912ebdcb8ee2U, 0x3d1f9838bd5763caU, 0x3e0462983d204881U,
  0xbd836993bdf189acU, 0x3d235462bcc6ca7aU, 0xbd92c6723d8c7935U, 0x3e12c7723d07cfcaU,
  0x3dcd60843d36f4e1U, 0x3c8711e13d30107eU, 0x3d35bb533d9e8bd1U, 0x3d25bed53dd7e1aeU,
  0x3d1eaa213cccd96cU, 0xbd8ce60ebd9ecdfeU, 0xbd228061bddc284fU, 0xbda3429abbd926deU,
  0xbdbc9fc33cd37a20U, 0xbdbac3acbda5f04dU, 0xbdb190dfbe5f59e8U, 0xbc7e96183d0a68baU,
  0xbe165af9bdb19dd2U, 0xbdf79c0dbdc44196U, 0xbd995f1a3c687f1fU, 0x3d596784be13bc37U,
  0xbd0fb7c7be1b6ef5U, 0x3d04ba13bdbd130eU, 0xbe02d4913ab516cbU, 0xbd83ff36bd7cad0aU,
  0xbd0c42cbbdd2da6fU, 0xbdb3b4f8be167f60U, 0xbce630bbbd20c0faU, 0x3cf250e83b82662cU,
  0xbd91cfcabd7660aaU, 0xbe0af6d2bd9342f3U, 0x3d96f04ebe0d10f0U, 0xbe116153bdfbc56cU,
  0x3d3495c13da0d145U, 0x3dc9adcebce765d2U, 0xbc06667dbe26a932U, 0xbe46cbbf3d348b18U,
  0x3cd99a92bdd40fb6U, 0xbe3c95a43c9e961dU, 0x3d83f1abbd272510U, 0xbdc156f1bcff9678U,
  0xbdba7d78bd9e1032U, 0x3d8e804cbd1f60a9U, 0xbde6c6dcbdbc0a43U, 0xbbc8ef23bb6a1a36U,
  0x3c4ddff8bd6cdb3fU, 0x3d31fc48ba8aef1aU, 0xbd3f5538be00a553U, 0xbddb0e0fbbd00972U,
  0xbda265ec3cd39218U, 0x3de6dd3a3df9ae49U, 0x3d4213353e3a3c47U, 0x3dbfd992bdcb1f1cU,
  0x3d4771453e114ed8U, 0xbd8c99cdbdc61283U, 0xbdbceb693d8488f7U, 0xbda2faca3e356e29U,
  0xbdb2f2a73e13060fU, 0xbc2f2b9dbe1ed0a8U, 0x3d6f95b5bd3c75c8U, 0x3a2b7f28bd3a6cc7U,
  0xbd340a403d279d49U, 0x3cbde0a43dc3ceceU, 0x3bae0c933db4e751U, 0x3d75c7fd3d91740fU,
  0xbdc85cdd3d63daf5U, 0x3dc9d4df3d7270caU, 0xbdc2f7ea3e32f349U, 0x3dc710223cbb6e86U,
  0x3dcf71b2bd366beeU, 0x3d0af5683d92f6c7U, 0xbd4cd32e3df5e7f8U, 0x3d8be27d3eb5c381U,
  0x3c3617983de79c76U, 0xbd893f2a3bafcf05U, 0xbc4498b2bd6085c6U, 0x3a2ef5b13b27b6bdU,
  0x3d0bfd76bd270229U, 0xbd6aefe6be4cb9f9U, 0x3b8d4699bdffcb17U, 0xbdcf24b1be4cbcddU,
  0xbb8a7552bce86f9bU, 0x3d9854733b49c393U, 0xbdb217a6be1af020U, 0xbe1c59f6bd664465U,
  0x3a43200cbe491c1eU, 0xbd660be5be3b7c22U, 0xbd49cd15be3eabffU, 0xbd1bb42abc0d50abU,
  0xbdc7ed43bd779b57U, 0xbe1ad7a2be273b10U, 0xbd1f96903cbf3601U, 0xbdaa40b8bdc42357U,
  0x3e0e63d73b986713U, 0xbd5318193d3c92e0U, 0x3d53467dbd33bb76U, 0xbe1518953d15cf39U,
  0xbdc22fc93d638530U, 0x3dbde7e4bd99f39bU, 0xbbb6e5a03dbe998fU, 0xbdde7b46bd5c570fU,
  0x3df31e113dc2ff58U, 0xbdf19994bd2fe461U, 0xbc7b77923d29238eU, 0xbd92545d3d96f4abU,
  0x3a2e43543dd575f8U, 0xbe1c9b26bd892d2bU, 0xbacd6d82bc9b76f3U, 0xbced62ffbdbd6f1eU,
  0xbdcb5e4f3d8aac16U, 0xbd72b0acbd75be60U, 0xbd8aa1f1bdb09551U, 0xbca5f195bbe01520U,
  0xbdf309fbbce998b9U, 0x3da12495bbbc37d6U, 0xbce3acf03de0f8bbU, 0x3e00843d3d5d9176U,
  0xbd3ceb0a3cb94fa8U, 0xbd6854cdbc962871U, 0x3d75bc863dfa1e5eU, 0xbe0701503e08b810U,
  0x3ce59a2b3e0f0714U, 0x3c4c595d3cb65addU, 0x3d368894bcdd7c1aU, 0x3d8329debcfcbfbaU,
  0x3be0a7093d8053eaU, 0xbcd5265cbcbb044aU, 0x3adfed57bcc7d46bU, 0xbc3f44a1badd0780U,
  0xbda8696bbbf2d17aU, 0xbd4551523db8650dU, 0xbd8a26273d068173U, 0xbd32c7d0bd36565eU,
  0x3b53874e3d9a225bU, 0x3d200d073cb39a07U, 0x3d838b153da955bbU, 0xbdd1eeffbde81042U,
  0xbd458f23be468495U, 0x3c5aa63dbd2fdc1bU, 0xbdb19ff33db12e6eU, 0x3db491fa3bda5971U,
  0x3ade55c93d47fae7U, 0x3dbe8110bd11b385U, 0xbcf2df2e3d69f47aU, 0x3cc9e2adbc155be7U,
  0xbd7f4d333d0faebbU, 0xbe69ceca3b76bc23U, 0x3d98859f3e0b08a3U, 0xbe12a4923d24235cU,
  0xbd611a8e3cc0c536U, 0x3d4f5a403d521806U, 0x3d2403adbd683a1eU, 0xbda07c73bcb61208U,
  0xbc80fca1be0345f0U, 0xbd25e890bd0429b7U, 0xbd2fd14c3b3ae5c3U, 0xbc89b3853d718a75U,
  0x3c496e183de271e8U, 0xbc4ce32c3d4b35f1U, 0xbd80398a3df061e2U, 0x3da68d973d8b1499U,
  0x3d164c6bbda2a958U, 0xbd96d28ebca1314eU, 0x3d997045be0b8822U, 0xbe1e5fb4bd7ab5bfU,
  0xbd2902bdbcbc1119U, 0x3e0ec4ad3bd45f6dU, 0xbd881091bd28cd13U, 0x3d88fa35bdc4fc4dU,
  0x3d6e104fbe194b48U, 0x3db060e9bd45007bU, 0xbd80190a3d680deaU, 0x3d97e1c23dba7ee8U,
  0xbd3aa3fabd9c6428U, 0xbd63bd7cbe250b20U, 0x3da1b1c73cee1906U, 0x3d78c345bd8c4b15U,
  0xbdd5ca733d65a8beU, 0xbdc53b203dad29c4U, 0x3d700f913ce71b43U, 0xbcdafef7bca70629U,
  0xbd86f56b3ddd6a64U, 0xbd688b6c3d932bdcU, 0x3c79d91abcaf2dfdU, 0xbdfcf3bdbe043936U,
  0x3c4ee10ebd0057a8U, 0x3da31ecfbb66c05cU, 0xbd36e16bbd244c7fU, 0xbd3206c8bdab4ae9U,
  0xbd8d35c03cfaa8cfU, 0x3d6d2732be0998caU, 0x3d21511d3d514a05U, 0xbd3f39b93d4320c0U,
  0xbc2ac898bd8c70e7U, 0xbd0d35a5bd9b2ac8U, 0xbcfef1c5bd3c6342U, 0xbd977478bd65a1e0U,
  0x3d3abc113cd8a5ffU, 0xbc6c64af3d3cdbcbU, 0x3d91cc4fbd357d38U, 0x3cd8c243bdc655deU,
  0x3daeb761bdc6dd69U, 0x3dad4f8fbcf38aafU, 0xbae883053cc5b50eU, 0x3c50bb8dbd115d1dU,
  0x3d2554313ce37153U, 0xbd8644b9bd2edbdeU, 0xbd850f273c32e8d3U, 0xbca1bf6e3d499a90U,
  0x3d234a803cd37e95U, 0xbe240aa93da1a438U, 0x3d378bfb3d62caf5U, 0xbe41e215bc44931cU,
  0xbcffe0983bb8c7cdU, 0x3c6b41383d72476fU, 0x3d3ef410bde82fbcU, 0xbd9a20a5bd96f072U,
  0xbd61f803be2a4cd4U, 0x3cef2adbbcb3019dU, 0x3d62594539a3cb32U, 0x3d3c4db43dc867f0U,
  0xbd350b153dcd72c1U, 0xbcdde439bd90c28dU, 0x3dbc929a3d732562U, 0xbd9a92b5bd454574U,
  0xbe37f3a3bdc70116U, 0xbde4ea1ebd69c646U, 0x3d472795be0f2ad6U, 0x3c23b72e3d9e715aU,
  0x3ca741873d9f162bU, 0xbdd815103d9ac19fU, 0x3de693423de33acfU, 0xbcae1f3abc81367bU,
  0x3c0a42f1bd9ba2f7U, 0x3dc360e9bb49e2abU, 0xbd3a30af3d3b1db1U, 0xbdb00d71bdab62e6U,
  0x3cc8f927bcf71995U, 0xbc5fc5abbde94932U, 0xbc8b3440bd428102U, 0x3d4b1f023d91c1eeU,
  0xbddec7033c465addU, 0xbd83aca2bc815ef1U, 0x3d5fa86cbd890fb9U, 0x3d25f4363d649245U,
  0xbde9e799bd64ce7cU, 0xbdc468a03d308bb6U, 0xbce01a82bb8b2b67U, 0xbd218af6be428514U,
  0x3c109dfbbe24a656U, 0x3b19c8a53d15dae4U, 0xbc1799123d5dcfd7U, 0x3c46af50bdc68bf4U,
  0x3db1f866bd0f7eb1U, 0xbd3302f2bd7153c7U, 0x3d67b627bcac7c60U, 0x3a60d98fbdabb6adU,
  0xbcac55dfbd103d9eU, 0x3c156ca3bceb3bd1U, 0xbd644fd1bd7b48edU, 0x3d32bb523cb60e10U,
  0xbd85f1d03be56317U, 0xbdfe744e3dbd4228U, 0xbbc6b8373d181df9U, 0x3d23ed18bd986bc6U,
  0xbd803ec9be4acf3aU, 0x3cfc6bbc3da4c769U, 0xbde47d083db070beU, 0xbcbc22e8bd5e83efU,
  0x3d2d81203cd3a263U, 0x3d950c76bd82c390U, 0x3d1762c93ce96f87U, 0xbd9a1f0d3e1f68abU,
  0xbd842545bd408f6fU, 0xbe03b9f0bd577406U, 0xbdb30bb43e17e0abU, 0xbcdd6f42bd87e922U,
  0x3dceb502bde60cf3U, 0x3d979412bca14283U, 0x3d172d613d363a29U, 0x3df8b73b3cfd5ae2U,
  0xbb187c3abd339df7U, 0x3d5536b1bca7c918U, 0x39a83427bdb6942dU, 0xbd6dbf0e3d8a5348U,
  0x3d667cda3d578f2bU, 0x3d4fe8093d3f5cbbU, 0xbd425709bb879b52U, 0x3d9365233da8d8daU,
  0xbcfc3e17bcfcafe1U, 0x3d03fbf6ba9adb9aU, 0xbd4cbd0ebcf3ead8U, 0x3cd7e6353e0b9adeU,
  0x3e564c3cbe691beaU, 0xbd80d692bca9365bU, 0x3d86af243e10308eU, 0x3b2e81653e05f93fU,
  0x3d70b178bd0b3e72U, 0x3d902141bcc106d3U, 0x3d8fc0b8bd01a005U, 0xbd24ffaa3b9b0d1fU,
  0x3c25a94b3c0fa671U, 0x3d5112a7be57ffbcU, 0x3d9b9f1ebe3b958dU, 0x3dd24a233d6a4822U,
  0xbd2b6e6dbdec90a1U, 0xbd0c12253d2fb8beU, 0xbe03fb0abde01fadU, 0x3de23a2c3cd42a30U,
  0xbbb5ae873d6470f8U, 0xbdd174a43d2533eeU, 0x3d808de83db26a15U, 0xbe4757d7be36d987U,
  0xbdc545d2bd6bc647U, 0x3c918ee13de4097fU, 0xbd3723283d57c2bdU, 0xbdf161ddbe0a8e31U,
  0x3c85587bbdfaea31U, 0x3cc471ee3dd077dfU, 0x3d48a3373dd8cb98U, 0xbd4e82633dc0e7e2U,
  0xbd2fd3583d71e04eU, 0x3970ed363bafcea3U, 0xbd8120b93e5a4f0fU, 0x3e08636cbde76052U,
  0x3e099aea3dfbb4b0U, 0x3cbecb13bd759d41U, 0xbd79ab383e6223d6U, 0x3d4c15a6bbc4e898U,
  0x3c1332693c90fc3eU, 0xbe159f69bc8ec87bU, 0xbc7ad58cbdcc63bcU, 0xbdade722bcc5afb8U,
  0x3c85ccb3bd7f7db6U, 0x3d48dfa1bd65d981U, 0x3d7a01133d8db868U, 0x3d2264933e2300baU,
  0xbc78a31cbd0c5acfU, 0x3ddb9341bd91e336U, 0x3b58e2883e19a5e6U, 0x3df0700d3de095fdU,
  0x3b8f4399bd7f4646U, 0x3d3ee7b5bc89a8f6U, 0xbc6ce3e23dffea78U, 0x3df1b543bd902a57U,
  0x3d0997623d827f7cU, 0x3c070f05bb8fed92U, 0x3c92e36dbd2ebb42U, 0x3dcbb3e3bca4f391U,
  0xbce6a186bd0b5bedU, 0xbd182e06be84e36cU, 0x3d9717febe3b7ba6U, 0xbd66bba7bc17607eU,
  0x3dde292abc9ab70eU, 0x3e0d90123d1b2ab4U, 0xbdcbc3e53d4d477aU, 0xbe5a80ee3d54cbbaU,
  0x3d7cebecbc170c43U, 0xbd84016b3d8ce0beU, 0x3e2b86693d2c999bU, 0xbec711a93b476ff5U,
  0xbdd58dc73e0aa569U, 0x3de5cc4d3e1706b8U, 0xbe56e607bbcae512U, 0xbdb4f1a0be41cbd7U,
  0x3dab9186be9549caU, 0xbe382237be680923U, 0xbe13f5713d874e6eU, 0xbec7f4213d058f00U,
  0x3b06f015bdb60507U, 0x3be75b73bdb46d41U, 0xbec89cc73e700ea2U, 0xbe3c8187bdecc411U,
  0xbf0a67823d9d8909U, 0xbf0345e2be8b82d5U, 0xbdb741a7be7e0cd2U, 0xbe3e9af0be80fb5eU,
  0xbe009df5bd2a5ee9U, 0xbe633d06be0e25f9U, 0xbe40730cbe5fdbf6U, 0xbde937b6be927a4dU,
  0xbcd28739be17752cU, 0xbe0766b63e7d8097U, 0xbd581845bd9d9f4eU, 0xbf0f68a5bd7b04edU,
  0x3d0f36833c0e524aU, 0x3e375cb2be2998e5U, 0xbedbe70a3e2cff7dU, 0xbe82993f3b9ee3fbU,
  0xbe93821fbd2c1b8fU, 0xbeed58cdbeb3fe81U, 0xbe10ed01be99d1feU, 0x3e7600f23d52eb0dU,
  0x3b78d4db3e1b2821U, 0xbed2ec97be5813f6U, 0xbe368853be05d3e9U, 0xbc15070dbe6aa0d7U,
  0xbd003e18bde1ba03U, 0xbe0b9cf33d680443U, 0x3e45571ebd28bab6U, 0xbe65ebccbd7e726aU,
  0x3c92d197be761439U, 0x3e684ba2bd5aafd0U, 0xbe6477c2be43a02aU, 0xbd84566a3c426cc1U,
  0x3ceee12bbe269779U, 0xbe7e0f36beaf4cfcU, 0x3dc4d03b3d041c09U, 0xbd9607833ec2f817U,
  0xbe0441843e19723aU, 0xbe94f99f3d6a8c6fU, 0xbd8d4331bd4b2c14U, 0xbda99cfdbe915e76U,
  0xbd4e2a7f3ca01e02U, 0x3c24dd383e8987a1U, 0xbd1688643e0392e1U, 0x3cd47ac43e0bb80fU,
  0x3db649ddbdae105cU, 0xbdcbea8a3bb30fc4U, 0xbc972e2a3dc801b6U, 0x3e10b368bd99a4afU,
  0x3ba819c5bc1d3d52U, 0xbcdee3643d9426efU, 0x3d83509d3e05cbf0U, 0x3dd40c853ea1fc6cU,
  0xbad05088be0fefceU, 0x3d81778bbc09e306U, 0xbe057d0dbc10eed3U, 0xbe2d0eb3bd876832U,
  0x3dfe8ca1bd169414U, 0x3c785c783d4818ffU, 0x3cf1eac13d8a509bU, 0x3d08ac483da28643U,
  0x3dd5bebd3ce596dbU, 0x3d16e94c3c1e7f7fU, 0xbd02aa73bb631c0bU, 0xbc9c294fbd27d737U,
  0x3d99dab13cdbe41cU, 0xbc35ce423b911c07U, 0x3d6ea73ebb9ea01eU, 0x3de10c163e2709aaU,
  0xbd9fe1373dba83eeU, 0x3db9d1d839a80391U, 0x3d8a0d883d6213c7U, 0xbd977867bc999298U,
  0x3d79d4eabd811194U, 0xbd0fc7683b92d188U, 0xbd140193bdc98768U, 0xbcf8ffa8bdd5e3f6U,
  0x3c747035bd9e0e75U, 0x3d317270bd099d9cU, 0xbd8e510abd2da57cU, 0xbcb97fcb3cc9a9adU,
  0x3d8704d93e777bb3U, 0xbd82268cbe03b90fU, 0xbe0220cbbdb13ea4U, 0xbdf80a5c3d5ad8efU,
  0xbe0019ea3d0fcefeU, 0xbd3a3e403d2c175aU, 0x3d8df1ebbcaca746U, 0xbde72d953c945100U,
  0x3a97d0bcbdb3bc51U, 0x3c6427c9bd981136U, 0x3d14adfbbce9c5cdU, 0xbde4d0e13e0886fdU,
  0x3e0fc5943d8fb536U, 0x3e491667bda18b13U, 0xbd90e3ad3eb1b9b0U, 0x3e921275bc0e9a65U,
  0x3d599e3c3dfeb0faU, 0xbe4b38b1bcb6840eU, 0x3da95be63d93f0daU, 0x3d34f0593ebbc51eU,
  0xbd4732b93dbef6d5U, 0xbcb7988f3da114d6U, 0xbd86c6363d8192cdU, 0xbda8bdc3bdb1f476U,
  0xbdc483d23d2032a0U, 0xbd4a4235bd6a8a5bU, 0x3a5e38423d77811eU, 0xbd617143bcfcc9adU,
  0x3da7ed80bdc128c9U, 0x3e1d21213cdba553U, 0xbd9e38273e121343U, 0xbdef9e4a3d76d397U,
  0x3d24301e3d1a3c1cU, 0xbde8d02e3c960c4aU, 0xbc286b98bc9187b8U, 0xbd99e80c3e950824U,
  0xbd94be0d3d3223cfU, 0xbd555a8abd13359bU, 0x3df07492bcceb780U, 0xbda5778bbceaceecU,
  0x3bf40024bca72b0dU, 0xbc9c97e6bd5a7cfeU, 0xbd7198a0bd144e60U, 0x3c189a3b3c8272a5U,
  0xbe0f9277bd48eba3U, 0xbd68eef6bc9d4587U, 0x3c2081d33d27be39U, 0x3d0b402fbd5d9df4U,
  0x3d8727fd3e911e9aU, 0xbcaf56eabd0dabfcU, 0xbe131cf5bc151dbfU, 0xbdf7fe023e8bcf60U,
  0xbd98ce3d3dbf2bf1U, 0xbd85a394bdd3a98cU, 0x3d5a14b1bb8f9443U, 0xbd397af6bcb7c468U,
  0x3d82647b3ca3a6e9U, 0xbd0d9f103e2d0de3U, 0x3cb67a903e2e493dU, 0x3c62a8cfbdd456a0U,
  0xbde25151bda98658U, 0xbdbc0969bc551ba6U, 0x3d2abfeebd6c530aU, 0xbc8a43363dba03bbU,
  0xbdac1f573c7f48b2U, 0x3ab36ded3db39b3dU, 0xbd7a52e2bda52c37U, 0x3befa5f53e01a49aU,
  0xbd92d8a9be1a7b29U, 0xbd9acd553dc28035U, 0xbd911ca5bd813782U, 0xbe073822bdd4b222U,
  0x3da548a1bd3a67bdU, 0x3d441586bd582898U, 0xbdccc5c33dea4404U, 0x3d86743e3cee382dU,
  0xbe6b21eabd7b33cfU, 0xbe1e97bdbad15ca3U, 0x3ced4bfabc278daaU, 0xbd626167be17e9c3U,
  0xbdebc1edbd088114U, 0x3d62dea0bc2a5c3cU, 0xbdae184abce476a7U, 0xbdcb7485bb2dd7aaU,
  0xbdda77c2be039cf1U, 0x3d2c17cfbd288055U, 0x3d223cf2bd9d561dU, 0xbbaa8610bd493349U,
  0x3e2e98043d868ac9U, 0x3dd7cdebbdb9fba7U, 0xbdedc5f8bda20cfaU, 0x3d8024e13c3bfe5dU,
  0xbd3a26ae3d44835dU, 0xbd910b323d950705U, 0x3b3884103d1275efU, 0x3ca42a43bd74d56dU,
  0xbd9fd7373d4fefb4U, 0x3d36cda6bd96d6c1U, 0xbd2f6aed3d98b8d4U, 0xbe0b7c6d3e286d63U,
  0xbda019d13e5fdea2U, 0x3d898e5d3d69ca4eU, 0x3d2f2d003de4493bU, 0x3d41022bbce4e557U,
  0x3bd304e9bcbdec99U, 0x3cc53ae9bbff83dfU, 0xbacda792bdd211c8U, 0x3c0a7fb9bd6e1ba7U,
  0xbda76819bda80b16U, 0xbd2bd5af3d05a14aU, 0xbd4fde16bcc09acdU, 0x3a762a86be240639U,
  0xbc715b383df2fceeU, 0xbe058ec23c4b1ee4U, 0xbd1ffea13d61a33cU, 0x3abc2f4f3dcaef53U,
  0xbc8486b43c9c9365U, 0xbcb598e1bd6f970fU, 0x3cd87164bd891aedU, 0xbcfcf47abd91057bU,
  0x3d109d0ebd9ed0bdU, 0xbd41ef473e0b987bU, 0x3ca803683d3ce1c9U, 0xbcd6760abd1b7847U,
  0xbd3f0e2abcb7b41bU, 0x3ddcdec0bd7d4da9U, 0xbc0631c0bc6e21c6U, 0x3d5c86a13d2b7531U,
  0x3d8ce9283d935d06U, 0x3c57998e3cee0d78U, 0x3db2ca85bc10994dU, 0x3ca898f13dae8935U,
  0x3cf0c8e73e8ec625U, 0x3d5acfc53d6a2a3fU, 0x3cdc2e6f3a602821U, 0xbdf015be3b59078eU,
  0x3d547fbf3c93254bU, 0xbdf442efbe5df4d6U, 0x3dc59720bd9f61f7U, 0xbdf501b13d30af56U,
  0xbd29f13bbd214986U, 0xbdb344393db3ef58U, 0xbdab8c133dc61460U, 0xbd6f2ae83d1fae28U,
  0x3db1d9473dddbd0cU, 0xbd9aa3763e274c5aU, 0x3e4f9fc73d2c19faU, 0xbd9a6526bcc440d2U,
  0xbe249d373c16911eU, 0x3d244bde3d89c0afU, 0xbdfd844cbc7f4555U, 0xbdce4925bd2ad747U,
  0xbb55cac7bd415156U, 0xbd43f2d33dfa9061U, 0xbd9458b53ca340d0U, 0x3d76f6e4ba919b61U,
  0xbe369b15bdbd9eaeU, 0xbe0255433cab8124U, 0xbd85092cbdba0cbbU, 0x3dc23cbdbe26871cU,
  0xbd0cfd60bddd45b0U, 0xbcdeabfabd14408dU, 0xbe0ea0ecbd77af81U, 0x3d97cd0e3ddcbe24U,
  0x3b899740bd8a61d4U, 0xbd81c2dcbdc52ff7U, 0x3d9ebda73b5a36f2U, 0xbdff0c6bbacf7068U,
  0x3dd1c0f03d833be7U, 0x3d80e78cbd92ec7eU, 0x3ddf6146bd6684f3U, 0x3c9c57163c831aa4U,
  0x3dbf4c3f3d10d8abU, 0x3e68371c3dc082a8U, 0x3d71a29d3dfaba44U, 0x3d82362a3dbfed73U,
  0x3d90bead3db9ad97U, 0xbdde21de3c8e0187U, 0x3dad7f353c932a0eU, 0xbc551c58bcfcb540U,
  0x3d1041303e9de3b1U, 0x3decd4f83d8888ebU, 0x3decc010bcfd1943U, 0x3cbdc6cfbca65412U,
  0xbe206a933cb46adbU, 0xbd3998433ce8c025U, 0xbc86556bbe09db61U, 0xbe462afbbc9859c8U,
  0xbdc8547cbdece8c6U, 0xbdc126143d86bcb4U, 0xbe0cc2f3be1f797cU, 0x3d7e7c1c3d47ca34U,
  0xbcabdd2a3d798f1bU, 0xbe11fc53bd8d9055U, 0x3e148c603d787515U, 0xbc7ae282bcb74e77U,
  0xbd8e35f7bcec9612U, 0xbd926bf6bcf5bda2U, 0xbd7b11a63d8b8670U, 0xbb5b8e89bd15e34fU,
  0x3da4b34bbdd4aa1aU, 0x3d6f88adbcd6b67eU, 0x3c479e3d3cb00143U, 0x3d628f093d12cb59U,
  0x3b55a69fbd3144c1U, 0xbc17aec93d91e7b6U, 0xbd4ef4f2bcca7d01U, 0x3ce3dfb23ac77db6U,
  0x3d07cb66be0eb134U, 0x3d7b53ba3d1a82c0U, 0xbca2a0b43c9cdfffU, 0xbd40b65a3dfa5f73U,
  0xbcac9e5a3d7d9f3fU, 0xbdb48dbcbe0434f3U, 0xbd4bfb753b0708caU, 0x3d89edee3d5228bcU,
  0xbdbf35973d28d9e9U, 0xbc1bca893d906ab6U, 0x3d9507e4bddd5525U, 0x3d1e51553c371e69U,
  0xbce0d693bd04d63aU, 0x3e3fc0f5bcc45f09U, 0x3cab1a4ebe6b0a89U, 0xbe2df7193dd16db2U,
  0xbc50656abd810ba8U, 0xbd9807a4bdc4aa1eU, 0x3d0025acbdd52b00U, 0x3b43953a3e4594eeU,
  0xbc35748a3e12ad8cU, 0xbccecc2cbc88d8e2U, 0xbc8daf53bd388d70U, 0xbcd317c93ad4b98cU,
  0x3d894ec23d4923d6U, 0x3d96e2be3c52fc16U, 0xbd1fd7173d805bc5U, 0xbc8d3e173add06cbU,
  0xbe4a1ba6bdbfc549U, 0xbe6ff341bd878542U, 0xbd89ec95be101f3fU, 0x3d736d4cbdcc93d4U,
  0xbb4bf2f8bd867f15U, 0xbd9165cdbdcb43a0U, 0x3cd4eb05bd78a4d0U, 0x3dafaa733c96721fU,
  0xbcfca354be843f56U, 0xbde8693fbe361f65U, 0x3da842acbc37522fU, 0x3a6774923cd06cf8U,
  0x3cc43176be405b44U, 0xbd24a559be8e1f43U, 0xbe918f00be0afe8fU, 0xbe346a8e3c26bd76U,
  0x3e526846bcc6993aU, 0xbe0d1373be50744aU, 0xbda858093e2e1a04U, 0xbc4f7592be3f778bU,
  0xbd3a14b23e0c2e23U, 0xbd8ebd90bdc39a35U, 0xbde549613d30d5c8U, 0xbd6fe1a6bea84595U,
  0x3cfed20c3c039a73U, 0xbb8e1842beb8d710U, 0x3d0988a0bd62930cU, 0xbd835a59bdbff673U,
  0xbcf54573bd74d09aU, 0x3c8048ba3c41ba9fU, 0x3d89e4c0be164255U, 0x3d25c55d3e302844U,
  0xbdef5e23bd347507U, 0xbe13e5d53db096ffU, 0xbd618f883e2322fdU, 0x3da035563d0276acU,
  0x3dff1cdcbd9056aeU, 0xbd9e61babd638fbeU, 0xbe06934ebb99eafeU, 0xbce03bc43e6df543U,
  0x3d9453aabe1e919aU, 0x3caebab13db6ef4cU, 0xbcbdf1dcbdab8b8bU, 0xba28a0733d9fe756U,
  0x3db7d4db3d6c9d70U, 0x3d1661113cc845f1U, 0x3e1456a53d29eca8U, 0x3df464413c91a83aU,
  0xbd7bdab7bd5959a7U, 0x3daefae5bc3d07fdU, 0x3d7407953d9b977fU, 0xbdac0ae93de8a9bbU,
  0xbde925d43c85dd18U, 0xbc27b0493dcb1cf1U, 0x3e3b1843bc036662U, 0xbd78f1f1bc430825U,
  0x3d208c57bd826f7fU, 0x3e1d07d13e38e327U, 0xbda335883d31aec6U, 0x3bbce94fbd6aaa8bU,
  0xbe8729bebd951c06U, 0xbdf92d06be9e32f4U, 0xbcf26ea0be548513U, 0xbe27102dbe6144c5U,
  0xbe49220ebe1b95faU, 0xbdfe4e823ce5aa68U, 0xbe08cb19bdde6449U, 0xbe5a4f07bd9a1d9bU,
  0xbe66a3dfbd17cb73U, 0xbebda5e4bd42164fU, 0x3d1f8e35be32d11fU, 0xbe5af9efbdcf3cecU,
  0xbe8e4928bd659387U, 0xbe2439fcbd960097U, 0xbe2e2be9be324257U, 0xbda16049bea4177dU,
  0x3d6cf26bbdce53e3U, 0x3d92e2b93e7bb455U, 0xbe25c5493b920fdaU, 0xbd49e3cc3d651ba4U,
  0x3e20a1cc3db2b04cU, 0xbdeb49f53d470af1U, 0xbe1a0a163e88ed43U, 0xbcbc1066bdf0aa70U,
  0x3def02593eadd5dcU, 0xbe5297ffbdd94a93U, 0xbccb83ac3e42104fU, 0x3dc930483e3903bcU,
  0x3dc9c9f7bdce3c54U, 0xbe17df49be145addU, 0x3e4420d4bd947345U, 0x3daec01bbdb14251U,
  0x3e2ec27f3e384c2aU, 0xbbcfac333e171a10U, 0x3daa932b3e902188U, 0x3dbab6de3d1817d8U,
  0x3d9edb553ddef48eU, 0x3c601583bd297f27U, 0xbbd2a87b3e33ede0U, 0x3a3a4b533e0c6ee7U,
  0xbca885a53d7d50ebU, 0x3dcb622d3d446185U, 0x3dd0ce063e553537U, 0x3d606d693d692b97U,
  0x3dba0906bd75d377U, 0x3d25fc4e3e069320U, 0x3cd730373dfe1fecU, 0xbd65b4dabd920b82U,
  0xbd9325dabcc11be9U, 0xbde8c0a0bdc5367bU, 0xbd687abfbcde8a98U, 0xbd249ee0be05417dU,
  0xbe2c2ce7be06c0dfU, 0xbd8d2079bdbd0c61U, 0xbdac3d0fbe8f5aa6U, 0xbe865ba2bc92db12U,
  0xbe72fdcbbe5a9f27U, 0xbda99fcbbd288b18U, 0xbe167ca8be15f192U, 0x3d4828b8bc7f023aU,
  0xbe2b642abd55c474U, 0xbd495426bd9dcc7bU, 0xbd834c00bd465838U, 0xbe600486bc0a1f55U,
  0x3d78f882bd89a381U, 0x3bd494d93e551331U, 0xbdcd97063e257112U, 0xbda4c7d3bd6c97d1U,
  0x3d2c01893ddc0ae3U, 0x3ba5a1cd3ddf89c3U, 0xbde6a3a93e2aba41U, 0xbe0d518abc49ce44U,
  0xbe68be2e3e573e58U, 0xbe2caa3c3e13eb56U, 0x3ad792e1bdaf11c4U, 0x3e27ce043d1e5949U,
  0xbe3922d73e21c5fbU, 0x3d78a565bc65fee7U, 0xbe0b354abdca605bU, 0xbdfcaf99be261a48U,
  0x3e456803bdb25622U, 0xbd5a3200bd378214U, 0xbdce64633e2d0b97U, 0xbe2a4ffabdd08f1eU,
  0x3e5b15793d1bed30U, 0xbb9c70f2bcfe662cU, 0xbe0458723eaa9a8dU, 0x3bb7beb8bde241f4U,
  0xbd6b3f063e790534U, 0xbe19df7dbed98711U, 0xbe220d433de2547cU, 0x3d98dfe43e190f1bU,
  0xbd02ea373e338de5U, 0xbef57d98be8fb281U, 0xbd575521bd87240eU, 0xbcd96f82bdbe4dc1U,
  0x3d3a26f73da8fdcfU, 0xbcec20263d1f7b33U, 0x3e094f303dfc6e6fU, 0xbc055b263e73a047U,
  0xbdc3c02d3cbe1db2U, 0xbe77b99c3d90f685U, 0x3df452ef3da20e95U, 0x3b2c466b3d9ec2bbU,
  0x3c9584663cb7e487U, 0x3cb9f1f73df2d44bU, 0x3d608ff13cee506dU, 0xbd4b1b92bd9e2bf3U,
  0x3e10cfa3bd9c1f3cU, 0xbd846e293d7ac6a7U, 0xbcd3f33d3d804d42U, 0x3e05a9f03cf74751U,
  0x3c9d37f53d33ee28U, 0x3de22af0bc8d82d0U, 0x3dbfdda33e377278U, 0xbcc1ef0d3e3e3f0bU,
  0x3da0b56e3a502e60U, 0xbe6234e63dec81baU, 0x3c5c53c2bd091264U, 0xbe08b002bcbf15efU,
  0xbe0db3723cf2e18dU, 0x3e17b4d93d43ba1dU, 0x3e0c006ebd28f837U, 0x3dbb25f7be0969abU,
  0x3d109704beb6f202U, 0x3da029bbbc86772aU, 0x3d1dfb523e488f61U, 0x3df029253dc3ca1dU,
  0x3d2ebf4e3deb80cdU, 0xbd4ef7183d944f31U, 0x3c9c40083de2634aU, 0x3c3387713dc38b1dU,
  0x3dca05483bbbe45dU, 0xbc52cd32bd39a68dU, 0x3d74a0293df06c8dU, 0xbadcbecc3c97d4f6U,
  0x3cbac70b3c664aecU, 0x3e15bdb13b0b06e7U, 0xbdb5a2703d8f177cU, 0x3ddf3518bd9ca08bU,
  0x3d151034bd3f93b1U, 0x3d5e18fa3e0066d9U, 0x3db3a1da3d910f2cU, 0x3d4c1a13bcde6b8bU,
  0xbca31f9cbd7fc1e8U, 0x3d9b4b95bd670d73U, 0xbc874b61be5fb5eeU, 0x3d3c39a4bcba0edeU,
  0xbe44911dbc1727f8U, 0xbe3158d43b64cb33U, 0xbbb3db69be01578aU, 0xbda4ca3c3d04bd6eU,
  0xbe6025b03cba6b73U, 0xbba180703d627e2fU, 0xbdacaea0bdab29f7U, 0xbdabc15cbe2297d5U,
  0x3d7bbcc9be8c14ffU, 0x3d2037e6bd464b44U, 0x3d8168f13d8a0797U, 0x3d13d0d2bacdd5bdU,
  0x3d7002473b90109cU, 0xbdb832d1bdb0a5d0U, 0x3dfab24fbdf9b83eU, 0x3d8eb562bcbf645aU,
  0xbddcd3ff3bcdbf53U, 0xbeb82d023d408fbdU, 0xbc883e403c466313U, 0xbe1a726e3d9eac5eU,
  0xbdcee50cbd82a9a3U, 0xbdca45ed3d0bcc5bU, 0x3d844e4abdbf0045U, 0xbdf700cfbe25a401U,
  0x3d2b4d4abede3479U, 0x3de8ae09bc6e35e2U, 0xbe123a97bca8c44cU, 0xbd6b3bee3cbd8befU,
  0x3d8c37d7bda14afcU, 0xbcc616e6ba1c3e97U, 0x3dded56a3d296bd6U, 0x3c6b18713d368fc4U,
  0xbdfce9c2bd2ae095U, 0xbdae65b73cb00165U, 0xbdc7527abcde72b7U, 0x3da18a16bd563760U,
  0xbd6938acbd87b281U, 0xbc6b933cbd0fc9ebU, 0xbd62cf223d3da054U, 0xbcc69601be1ba89bU,
  0x3c05f782beade3feU, 0x3c48766b3c08ee3fU, 0xbe1006edbd1dabd1U, 0x3c0236e5bd3742a7U,
  0xbe5279493d749ac4U, 0x3d0a5a3ebe14557fU, 0x3dda9aa0beb44eaaU, 0xbc029f5dbd371022U,
  0xbd22bfad3d2b175cU, 0xbde6cddcbc306b08U, 0xbd90df24be249692U, 0xbd877bff3ce62bedU,
  0x3ca8242bbd9cde9cU, 0x3ca45b2bbc03d49dU, 0xbd83eb68bd1c5896U, 0xbe82083b3d25d8aeU,
  0xbd41e339bd8acdeeU, 0x3d0ff1c43dcde1eaU, 0x3d41dd693d27d02cU, 0xbd7462123c957cceU,
  0xbdbbe2d4bcd8081fU, 0xbe1ab671bda9b5c1U, 0x3ca4d31abd8202ddU, 0xbdd673bebd4b1c62U,
  0xbdb17b0ebc7b1f77U, 0xbe1e0f773c7c7c30U, 0xbde793373d8169f6U, 0xbdaf30f23d2f1f59U,
  0xbd8a4f6cbd977ec9U, 0xbe68cba43d5bbcf0U, 0x3e0385633d1a39b5U, 0xbe47bdcdbe43cc32U,
  0x3d1d1a9fbdd75830U, 0x3dfffc3c3e0589b3U, 0xbe2c4f033b75dfe8U, 0xbc34c53dbdf555e6U,
  0xbcbb49943d67f7b3U, 0xbcee21e5bd924b70U, 0x3e093083bde8b22bU, 0xbe0e76a9bd517f5aU,
  0xbe1f4052bb82f11dU, 0xbd86dcfcbd99ddffU, 0xbe19fd95bda08f67U, 0xbd4b11a3bcd3eb86U,
  0x3ce11fc7be1f90d1U, 0xbe11288f3e23099aU, 0xbd704a1dbd0f9d9aU, 0xbccefdb7be73a88dU,
  0xbc09dcd0be66acfbU, 0x3d6066df3c832fb3U, 0xbe0634bfbd0c7117U, 0xbd890441bdf341c5U,
  0xbcee563cbdc55973U, 0xbd1ae1c03c1fec4cU, 0xbdd0dc98be29521aU, 0xbe0844d6ba4d9eaeU,
  0x3d852cd03e05032bU, 0xbd61c838bb29a838U, 0xbd195853bd997fabU, 0xbe8d0cd4bdaa2fc2U,
  0xbe5f93d73dc5491fU, 0xbde22ef0be0c7dacU, 0x3d057bcdbd99b473U, 0xbe2269ddbde977c6U,
  0x3ab3f6283a9c2514U, 0x3af71452bd77a69bU, 0x3a192cfd3bae411aU, 0x3d23bf483d4752c8U,
  0xbdaf8473bd82429dU, 0xbccc26ebbdb4e5e8U, 0x38996e953d49a021U, 0xbd225c133874de61U,
  0x3e248ddfbb63be1bU, 0x3d113d82bdb63761U, 0x3d490847bc81d43dU, 0xbe2e9e01bdd2b1a0U,
  0xbcd3892ebc0d9d07U, 0x3da23d3dbe0640deU, 0xbdb2e069bd9aa08cU, 0xbd51c79e3d31c863U,
  0xbd763c193e2d98f5U, 0xbe1baeeebe516b0cU, 0xbe128ea83dbffac0U, 0x3d2be079bd1ffc41U,
  0xbcdf776cbc12a2c9U, 0x3d0d38efbcebce02U, 0xbd579d6c3e16cb7fU, 0xbb94a7da3e3aecd3U,
  0x3e1cf7f53cd16c49U, 0x3c3bcaa1bd5e5dd1U, 0x3dc80e2ebcd353d6U, 0xbcc71ed4bda5032bU,
  0x3e2409f3b8c7993aU, 0x3e2f8658bd6bd8d7U, 0xbdd074eebd4c65a3U, 0xbdb7b9aabdd6e84eU,
  0x3e00e3913b8031baU, 0xbdc60858bdfa5dacU, 0xbd16c7683d037b8aU, 0x3d9e11e13d13e53bU,
  0x3dde9d9b3e172186U, 0x3d5d672b3d65206fU, 0xbd26c8393d9dbbe0U, 0x3d8168e0bdae9e14U,
  0xbe0e21e9bdbb9d33U, 0xbd9eb0593cb814ecU, 0x3cf15c15be6d3c89U, 0xbe4c2f283d1b1da1U,
  0xbd8a5f7e3e6e8f77U, 0x3d57729d3e3840efU, 0x3d1e3a95be1170eaU, 0x3e19e6f6bdd03765U,
  0xbd5de375be25e2e5U, 0x3db6605e3df25880U, 0x3d1de8fc3d3e9740U, 0x3d56fa603a9c0e74U,
  0x3da58b653dbcee8bU, 0xbd5494163d601e26U, 0xbce755f63ce48249U, 0x3d4e7aa6be2329d8U,
  0x3c1353a6be2a1eddU, 0x3daad4d2bc6a300cU, 0x3ce6f01b3b938927U, 0xbe26ca3d3c44de5dU,
  0xbe0cad4e3e784d05U, 0x3d6ff2873d5dca65U, 0xbcbb1d85bd88379fU, 0x3da8c7103caf8ff9U,
  0xbe035f3ebe077ab1U, 0x3e1edaf93dfd9ef2U, 0x3c693d49be0c8160U, 0x3d49a1883b0d7a69U,
  0x3b9b7765bdcc7837U, 0xbd92fe6fbdea2798U, 0xbe1ed7eabd248e6eU, 0xbcd41452bd202b92U,
  0x3d2fc3ebbda20edcU, 0x3df612f73da828cfU, 0xbdc951153cbdfbc6U, 0xbe27bd51be11dcfaU,
  0xbe2d2ed03e286bf6U, 0xbe43f5aa3d0a4deeU, 0x3cb7c5f53d4aab05U, 0xbe238063bd1ed6d9U,
  0xbde0ad8dbe3b14ddU, 0x3da9c59b3d697ab1U, 0xbc37b6b8be2c4051U, 0x3d079eaebe3d30c8U,
  0xbd3f3cfc3d5287c7U, 0xbdcac5b2bda3f151U, 0xbb8731f93e057b12U, 0x3cb741f8bd0ce57bU,
  0x3d30ea2d3c3de462U, 0xbe63241c3d94d440U, 0x3d48e31c3cf819fdU, 0xbe2e9420baeb8c04U,
  0x3db842333d260a2eU, 0xbd5f5b693cdd1cd1U, 0xbcab062e3cb56a4eU, 0xbe33af7abe0133b9U,
  0x3da6f420be3b9026U, 0x3b5649cd3d60b265U, 0x3d9235c2bdb45e90U, 0x3e0043c63d538c70U,
  0x3e1ddca63da38387U, 0x3c7a5d4bbcaca52fU, 0x3dd5eddf3e34f1dcU, 0x3dae4fcf3ccc27ebU,
  0xbe6ec870bd46bfb3U, 0xbe06dc7d3d38eeefU, 0x3dcaafca3d05ac96U, 0xbe24d5423dc3e730U,
  0x3c07628b3e7e0f1aU, 0x3dc0bd483e370f89U, 0x3db4ebea3e3d1a85U, 0xbd1cbd2abe6a7db3U,
  0xbd6432a5be3a0e7dU, 0x3e1e083f3db4e691U, 0x3d453b613c94298aU, 0xbc1c91d33ca4446aU,
  0x3d454742bd7b555fU, 0xbdac993dbe7a6689U, 0xbcbcd499bd8e360aU, 0x3d9ebae8bde08d17U,
  0xbe0f4feabdf476feU, 0xbe3edff8bd8f44a4U, 0xbe0e3980bda40bdeU, 0xbe2fdcbb3cb7a7e5U,
  0xbce80e243e34be4aU, 0xbc4491b63db3d509U, 0x3e42a2b93e4f1653U, 0xbe6ac9b8be3d04b0U,
  0xbe3d32613bf8cdd7U, 0x3e2f990f3de2a429U, 0xbd1029f6bd050b5dU, 0xbdd91938bd303bc3U,
  0xbdd9c3f03d91a548U, 0x3de69c323cb82857U, 0x3d13afd63daf0214U, 0xbd5f14243e271d0aU,
  0x3daa32763e82cac1U, 0x3db2655c3e45f5d5U, 0x3d800c4b3eab5cf6U, 0x3cfdc7e0bd14c1c2U,
  0x3d9423543e153c5fU, 0x3dc9af4e3d31c005U, 0xbd0ea2903dae808aU, 0x3ccc6323be1c545fU,
  0x3e62a41cbc179091U, 0xbdf8124cbe3d5962U, 0xbd1ba2e13cd3e695U, 0x3e8977d03e1192abU,
  0x3e47014f3dd5b581U, 0x3dedb8b5bbe82ec0U, 0xbddb0a843e47c87bU, 0x3db069c43e69fd29U,
  0x3ca37f503e8644e4U, 0x3e4218af3e296fd2U, 0x3e48051c3e784ecdU, 0x3d8165a4bd894f11U,
  0xbda5e227bd031de8U, 0x3e72705d3ddf2746U, 0xbe0693333ddf2ed3U, 0x3d87960b3c9df6c0U,
  0x3e6579ddbccd6359U, 0x3d9fa3efbea65b17U, 0x3e0492ca3e04bed0U, 0x3e88dd843db36e0aU,
  0x3e0fd39d3c59311eU, 0x3de76a153cdff865U, 0xbc7507223e193367U, 0x3e0d097c3deef5eaU,
  0x3ec2bb4f3ecd5923U, 0x3ea048b23e5110f5U, 0x3deeb2b23e1e6c8eU, 0xbd974a343e1f23f7U,
  0xbcff66753e53f47dU, 0x3d8eaf0e3e501dbaU, 0x3df975d93e4ab53aU, 0x3dc6070a3e343fb4U,
  0x3e7102d23c845d8dU, 0x3d62d1b2bd407c08U, 0x3b44bf003e23efccU, 0x3ea327743da1d3f4U,
  0xbeafd0f7bd247c2fU, 0xbde82ef2bdb0ef49U, 0xbeaab550be39737aU, 0xbeaa2a983cdd27fbU,
  0x3e17350abc9c8b78U, 0xbe174c463c7d26ceU, 0xbe7dba3c3e4c8671U, 0xbe3b59fdbe71ad60U,
  0xbe7a124b3eccfcc0U, 0xbeaf576cbe854278U, 0xbba3455e3d7a7baeU, 0xbe50ad86beae2d18U,
  0xbc8a0b2fbd6a79eaU, 0xbe99d43fbdbc0102U, 0xbdf0ac41be27c7a6U, 0xbc94a254be506074U,
  0x3cc6fd15be4e485eU, 0xbdfd3c7cbd9e913fU, 0xbea2b7a2be96cdacU, 0xbe4e49f1bb2f3dbdU,
  0x3e09e2f33e039b31U, 0x3e297f32bc348a3fU, 0xbdaf74483e993135U, 0xbeb335c4bdede67aU,
  0xbeaaab583d2982adU, 0xbe1ebdfdbe14e848U, 0xbe6fede5be55ca48U, 0x3e9c16d6be58e5f4U,
  0xbd64b39d3e4fc682U, 0xbde77c7bbde94faeU, 0xbcafbae1bdb4c7beU, 0x3dcba4b4bd2cfdf4U,
  0xbe3ac3a1be19a615U, 0xbdeccd03be1cc904U, 0x3d5c3913be61a228U, 0xbe718191bdbdacf6U,
  0x3e5ae0f5bd6ba751U, 0x3e2e723fbe0a9874U, 0xbd54bc0d3dcaefd1U, 0xbe160b623db22edaU,
  0xbe083ba13d86f8a5U, 0xbe22dd06bd808e94U, 0xbd21757ebdca82d3U, 0xbd0c71233e1a791fU,
  0xbd5b7ed33e0a6543U, 0xbe12c7e9bbf29b66U, 0x3d457a63bd523a8cU, 0x3dd970e5be49f88aU,
  0x3eb0a88cbbed5599U, 0xbd81c240bcbac222U, 0xbe23bc843e0e9476U, 0xbcf5ca21bdb7d0e4U,
  0xbe3e48e5be1398a6U, 0xbdf69cdabe1a4609U, 0xbd907d343aa9aa25U, 0xbed2fb87be1e0591U,
  0xbf00131f3b5e3d4fU, 0x3d64b17f3cd0fa70U, 0xbced32bcbea59172U, 0x3e80eddabefd7924U,
  0xbe176c21bcd1e3b4U, 0x3e2fd5f1bd9f6a56U, 0xbe068fc7bdb587b5U, 0xbe9027a3bd802bc4U,
  0xbde01498be577403U, 0xbe5a49e93de087f3U, 0xbe1112d33e187c2aU, 0xbd8bcb7dbe429565U,
  0xbdf83179be9ccdacU, 0x3aa27fc0be9910e0U, 0xbd84615abe85b831U, 0xbdb49050be2893e1U,
  0xba9ef8d5bdfd7e1bU, 0xbe0916d6be50a6f7U, 0xbdc0737a3df7c3a2U, 0x3e339a5d3e64e597U,
  0xbe1f865e3d97006eU, 0xbe195d80bde8de48U, 0xbcd48738be7e2b02U, 0xbdd4fca6bdb7431fU,
  0x3c67946ebdaa2363U, 0x3ca90da03c47cc81U, 0xbe7688af3d8b9676U, 0x3e16cd623bc44a0dU,
  0xbe5fcd0ebe0929d0U, 0xbda2bc09be0732b8U, 0x3dc92431beaccbb0U, 0xbc63eb5dbe4d5b88U,
  0x3daddda0be802474U, 0xbc085dcebea55b6eU, 0xbe9ac0143db6fa54U, 0x3c4270753e11db23U,
  0xbd8ffb14be85ccc2U, 0xbe0f61b7be8ccb05U, 0xbc9adcb9be15e619U, 0xbe2ee7afbd2c656eU,
  0xbdca0f473d5762faU, 0x3d03464cbe79037dU, 0x3da810c8be47da3eU, 0xbcc4553abd61a8d4U,
  0x3d9a1d7e3bc4f9dbU, 0xbbd27efbbca9a57cU, 0xbc191082be0b4d3aU, 0xbe0bed5cbc848a4dU,
  0x3d09ad6b3dcd7ca2U, 0xbb155510bd59c79aU, 0xbc340019bd376f68U, 0xbe458983bcb03521U,
  0xbd0c39123d793245U, 0x3d692b5e3d805695U, 0xbcd8a0963cedac11U, 0x3cd88cbfbd7d4448U,
  0xbe04a4023d3004f0U, 0xbe019727bdbd5b0cU, 0x3db6a8c13cd948f7U, 0xbe2694e73cec3d72U,
  0xbceb86893c6f4807U, 0xbd809c52bd91b490U, 0xbc9d4cddbe0dd828U, 0xbe24b9943d56af87U,
  0xbca592123bf2f3d6U, 0xbcddb3663d8fb8f3U, 0x3c2e1f7cbdb5ae2aU, 0xbc807db33e052a30U,
  0x3cc3e21abda363c2U, 0xbd39a714bd1e233cU, 0x3ceae42bbd8e6511U, 0x3c0db700bdbfb4e3U,
  0xbd0eacd3bd20130eU, 0xbdba239d3c122cc0U, 0xbd664eba3b2c182aU, 0xbdced4ccbdad64e7U,
  0xbdac03d2bc053efeU, 0xbe05b9933c9bbdfbU, 0x3c998865be1a9da2U, 0xbd6f6817bd60c9a8U,
  0xbd0fcedebdde7a26U, 0x3ca95049bd692b24U, 0xbd760975be18ee64U, 0xbc12f911bc87b3f5U,
  0xbd875e63bceff2c5U, 0xbdc85e00be01a366U, 0x3c2c7002bdbc41d2U, 0xbcb7a11abbd99796U,
  0xbd4b2f1f3db2d0fdU, 0xbd8bb724bd83af87U, 0x3e026cdebdbeb10cU, 0xbd841e253e028237U,
  0x3cf171c2bdd5434eU, 0x3d06282f3d4f8091U, 0xbcf5ec2dbe5f895dU, 0xbd0ffbca3d976588U,
  0xbc305a683d6eb1deU, 0xbdd3d761bd1ad285U, 0x3cc0c3a9bce8680eU, 0xbc2e8c713d9eb3faU,
  0xbd77de2a3d955f97U, 0x3d89f4463da4492aU, 0xbdb96cc1bb406145U, 0x3d500735bd4c33abU,
  0xbd1e31643c82561bU, 0xbdbc20a9bca09972U, 0xbc206b8bbe406e0dU, 0xbcff5436bc54f465U,
  0xbe1dc6343ca1b34aU, 0xbd5ca6023b5e1800U, 0xbbd7919bbd0f3c22U, 0xbde9c659bd22839dU,
  0xbd8096323daa3e2cU, 0xbda86702bde17a04U, 0xbdaa181ebd572093U, 0xbcdc0d6ebd7134fdU,
  0xbd99ffe2bdbe06eaU, 0x3c961458bd8e3cf9U, 0x3d720bbebdaa4bffU, 0xbd9814d6bd8de9e3U,
  0xbdd724bf3ca6c31dU, 0xbc8e68c63acc1accU, 0xbde1bdf5bca38bbcU, 0xbd496fa7bda92a41U,
  0xbd185d1a3cc35afdU, 0xbd9a660fbdbd9e92U, 0x3d13d67ebd47e5dbU, 0xbd882394bd24418aU,
  0x3dcfcd80bc6f5dd7U, 0xbddc9ad03cc2f96bU, 0xbdb0af9abae8cc75U, 0xbcac93af3d8fdfbcU,
  0x3c59c163bdd112f1U, 0xbe06d826bd1d3768U, 0x3d7e90e7bd83a4faU, 0x3ada53263d5faa7bU,
  0x3c7ce7663c9c5b5cU, 0x3d283ca2bc1b851fU, 0xbcc53d7a3d3cd22eU, 0xbc46eca93d07dcd6U,
  0xbd4ecd763c7e4df2U, 0x3d2e85a23c00cd90U, 0x3c623b23bd6dea6dU, 0x3dba62203d833669U,
  0xbd1f440ebc797291U, 0x36e900b03d9162ceU, 0x3d9382353d1077d2U, 0x3d8901b43c4e9287U,
  0x3d93d449bd0c8abdU, 0xbc4632a83d1ac718U, 0xbad076883bdc802fU, 0x3ca0d07fbd4607edU,
  0x3e0aa5833d178b2eU, 0x3d766cfd3d05acf2U, 0xbd0be97eb9d128a9U, 0x3d3f8ec23c43fcfcU,
  0xbd49492bbd5cb4b3U, 0xbdd2b825bd8dd433U, 0xbc3d43263df2cc36U, 0xbd1ab9373d65f99dU,
  0x3c9aad9d3df9d703U, 0x3c62a1f13c9a9879U, 0x3c4d5f9c3a3acf66U, 0x3d835528bd355282U,
  0xbd64f1fdbde27954U, 0x3d1f387c3dbbb7d2U, 0x3d843319bd9a9a43U, 0xbdafcd0fbd3b3560U,
  0x3ddfba31bd1bdda0U, 0xbd4ee80ebdd871b0U, 0xbc4972e9bd6e3b2fU, 0x3d1ee5583c4c67b3U,
  0x3c86038cbd286355U, 0x3c531383bd4c6ad3U, 0x3c0a64ac3d8b4ec7U, 0xbcef3633be043002U,
  0xbd11e61d3e1b14b9U, 0xbdd6ac053d21a3a0U, 0x3d51747b3b688496U, 0xbd735b31be044cd1U,
  0x3befb9da3bce4c89U, 0x3cfd80aabcbc4462U, 0x3ce397483d3e5b2dU, 0xbd573f9fbdb86a7fU,
  0xbc611452bc943cf5U, 0x3d9ddb9c3de3113fU, 0xbcc75a543dba3ba1U, 0xbc8086723e0720ffU,
  0x3de88a95bc980f9cU, 0xbda553e83c3ead29U, 0x3cb29f14bc887177U, 0xbd4aa72cbd338f5aU,
  0xbdc07e4dbd1e7710U, 0x3dbb63df3d5e5d90U, 0x3c4b71253d83db2aU, 0xbd3085e43dcdd3a3U,
  0x3dc2a6b63d01d1e4U, 0xbd0ad7c13b968780U, 0xbd4cb154bb676db1U, 0x3de82dcfbb9c52faU,
  0xbc14a19bbd4ff3d9U, 0xbbc5ef5cbcc80643U, 0xbd3439d83c905229U, 0x3d7a26a43d1a5b42U,
  0xbbae656d3db8efadU, 0xbdaef34ebcd93862U, 0xbd03cbbcbd7eb9fbU, 0xbdf06cccbcfca62bU,
  0xbe6eaa943d245065U, 0x3d9cdfc9bc8394ceU, 0xbdc46325be8b88baU, 0xbd946cd83bdde98eU,
  0x3d6e01aebe1fad35U, 0x3d4bae913c79cce3U, 0xbc044f123d8fcda8U, 0x3db9279ebd98b258U,
  0xbc482bdd3d94cf4aU, 0xbd05dab8bda3ee72U, 0xbd2833f1bd2b78caU, 0xbd42ae283d0cfa9fU,
  0x3d8604913de5c384U, 0xbdac9af33cbe6323U, 0x3cbdc0f4bd94d396U, 0xbdb2b067bd3ee41eU,
  0x3da7e91abe22be3eU, 0x3b9b4997bd561d89U, 0xbe01a956bbae374fU, 0x3ab50e343e6744e0U,
  0x3a865a13be65da0dU, 0x3d099876bdafd4f8U, 0x3daa47433d0d497eU, 0x3dd7eb93bb1169f0U,
  0xbe0fb1f33c100f16U, 0xbc58cae23d3f9affU, 0xbe19b622bd477a99U, 0xbd7370db3cd9366eU,
  0xbdbd10893d192d38U, 0xbb5f721a3d57e2ddU, 0xbd55df883d92a59dU, 0xbd3d579c3c2a0842U,
  0xbdcead42bc4cda39U, 0xbd2d105bbda92cb3U, 0xbdcb46afbd6d0ebfU, 0xbe00814c3e4efc6dU,
  0x3d5422df3e0633c2U, 0xbd133744bde81039U, 0xbd852c2cbd803141U, 0x3deb81173d4f6a56U,
  0xbdd877d93d896071U, 0x3d7f266dbce779ceU, 0xbbcfe09dbd51ae59U, 0xbd6a5d18bb8cec45U,
  0xbd59f927bcd8181fU, 0x3ce1d396bd08229eU, 0x3d02e11bbdccca06U, 0xbe190d7dbd9590c8U,
  0xbe2d520fbe797537U, 0xbc7cdcda3d056111U, 0xbcb177b9be181f1bU, 0xbdad86163e59b3cdU,
  0xbda6fb3bbd794d46U, 0x3d5a1dc7be0ded57U, 0x3da054233dc73900U, 0xbc6437653d8ed050U,
  0x3c8736edbd5f680fU, 0x3db97446bbe322fdU, 0x3d60e356bd7a880eU, 0x3d1b2e7b3dff7860U,
  0x3da50739bd1da182U, 0x3dfa1521bd1c5896U, 0x3daadbf23db3b076U, 0xbe036dbabcfcca04U,
  0xbdecb65d3cec16d5U, 0x3dbd9cd73bd4efceU, 0xbc1061dabe16cb18U, 0x3e1e8bfe3dd8f188U,
  0xbb6509b3be14abcaU, 0xbd3158923abf4255U, 0x3df106863cf0d98aU, 0x3d3fa7f73dce413aU,
  0x3ddc3d783b75ac6aU, 0x3d40c2c43d9ab3aaU, 0xbe0eac753e1176d8U, 0xbd9470b23c8d361eU,
  0x3daf588b3d458304U, 0x3e4cfc1c3d3c664bU, 0x3d3a24213de7b0d6U, 0xbc596de63c126b45U,
  0xbe16eb173e1ba1caU, 0x3dc6e0cd3c8f38cfU, 0x3d3ec9c5be482ed8U, 0x3d5e5d8a3d8c835bU,
  0xbd82c89d3e03e64cU, 0x3ba7866b3b65f3eeU, 0x3ceef2b7bd1f6437U, 0x3dc768c8bd2f0b8cU,
  0x3e3e0490bd6b6219U, 0xbb7cd4813c105bdeU, 0xbd20ea2abd89b90cU, 0xbd954d073cbd0573U,
  0x3e2625d53d8fbdc3U, 0x3e8367c3bcf5c47cU, 0xbd38a8183e7b219aU, 0xbe6e8c8bbddce583U,
  0xbdb357243cb47046U, 0x3db4893f3d028af9U, 0x3cb816f9bd3947ddU, 0xbe33e38f3eb279ddU,
  0x3ca594983e837195U, 0xbc9f1bcfbc9332efU, 0x3d02a9a23d71651aU, 0xbaa4751bbd9c1439U,
  0x3dc7b6dbbdbbd177U, 0xbd40cf7d3d92e4b3U, 0x3d01b791bd11e694U, 0xbc8d18eabcbfa3c0U,
  0x3df546fb3dd02370U, 0x3e7592a33bb7caf2U, 0xbcaf08e33e173092U, 0x3a2e76ebbdc4d85cU,
  0x3e7802623d8006aaU, 0x3d808d50be1b89d6U, 0xbddb9a83bb6ccbb7U, 0xbdcb18b93f01d759U,
  0x3c01ac143e2cd644U, 0xbd860c9abe690a25U, 0x3d0a78373dbc8994U, 0xbb42e1f83b9990bbU,
  0xbe63568dbdacf997U, 0xbe8fa050bf321343U, 0xbd410fe5be788200U, 0xbedbe2f2bc7f0162U,
  0x3d10aecabd877e4aU, 0x3d142c4fbe115648U, 0xbea0b9723e491640U, 0xbeb6ebc9bda19c79U,
  0xbe89fc5cbdcd3da6U, 0xbeca8c2abe121f46U, 0xbca938c5bd89618aU, 0xbf1b4953bebc4f4fU,
  0xbde4ec223e310981U, 0xbe745d69be5c75d8U, 0xbe80c839be1d5fdbU, 0xbe176037bea108c0U,
  0xbe21ccc7bd95fb46U, 0xbdb690efbea721d8U, 0xbcc2be60be1d78a2U, 0xbe3bd2bebe4f6b89U,
  0x3e2e75b6bd34611eU, 0x3e50c87abd9ba703U, 0xbe2ba248be017de7U, 0xbec79b2a3c324079U,
  0xbe5da45fbd7a1ffcU, 0xbe5fda16be657b1aU, 0xbd7ce733be67e8beU, 0xbea19cb0bdab8006U,
  0xbde6e0153e883380U, 0xbe4ec696be6f50f2U, 0xbde1aba7bdba34f1U, 0xbe1f0497bdc74946U,
  0xbd87d735be3182ceU, 0xbe160e63bd84ca72U, 0x3d430708be33b267U, 0xbe448ce6bea54bd3U,
  0xbd10564dbddbf8f4U, 0x3d077b61bd2c4b4cU, 0xbe6fd3d1be5bf88aU, 0xbebc17dcbd1e1795U,
  0xbe04d3223e271067U, 0xbe15f900bd8ab76aU, 0xbb33148abd07f1b3U, 0xbde464e9bcaf36f0U,
  0xbe15f9b23ec3f686U, 0xbe5e3ed7bd941df7U, 0xbe47e5b1bd62ace3U, 0xbe441574be13ca5bU,
  0xbcafb4cabd96122cU, 0xbb749a0b3d9b9928U, 0xbe00bfd13dfd148cU, 0x3d2d455c3e0e0776U,
  0x3ce81458be9be0eeU, 0xbcd9000fbe346eb3U, 0x3d0f3ab8bdd8c8c7U, 0x3dc88352bc0914faU,
  0x3ded9475be52eb03U, 0xbb5fef29bd3e8433U, 0xbe3246433d60b4cfU, 0x3d62cab8bc0d771aU,
  0xbbe96a533ad83187U, 0x3d317be0bda6abe8U, 0xbc84def9bc459753U, 0xbe8143603a932ab4U,
  0x3e0d8d92bd157a95U, 0xbcc8d81d3d028dc7U, 0xbdab41c23d17ea15U, 0x3dec18ec3d29f050U,
  0xbea616ebbe84a658U, 0x3dd848833d2826b6U, 0x3d6f1289be4452c4U, 0x3c01ce903d04a78cU,
  0x3e173b143dc34dbbU, 0x3dc38de13e06c093U, 0x3d15a5e73cfb7afaU, 0x3e2fa3003e812988U,
  0xbd23c92c3e6b2a42U, 0x3dec30623e193626U, 0x3c8369ffbd3d9a15U, 0xbdc5b5be3b7da93fU,
  0x3cae21223d071921U, 0xbe05542dbf1d4e93U, 0x3d357534bea64c2aU, 0xbd72724ebe9f23d0U,
  0xbea253c7beaaccf2U, 0xbd0c28d53db98b2aU, 0xbe385258bee73c5dU, 0xbf69ac4d3d0607d8U,
  0xbe5ec3093ec94191U, 0xbe0b47893d931a40U, 0x3dda9982be80e80dU, 0xbe61dec6be6f1a80U,
  0xbec558f2bba94921U, 0x3d6e92c53d312c58U, 0xbe4c8238bcb89ae4U, 0xbe10b15dbe109a81U,
  0xbc9f6edfbcb52bc7U, 0xbbe119563bad0aabU, 0xbce4afd13dd5ff57U, 0x3cf338a63e5cb5ccU,
  0x3e24f2ed3dcf31e0U, 0x3e8dd6a03d987ac2U, 0x3d9a2dc43cf0c897U, 0x3e6a5e6abc112b57U,
  0x3dda4b38bd43ac09U, 0x3da1798e3c47f50bU, 0xbd7059433e16169dU, 0x3de459883e8576baU,
  0x3dbe15a93d92d837U, 0x3d5dfc923cbc098fU, 0x3cbec169bcd47ca6U, 0x3d974d113d227705U,
  0xbcc2dce13d728fdcU, 0xbd165ad03e597625U, 0x3dacc7403d62e820U, 0xbcb7fe9e3e28947dU,
  0x3dfb20de3e0718dbU, 0x3e6b94893d831900U, 0xbc2abe663d2a5beaU, 0x3e92eee83d51c2edU,
  0x3e806f223d8a7dbfU, 0x3d0edd063d507750U, 0x3d9c28823e5fb13cU, 0x3db7d5ff3ea7e4f7U,
  0x3d56d83b3e99041bU, 0x3d6bdbda3e3506e1U, 0x3db602173e1b6e80U, 0x3e018619bd030251U,
  0xbd8bc2a13d4a0919U, 0xbe4c8380be172d50U, 0x3df307c5be27b92bU, 0xbe121a2bbe9db0b9U,
