/**
  ******************************************************************************
  * @file    network_data.c
  * @author  AST Embedded Analytics Research Platform
  * @date    2026-04-01T14:36:32+0530
  * @brief   AI Tool Automatic Code Generator for Embedded NN computing
  ******************************************************************************
  * Copyright (c) 2026 STMicroelectronics.
  * All rights reserved.
  *
  * This software is licensed under terms that can be found in the LICENSE file
  * in the root directory of this software component.
  * If no LICENSE file comes with this software, it is provided AS-IS.
  ******************************************************************************
  */

#include "network_data.h"
STAI_ALIGNED(8)
const uint64_t g_network_weights_array[112582] = {
  0x3e1f413fbdfcb0f6U, 0xbe429590be5711f7U, 0x3c0b67ce3ea78dcdU, 0x3e0b3241be328dccU,
  0xbe84c23fbd91ea84U, 0xbe179fabbea0f959U, 0x3e852015be4f5e15U, 0x3d7f65783e3785c6U,
  0xbcc1f9863cd2998dU, 0x3df6f621bd186636U, 0x3ede1f51be31df5aU, 0x3d84cbbebe558387U,
  0xc01dddc1be43299eU, 0xbec9da50bf4d6c08U, 0xbef1db9fbe849b40U, 0xbeed5de2bf1f0fbeU,
  0x3dc198d2bda078eeU, 0x3ed9286b3d4e2768U, 0x3c667df9be916dc3U, 0xbdd7212dbf920c47U,
  0xbf342f49bd90d670U, 0x3e7311ae3e98827eU, 0xbe03d077bdaac69cU, 0xbccc81c33dcf8d0aU,
  0x3ec67c20be071c63U, 0x3e439b76be5225a5U, 0xbfe6ecd4bd8a1c24U, 0x3e4ef0aa3e31b608U,
  0xbe9b452ebe79d405U, 0xbfeca3e4be5d5dafU, 0x3e16fa7c3ceadb75U, 0xbc6aea60bfb0e895U,
  0x3b8f21c7bc243231U, 0x3d8a912e3cd1d460U, 0xbc2ead7f3d1306b1U, 0x3ebba4e83e00cb9aU,
  0xbcac9069be8264a7U, 0xbefd1c2c3e259a29U, 0x3e35dd043e1e21d7U, 0xbe222068bf4f25ecU,
  0xbdb920b43e7d2c72U, 0xbd9a111a3d486e02U, 0x3c957cedbe02bebbU, 0xbdeffcee3ca911c9U,
  0x3df9f389bd08dd92U, 0x3ded314dbe1adbb6U, 0x3dc173413d7c741dU, 0x3d81d355bd9b3ae3U,
  0x3c36c4683d82370cU, 0x3d3c7b7f3d9ae278U, 0xbd73a498bd9299b3U, 0x3e43f98cbb83ba23U,
  0xbdd1523b3e814daeU, 0xbe1e0946be1e88bfU, 0x3ded9e1fbdc02a9bU, 0xbe96310c3c04c3cfU,
  0xbe1f6c6e3e715a81U, 0xbde3104bbdb1c2c6U, 0xbe125a2a3df01beaU, 0x3e26aedebceb330bU,
  0xbd8de4b03e0a611cU, 0x3ead85943c20e01dU, 0xbda7b788becab414U, 0x3d9275e33d9dd3b2U,
  0xbd3b7818bc7a43f3U, 0x3e77ac53bdd794e3U, 0x3c73df683b87d2b8U, 0x3d45312abe4823f9U,
  0xbd5cfaadbe32ec83U, 0xbdcce6d1bf8379c5U, 0xbedf8a013e599538U, 0x3d05b0643eb14e8bU,
  0x3dd709ebbd05cdd9U, 0x3ca9fe67be00cbeaU, 0xbdd465d5bd1632deU, 0x3dc6cb823d956526U,
  0x3dcc6cefbe3c4366U, 0x3e639c6cbea5298aU, 0xbead577b3df5954bU, 0xbd9c5d8c3ea0938aU,
  0xbed2ba42bfcbd5b4U, 0x3dd0cef73ca9a953U, 0xbe415716be4f86deU, 0x3e9e57c23d647289U,
  0xbe6d4d733e619861U, 0x3dc443d2be069ee2U, 0xbe72c5333c44a2b8U, 0x3e07182a3dfa5276U,
  0x3d755dc7bea3216dU, 0xbc7d12203c811fc2U, 0x3dac767dbd936caaU, 0x3d9d2cb63e81d53dU,
  0x3e5293303e063540U, 0xbedc29c9be85a9e8U, 0xbcc11256be9e6130U, 0xbd84273fbfb13b20U,
  0xc01c35283e30a7dcU, 0x3e30968f3e53b1cfU, 0x3e56bf16bfe10872U, 0x3da0ab56bd90a3cdU,
  0x3deed13b3e929cfcU, 0xbeb7ccc7bdcb257bU, 0xbe971085be8a832fU, 0xbc089e503dc747e4U,
  0xbbf016e0be0b4ea7U, 0xbe052c3ebdf683caU, 0xbc94528cbe072490U, 0xbda606f4bdb4bcc9U,
  0x3df0f0debe488323U, 0xbb84b1aebc6747ebU, 0xbdd313793d925165U, 0x3d2e425e3cb9ed84U,
  0x3defd1c8bcf53d38U, 0xbe5236babe09c4b2U, 0xbdd55f3f3d913a6cU, 0x3e6ef422bdfd80f2U,
  0xbe7006a3be0c6a00U, 0xbd9005aa3e05f9ffU, 0x3de74774bd64015cU, 0xbe175f963ba2ea30U,
  0xbede8027bf148724U, 0xbd2873ea3e96f5c6U, 0xbd30f00b3e8c173bU, 0xbf12b633be0f2bf3U,
  0xbe444a10beca931dU, 0x3ecc6757be8f0062U, 0xbe93800e3e1bf3e7U, 0xbb675f6b3ddfc39bU,
  0xbd60f48c3e942b9eU, 0x3b88d084bcdf6793U, 0xbe2f56f5bfb56282U, 0x3d7e2c7f3d85a891U,
  0x3dba8ac23d9e00f0U, 0x3d1bf95b3d8b85baU, 0xbe7d27943e063655U, 0xbf1d3775bed2ee3cU,
  0x3e49383dbe5881fcU, 0xbd9c93903c8044b3U, 0x3e9da7693e6222eeU, 0x3d5911e13e024aaaU,
  0x3da95dd93c7c4a24U, 0x3da4641f3d43a479U, 0x3e0b32b23df7d02fU, 0x3e0387903ddea990U,
  0xbdcc7b0fbca49540U, 0xbcb3392cbd361ef3U, 0xbd82616cbc85e7e3U, 0xb7b48e4c3a30eca8U,
  0xbd3178bb3d77066fU, 0xbd3e8686bd6bcd70U, 0xbdabf0fdbd35f46eU, 0xbdc281c6bdf0491eU,
  0xbd552458bd3189f0U, 0xbcf9e5fbbd07b96dU, 0xbd19faf6bc4de7cbU, 0xbcb752bcU,
  0xb9040f5bbd93d8b4U, 0xbda21cc8bda40847U, 0xbe55b6b9bd79f7b5U, 0xbdbc5b90bcc25c05U,
  0x3bf6d301bde49664U, 0xbe73e5423ef2bb75U, 0x3e979e16bdb2890dU, 0x3db7161f3d964919U,
  0xbd31cee3bd1c7209U, 0x3b6f135bbc233284U, 0x3e3f4c9d3e0c4321U, 0xbcc0f4243db49747U,
  0x3d046bc43ab483f1U, 0x3e08d8813e2a2745U, 0x3e4c48c73e47e974U, 0x3ad92d403e80e42bU,
  0x3d94c1ce3bb25913U, 0xbc7e7ab73da90490U, 0x3e3f32f53e97c178U, 0x3d8874273c4a624fU,
  0xbca0348abd065338U, 0xbec7e8203ee95ddfU, 0x3e7876a5be4223a6U, 0xbd974ce13e9481c5U,
  0xbd11d339be491401U, 0x3c857f04be03a907U, 0x3d8e00973d627dc5U, 0xbd7a25223dc9499eU,
  0x3df55b693c203be5U, 0x3dfeff453d9dd884U, 0x3e4bb3cd3db293e5U, 0x3d33ddca3e1c4a78U,
  0x3d84de9e3dface17U, 0x3d2636203e004831U, 0x3d08e5ba3de76026U, 0xbdc14a7ebd005fa2U,
  0xbc48971dbd9a822aU, 0xbe9ee0223e0bd171U, 0xbb77883ebc511244U, 0xbd7008bebcafee01U,
  0xbdb32cc03e0cb165U, 0xbc3fd3b2be0f17deU, 0x3e376ed1bcd0b34bU, 0x3b3822473c94a23fU,
  0x3e9656e43d1b291dU, 0x3e45f7f5bd2e0969U, 0x3e9e0284be43f27dU, 0xbd48735bbd9c29c9U,
  0x3e1d6844bdcf66f5U, 0xbe2ef2e23dfab507U, 0xbe46250abd71d415U, 0xbdbade563d3d93c3U,
  0xbe4e35753d2b0612U, 0xbf1380353ea75399U, 0x3daf439dbe04d682U, 0xbe197fa73e8cfc56U,
  0xbda607c5be3e4718U, 0xbc6f5f54be117e6cU, 0x3bde4b1abcf36667U, 0xbe3087d0bd16d5acU,
  0x3e5b05f63d7d34b5U, 0x3db32ff7bc1b0490U, 0x3d8ad7303d012ff1U, 0x3d91b4093e7afb34U,
  0x3e01c485bd9f5f7dU, 0x3e23b51c3e46735aU, 0xbd78a7183e682524U, 0xbcbcafb1be46e7eeU,
  0xbeba89c6bdae970aU, 0xbf1442dd3dd970bfU, 0x3e09fd28be01e8b4U, 0xbe868afa3e7e93fdU,
  0xbe5e6805bdff9d2cU, 0x3cad5eb4be326b54U, 0x3bf97dde3bef813aU, 0xbe4dc3df3be0cd52U,
  0x3d910b3c3c3daa77U, 0x3ca34734bdab5635U, 0xbc49c9c8bca2ee58U, 0x3d30070abd658b04U,
  0x3c6d1d1cbdf055b4U, 0x3dc2d51dbce0945dU, 0xbe6532c83d97d983U, 0xbe01862bbea3ae18U,
  0xbd969673be2989c0U, 0xbe52a71cbe9041d9U, 0xbe8f3727be3265c4U, 0xbdcfeadcbdf81a42U,
  0xbdb66837bd73c03fU, 0x3e1f1bb3bd24e939U, 0xbb7828f5be4bde9cU, 0xbc0e73773e5380c7U,
  0x3e18c1b6be21c39bU, 0xbe5ecf6e3d9265d1U, 0x3dbbb8f6bd5490ffU, 0xbd80bdf8ba3e2774U,
  0xbe1c184fbe10e43fU, 0xbe1b2344bc39b4abU, 0xbdd93aa5bd4bc4baU, 0xbdb97e8ebe655d0dU,
  0xbdc3bdbb3c4ca176U, 0xbc8ce2313dc5c9c3U, 0x3d1660dd3de60d5fU, 0x3caa70213e1fe6f8U,
  0xbc8dc45fbdf046f8U, 0x3dc57c83bc83ada9U, 0xbc8698c53d2725d7U, 0x3b82e2773d546875U,
  0x3e8188833c544642U, 0x3da51c4f3e8484ffU, 0x3a514272bc5d7beaU, 0xbd3a4250bcd9ed6bU,
  0x3db458813d27ca36U, 0xbd8061e13da19964U, 0xbd72dd753e452045U, 0xbd9b47d1bdca3deaU,
  0xbda8f653bdeb2f5dU, 0xbdc47defbdafa1deU, 0xbdf9f62dbe09774aU, 0xbe543178bde6917dU,
  0xbdfbe178bea7ba4eU, 0x3c7f5a15be4748baU, 0x3c55d139be9155b0U, 0xbdc28168bd3bf803U,
  0x3d22e5bdbd8deaccU, 0x3cb2aa0d3d6e1d96U, 0x3d6c3c44be37df1bU, 0xbd1b081bbdc39550U,
  0x3c8c3c71bd861ebaU, 0xbe3f8eb63db52e66U, 0xbe2499a23d094989U, 0xbda8dd51be4a9893U,
  0xbdc5a025bc76e795U, 0xbe8ccee6be7a917aU, 0xbdfe7716bdb6292fU, 0xbe979b57be1ecdd4U,
  0xbdb40f05bdd791f6U, 0xbdf6a593be4b5590U, 0xbd9fd6543d9739daU, 0xbdbcea06bc86005dU,
  0x3c9457d5bd731b43U, 0xbe61e363be1f43c4U, 0xbdb43d2abc993ee0U, 0x3da14f9b3dcc667dU,
  0xbe361179bd2b3ec5U, 0x3df51b4a3914323cU, 0xbe725917bd902140U, 0xbe33fa42be5cc9e4U,
  0xbe0b821abdf33ef5U, 0x3de07b1f3e234973U, 0xbd973eb73de45377U, 0x3c537f563d93b9aaU,
  0x3d0fbffabdb7c816U, 0x3d162ba8bdf8ff20U, 0xbd94aa1fbe81f060U, 0x3e0a127b3c87e7fbU,
  0x3d05f6afbe0331a1U, 0xbc9776bbbbaf4368U, 0x3e425cb53ccd6d76U, 0x3d8920633cebac5aU,
  0xbd40acc3be14b30cU, 0x3e26b5143e85dfa8U, 0xbe389fbc3e318cf9U, 0xbe0456b63dc38c30U,
  0x3bd28ae0bdc16cd1U, 0x3d8f1e253e44ffe7U, 0xbde7a1d23e1bdfb3U, 0xbda85fbdbd48e793U,
  0xbcb812b6be8a3748U, 0x3c07ee083d34c98cU, 0x3d4cd355be1ecbeeU, 0xbd74d7cbbdf89f26U,
  0xbe886d2b3d312470U, 0x3c1ebb7dbdd44bf9U, 0xbe29c82dbe5f175aU, 0x3da4f0d5be7070e9U,
  0xbd0e8c1fbb3d0dd5U, 0xbd5690803da899e5U, 0xbde35cebbe86d501U, 0xbcb39f833dd50c3eU,
  0x3e132b413de3a410U, 0x3a1f05e03d204ca1U, 0xbd938209bcb26126U, 0xbd0514abbe4be911U,
  0x3d05960c3c7990c9U, 0xbe269f85bdaea41eU, 0x3b857673be3914aeU, 0x3dcd43d9bdf59eeaU,
  0x3e150af2bd4366daU, 0xbdd182263c9cdee0U, 0x3e8a694ebd2ed98fU, 0xbd08857bbd83c257U,
  0xbe25ece63d18840cU, 0x3da1e1d93d992ea6U, 0x3cd6169bbd3fd9fcU, 0xbc32c152bcd1e34aU,
  0x3dea463e3ba99d31U, 0x3e4e53843da03436U, 0x3e207b523e62437eU, 0x3d878b413ea3096dU,
  0x3da6d42f3e648bb9U, 0x3df5d8e0bd9b4dd4U, 0x3d2091c83e0fee6bU, 0x3e815c753ca10db3U,
  0x3e87e78e3d9d9868U, 0xbd80ce5a3e272255U, 0x3e3060b83e0407dbU, 0x3cbf944c3e9d0468U,
  0xbd7243e93d8313a2U, 0x3ee069f43e06097aU, 0xbdf4f8c83dffc010U, 0xbd8dec183e75f59aU,
  0x3e111d9abd8507b1U, 0xbe5c40b43c1f1f7bU, 0xbd44b7c73e436480U, 0xbdfe1008bd6d30e1U,
  0xbd9917c9beddd39dU, 0x3d1035a3bd114708U, 0x3e07f0d1bdb8b8f5U, 0xbe090f8c3d110e44U,
  0x3ddd04c1bcc64157U, 0x3d8bc7b43e48287aU, 0xbdf885073dc0d174U, 0x3d4adb923d944ec5U,
  0x3e293cda3ce722f1U, 0x3d054282bdef907bU, 0xbdd755e33e260c26U, 0xbe196a633e601045U,
  0x3d9faf523e648821U, 0x3d457b943d9022afU, 0xbe28441d3d303ca8U, 0x3ca7e066bdf0e458U,
  0x3ca51d6cbc78d8e7U, 0xbcda561bbc076295U, 0x3b9c5d2d3d2e0541U, 0x3d1ff0f93dd965feU,
  0x3deb5667bcd76491U, 0xbe7d1e1f3d56885eU, 0x3ea8ba92bd806db0U, 0xbc7b52403dd4bb86U,
  0xbde8e948bca1e6e0U, 0x3ebef41b3ee82c38U, 0x3e283f55bc7ac79bU, 0xbd2f1942bc8ac517U,
  0x3e0ad7f83d13341cU, 0x3c66bc3e3d7a0ae7U, 0x3e3c2c013db14d8cU, 0xbe1e90d93e1526aeU,
  0xbe078b403e3516e6U, 0xbd2dc67c3c8e0c57U, 0xbca5b6253db96a98U, 0xbc280499bcd4c76dU,
  0xbc4996d23bc8e740U, 0x3d582dd13dc53468U, 0x3ba003293c21af36U, 0xbcb2d7763e1dea51U,
  0xbcd0d833bafad73bU, 0x3e9192ea3d1d85d2U, 0xbd1f19d237a24adcU, 0xbd94512b3c201114U,
  0xbd2fc0c7be0b2c35U, 0xbf4e6ce53e4fcdb1U, 0xbdc25c93bdbc8737U, 0xbe5325cd3de2ad96U,
  0xbe1fc303be599956U, 0xbcf20634bdb73d1bU, 0x3d927e8dbdc4d254U, 0xbc8e7d55bdbfcc53U,
  0xbe01a7fc3d1a38c3U, 0x3d814587bdab0facU, 0xbeb2fd58bd7ab703U, 0x3bf4b2d03cef882eU,
  0x3d779c7abc6e03fcU, 0x3e2ad0e53dc65b7dU, 0xbcb6c07b3bfaf7cdU, 0xbe4f9a293eb6a3ebU,
  0x3d48bd1d3e6feaddU, 0xbe904852bcc09fd7U, 0xbc6197003cbdf093U, 0xbe1a13ac3dfa3eaaU,
  0xbd4a3438bdb1c6c4U, 0xbdec47a9bd881310U, 0x3c06d0013e3b377cU, 0x3d6d3d1abd8ea8c3U,
  0x3dc3525ebd71b2b8U, 0xbd8b86a6bd8369d2U, 0x3ebfc646bd6c680cU, 0x3d8fac553cea8604U,
  0xbe269cd43deafba2U, 0x3e9181673e648cafU, 0xbd6e621c3daac75eU, 0xbe1f64f1be01a9aaU,
  0xbebac7f1bb940fabU, 0xbe403057bdb169a6U, 0xbce3b50e3ca7100fU, 0x3c09c444be148a93U,
  0xbe13c6c8be442a78U, 0x3e0b8afc3dc882c5U, 0x3e9ff6763d0dc845U, 0xbe3919383e34e111U,
  0x3a81d7c8bd3840faU, 0xbe014eeb3e93eae8U, 0xbd57e339bd0b4d30U, 0xbc1f2818bdaf986aU,
  0x3da66c94bd26f3d9U, 0xbd76e9103db12704U, 0x3e3e6c5cbd21c2c8U, 0x3cb85fb3be9efa33U,
  0xbd59bbda3dbb0e26U, 0xbe724996be3372edU, 0xbdd34ad13d043c51U, 0x3d2a45e3be20cc0aU,
  0xbc9be4b93c807588U, 0x3dcc8ad13d4bcf49U, 0xbd981c233d677ed3U, 0x3ae01970bde3c294U,
  0x3dd9a6b13c9d0f67U, 0x3e0a59303eb03414U, 0x3e5c8d103cca945cU, 0xbd82c3283d99b15bU,
  0xbe1daecbbd97aee8U, 0xbde14590bc91cac6U, 0x3ceb162dbd08485bU, 0xbbe4505a3c0c0e1cU,
  0xbdecdc29be184a6dU, 0xbe0f4f4bbeb2554bU, 0xbe6fcf6a3e476e72U, 0x3ddee1ecbeb468eeU,
  0xbd505525be20b8dbU, 0x3d42895cbc3cac91U, 0x3e495384be127f42U, 0xbe45c2dd3bebd96aU,
  0xbe9c06433df8187bU, 0x3e3bd426bc002074U, 0xbe2196fb3d8b6b5fU, 0xbc3052a83bf31198U,
  0x3e1d80cf3de01197U, 0xbdeae95f3e2eeabbU, 0x3d99a2ac3e676746U, 0xbdabe9653e9d6283U,
  0xbd294a333e8b986bU, 0xbd2b0624bdb0f4f5U, 0xbe5e87b03dc64b93U, 0xbd029c123d8bdcdbU,
  0xbe248defbd65fdfdU, 0x3da8f08f3c96d79dU, 0xbded51e6bd5c3f6cU, 0xbe4da1b4be0d1c0eU,
  0x3ca0604fbddf070bU, 0x3de721a4be1c0a22U, 0x3cdcd058bd8f1fe0U, 0x3cedf940be0daa49U,
  0xbe0eb4683d8ad9c4U, 0xbd02ee293d8bf786U, 0x3d9dd2f3bdcf8209U, 0x3d404e233d1c6aa8U,
  0xbe0952eabc97b030U, 0xbe834c1b3da2b4b5U, 0x3ebbc5cabe4c704dU, 0x3c6f2220bdc0eabdU,
  0xbd99e517bd5493abU, 0xbea93ddbbda78f62U, 0xbdb35508bdd44b24U, 0xbca1db30be279952U,
  0xbe50b1c13dfad176U, 0xbc85c9bbbe7a00dcU, 0xbe016003bdb583adU, 0x3d3bac5abe504eceU,
  0xbe2e2db1be18d551U, 0xbe5a30c9be0ed468U, 0x3c20305e3cc3a004U, 0xbdc9387fbe6f2240U,
  0xbe4426f53e1cce9fU, 0xbdc373603e0a4603U, 0xbd9c902bbeab389aU, 0x3d251723be2ca43cU,
  0x3d6ccb053db39c8cU, 0xbd288f15be0ed400U, 0x3e517043bdfa973eU, 0x3cfc7e07bd099860U,
  0xbe867cb93c1f0962U, 0x3e2a3f5c3e01c975U, 0xbeca2d4bbdb7e147U, 0x3cac568cbd41a826U,
  0x3e090b1abc19a78bU, 0xbdc455fe3e44c1b5U, 0xbe01347fbdce0bf5U, 0x3d406fdabe974dddU,
  0xbd18973b3d23d295U, 0x3d3aacb0be19ab34U, 0xbdd13d18bd88b2a7U, 0x3da7f342be2e9aefU,
  0xbd9c7f89bd512586U, 0x3d80c939bc1a48cfU, 0xbe3e97403e576249U, 0x3ddca6863e14ac36U,
  0x3e5ce555bdd475feU, 0xbdd3d6083d95d402U, 0x3d2722283c757024U, 0x3af40ec0bc191d2fU,
  0xbe458bcb39f93e41U, 0x3d0dfddf3d736ee2U, 0xbe2ee2bebded6f24U, 0x3d15e031be1dabd2U,
  0x3d85e896bcba6565U, 0x3cb9c7373d3fa494U, 0x3de984413d808662U, 0xbd7f9ba43d4639f1U,
  0xbd1f6a86be9d4caeU, 0x3deca9663d1f4988U, 0xbd6efa54be2a8637U, 0xbdcaef2abddced2bU,
  0xbe4e06bf3e0b455aU, 0x3dc55b0d3d4de913U, 0xbe99a8163e0da54eU, 0x3d850311be182717U,
  0x3decc7ddbc52dd49U, 0xbdddc3efbe0d8f6bU, 0xbd61ba9e3e311b3cU, 0x3d63f938ba8219a9U,
  0x3d241842bc91ed83U, 0x3d1723083ea055d1U, 0xbcba17d8be15f5c3U, 0xbd37214dbdcde681U,
  0x3d0606093e478f60U, 0xbd8ec33bbe0e2c58U, 0x3e7abd923b801508U, 0xbc4bc2c9bda8e128U,
  0x3e6554173daa879aU, 0x3cee995bbe845e52U, 0x3e2cb03b3dbd1e8dU, 0xbc63f400bcf57eabU,
  0x3e6f26533dd00cf6U, 0xbe87d0d33c8595baU, 0xbd95ade63dbe2d6cU, 0xbd0dd5c0bdf3a788U,
  0xbd0b318a3e3c3488U, 0xbd1005e1bee2dfe0U, 0xbe916df13dc3cafaU, 0x3d40f82cbd63573cU,
  0xbda96276be457216U, 0xbc4f2d453d2ff605U, 0xbd12175e3e06bf0eU, 0xbe16eb263ca034faU,
  0xbdacc4c33b461ef7U, 0x3cfaa0fe3dc8eaecU, 0xbe1c8641bd87df7aU, 0xbd7b3d66bda3b898U,
  0xbddc5bb2bd4e26a5U, 0x3ce998f0be107a20U, 0x3d41ad6abba4a13bU, 0xbb80f5f93e3c3e14U,
  0x3e82a6e83e9567c1U, 0x3d98f587be94a16eU, 0xbd657c693e218663U, 0x3ccd83823d3943e3U,
  0x3d4f4a233c9c7cbcU, 0xbe900dbdbb08beeeU, 0x3dbc75ebbb921432U, 0xbd753eb2bd414809U,
  0xbe440ff0bc583836U, 0x3deba9c13ad7d8c8U, 0xbd1f355cbe3884d3U, 0xbbf701b03cdf5d79U,
  0x3daaa2b73df480faU, 0x3eb51d8c3e3646baU, 0xbe121c4d3e15f659U, 0xbc7828073e99457eU,
  0x3d1c586dbde8446dU, 0xbdbf8182bd9d7fd7U, 0x3d00affdbcc2306aU, 0x3df768e73babd6deU,
  0xbe0122e4bd17d77eU, 0xbe2d58d83d56118cU, 0x3de51affbe8e2ee5U, 0x3ca44ec93d3e3e13U,
  0xbdb413be3e16977dU, 0x3deb92313df01197U, 0xbe2765d33e0a9018U, 0xbcca55763bd3b4abU,
  0x3e2ecfadbd4ca7a8U, 0x3d2cbc413d94c8dcU, 0xbc4eb4113e0bc627U, 0xbc61f5123e1f309cU,
  0xbd695a7f3d6b972eU, 0xbc88df2c3c3d2d3bU, 0x3e0c10f6bdb6b6fbU, 0xbac47a2d3ce0bb88U,
  0xbe2e4b78bebc4c51U, 0xbd4e02283e0a02d4U, 0x3d753613bb5639cfU, 0xbd64d42b3de61ae6U,
  0xbdc33a9b3cc70bf5U, 0xbe8612963d7b3b3cU, 0xbe39c0ccbc753052U, 0x3d8b41a93c86a2fbU,
  0xbe55e54c3e0168b2U, 0x3e27fd78be275ab4U, 0x3e8e4199bd900c7fU, 0x3d4ccfadbe5d3f8eU,
  0xbe9044a63e1fa0dfU, 0xbe5f0f3abe76a9a3U, 0xbe6a651abeada2b4U, 0x3c65847cbda2bf81U,
  0x3dd982eebdb0a038U, 0xbd4436f3bd75b35eU, 0xbd924df8bd5dd6a0U, 0x3e2d650e3cc4f1e4U,
  0xbe49e23abd68df80U, 0xbd2b844ebd4bd407U, 0xbe3619cbbe662bd7U, 0xbb31fba0be23d0e6U,
  0xbde4c55dbc387fd1U, 0xbd188203bda205e0U, 0xbe0c90cebe90eddbU, 0x3d3c40d1be7e5ea6U,
  0xbdc4dc9f3dc64239U, 0xbeb1b555bee6dbdeU, 0x3dccca1dbd9fcc6cU, 0x3d53606fbdb36ca5U,
  0x3dde5796be01b90dU, 0xbe200ce0bd8890c8U, 0xbd62b5e1be17827eU, 0x3b8edd313c0fc41aU,
  0xbe3f34e73dce1d52U, 0x3ddc670c3ba122e6U, 0xbb3318eabe852337U, 0xbcb36420be97779fU,
  0x3e147c33bd90d3fcU, 0xbadf2113be3b718cU, 0xbd8ab52abcbda8ecU, 0x3d889c55bd645846U,
  0x3d6287c83df7878cU, 0xbe2d0bd03d9bb1adU, 0x3dcc3ce7be58df92U, 0x3e153bdc3d7e7fceU,
  0xbc96219abeb8c033U, 0x3d8184783d9fb40bU, 0xbd0d5884bd45ad8fU, 0xbe0ef2da3d7c814fU,
  0xbe2f98743ddfba43U, 0xbd2ef148bc52e7cbU, 0xbe87380fbcd62c28U, 0x3d9e80013c3a835bU,
  0x3d3c8d153c9972dbU, 0xbdc5298c3d508099U, 0x3e3ed7db3e168f6fU, 0x3e793e493e0325f8U,
  0xbdb8af2c3e21c58fU, 0xbe6b8f2fbe1edca7U, 0x3e019562be40d0a1U, 0x3e00ab4cbe4968a2U,
  0x3d207da3bda45f3eU, 0x3df8a2003d5c0e8eU, 0x3de359c23e053063U, 0xbc9642f23e77ded9U,
  0x3e78a3cbbd5fa7a7U, 0xbdb3aa153e1f1ae2U, 0xbd8e2d533e012afaU, 0x3d6a2666bd420601U,
  0xbd03db053dd2563aU, 0xbd5a39d6bda090acU, 0x3e157d21bd8a22bbU, 0x3d9f3066be4b2c24U,
  0xbeaca4983e85520cU, 0xbdf65dfbbe122a4aU, 0xbcb4724c3bc8a27bU, 0x3d9e661dbdb0176aU,
  0x3d85adc1bd4c8bd3U, 0x3e62dd0c3dbb9eb2U, 0x3e53887ebb9f07a6U, 0xbe3800003e0999c5U,
  0xbe209ce9bd0d408bU, 0x3e1367783e4259f6U, 0xbe5cc2cd3e0e60e1U, 0xbca08ee03d141cf9U,
  0x3e4d0463bd134a8fU, 0xbdb4b2973d52a1c3U, 0xbd2cd0a13e78182bU, 0x3e4867cabc44a987U,
  0x3d3430a2bdad6bbaU, 0xbefc661c3dda91aaU, 0xbdae787fbd9e1908U, 0xbdfa76bd3d00574aU,
  0xbe45dd56bedf71e8U, 0x3e0608b7bc9e9b5eU, 0x3e7af05abc0c4c9bU, 0xbf1bcb473b5accbdU,
  0xbeb28b823dbc7131U, 0x3df85ce9bcdbb6f7U, 0xbe3e796f3e4106d2U, 0x3d67030a3e54bbc3U,
  0x3e140320bd33db0fU, 0x3ca8b744bdc36eecU, 0x3d82421b3ca37986U, 0x3d5406be3c2de38aU,
  0xbd870949be88500eU, 0x3e3d4ea9bd8f0a25U, 0xbe427636bdaa09d7U, 0xbe54616dbab9cb46U,
  0xbe0f1d5cbe6c1ca9U, 0x3d24059ebe4eef13U, 0xbdd991bdbefd5246U, 0xbcf6d1193dfa570eU,
  0xbf0354d6be0967c5U, 0xbdd38ebbbcf8c58cU, 0xbd806e61bed0ce96U, 0x3d4e37e2bd5a57d1U,
  0xbd02cea3be5f72a7U, 0x3e0d1bbb3e49784dU, 0xbef4d1a93d943c5bU, 0xbe912f60bd1a3e2aU,
  0xbced44aabe5fe099U, 0x3e293e59be5d7e93U, 0x3bee45433e5e552cU, 0xbdc2f0cfbe0ba144U,
  0xbdfcef2fbda11887U, 0xbe17d5e9bcea7069U, 0xbe2967d8be90284eU, 0xbd8224c7bdb760b3U,
  0xbe87a00bbd89826dU, 0xbe5b6be4be130a85U, 0xbec6b34ebea615abU, 0xbb931a30bd5ba807U,
  0xbd587da13d986468U, 0x3b856179be399658U, 0xbd833d29bceeae1bU, 0xbe09894a3dbc3de1U,
  0xbed771ffbd8062a5U, 0xbf3f8b993e2b0b99U, 0xbc813ebd3cb83c09U, 0xbe8f234c3e421dcaU,
  0xbe9ab5eabf4598e6U, 0xbe09c8b6bea5446bU, 0x3b59a5d6be16495bU, 0xbeefbd08bd576f54U,
  0xbdc915fcbdba0dc3U, 0xbca1ed97be1b502fU, 0xbd9670f6bdaeaf05U, 0x3da8e9113d4d5b86U,
  0x3df6ec9bbdfe9ffbU, 0xbe9241f7bce391bbU, 0xbc8c06203e6355f2U, 0xbe7956bebe171f24U,
  0x3e39c5be3d2e22b2U, 0x3e6a4e863d8d2bf3U, 0x3ecd18a33d31f3e5U, 0x3d47c2b03cddc1ebU,
  0x3dce57c23da4ed61U, 0x3de6e43cbd4fb8aaU, 0x3e31e124bdbfbaa7U, 0x3e955fb5bdb492b9U,
  0x3ea412d63cb3c18bU, 0xbe1e447a3d8b369bU, 0x3f1a5282bd6f6cedU, 0x3cbcccac3e06c372U,
  0x3aac19ba3d7398c3U, 0x3f1ca8023f171c42U, 0xbecf9d34bc95ee15U, 0xbdccff6ebd84f458U,
  0x3dfc4746be2c9019U, 0x3e9b068f3e8f172eU, 0x3dc97f433e1ddec1U, 0xbbbc7fb93b6b5cb3U,
  0x3c2a1e6dbe084afaU, 0x3de8b0863d745c26U, 0xbde891713b9201acU, 0x3e1884263d68458fU,
  0x3dbedb123ca0593fU, 0x3cd052653e1c0d8cU, 0x3d8746bf3e841474U, 0x3cfa3d803e977c4aU,
  0x3e345241bda4c00fU, 0x3e07a46b3e149fbeU, 0x3e49ac563dc4914aU, 0x3d095b173e5d5a5dU,
  0xbe9479ddbc52479eU, 0xbe53a48f3e1db5b3U, 0x3e3941c43e05fe46U, 0xbe1b0a1d3d540b0aU,
  0xbd935c35be96fa31U, 0xbe965128be9c6535U, 0x3de73355be347a92U, 0xbda71c7fbe6081eaU,
  0xbe9c30893d313fa4U, 0x3d25cbc6bd81a6bfU, 0xbd99b742bec39195U, 0xbcec4aa0be81cfbeU,
  0x3c8ac4063d7e855aU, 0xbe0de23d3d9128c9U, 0xbdf3f15d3c15528fU, 0xbe907d5fbcd016c4U,
  0x3e1d23be3db34075U, 0xbc03cb5dbe8fce67U, 0x3d45e5af3df33ffaU, 0xbddc73bebdaba110U,
  0xbd8fcaa53d954598U, 0xbdd23823be255d54U, 0x3cbc7ed53df4bc65U, 0xbd950eb3be77bea2U,
  0x3ebd4108be102e5bU, 0xbdd652f43da0bd05U, 0x3f19b90b3e50bb4bU, 0x3d8c8f513e05e634U,
  0x3c906696bd8ab78cU, 0x3ea409c13ad9e66cU, 0xbe7f9b4f3e0f2e0bU, 0xbe496bc03db0cd95U,
  0x3d0e0399be0a5eedU, 0x3c80e19b3dfa6b58U, 0xbe372bd83e2d8ee0U, 0xbddd16913dfc3174U,
  0xbdaee1713d01a5e9U, 0x3dd95c0c3ccd7530U, 0xbde160e7be09977dU, 0x3dbe06f8be5a3a94U,
  0xbdf0a302bd02bc19U, 0xbc1daaeabd3dcbeeU, 0xbe3256c63dae03afU, 0xbc719dd83d87184eU,
  0xbe38be19bd72953cU, 0x3e0e5d973dd28ffeU, 0xbe4ae899bd191c8eU, 0xbe1bb08f3e741480U,
  0x3d56cc503dc670d9U, 0x3e7015ff3e0794f3U, 0x3cde6d683cdebd8eU, 0xbe2a7ab7bda028d1U,
  0x3a0331813d1fcf55U, 0xbe294a96be3c4cbbU, 0x3da0ca9e3cba5395U, 0x3cc6f630bdcd155fU,
  0x3c5c984ebb756bfcU, 0xbe493466bc38f97eU, 0x3d61b1b0be05f875U, 0xbba1e4503d162177U,
  0xbe202a523cffeac0U, 0x3cd4137ebe6c18f6U, 0xbddbb5d3bdb6420fU, 0xbda7840dbd3731faU,
  0x3dc4a9143e25da7eU, 0xbd8b4a35bda3fd9dU, 0xbe2302c8bd71d73eU, 0x3d495d7bba385d8fU,
  0x3d9796ca3e328532U, 0x3d0ff02dbdc91197U, 0xbddae1213d626310U, 0x3d720fadbd09de16U,
  0xbc3af4d2bd63cf71U, 0xbce3e400bdf874a9U, 0x3e21a278baec2eb0U, 0x3d334d02bdaee5ecU,
  0xbdc57cecbc9d7073U, 0xbda830fe3ce0b38bU, 0x3c9086dbbe62e91bU, 0xbd926d203d3dd165U,
  0xbc4844a6bc5d9252U, 0xbda8efa63ce97280U, 0x3e3b40763caeb0ccU, 0xbd8754a73d88e30dU,
  0xbd81a3833d91b602U, 0xbddcb1343cecd848U, 0x3e352d4abdf2b881U, 0x3dc1ea04ba0d45d5U,
  0xbca0b4073dc5f1e3U, 0x3c0190fa3c096fb6U, 0x3e1d3e6cbd9c097cU, 0xbda3f930bd906b57U,
  0x3df64aa63d9dfc53U, 0xbcbc9f673a0b71fcU, 0x3de828933db27834U, 0xbde6b037bd2df0c5U,
  0x3d19df5e3da4650fU, 0xbd70c805bd04742fU, 0xba1ca537bdaa2de4U, 0xbdde3e5cbd51566aU,
  0x3df6cf503e00b55cU, 0xbd91533fbdd2966aU, 0xbe225c223d4f3f63U, 0xba8b9a1ebe407de7U,
  0xbd21e32c3d3d23fbU, 0x3c51eb97bdc6fa5bU, 0x3dfb45693bee50ceU, 0x3d247e90bd564477U,
  0xbd72c17e3d3595e1U, 0xbd57bbaf3dad9d85U, 0xbd20f8f0bd9ff17eU, 0xbd172be4be0fab22U,
  0xbdabaf1b399e2dd4U, 0xbe44cf29bd3ceb9aU, 0xbe39aaddbd090332U, 0xbb9051adbd69c39aU,
  0x3d9ddbcf3e28d3c6U, 0xbdcbde93bcfd9a9aU, 0xbd6523df3b3be9b0U, 0x3d13f8803cb44832U,
  0x3dab5ba13d01801aU, 0xbdc889c0be1bd2dbU, 0x3de8dcf5bd983c22U, 0xbd871743bdc36b86U,
  0xbde20ee7bd88c22eU, 0xbdca5863be7c2d0bU, 0xbd70249dbdc00065U, 0xbc94f600bdfff1e5U,
  0xbdef6f783d161391U, 0xbd2de6eebe6d2bd7U, 0x3ce9432a3c813b4cU, 0x3deaf8bf3bf11848U,
  0x3a7d07293dd698c9U, 0xbe5bb4533d724f26U, 0xbd49541a3cf9f361U, 0x3d302d13ba73efefU,
  0x3d6e58d23d8f7e2aU, 0x3dc9e213be1b66caU, 0x3de9b586be0ec987U, 0xbd981616be911242U,
  0x3d7197563d552af6U, 0xbe88bc34bec7646cU, 0xbe1e48a93d7797abU, 0xbd4710963cbc83e4U,
  0xbdbd44dd3c7f9b78U, 0xbdc51bae3cde92caU, 0xbe809b83bd96d751U, 0xbd370136bd162418U,
  0xbe017ada3dd27ac4U, 0xbd903898be178aeeU, 0xbd2def8a3dc0376eU, 0x3d4c65f1be359b5cU,
  0x3deb89bfbd08260fU, 0xbe01676fbc9835e4U, 0xbc1e801dbd173365U, 0x3d6a420abad518d4U,
  0xbd63b54e3add340eU, 0xbe484dd8be8efa32U, 0xbd70e721be25518aU, 0xbdaa51f7be140259U,
  0xbdd8c5e4bdc877eaU, 0xbdddfd85be485b32U, 0xbee1f259bd284537U, 0x3deb3432bd85103fU,
  0x3dc49f8b3e142b16U, 0xbdde4fe53dc80601U, 0xbe360e6f3ddf28fbU, 0xbda0631dbdd1205bU,
  0x3e0f7285be561e69U, 0xbe37e3a2bdb17e13U, 0xbd8f8a25bdb91683U, 0x3d75a87abe363fccU,
  0xbe07e0e9bcb6c022U, 0xbe88c1c7be9e502bU, 0xbe02e278be3aa46bU, 0x3dcd290cbcb0893fU,
  0xbdae1500bdd23c38U, 0xbe1ea427beb3317aU, 0xbdc58dadbe9a4501U, 0x3e8fa1febdca8cd6U,
  0x3dff8503bd8d51beU, 0xbe69ab233e2c5852U, 0xbe6ec8a2bd9a744fU, 0xbd0bc2e1bd8c9ccdU,
  0xbd5853e1be2535daU, 0xbdd0d580bdf783b1U, 0xbda693f8be8a1eb8U, 0xbda339f3be2088f5U,
  0xbe55fe3fbd28b1f4U, 0xbe398ff1beb82247U, 0x3ce1ab41be3a2d7dU, 0x3e1a1f023c1dcad5U,
  0xbda7e06d3c036b2cU, 0xbe299c13bde66dfaU, 0xbd2de2bd3d2ff082U, 0xbd013472bdd9c8e6U,
  0x3c85ff28bec86639U, 0x3dd088943e06d75cU, 0x3e2cead33dae5e83U, 0xbebacda73bd66e90U,
  0x3ca5da9bbce41130U, 0x3dff9e963cfc626cU, 0x3cb012cd3d20c7f0U, 0xbd5ea2d0bdfded92U,
  0x3d9ee18abdc7daeeU, 0xbdc64060be82560eU, 0xbc7150463bd0d739U, 0x3d1af592bc2f4810U,
  0xbee0f36dbeb7f849U, 0xbe22c21f3dcedb2fU, 0x3e93f5223d82b69bU, 0xbe91ada43e6d6005U,
  0xbe5fae793df97f09U, 0x3d1604c9be2f2fddU, 0x3d36f2fabc327293U, 0x3e0ca7f5bdb4d97fU,
  0x3cf7b4cf3d6a67feU, 0x3d1cd8adbd501a34U, 0x3e825a14bc8ae16bU, 0x3d23f3aabc2fa502U,
  0x3df0dac1bdff0e7cU, 0x3e13ade93dba5444U, 0xbdc545a73d43c53aU, 0xbe126585bde3643cU,
  0x3e2b3677bbf55946U, 0x3f0dbe6d3e50a2a4U, 0xbb6e47e6be4bc43dU, 0x3d64fbd03db941e0U,
  0x3e515a693dd17841U, 0x3dea23d9bd3d878bU, 0xbf036422bd9ea759U, 0x3eb3675cbe019253U,
  0xbe3a4649bdaffce9U, 0xbe918894bf0080c0U, 0x3e8b5d9bbecdc475U, 0x3d876f1bbe386993U,
  0xbdfd85ebbdadf15bU, 0x3edc7fc63e91e4aaU, 0xbdf4395fbe077411U, 0x3cced2babe83da5dU,
  0xbde9283ebd8222f8U, 0x3c74016c3df958e1U, 0x3d15733abe5464daU, 0x3c4bedbd3de731eeU,
  0x3c88997fbe40822cU, 0x3dacaec53d5daff2U, 0x3d1ecf8c3c074eb4U, 0xbe3615d83e7765fdU,
  0x3ce614943c85c7a4U, 0x3e005e803e2f2632U, 0x3cb8bcf9bda4d497U, 0xbd60aa6b3ce90c32U,
  0x3dba8c9abe0005d9U, 0x3e0f170a3cccbf2bU, 0x3db60ba03d674455U, 0x3dd655c1be08c01cU,
  0xbe64954bbea0ceccU, 0xbcdf0aa6bcaf16c5U, 0x3e45c741be2631ceU, 0xbe37bd8bbd771ef3U,
  0xbdad08dc3e5ab647U, 0x3cde7429be1d6ca9U, 0x3e3b269fbe370893U, 0x3e0fc983bdcf4b16U,
  0x3e3822f43ca4195fU, 0x3d2e69be3da0dfb8U, 0x3e908bb2be2630d6U, 0xbd64ac16be2d707fU,
  0x3e14e32fbe9c24e9U, 0x3cd345bf3e22a7a7U, 0xbde67acbbddc574fU, 0xbe4d2400beaf5713U,
  0x3e7d626b3e8d1a01U, 0x3e11a32dbed26e23U, 0x3e2b93e7be757f90U, 0x3d1af0603d4f3be1U,
  0x3dfbd4b93e93872dU, 0x3e09bdc13df59675U, 0xbd20e13a3deac7abU, 0x3e99281bbd816a52U,
  0xbe4a01ec3e3c6806U, 0xbd9cc113beaf2c1fU, 0x3e493faabe7af9fbU, 0xbbf6dd30beb8d7b5U,
  0xbdc8bc273c38c5adU, 0x3e976ba73de09b1cU, 0xbcb9e021be04c5b0U, 0x3e36faaabcbed402U,
  0x3d5ef10abe0f88e8U, 0x3c84de8d3e830216U, 0x3ee75123be86bee8U, 0xbd72d6233d415ff2U,
  0xbe3b4b68bee5da27U, 0xbc2ce453b9c69672U, 0x3d6e263dbe93f950U, 0x3dab8750bcfa272eU,
  0x3d8d04a73dc04851U, 0x3e38ad37bc92c388U, 0x3e1552fbbe767b2cU, 0x3d4e98563dea7cd3U,
  0x3e021351bd2771eeU, 0x3d52f1633dd69aeaU, 0x3e6919f53eb15dccU, 0xbb1a9c59bea90718U,
  0xbde948f3bd21dd3aU, 0x3d25392f3ed61488U, 0xbdf06042bec68639U, 0xbdc17d9d3e33ac72U,
  0xbdbb8fe03d8ba291U, 0x3c07bd19be16c4bcU, 0x3c4623cebe8d4f30U, 0x3d9315f7be6de2b7U,
  0xbc70f8ddbde0711cU, 0xbc7eec97bef459ebU, 0x3da1603bbea122abU, 0x3d7abb86be6679d1U,
  0x3d8278c6be26e90cU, 0x3da981bdbbb63d45U, 0xbe5300883e75ab6fU, 0xbdb5673bbe526588U,
  0xbdbf47d23e209e40U, 0xbe064ccabea2fc58U, 0xbd65c4613d959db5U, 0x3db34d093df48202U,
  0x3e65c9983e8dd944U, 0xbbea994b3e1b2978U, 0xbe20598a3e4628e1U, 0x3e3caf083d4e9940U,
  0x3e8b54fe3d720423U, 0xbd0c094dbd560af0U, 0x3da4bf2f3c56528eU, 0x3d4e7c8abe583617U,
  0xbdda2d2c3b764276U, 0xbdaf01863dd5d810U, 0xbdc70860bdf41f9cU, 0x3df6d237be19238eU,
  0xbdd3ffa03a69c96eU, 0x3db1db6fbe785de5U, 0x3d4433503e581087U, 0xbd92be203ca60b66U,
  0xbe052a48bc42408bU, 0xbdbab27bbd9b60a0U, 0x3d65e9f43d01d013U, 0xbdfd88623da29a48U,
  0x3da12b76bd4c76bdU, 0xbdd041d7bc509478U, 0x3cd60f6e3c3517f3U, 0x3d65ee723d288dadU,
  0xbd85d7053c726d90U, 0xbd0255453d9476bdU, 0xbe11711dbdf0a416U, 0xbd24720a3d88fe9aU,
  0xbe7562dfbe86d775U, 0x3be88cc6be85ef91U, 0xbc972d243d794087U, 0xbe68ef34bcc4ca9cU,
  0xbdca12bcbd825eedU, 0xbe1aef44be40f84fU, 0x3e08c593bdcb4afaU, 0xbe88c2bd3dadd642U,
  0xbe535569bced1332U, 0xbde71b793d36b4dbU, 0x3c9469ffbde58d51U, 0xbd6b05c63e02d2e2U,
  0xbd6a4387bc88a12bU, 0x3e0c9c973d85e5c4U, 0xbe1cc4f7be51c6fcU, 0xbe9d4e093da6197bU,
  0x3dac82283a34ee28U, 0x3cc8a397be956d8fU, 0x3d90e57dbc7da6deU, 0x3c7e14e8bd8b12a0U,
  0x3db9a77b3d87a96eU, 0xbe35a62ebbd4d505U, 0xbd361098bc9714bdU, 0x3ccb1d413cfd5906U,
  0xbe9472e0bdc6ed42U, 0xbd6e9d54be3a0a89U, 0xbee3ae1bbdb9b19dU, 0xbda0669bbe305a5eU,
  0xbe9459babdac69f3U, 0x3c091e53bd2d3ad7U, 0xbd807ce0bc1a41e2U, 0x3d33ae95bd36f6ecU,
  0x3d8e92cc3d7b6f85U, 0xbd2c242ebeb5fdb6U, 0x3cb148bc3e1a29a3U, 0x3d7fa94abc097e45U,
  0x3d5e69323d7bee09U, 0xbdba5ce6bcb4a2fcU, 0xbd17ca343dc2caa7U, 0x3d963381bbf7132bU,
  0xbe4a0cf73da0c9ccU, 0x3e1dc847bddf21d0U, 0xbdd32c93be37aaf2U, 0xbd2e1fa6be144c77U,
  0x3cffd7893df0a185U, 0xbd79798e3cb9a20bU, 0x3c9b8b063cdd5a71U, 0xbdbdd36c3d0e1da3U,
  0xbd005cd0be0967e3U, 0x3da06aa83dd644cdU, 0x3defdaf23e037102U, 0xbd995b513e2c7436U,
  0x3cdc27a13cfb7fc7U, 0xbe685c1fbc9508cbU, 0x3e77a714befb3e63U, 0x3b8468a63d028022U,
  0x3be13707bc7255aeU, 0x3d2cd774bd0d7075U, 0x3ec16e19be841be9U, 0x3cf87dccbed45e1aU,
  0x3daa26a4bc8b8f1fU, 0x3cfd69db3dfd78edU, 0xbe0a79eb3e17cf54U, 0xbe234183bcef554dU,
  0x3d4994c63a64bc99U, 0x3b68fcb4be934206U, 0xbd3668d9be823b3bU, 0xbbba6e3dbead5b14U,
  0x3db7cd823e25c9e4U, 0xbc6ca3a6bdf7179cU, 0x3c860b413c4966d3U, 0x3e550ff53d806fa4U,
  0xbe75704ebd87c26bU, 0xbe456bc63c81395aU, 0x3d67f6093d841c04U, 0xbcf0d080bdb1c4a8U,
  0xbdddeaa73e23c83bU, 0x3ccd2a023dee8717U, 0x3e077e84be39e0e1U, 0xbb9c004cbdfbeaf1U,
  0xbd08156c3cf30e3fU, 0xbee7ed473de76baaU, 0x3dee2480bdbcbc45U, 0xbebcda093e837c47U,
  0xbea543a0bdb95005U, 0x3da0ad01be8814d7U, 0xbc5498973d9b7488U, 0xbe6ccdc2bd024fa2U,
  0xbbe8c979baecd8eaU, 0x3e0a669c3e25040cU, 0xbe8caae53e34a181U, 0x3d2461103e006a03U,
  0xbd04a4debd392c61U, 0x3e1ff7bc3e082574U, 0xbd16433a3c44f345U, 0xbe68c919bda8386cU,
  0xbc844f1d3d99a79cU, 0x3e53e03b3e61afc4U, 0x3c18c82ebe35ea50U, 0x3be47bf33e4fa287U,
  0x3d07a31c3e082201U, 0x3e1e73adbde947c4U, 0xbe15566b3e1260d5U, 0x3e2028ad3d613440U,
  0x3e9f843fbe3e82f3U, 0x3dfea2a43d7295ccU, 0x3f3f9f0b3dd503f7U, 0x3d81239b3dff1e2fU,
  0xbd848fa7bd120886U, 0x3eabd37a3f169e89U, 0xbe5a64ba3dc212cbU, 0xbdc77828bd81ecc2U,
  0x3ceabe86be1fb449U, 0xbda763c8bd509023U, 0xbe53ddbdbdea7cd5U, 0xbb0a5d563d3d4004U,
  0x3b6b82c33dfa9da3U, 0xbd2dca943d69ac75U, 0xbd3368bfbd48839fU, 0x3de485683d5ae5a1U,
  0xbe1c2689bd0e1a73U, 0xbd71ac90bd8aec6cU, 0xbe263c2fbc69b1e1U, 0xbd6f2f70bd7c48ebU,
  0xbe17558c3e05c206U, 0xbd0e12a9be0c6052U, 0x3e3432c5bdb009b6U, 0xbde81ab83d846c7fU,
  0x3d6bc539bde5bb2bU, 0xbea4725abdb55395U, 0x3d207740be931767U, 0xbd203b653e3e34c4U,
  0xbdeacbcfbd04a4ccU, 0xbe10a618bd9c906fU, 0x3dc2cba4bd92c887U, 0xbcb87b81bd7c697eU,
  0xbe9cd8edbe03a624U, 0x3cf5ccc03d897184U, 0xbd39b332be27ebd4U, 0x3cfa4760be62bcceU,
  0xbd9377ed3c40858fU, 0xbd655895bdd5f6adU, 0xbd51d9b43e1420adU, 0xbcfed53fbea3c77cU,
  0xbc39408d3dd2dfc2U, 0xbe674b833e26e060U, 0x3e8cc562be153662U, 0xbdafb3c63dec3f98U,
  0xbd9a4d5fbd939f4bU, 0xbe2f186ebd584cccU, 0x3dacc975bcd876eaU, 0xbd5dbf86bbb0ee17U,
  0x3d798c2e3d5f59c4U, 0x3d3eafd5be55c4ddU, 0x3b12a9b6beaf0698U, 0xbd7c5280be9198e4U,
  0xbcb4d1b8bcd1967dU, 0xbe57bab9bd404a59U, 0x3d57b0a13ddc9d0fU, 0xbb858dc4be656f6cU,
  0x3e02c00dbe81428cU, 0xbed014083ddc5057U, 0x3d7bc56abe67d00aU, 0xbe3adcc43e05bcd7U,
  0xbe5abe83bdf44606U, 0xbe200773be2a351fU, 0x3d51e61fbe08fd2bU, 0xbe2328a53c3b6fdaU,
  0x3c2e8d623cdb2365U, 0x3cf6a6d53c320f47U, 0x3d4b4f79be5e1b04U, 0xbd5bbba0be32187bU,
  0x3e10c886bd504bfdU, 0xbe49db273e27e4f4U, 0x3c8a2be63d227e31U, 0xbde98e51becb3224U,
  0xbe3a7cf83d609930U, 0xbe87edba3e51c466U, 0x3dce6931be668206U, 0x3b947c723c9d9759U,
  0xbdc12d3cbd192486U, 0xbe09ad1cbde4456aU, 0x3dd2884b3ca5565bU, 0xbda85345be57c56dU,
  0x3dfff92bbc78008bU, 0xbcab4925bc278b42U, 0x3e94b315bdb4d618U, 0x3d0a6716be34d7e0U,
  0x3e1e00fdbc43367cU, 0xbe235b85bde5e635U, 0xbe2e3c9c3cb036a7U, 0xbddd21dfbe682446U,
  0xbdbb288c3e1c00cbU, 0xbd138c8abddee79bU, 0x3d93beac3d3c84adU, 0x3d8770f23dc52ea6U,
  0x3ca89c703da7676fU, 0xbe17e726bd72ac1cU, 0xbd255bf63dc0a893U, 0x3d8eae73bdaa5c02U,
  0x3deb2c703b25125dU, 0x3c011046be77ed69U, 0x3d0578823d166dc0U, 0x3c0548683d15b722U,
  0xbd99b8f03d4e42d2U, 0x3d9d5109bd218a69U, 0xbe1c81eebd4be92cU, 0xbc4f60c33c9dd1ddU,
  0xbe706a60bd941635U, 0xbd9cafe83d998169U, 0x3d2f72ab3df95e63U, 0x3d80e8343ced77d3U,
  0xbde1b820bd59b0c8U, 0xbde024c5bcd19098U, 0x3e09eb2ab9f868c0U, 0xbe6100e1bcd896d9U,
  0xbdb803993d1749e6U, 0x3ce88a22be9165a2U, 0x3e346f3ebe51e412U, 0xbd43a350be21bc66U,
  0x3e78b5e03d174538U, 0xbe87a5e8be35a77bU, 0xbe37764a3c93101bU, 0xbd91f0e63e29659dU,
  0xbd41992b3d648f4dU, 0xbe3deb4f3d8b342dU, 0xbcd32094be1f32efU, 0xbdd95758bdcfc7e5U,
  0xbe4829d9bcbb34c1U, 0xbd158a7dbd219b46U, 0x3d7602003c740853U, 0x3d8d5508bd00e14dU,
  0x3e50ff8f3d0ee7f1U, 0x3d8e5ec8be41f0dbU, 0x3e1eab233d38bc5fU, 0x3d42f346bc9edf52U,
  0x3e029395bdd4faf7U, 0xbe7f0e7bbe1fec1dU, 0xbe4e6cf6bcd07047U, 0xbdd704fdbe28bcc7U,
  0x3d5edca63e3a97aaU, 0xbe237d11bdac261cU, 0xbc7b813e3dab6395U, 0x3ddbb708bdbaf011U,
  0x3d8aa5bd3e019a0fU, 0x3d3094963cda7607U, 0x3dc2ae3e3dbc5c23U, 0xbdb01855bdecbf1bU,
  0x3e4b385e3c6e83c9U, 0xbdb050323db1c65dU, 0x3cd599563e2e54fcU, 0x3bd83230bdbecce9U,
  0x3e04aad53e0ce598U, 0xbe5ad506be92161bU, 0xbe02b1cfbd928027U, 0x3cfc74e8be2519abU,
  0xbc38bfa23df95c8cU, 0xbe06e611bc00225fU, 0xbe10e76b3d6e6cf0U, 0x3c1caf903d22ca5aU,
  0x3dbf03bf3d34b34eU, 0xbe17222b3d8544f0U, 0xbd4cb27d3d21a9ffU, 0xbdbbc021be3d8df8U,
  0x3de11ca7bd4913f5U, 0x3d77119ebe8de03bU, 0x3e060bf5be613a68U, 0xbcd3e8acbe877d8cU,
  0xbd92e03fbc1f937fU, 0xbe8f20c4bcf79266U, 0xbe150224bd95187cU, 0x3cdb45c53e30cdeaU,
  0xbdd754a7be448492U, 0xbe4663cebdcf6322U, 0x3ce08895be0699e6U, 0xbce878c5bddee4f1U,
  0xbd9e6128bd37df75U, 0x3e3f2c57bd150d5dU, 0x3c0ea79ebd89eb79U, 0xbb902d773d9876b6U,
  0x3d613aab3d9f1742U, 0x3e1f9f1a3dafeb9fU, 0x3e0f706e3c8c0c74U, 0x3d83e2ad3d76649cU,
  0x3e06d4563db14ca7U, 0xbe556c2a3ad2285dU, 0xb6f2b7643a52bfb7U, 0xbd20a5cbbd3aa638U,
  0x3d1a5556bb042092U, 0x3d3218b33d6672dcU, 0xbe303a35be8476fdU, 0x3d6f386dbe1c1872U,
  0x3de60f8dbbfd8996U, 0x3df3badc3dcc7846U, 0xbd2cc1f7be079216U, 0x3e4b88b93dce6c94U,
  0xbe2ec4dcbe214064U, 0xbd8a1ebabcd4851fU, 0x3e22ef133d6d2a3bU, 0x3c5b2a403e19ddc0U,
  0xbd9d666e3d733649U, 0x3d396dda3d864d6dU, 0x3e03af0ebbcffcbcU, 0x3d7d82e33cbb72ffU,
  0x3e9a724b3e231786U, 0x3d499d3c3e576560U, 0x3e3c6d4cbe3aeaf9U, 0x3df076813e078c6bU,
  0x3df4daf5bbabd5a8U, 0x3e0aa331bc7edbbeU, 0x3e35791e3d26f5b5U, 0x3dadda473ba00569U,
  0xbccd87cc3d9ecc4cU, 0x3d3cabf63d728095U, 0x3e7484f43dcc7140U, 0x3d93e633bd964d14U,
  0x3e03fe183e2eb82bU, 0x3d8657693e2653bfU, 0x3e07f6e03d8c38e3U, 0x3dc9b498bbd7eebdU,
  0xbdaadbc03d08e5efU, 0xbe6da88f3c1daab0U, 0xbd130476bd9130d6U, 0xbc0dadd43965bc60U,
  0x3d611f783ea4fd38U, 0x3cadbb8abd42719eU, 0xbe694cd83c831105U, 0x3e38b78ebdb86af2U,
  0x3e08bc573cd7b6c5U, 0x3d31099dbe1aaec6U, 0x3e2cf8f9bd76ef26U, 0x3d07c260bdbd0a02U,
  0x3bc5f3673d025bc2U, 0xbde772c33d51d50eU, 0xbe6e0246bd9b7e0bU, 0xbe1bc930bd8aea1cU,
  0x3e50e64cbb1d267cU, 0x3e24adb7bd41af83U, 0x3e38a4733a868728U, 0xbd2d29ae3d60b6d5U,
  0xbd328e1b3e8357c2U, 0xbd63a6d13d3a49a3U, 0xbcd81afc3ddc9e06U, 0x3e87d4bcbd7ce0c1U,
  0xbd2658f53d2d113cU, 0x3d055b1fbe593112U, 0x3e85ded1bd7adf28U, 0x3d198dda3e14e3d3U,
  0xbe075e983dd48b7eU, 0x3db9354f3e00b500U, 0x3e3300ee3d15cba9U, 0xbd624b9b3d58824bU,
  0x3e3ac1d9bce3b243U, 0x3e3fb8ee3e038b85U, 0xbdbe9b14bdd98ca2U, 0xbe3e3f9d3d0ef680U,
  0x3d36bf24be10a473U, 0xbd9fbff43d520e1aU, 0x3db95451bd841853U, 0x3e1fb90b3dac8fb6U,
  0xbdc8f8d93db570caU, 0xbc001e24bde433b6U, 0x3dea1729be046e67U, 0xbc4b78e83d3aac1bU,
  0x3dfb31bd3dc3277fU, 0x3d1b078d3dddabbdU, 0x3e0a66ae3d9240a0U, 0xbdc33d69bbe3816cU,
  0xbe9f69a4be12dcabU, 0xbddf2130be46fd6aU, 0xbe3064e23f2317fdU, 0xbf0902283e00c36dU,
  0xbee7c2e63e8d893dU, 0xbbc9d6dabed56685U, 0xbdcac05bbd2500b4U, 0xbe80cb38be2a2d59U,
  0x3dd5999dbe04e821U, 0xbe297c683c9fbd20U, 0xbdb170573d880fb2U, 0x3d507b16bdad9210U,
  0x3d29f6edbe712152U, 0x3e2fca18be085d90U, 0xbefc54cabe004979U, 0xbef3133a3dacc9d3U,
  0xbe6b206e3d003e1fU, 0xbca5592e3e1a25e7U, 0xbd06df8a3e8fec48U, 0xbf4ad1163de6f822U,
  0xbeaa24bd3dd2eab9U, 0x3c660270bebf1e43U, 0xbe042f6f3dac289bU, 0xbea48f6ebd2b67e4U,
  0x3d7af9c4bdd1625bU, 0xbe0e3b523c47e655U, 0xbe7e36543ddc093eU, 0xbcc735363c722fddU,
  0xbd3176b1bdd556a4U, 0x3e641b783db8157bU, 0xbe574c59bc9e1d0fU, 0xbeea9ef93e6b1262U,
  0x3ec7d791bd1cbbe2U, 0x3e22ee833ebc6c4dU, 0x3e7ac4cfbe933666U, 0xbf8979103e86f0e2U,
  0xbec598f1be8ee5aeU, 0xbdfef1cbbf123025U, 0xbef2edfc3cd1484eU, 0x3d91f946be5b9144U,
  0xbe164f66be84fd06U, 0xbe09a88bbdcbfb72U, 0xbdb483173d4d7145U, 0x3d4e111a3d996dacU,
  0xbe21bf63bdc1670fU, 0x3e6108d93ea8d8eaU, 0x3df93a313e302ab0U, 0xbf15cc60be1fd948U,
  0xbdc16aba3d8b0cddU, 0x3dba5533bca7ea80U, 0xbe12d32dbe2e8a15U, 0xbdcaf39b3e6ff3ffU,
  0x3dc1e796bdd33268U, 0xbb9585d0be2f7102U, 0xbc2fb5ddbdd3ed98U, 0x3e16a811bdf1e8f2U,
  0xbe677731bdcefa86U, 0x3db1936cbe89e1d3U, 0x3db76ff3bd9b7147U, 0x3d8527213d33abfeU,
  0xbd31162fbe0d4361U, 0x3e5f5bc93e0e0802U, 0xbea60d60bc8fb79dU, 0xbe417961be421715U,
  0x3de12136bd20dbe9U, 0x3da0c7a3be187f70U, 0xbde3c18bbd79585bU, 0xbd8c755f3c899418U,
  0x3defe6f73d865aadU, 0xbe72339a3b152735U, 0xbe68d2d0bddd410fU, 0x3e73e5943c62ad1dU,
  0xbce950b8bbf61044U, 0xbe22e46bbe51d5eeU, 0xbcf8ffc63beebb06U, 0xbd99a88b3dd8c1a1U,
  0xbd49e1ee3c5cce52U, 0x3d9c5ba7bcf8ee12U, 0x3b967150be1e8aefU, 0xbdbba1fb3daa8698U,
  0x3e245309bd618d80U, 0xbe55d78fbd68a494U, 0x3da48daabe258126U, 0xbd6efac4bc68d377U,
  0xbdb4bda7bd73a36fU, 0x3cb5ae5e3d4601f3U, 0x3dff571a3e3390cdU, 0xbd8f9f743d926bc4U,
  0xbe626a24bc603da4U, 0x3cc9db6dbcbd6302U, 0xbe9b95ca3e872defU, 0xbca9bcf43eb4e753U,
  0xbd57d21ebd969d72U, 0x3ee7c0083e9fac3eU, 0x3da1a1bfbd706d40U, 0x3dd70fe93ba3351cU,
  0x3de575253dbbc03aU, 0x3e3f1fd4be1db9adU, 0xbe1745ee3d18bebaU, 0xbdb6aebc3ccea7dcU,
  0x3d65f9cc3e13cbe1U, 0x3e1a5103bc10d487U, 0xbe6bfc00bc623188U, 0x3e13d16e3d8ef672U,
  0x3e89f174bb53f02dU, 0xbde7426b3e5f5534U, 0x3ea42eab3c99185fU, 0xbcbedee0bdfab81eU,
  0xbdba43d1bd9ee90aU, 0x3e8b57d2bd232477U, 0xbca1a36cbe490dfaU, 0xbd9805e5bb1c115fU,
  0x3df709543beebee1U, 0x3db4417b3d999da1U, 0x3e3b9fcdbeb3b6b0U, 0xbc6dee423b299590U,
  0xbdcbfcd73cb9fa85U, 0xbcef54d43d373136U, 0x3d9929563d09f5adU, 0x3d9fa6d3bdfec392U,
  0xbe93d7813d92b171U, 0xbcd0d6903c3082c0U, 0xbe32993e3ddb2105U, 0xbd2a8ca03cc5d11aU,
  0x3ca75e613d66c499U, 0xbb10177dbe016296U, 0x3de7b164bc8f693cU, 0xbc953ebdbd85372cU,
  0xbd6141d5be62ad66U, 0xbcddeccd3e49f59cU, 0x3c19d18bbe9acf17U, 0xbd23f0fe3dbd718aU,
  0x3cbf65b93d0bae47U, 0xbdbee528bca9d902U, 0x3d875e4fbd8ca873U, 0x3dffa33cbdeb6294U,
  0xbd502bef3d406c38U, 0xbc871521be61c787U, 0xbd32e362bd5f800cU, 0x3cb306a03c9da5e0U,
  0xbe171c3cbd2cd93eU, 0x3c3d84263dea4748U, 0x3c16df4ebe4f5ef3U, 0xbdaec50abe2d94b5U,
  0xbb823808bd9d8539U, 0x3cfc6e8ebe34e9a3U, 0x3e1dbec6bea7b0bdU, 0xbd3c1fe3be5fd149U,
  0xbe0acd68bdca25d4U, 0xbdb3a82c3c11311bU, 0x3d8736a6bdd4ad88U, 0xbdf14214bc70da24U,
  0x3d4ebed7bdd0b839U, 0xbd9108463a55a2aeU, 0x3bf7cf99bdb6450aU, 0x3d93c45d3d433ba7U,
  0xbeb68501bd8fbd88U, 0x3d22fbb1bcc8c99dU, 0x3d533ff93d460da2U, 0xbbc0ecb93c941ab6U,
  0x3cf3fa56bdd30e87U, 0xbb92ef163e59438dU, 0x3e46ad7abe505c2fU, 0xbe9636173e5552b6U,
  0xbdf62560bde599c0U, 0xbe2cfac0be7ced5bU, 0xbdbc71683da56704U, 0xbda79943bdff5cfcU,
  0x3d2a28263de68307U, 0x3d7a8cf1ba93fd72U, 0xbd5c155cbcac9919U, 0x3d6b700a3dc201b5U,
  0x3c8bae5bbcaaa389U, 0x3e35215dbd8c1624U, 0xbe284a2f3d0873faU, 0xbe3c6447be545cb2U,
  0x3a08c6ecbc1089b7U, 0xbe0349913d353b29U, 0xbe5ddba2be35a738U, 0xbdab7dfabd9d5689U,
  0x3c751c873df14df9U, 0x3cdb31073cb703e9U, 0x3da78eeebc8d3f3dU, 0x3d65c066bc9cae31U,
  0x3e3a9086bd9b3955U, 0xbe1bc8fdbdac29b6U, 0x3ebea965bd20e8aaU, 0xbd9a3508bdb9c9b8U,
  0xbd6e34f2bb938cd1U, 0x3d9dae4d3de11ee7U, 0xbe108dc63cf8dda9U, 0xbd6f30c6be8a59f7U,
  0xbdcf3d2ebe34f74cU, 0xbdd345123c450457U, 0xbdbab330bcdaa05bU, 0xbda1a36b3d020ae6U,
  0xbe31a3ca3c13644fU, 0xbe0b8066be25f03fU, 0x3cf4bb3abe773489U, 0xbdf1e892bd14d468U,
  0x3dbc04a5bde9f522U, 0xbda006f2bd1d12f3U, 0xbe03689cbd7ee115U, 0xbd53f57bbb9af508U,
  0x3d9de0633ce8dcbeU, 0xbd8f6e50bc8b1d17U, 0xba45d47f3d13830aU, 0xbe4c592bbdfa1afeU,
  0xbcb16a223e59faadU, 0xbe38c59f3bde4682U, 0x3de8cc6abc8f1972U, 0x3e1c7426be13114bU,
  0x3e0f5bf83ea4c544U, 0xbdf32ba43d757b6eU, 0xbd9faba13e1de8e3U, 0x3e493dbcbe0bc494U,
  0xbdec4eca3dfc80a6U, 0x3e1b8dd73d23df7eU, 0x3ded3692bde6a345U, 0xbd8d4340be2080a4U,
  0xbd28daeebd34ad10U, 0x3e2210b6bd0f39cdU, 0xbdafc2c43beedbdeU, 0x3d9d1177be5f8c8fU,
  0xbd5c824fbd80c42eU, 0xbe7d992dbe5277a4U, 0xbe2867e7be16a339U, 0xbdac8accbe2a74a7U,
  0x3b045dfebdf6e14eU, 0x3d8cc7213d943fccU, 0x3de45b6cbe2bc5eaU, 0xbdcc1df5bb40d66eU,
  0x3e249dee3dac4b60U, 0x3e5290cc3d0c825cU, 0x3d2c0d19be2e8e5aU, 0x3d7d5cc2be5667c4U,
  0x3dad6129bc5838baU, 0xbe373e92bd8bf13aU, 0xbd8a8e1a3e377a99U, 0xbbb8e78cbd96b879U,
  0xbcbb6320be508d1bU, 0x3c8a5e953dff7848U, 0x3c92e6bb3eac72daU, 0xbb5ca4333cedc1efU,
  0xbdac9799be428ac3U, 0xbe0c392f3ad923d4U, 0x3d7d1c42be6caf3fU, 0xbe87801abc519ad7U,
  0xbe65e9bcbc9ec035U, 0x3dceea66be0a3d6dU, 0xbe44d4bfbeb6dc96U, 0x3d814fa5be43e487U,
  0x3d5fc380bdcd2f5bU, 0xbc9daa4a3e0aabd3U, 0xbdb2fdc93e06ac35U, 0xbd4cdfa03eb190d3U,
  0x3d76ec193d9b03dcU, 0xbe0955293d2c2e65U, 0xbd65c3f4be2ff515U, 0x3d9c3f28be3fd69aU,
  0x3cd99c1f3d67853bU, 0xbe5848bc3b36b642U, 0xbdd9e5ee3d561e53U, 0x3dacac0cbe4714eeU,
  0xbda30d173b92fc96U, 0x3d188abcbe3f39daU, 0x3b0db3a1be39fdffU, 0x3d8f380b3d10620eU,
  0xbde3a9933db021f2U, 0xbe91609abec0ea66U, 0xbdbf08353d35159aU, 0x3b9e235fbdbbc973U,
  0xbdbe9495bdc696abU, 0xbda4c20abd9ba31cU, 0xbe40eef13b3a4068U, 0xbcf3171fbe27d1adU,
  0xbdf1366cbe015a04U, 0xbca599013d6627b4U, 0x3c30a26bbd136002U, 0xbe2237c1bda0e2b7U,
  0x3d1064883b72c35cU, 0x3e07a2a4bd9cbc0cU, 0xbbb7f3dabd88ce3dU, 0x3d8ef94bbcffd52fU,
  0x3dfa28bebd147f15U, 0xbc1ab07bbd8c0167U, 0xbc001ffb3d49ca14U, 0x3df0b865be37e6a9U,
  0x3aa011913dda4f1bU, 0xbe8445003dce29b5U, 0xbdff1202bd97ba3fU, 0x3da3a92c3b75ed1eU,
  0xbd179706bc6b24a1U, 0x3e732043bd992d28U, 0xbe012186bd5d4021U, 0xba835c6bbdaa4bebU,
  0xbe14c8e73d8a5290U, 0x3dd659643d04d77cU, 0xbe04fac73e5b49a6U, 0xbc5026283e5ff161U,
  0xbc0707dbbd5558a9U, 0x3e2e21b83e88d04dU, 0xbe35bf5a3d8feadbU, 0x3db5b6f6bdbec8a0U,
  0xbe0d2155be6cbebaU, 0xbed48d36bdf5b6ebU, 0xbe07f88cbe3c6c2aU, 0x3e1a6736bdd5e7fdU,
  0x3d485130bd9c914cU, 0x3e1110423d7e8f73U, 0xbb2a13f2be3f1088U, 0xbe3ef9c33ce08c88U,
  0xbdc1fe89bdd5effeU, 0xbe71466bbd2455d7U, 0xbd4c74223da46851U, 0x3d22c8eabe6ddf19U,
  0xbd500387bdb4de3aU, 0xbed5ba68bdb154c0U, 0xbda8b2e6bddf66a2U, 0x3d27a4dfbdc0436aU,
  0xbe83b9ae3d0b8dc6U, 0xbe4cb761bc92724eU, 0xbdb6e295be5ee357U, 0x3e5f9357bdf24066U,
  0x3c624110bdbbf1a3U, 0x3e2e07c63b27cab0U, 0xbc054fb8be03efd4U, 0xbe5bf18ebd986a3cU,
  0xbd969130be462d02U, 0xbd51ba433d3ab3f2U, 0x3c54ed393de63053U, 0x3d961de9be24d2ebU,
  0xbd94f75cbdb462beU, 0xbeb4549cbd2f7996U, 0x3c0572da3d962060U, 0x3e4d223abe3e2ed0U,
  0xbe8ab2b43ce2f376U, 0xbf079750becd5e64U, 0xbeb82103bebb882dU, 0xbe8afdb3be7608d8U,
  0xbd1eb70ebd8a0d6cU, 0x3d801d07be835f61U, 0xbe22b5543e1fbbb1U, 0xbe8e5ce3bd9f5354U,
  0x3ddec9cdbe4f33bdU, 0xbdcc34093cd5fcc8U, 0xbda41cec3dedcd6dU, 0xbd96a35bbd849906U,
  0xbe7a2185bd5bd95fU, 0xbe4362263cbf2bfeU, 0xbde4e783bdc9c2f6U, 0xbeb51c23be83cd32U,
  0xbbd5b137be061f5cU, 0xbe855076bdd874c4U, 0xbe952d7ebe966fc5U, 0xbe45018f3d24d565U,
  0xbdebf089bbe904a6U, 0x3e6886c6be3803b6U, 0xbd6d5c7c3d303887U, 0xbe4134fabcff3a49U,
  0x3d63fb7dbe5f44d4U, 0xbe90f0cabcb5b4bbU, 0xbe0293863e197ff0U, 0xbcf5b1163df41c33U,
  0xbe3240ff3ce98adcU, 0x3c58c3d7bda77571U, 0xbdd70a98be07ab86U, 0xbe515bf0be1db636U,
  0xbe1f4924bdaf666cU, 0xbebb9759be69db70U, 0xbd13808bbe522519U, 0xbd6988173d81ff9fU,
  0xbdc0c848bdfa4933U, 0x3c474c40bddd0c2eU, 0xbe01d5e43d561cf4U, 0xbb424be5bda7637bU,
  0xbd10670dbe006032U, 0xbe9dadc0bd115d31U, 0xbe19be4e3dd4b624U, 0x3cdae2403daf3eedU,
  0xbdafdaf4bd414b77U, 0x3d899c4f3d645365U, 0xbc83edc43d9a90beU, 0x3cf978d8be0725eaU,
  0x3d7a8c8f3e22d6a5U, 0x3d60cdfebe58842dU, 0x3d1c5ed23db30d36U, 0x3e028e223dca3668U,
  0x3e4ff7dc3deac172U, 0x3be47b42bc5d6180U, 0x3cb5f1393e19a8dfU, 0x3e81e505bca7a35aU,
  0x3dda471b3dbc25c4U, 0x3d58242cbd02e85fU, 0x3d1443bf3e261788U, 0x3c1294a83e1c0fd5U,
  0x3d58e63cbd53b048U, 0x3f0720eb3e96f74cU, 0xbe28cde8be0a5987U, 0x3d21911f3e430ff8U,
  0x3d33bcd1bd67e823U, 0xbe0d9ca93d97e8c4U, 0x3d3e54e93dc0cd01U, 0xbdef071e3c93d66eU,
  0xbcc433eabe1c7ce2U, 0xbdeff43d3d1f2ebbU, 0x3df65674bd337357U, 0x3e2246e7bc90517bU,
  0xbe0a28763d3ad1caU, 0xbd22d8d63e4f16e7U, 0x3e583618bd47ae02U, 0xbd56f9fbbd9f8c9eU,
  0xbbaf83c6bdec41bdU, 0x3cfaf5b9bd1070d8U, 0xbe618b2a3d8914e8U, 0xbd3014243d5a1055U,
  0xbe7279a1be626ee5U, 0xbee9ffa63def2c01U, 0x3d73d407be58b64dU, 0xbeaf4d95be0e003dU,
  0xbec72e58be01fe5eU, 0xbe0935fbbe012516U, 0x3d2ae73abdddc64dU, 0xbec51638be2da5a6U,
  0xbcde8263be0c7479U, 0xbe4e33a0bc8e9627U, 0x3cfe73a5bdf96e86U, 0xbb4ca3a03b91b92eU,
  0xbdf9977ebd963d92U, 0xbe51911bbe2e93baU, 0xbdff03e6be343789U, 0xbe1d2edfbe1eb5f0U,
  0x3dc986453e5d58d4U, 0xbdef5752bdb203e7U, 0x3e0eb53c3e24014aU, 0x3e2f2f7d3d357d71U,
  0x3e540d6a3e3acc84U, 0xbe5c98d53d6a4b25U, 0x3dbe70153da8ecf2U, 0x3e2d36ccbccdbeaaU,
  0x3b8131ea3e102887U, 0x3dd164bb3cbe5633U, 0x3ea2a54cbe318c1cU, 0x3c4ae940bbc031d4U,
  0x3d9d81683dcbadc9U, 0x3db233c03e8555d0U, 0x3d8493f1be746312U, 0x3dde637c3d0b8e4dU,
  0xbdc3c6da3e38427eU, 0xbea4a15a3dc62163U, 0x3e14418f3dcef805U, 0x3d4639f33da3da15U,
  0x3cb55fadbda61740U, 0xbe6cd771b899a7c6U, 0x3e39d0783e24a4ecU, 0x3dcf39ba3d48a908U,
  0x3cdf1cbb3d9751c4U, 0x3d94611f3ddc100dU, 0x3eb6fc61be7f9ba1U, 0x3d433e86be32b622U,
  0x3dbd97493cd9b370U, 0xbcfa1f17be94f4d8U, 0x3e323617bb23636eU, 0xbd19d820bd5436ffU,
  0xbe0d275abda87f4dU, 0xbe3b57ff3d6e15a8U, 0xbe2fc25bbe2e7887U, 0xbe6bc56abe0ce5ddU,
  0xbe11fb88bde1a9a7U, 0xbe8c7077bd9bcdeeU, 0xbd84f60bbe687e9dU, 0xbe4d5b5bbe7054adU,
  0x3d03f847be21bc64U, 0xbe131f9fbdb72e53U, 0x3e066cb6bf1c8b8cU, 0xbd597570beb7eff8U,
  0xbd3b8e12bd22164fU, 0xbeaffce53d481fcaU, 0xbe2f602abe0a1f50U, 0xbe00fab0bdc5ce75U,
  0xbe24246ebe3f6774U, 0x3e24a115bc44f55bU, 0x3e0ff4463dd9f8f3U, 0xbbbb621d3e009c9eU,
  0xbdeefd27bd765caeU, 0xbe15fcdebc87f2c2U, 0x3da071febcc51415U, 0x3da94f97be1d0613U,
  0xbc33e62abc950525U, 0x3c6fc4d8be62b8eeU, 0x3cdc51cabd611c0dU, 0xbc9738343c6e05beU,
  0xbd990372bd10a4bbU, 0x3db6875f3d8d7c8fU, 0xbe0494c23e33a143U, 0xbd45a35fbc6afd6dU,
  0xbe5175d6beab20faU, 0x3e741eb5bd88cdaaU, 0x3e47f90f3e75ce0dU, 0xbe010af4bd4a04ebU,
  0xbd81f760bde893d9U, 0xbe29907fbdf60bbeU, 0xbc44eee5be84713fU, 0xbdbf133f3de40dfbU,
  0x3d19a1b33dade5e4U, 0x3d78b9bc3deca510U, 0x3dad3e65bea35bf4U, 0x3d19139abeba5dd5U,
  0xbd50812abddad8d6U, 0xbdd018f63d818727U, 0x3d137f9e3c120b75U, 0xbdcac2863df6fc26U,
  0xbdb6ade9beec6777U, 0x3e1963f1bd47ff54U, 0xbc4f7df33e2aadb3U, 0xbe0b7697bd870160U,
  0xbe3c9ceabcae2316U, 0xbe8b5bebbd89b965U, 0x3dd8613dbe207e79U, 0xbd8464383c7a8f8aU,
  0x3b6fc8a43dcd4ec2U, 0x3cf2888abd97633aU, 0x3ddbd502be358d52U, 0xbbfc7c80bd26338aU,
  0x3d4577afbe0c2f89U, 0xbe00b23abe23087cU, 0xbcd65f38bddcb4a1U, 0xbdeef544bd973c7aU,
  0x3e95553d3e4bfe9dU, 0x3e68982ebe45907eU, 0xbdf049ebbd418507U, 0xbccd4a54bed10e52U,
  0x3dcb6d783e0d778eU, 0xbc39e803bdfac934U, 0xbca714f43ddbf1fbU, 0x3eb1b07a3da7e3a1U,
  0x3eaad773bd06671eU, 0xbde150183e1d80cbU, 0x3e28c55d3c7a82cfU, 0x3d9e3a61bd75dd9aU,
  0xbdf5f2a63d5be1ccU, 0x3e0216c03e904bf5U, 0xbe013a4bbcc45608U, 0xbd3d0601bcc9a313U,
  0x3e5608f6be6e2a10U, 0xbcff92ecbeee6113U, 0xbe0d6c613e86bd95U, 0x3d1a2c23bb11026dU,
  0xbdc80fb4be451902U, 0xbdfa09f53d9d1a5dU, 0xbe30556cbe8c06c8U, 0xbea3cf56be00cc5eU,
  0x3d6e02c13d86f1d9U, 0x3dc60451be22d420U, 0x3d442d11bc0d53a4U, 0xbd7dff76bddeaaddU,
  0xbe0e42da3ca799a1U, 0xbe8d247ebe1d03a7U, 0xbd5c7568be8d7b22U, 0xba2141d73e5836d8U,
  0x39f2f139bda8f3cdU, 0xbded5572bdd82f9cU, 0xbd40f07d3e8c6fb7U, 0x3d627b3b3de8e993U,
  0xbdec5b6fbd996abeU, 0xbea339743d8cbac1U, 0x3dd9620bbe2c9605U, 0xbe1aaaa9bd2f96d4U,
  0xbc6453d93d3ef0c2U, 0x3dcb56893d0f5f38U, 0x3de84ae3be72ca01U, 0xb9c97500beb5793aU,
  0x3d6850db3dfb74c3U, 0xbefb421abe9c082bU, 0xbc3eac88bd41a5d8U, 0x3cfc31d13ecc503aU,
  0xba27be66bd3e28d6U, 0xbe5f729bbdfea2baU, 0x3e2eb147bdd78c9cU, 0xbd1c0049be4b8a01U,
  0xbd6c9a913deb5376U, 0x3ccb7ee3bde074e1U, 0x3e04f9d83da66586U, 0xbe11a3363b80932fU,
  0x3e3575493d3708a2U, 0x3d1f05173e82e7b6U, 0xbcbd07bc3e02efb4U, 0xbd335b163e51338dU,
  0xbc3dfdc83c508244U, 0x3e141d0fbdfdb319U, 0xbdf1a4dfbce75acfU, 0xbe1144a4be12f4faU,
  0xbe9a9d2b3cdcbc06U, 0xbea2136fbedf9923U, 0xbe5b03f8bd8a2151U, 0xbd40d685be33da82U,
  0xbd5fbc0a3de63f3cU, 0x3e6a28e2bdefa00cU, 0xbd8a9785be1e421aU, 0xbd641d9ebd67ea91U,
  0x3c8e49d7bda8a8c3U, 0xbdeb8505bbacea09U, 0xbd2768cb3e0ed85aU, 0xbd75a55bbdec0487U,
  0xbe63fc37bdfa8629U, 0xbc6a34583d7454f6U, 0xbe2e7b6dbe46b4bdU, 0x3cb061fdbe80623aU,
  0xbdd092f93e2459a4U, 0xbe6f1353bf0acee6U, 0xbdcf86df3dbe49b0U, 0x3db62270be3553c8U,
  0x3e6afcb73deef976U, 0xbe44b5263e1cccc1U, 0xbe5547de3e05d193U, 0x3e3d4a64be2f0e76U,
  0xbedf6c543cd9d404U, 0x3dd0424dbe42450fU, 0xbe8aed0abe94e2abU, 0xbb9cc1d0be39e377U,
  0x3b9765d7bd0aba8aU, 0xbe07a259be81c422U, 0xbd90416bbe44281dU, 0x3e0c05a93e7bcb15U,
  0xbde705d8be1e831dU, 0xbe0beb54be78d3b0U, 0xbe8713a43da75b22U, 0x3d4ed72dbd8694ccU,
  0xbddabcf0bddd7cd8U, 0x3d52d3793a99d367U, 0xbe542a5ebdabad9aU, 0xbe6b146fbda8dd67U,
  0xbe9fb08bbd5a62edU, 0xbd10ced0bd5a05adU, 0xbe44e152bda34adaU, 0xbbd82db0bdf5d28aU,
  0xbcb3b78ebdd57753U, 0xbe93a778be6cfc6dU, 0xbdb45d99be4edb72U, 0x3d3cc981bca3eaddU,
  0xbe18e3fd3d47b0f1U, 0xbe1d11a9be9d109aU, 0xbe26c6ac3d47f536U, 0xbc99bc9bbe710025U,
  0xbd98f53d3d6b1b5bU, 0x3c64fad23b799554U, 0xbde8bf44bb4775a4U, 0xbdef31f8be328271U,
  0x3dcbfad6bd84c327U, 0x3b35c218bd84a0ecU, 0x3cc495523d11e6eaU, 0x3c711798bd93529fU,
  0xbde11c8d3cde910aU, 0xbe5905f5be895435U, 0xbdd10ecfbe7402a0U, 0xbd191634bd6db2d0U,
  0xbe468826bd108173U, 0xbe3bff98be8a0f2aU, 0xbd616aa83d16d59eU, 0xbe20eb1b3b941ae2U,
  0xbe2b73cbbb59441cU, 0xbd32636abd4eddcbU, 0xbbd4f98f3de40862U, 0xbe51816ebd54bffcU,
  0xbd131ac63c9a4953U, 0xbd9df220bda77e54U, 0x3e7eba0bb91e89ceU, 0x3d863515bdd72614U,
  0x3d77074bbdb0c73cU, 0x3dc403bdbea8ecd4U, 0xbe29cd9ebe0468dcU, 0xbe366ed5bdb2217cU,
  0x3d7517f7bc03b1faU, 0x3db23e323b445699U, 0xbde67e7c3e33d6faU, 0x3d0a89d7bd597f8bU,
  0xbcdc7b7e3df7f0f3U, 0xbcbea9d7bd562864U, 0x3c793b67bce47df9U, 0x3dc0c447bcf1229bU,
  0xbdca58103d90c9e9U, 0x3d0e17e8bd97b193U, 0x3e05960dbc2a6277U, 0x3c6298283d9ea4b5U,
  0x3df145d93db85419U, 0xbe5e7fadbe9d6a8fU, 0x3c9256e2be9ff01dU, 0x3d84cf3c3ccbad20U,
  0x3d09a0c6bd8ef911U, 0x3e0bff5ebd453e7aU, 0xbe3541c93e04b342U, 0xbc32b44ebe08e80dU,
  0x3da34abd3e2f10efU, 0x3db951e2bce8e118U, 0xbcdac8b63d15ee46U, 0x3e8aa5f63dee5cd3U,
  0x3cfb0d96bd2a990bU, 0x3c3c06693d3f20faU, 0x3db3b036bd56fdb1U, 0x3d13844a3cd9aa77U,
  0x3d08b4593caf7426U, 0xbe9c1c9abd83d046U, 0xbd78a30e3c83fda0U, 0x3d159cde3de29124U,
  0x3dccfae3bc3fcb99U, 0xbc6c63a7bd23443fU, 0xbe900a1c3dac82d8U, 0xbd35d249be23e7a9U,
  0xbe226e3cbe01a228U, 0xbdf58629bda10dceU, 0x3de0bd9abdc52dbcU, 0xbe108eebbc7ef126U,
  0xbd66451c3c964880U, 0xbd47d374bdcc4aadU, 0x3ed2f6fbbe851033U, 0x3d44a54abed48fb4U,
  0xbcae71d93bdf2423U, 0xbee8c377be7e45e8U, 0xbd2af057be1df86fU, 0xbdb26641bae8fdaeU,
  0xbde14dabbd412ce1U, 0xbf3a5cd0bd541dfcU, 0xbe9d9fbebe14c532U, 0xbf6ec4023dc195e2U,
  0xbf208ef63e011265U, 0xbcda8e1cbe9de489U, 0xbe9629333d6f4daaU, 0xbee4fb59bd335af0U,
  0x3bca67cfbdf3c927U, 0xbdf8d39c3c012248U, 0x3c9054073d1d4141U, 0xbd4abf8b3d24330dU,
  0xbe33f86dbe0b69a9U, 0x3e4408873d4868deU, 0xbeaa8b723d2b8a90U, 0xbeb3796bbe90ec34U,
  0xbe2cdb06bdb6abbbU, 0xbe05b0563e7a11b5U, 0xbd78e3dfbe7b5f75U, 0xbf6e3b273dd39b8bU,
  0xbf1010d53e16c498U, 0xbc863ed1bece0088U, 0xbe9c89b03d9a6157U, 0xbf038cb43cfcf6b5U,
  0x3d2506a6be481923U, 0x3b1bedac3e0d4a1fU, 0xbcda3d2e3da0e0bdU, 0x3d1d2b063d6f8fd8U,
  0xbe357c6bbc0d4330U, 0x3e8bbd023e48399dU, 0xbe45b3553df3cc05U, 0xbebe4bc43da54c9aU,
  0xbc780ebc3cca2a4bU, 0xbe1237033e1e9d00U, 0xbe4e71babebb229cU, 0xbf14dfe13e1b51d5U,
  0xbeb39c39be192cf6U, 0x3d94e368beeac1f1U, 0xbf2cb8cbbd797a43U, 0xbdef4f383cace3b7U,
  0xbdbfcb12beae8281U, 0xbe0c3dc2bd678867U, 0x3d6f4f6cbd8593b3U, 0x3d9309e13cb21599U,
  0xbde7429bbdbac8abU, 0x3d276e913daf1332U, 0xbd1f8ba73d81f7dcU, 0xbec6b307be30f480U,
  0x3d864b0bbd35a296U, 0x3ddf7e14bde6ff61U, 0xbdacabd83d8532ecU, 0x3da0d8a4bd339457U,
  0x3d076dfc3b032a06U, 0x3d74c1bf3dd050d5U, 0xbc6f9748bd851ec3U, 0x3e454eb9bdc7c1fbU,
  0x3e31691b3c8f4e84U, 0xbd4df4f2bc6ff7b9U, 0x3ea4526dbde9d3b2U, 0xbb395500be452c3fU,
  0x3e2db3ee39e64bccU, 0x3e88a4953e73151eU, 0xbe2b70efbde43c31U, 0x3daaf6673d8cf5f4U,
  0x3d6b27d6bdb37a21U, 0xbe485bd9bec42d11U, 0x3eb3e2ffbd78d65aU, 0x3d09cee5be4291e9U,
  0xbda5d6e6bdaeef5eU, 0x3c63ca003d302e8aU, 0x3e08bed4bc251119U, 0xbd829d693de52614U,
  0xbd3495c13dd04aacU, 0x3d91220a3e090657U, 0x3d9d4bad3db04f80U, 0x3bad5680bdc8e7b4U,
  0x3d0320a6bb900d68U, 0xbe7fc87ebe6a7fe8U, 0x3e6a2ca4bd58305eU, 0x3cce287bbdd06b64U,
  0xbdd91368bd3ca4e8U, 0xbe74f3ee3eb60acbU, 0x3cb985afbe12ec49U, 0xbd462cb33d87769dU,
  0x3ca4c13d3d4c42c2U, 0x3d8a3c55bda114f4U, 0xbd5247d73cb37cfeU, 0xbe0861d6bd8db060U,
  0x3d45fe44bd863593U, 0xbddd75ae3e37909eU, 0x3dbbcdda3e098ec4U, 0xbce88cd63c938e15U,
  0xbd3cd6f2bc21dda4U, 0xbcfae6a33d8e8136U, 0xbe09cf723d96db22U, 0xbc2d0150be920286U,
  0x39a41f15be8d3a54U, 0xbddf1cf5bdb5cb08U, 0xbe96eccfbe9b2453U, 0xbd37fbc1bddc17b9U,
  0xbda71987be06b1d6U, 0x3e30e400bca5f3a3U, 0xbd213b21bd03b544U, 0xbda881083e247154U,
  0xbdb3c382be2fd712U, 0xbe9c10e93dc5b3d5U, 0xbe2b1e2b3e2d2a42U, 0x3bf8d4003daa80a4U,
  0xbe0d8d863d26351dU, 0xbd2ec659bdf5b45fU, 0xbd94e73abd6af8b6U, 0x3c68ca7dbdb4303eU,
  0xbd830efb3dc682fcU, 0xbea56ff7bf0e0fa0U, 0xbebe61ec3e016daaU, 0x3e073b31be62fe5fU,
  0xbdccf4c7be1466c2U, 0x3e9883c63d54f755U, 0xbe8f3481bab008c7U, 0xbe86883cbcb8c5b7U,
  0xbdcd639d3dd2640aU, 0x3e2790963e8c2400U, 0xbdcb75373dc5d40bU, 0x3cbb0e74be93e892U,
  0xbcefe77f3dad9771U, 0xbdef4173bdb7a670U, 0xbd265489bc582b15U, 0x3d71a3453dc6a64cU,
  0x3d1063b63e67a70cU, 0x3e040ba2bf183279U, 0xbe60fae13ea1efb4U, 0x3da63728be43f95eU,
  0xbd520104be98201bU, 0x3e4d3f043d1e42cbU, 0x3d12ac8dbda65330U, 0xbee8c9d3bcabf10fU,
  0xbd17dff03cc503f4U, 0x3d6345b53e6ce3a2U, 0x3cf399b33d904c60U, 0xbda01fabbe44e4e1U,
  0x3d8777493d8a94c2U, 0xbef2cd1bbd99aff5U, 0x3e0a5fe5be1fbdb6U, 0x3d8afa143e645ce4U,
  0x3e55b3cbbe41d75fU, 0x3e05f287bdaa4bdeU, 0x3ea0aa46bdb47b39U, 0x3d08aed3bc53ea0fU,
  0xbd84f8adbeadf187U, 0xbe965eac3ccdd8a6U, 0x3e955428bd95a03eU, 0x3d5d468dbe242585U,
  0xbe38daeabc9d4330U, 0xbdf0383cbe03664fU, 0xbe5ba1473d07c1e6U, 0x3a09de803d70a42bU,
  0xbdbf3ce23dde3568U, 0x3e69c6af3cd25745U, 0x3cf6151c3dc20b5cU, 0xbd4f4cea3e835122U,
  0xbccb87a2bdb57731U, 0xbe9fc8b7bd979f60U, 0x3e7eab04be4cfb3cU, 0xbe25c20e3c8c92ccU,
  0xbdfa7ecebdf344aeU, 0xbde640b83d1042b6U, 0x3d72e094bdb5f05bU, 0x3ddfd527be1780c7U,
  0xbe248496bdb1536aU, 0xbdca2ef1bd815b41U, 0xbe59e7d63dedbf31U, 0x3c9395ec3e1e3947U,
  0xbeb154833d16c0d8U, 0x3e9b35803e01183dU, 0x3e37626f3bb1379cU, 0x3d03fb3ebebf2629U,
  0xbeb05e703e0af94aU, 0xbe79a8e6bd57a586U, 0x3ded6a99bdc259c8U, 0x3d87bb16be2d20aaU,
  0x3d4d7be73e34405aU, 0x3d1fb0dcbdc167a7U, 0x3d470783bd0d6115U, 0x3e7ef5313d04a579U,
  0xbcc9ed793db7c1b4U, 0x3c2bb7fa3d145af3U, 0xbe0e025e3c956d16U, 0x3d135c7a3df278a5U,
  0xbd0dbf40bcb75420U, 0xbcc8d4d23d41a7f0U, 0xbda0b26abe232aeeU, 0x3d9060a2be0e2825U,
  0x3d282719bcfc04eeU, 0x3df556d4bdcf35f2U, 0x3cf156f03d6b5f4bU, 0x3dbb5a28bde7fc54U,
  0x3b45d5183e1be27bU, 0xbd91214cbd13e7e1U, 0xbcd808cd3e01c97fU, 0xbdc0fa9cbdeb8789U,
  0x3db988a23be632b1U, 0x3d9958acbd8f1009U, 0x3be22b2abc80db9aU, 0xbd9f12e3bc93747aU,
  0x3dc42383bd723886U, 0xbdf7db98bea9e79bU, 0xbe27185ebd5d24d7U, 0x3d0801013d8f43b0U,
  0x3dc73b983d7842e6U, 0x3c2937543e087073U, 0x3e8bd3fc3e3db867U, 0x3e86b8923e33b071U,
  0x3be5dcc83e27a4a9U, 0xbe139d413e3ec6c5U, 0xbc7628cb3d827d77U, 0x3ddb3952be2255b5U,
  0x3e30323d3e04988cU, 0x3db642f1bddec58fU, 0x3bddc80bbd2ff49cU, 0xbd017ccb3e966434U,
  0x3df415bf3e2db1bcU, 0x3d1127643e1116e4U, 0x3d9eda3c3d77d85fU, 0x3e22ba4a3dacc7eeU,
  0xbe5d7e4a3d3de9bbU, 0xbdfd98043d9949ceU, 0x3d0385623e1d81c2U, 0x3c4ef3193d6c3f7fU,
  0xbe10e81ebe5633adU, 0xbdb906173e068b27U, 0x3e7dcdf4be1aca21U, 0xbe29ffe0bdbc1b17U,
  0xbdfa4f013e0b0ff2U, 0x3cd98266be09d22eU, 0x3e58dd82bdfed991U, 0x3c8f318cbe2db28fU,
  0x3deab4653dac9971U, 0x3d47dc90bdf70a88U, 0xbcf39231bdc92910U, 0x3ce2e1673d87db21U,
  0xbe46b7febd0bfe0eU, 0xbe5054cfbe8a20deU, 0xbe2369183e39668dU, 0xb9a5eea23e0cffb4U,
  0xbd65e2093e508ebdU, 0x3e5c638f3cb0ddf9U, 0xbdc1f75d3e00acd1U, 0xbd12f8703dac1679U,
  0x3e92668ebe6f83c2U, 0xbebcb5d23d12f38aU, 0xbc09c1a23e82d5e0U, 0xbccb272c3d46f461U,
  0xbe6db0be3b68b5ceU, 0x3d60952fbe835fb1U, 0xbcb6ee56bc2565d4U, 0x3d1ba0b93d41387dU,
  0xbdb4f91b3e3a71d6U, 0xbdc0b7f5bc246dffU, 0x3d0d6f353e01c167U, 0x3dd2a4be3e024cb9U,
  0x3dfa4130bd6ae20cU, 0x3e29bf143e01bb13U, 0xbe036d2a3dd15e7bU, 0xbdbe35733cd037dbU,
  0x3dd5056a3d477951U, 0x3de1f78c3d112f6dU, 0xbe0e29dc3e5278efU, 0xbd6930a63dad085fU,
  0x3cb4ec543db497f5U, 0xbdc3e89d3dde789dU, 0x3d3956823da7780fU, 0x3e35b230be2b07adU,
  0xbe93a1c6bd4f5e90U, 0xbc4db75a3df54a86U, 0x3da1e6f9bd2a2c39U, 0xbe305c4ebd5e31f7U,
  0xbe2e88acbe86e65dU, 0x3d33bbb7bd2a79b2U, 0x3c14f02cbd086af6U, 0xbe8e6db0bd6e7988U,
  0xbd58da3d3a9abd3aU, 0x3e6774edbdcfbf15U, 0x3d2724253dc48990U, 0x3d89d7d9bc9fc25eU,
  0x3d20750abd8775baU, 0xbdce3d333dae09eeU, 0x3d10ca233ddca963U, 0xbdf005ddbe059839U,
  0xbddc9635be08823eU, 0xbecafeb5be97c930U, 0xbedc99fe3e01a825U, 0xbe4f4de4be83fe77U,
  0xbe5f45ac3d06fb75U, 0xbe120345bd9a6668U, 0xbdfa7348bdb9a931U, 0xbd505ab5be0c1c54U,
  0xbc72e6e9be3e0b65U, 0xbe6c3363be0bf3ddU, 0xbe7d6c29bb7b8a8dU, 0x3d4fd092bd192119U,
  0xbe01142bbe1eac54U, 0xbd691c5ebe3dff40U, 0xbe57b466be879403U, 0xbe15b46e3e9f1b01U,
  0x3cbb19cabde3c5fcU, 0x3d909779be72e5d9U, 0xbe2b40b13e02c08eU, 0xbe6c8e46bcd01c2dU,
  0xbe3bd982be8f6bfdU, 0x3d683749bd4c1187U, 0xbdfaa6a03ae9b4deU, 0xbe1c220cbe5173d3U,
  0xbe8caee1be25b2c9U, 0xbd941936bc1a3fdfU, 0xbec471f63d8dd2c1U, 0xbac0de003dc990b1U,
  0xbdc03da93d90eeb8U, 0x3e4bf1e4bc50bc85U, 0xbe4fbdfbbeac5fdfU, 0xbe78935a3ebf3925U,
  0x3e57d144bdd36a82U, 0xbe4523bdbd83c695U, 0xbe90d0cb3c0e885aU, 0xbdfa84ac3df40592U,
  0xbe32bc22bee9facaU, 0xbe1e087fbe5d8935U, 0xbef49a1c3ccaf13fU, 0xbe2141c4bce09b9dU,
  0xbe9a733fbd75d3bcU, 0xbe1ca010be750fc3U, 0xbe9d04afbe1b3a5cU, 0xbda5a420be3d001bU,
  0xbd51960abe38481bU, 0xbc97f9d8be0f98c0U, 0xbe9bc7eabe8be104U, 0xbec1e8563e0be25bU,
  0xbe06b5033d27ab69U, 0xbdd28b4a3e12c4e1U, 0x3dc9686ebe0e86b3U, 0xbcf0aa80bdd3bc19U,
  0x3d5f918f3b98a4afU, 0x3dcfa918bdcca135U, 0xbe2086143d56a01eU, 0xbdc246c53d9b925fU,
  0x3d6c6d6c3d508354U, 0xbdba49563db7abbcU, 0xbd3098133dbc80b4U, 0x3d3c7902bca2331cU,
  0xbdd0e5bbbb8e5546U, 0xbdb940a23d8bdb98U, 0xbca17b793d0d1097U, 0xbcac5162bda52a5cU,
  0xbcb24f3b3dd1b51cU, 0xbe9adf2f3c856469U, 0xbd11b6c4be36c2a2U, 0x3cb09a183dc40824U,
  0x3d87bb733d326a27U, 0x3e730341bd6a0783U, 0xbd7172a03dc4b2deU, 0x3d00e8513d11bbadU,
  0x3e71aac4bd810d3eU, 0x3d113f3d3c05ad35U, 0x3e09de373e7815c7U, 0x3da995913e024183U,
  0xbcfc58f13d78d66eU, 0x3e2f35eb3e04d71aU, 0xbc3624f63d76a5ccU, 0x3da7bb7d3dde00a4U,
  0xbe2d7e813d97e487U, 0xbeab0a8a3e107ee4U, 0x3da37705bcb25b5dU, 0x3cb533ce3d9320c3U,
  0x3db002353d5f278dU, 0x3e2895a93dfa31aeU, 0x3cd6d8763db0fa97U, 0x3da722393d217f42U,
  0xbbb82ba13cda97b8U, 0x3d75548a3d96d982U, 0x3dc8ef0d3e804e43U, 0x3d8b719d3d14ad46U,
  0xbd06c6553de93ea8U, 0x3e09abc73d526e41U, 0x3e4f7c5c3ddd6853U, 0x3ddbc5063d24c47bU,
  0xbe8ea841be06ff0cU, 0xbcd0e050bd6dc990U, 0x3e3071533dfbd560U, 0xbddb82993db2073bU,
  0xbd43e361bd40e773U, 0x3e8e75d9be50d2edU, 0x3d9484db3e0e8b66U, 0xbe9b6a093d4b2374U,
  0x3ecc95563d71e2c9U, 0x3c73400c3e9e65abU, 0x3e3725ac3e42e203U, 0x3a7744003e2e87f4U,
  0x3dc1b9b8be4c8b0cU, 0x3e545984bcdeaf2cU, 0xbc2c01383d591b7dU, 0xbe1bb321bd93ac06U,
  0x3cbc3db2bc948113U, 0x3cc04a8dbe0ced23U, 0xbccf939c3da9112aU, 0x3c60af4a3d83ac03U,
  0xbc2edcaebceeadd7U, 0x3e419e78bd73ab40U, 0xbd2e3ee63ea7cdc0U, 0xbbe20753bc87777dU,
  0x3eaf4f55be0d743bU, 0xbe22da5e3e1cc729U, 0xbc35fb083ea7f81dU, 0xbd8542ce3e6a0e8eU,
  0xbdf6bdd2bd57ef57U, 0x3e6a8f013d891093U, 0xbdd42a033e49e80aU, 0xbc49a53d3c8c663aU,
  0xbd005360bbead830U, 0xbe7d57a93ccf8791U, 0xbef142c4be646028U, 0xbe11108d3d0a3801U,
  0xbdfb7c31bda3a592U, 0x3cc82922bdcf7ec0U, 0xbe4d392f3e6f5cf3U, 0xbe141c6abde7db24U,
  0xbce65c39be0c9c35U, 0x3c44fe8ebddc7301U, 0xbd431ddc3d7ff4f8U, 0x3cb412403e3bfeddU,
  0xbe3ae2e3bded7b78U, 0x3dc2d5843d449856U, 0xbe05cd19bc77fc1aU, 0xbdafd72cbe08e86eU,
  0x3e35ef723d0bc289U, 0x3e094e07be85f7d0U, 0xbded5e663dbf8faaU, 0x3d9c9f83baf41bc9U,
  0x3de4b245be76e80bU, 0xbebaeaff3d88874bU, 0x3e23b490be622b27U, 0x3d504c32bcb35a5cU,
  0xbdb894363d69ebdcU, 0x3de42300bcc620dcU, 0x3dbbbb69be6299a0U, 0x3d7bb8e2bdb73b19U,
  0xbb7aef443c97a700U, 0x3e8f2dcd3e215f32U, 0xbd58423c3d5fbadeU, 0xbdac726a3e6c42bbU,
  0x3e6908723d61591eU, 0x3e6faaf6be836500U, 0x3daf4a293e24b4b1U, 0xbcbc844c3d15185dU,
  0xbcbad35cbe74eceaU, 0xbea8954cbc07d6eeU, 0xbd93697dbd620446U, 0x3d93e544bd4e3711U,
  0xbc242a43bd93a789U, 0xbdce74fa3cdcc141U, 0x3c9a6662be51f370U, 0x3d967e853d341696U,
  0xbbc4e6f63d5d8c8cU, 0x3e9186873e18887fU, 0x3df6a177be0a5878U, 0x3d0d508f3e60b4d9U,
  0x3ae9b701bd8842ddU, 0x3e3d7b19be986639U, 0xbdef7129bbb91f1aU, 0x3d4b5967be35c5b4U,
  0x3d1d5439be5c3199U, 0xbe6937d73e052e56U, 0xbe6c04e7be6b91ebU, 0xbd6dd8553d156817U,
  0xbe6f16efbe09c4beU, 0xbe2b2024be541248U, 0x3d270973be981c73U, 0x3d29d066be83ccfeU,
  0xbe6581cc3d8797a2U, 0xbcadda8c3e005bb9U, 0xbe019707bdc7072aU, 0x3d1657563e00289aU,
  0xbde63588bcc9342aU, 0x3ba29e97be0f62f6U, 0xbc8fdb063cd3295bU, 0x3c7b26ca3dd11268U,
  0x3e168b583e54d1c8U, 0x3dbb02d9bd88e536U, 0xbcb761adbc8d6029U, 0xbc9f9a033d6a5a40U,
  0x3d8d3e873c8e3001U, 0xbc29bc04bdda83d2U, 0xbd29f2c33d16dc7eU, 0xbd7077d6be5f4aafU,
  0x3d8de264bd039bc8U, 0xbe219046bd60d5e6U, 0xbe955a22be64d88bU, 0x3d808a6ebd82db61U,
  0x3e6e009f3e56d264U, 0x3e29eb50be25b760U, 0xbdfb8b07bbb70721U, 0x3c04cc423cffb3c3U,
  0x3dc81ac93e6724d3U, 0x3b4bdcdb3de9b039U, 0x3d836d20bc7f339fU, 0x3e3488e93c691494U,
  0x3e4b4d1a3d3b072fU, 0xbd1eb3bbbd6dafa8U, 0x3e9f178b3e0fd2cfU, 0xbd948ff83e17fa7bU,
  0x3d7cdf133e010ba9U, 0xbc7922b0bd32f83cU, 0xbda1d0d53e0970afU, 0x3dfb5707bcf17c96U,
  0x3e1d79bc3e8fdd3aU, 0xbe7b9a6bbe68b74dU, 0xbe32c5493d8c0377U, 0x3e02d38c3cb4ca58U,
  0x3d815aa83cffc7c6U, 0x3e1a03b13da296a9U, 0xbd47bc1e3e1ecd44U, 0xbe34fa983dd2ffceU,
  0x3e5a5b2c3d647188U, 0xbcd6ccfe3dfc9076U, 0x3de6074d3e8eebf5U, 0xbc51a4c03cce22a9U,
  0x3e0549ea3d2f50bfU, 0x3e861ccbbe015c35U, 0x3da15c7c3ba958dbU, 0x3dad62e93e4dc276U,
  0xbdf90e1a3cc9235aU, 0xbd25ac3abdf71117U, 0xbd6281173e633c18U, 0xbe4470e43e325d32U,
  0x3d190ad73e5aba2bU, 0x3d630a53bd70a83aU, 0xbdd8bcbe3db702bfU, 0xbc05f7073ccf26ddU,
  0x3e71148bbe55c1cbU, 0xbec241343cab3401U, 0x3b24826d3e8cd9deU, 0xbd4cd2bb3e615c64U,
  0xbe0d5ec2bde0758fU, 0x3eacab0a3d2d1a44U, 0xbcb0271b3d25d9c5U, 0xbe168f0cbd9b2994U,
  0xbc83eed63e807bc6U, 0xbc092b11bc070094U, 0xbdbd62793ed572a9U, 0xbda2ad4a3e916f6eU,
  0x3d8f1a483dc4d8d1U, 0x3e4fb068bdc815b3U, 0x3e1e53ff3e68e673U, 0xbd87480b3e21b306U,
  0x3e9dc7893dc39df6U, 0xbdee93563e4250edU, 0xbd85c82c3e4f89abU, 0xbc9a7dd43ce4b8afU,
  0x3d99bd3dbc8979cbU, 0x3dd11904bc44b95dU, 0x3db50ccc3e3cda42U, 0xbd679a403c9f04dfU,
  0xbe7656e63e1661f0U, 0xbe381b8cbcb06905U, 0xbed591043ca6ea14U, 0xbd08d607be3b85d5U,
  0xbb93da143bf172d3U, 0x3e8102ef3c76e4c5U, 0xbe9aa7d73e68d83fU, 0xbbe46ec03c7e8cccU,
  0x3e5f269bbdbdd836U, 0xbd8acbce3d615a25U, 0xbd9771b73e3d5dd3U, 0x3c4973003e6b6d60U,
  0xbe53f6fe3d1bdc1aU, 0x3d6f049d3d1637d9U, 0xbea2d1b8bd131996U, 0xbca01c84bd4c7211U,
  0xbe48b55dbd80ec4dU, 0x3e1937fbbe77889eU, 0x3d7c7da93d190dcdU, 0xbe8077abbe3afc95U,
  0xbd7571243d1aadc0U, 0xbdf0c410be5cc3c0U, 0x3eab5c98bd04c570U, 0xbd3a650abdf08770U,
  0x3ec24d35be7764d0U, 0xbea0a2453d938b4cU, 0x3df0ffb83be60cc1U, 0xbd8ee9bebde9d264U,
  0xbe97f869be945212U, 0x3debd19c3db5b632U, 0xbe509ebfbe3b1f3fU, 0xbe7d97243e293145U,
  0x3e54689abd1fafb7U, 0x3e463088bd702c00U, 0x3d64a1153c52a0b6U, 0xbd58502fbd1e0ec1U,
  0x3c5fd574bd3d5b0dU, 0x3da70300bd87d4ceU, 0x3e03941f3d4b5a6aU, 0x3e731107bd9250cdU,
  0x3de0973abe91123eU, 0xbe6f35193e01ea29U, 0x3d1cd3833e452fdcU, 0xbcd330603e01a6bfU,
  0xbe1a89c9be128f4dU, 0x3eaa90893f013899U, 0xbd9c230d3d60c367U, 0xbe0bd36d3e9ab003U,
  0x3e61b0abbe01cb30U, 0xbe5397273c6153eaU, 0xbeb4b569bf106f95U, 0x3bb6653abe5b03f0U,
  0xbe18cb09be368347U, 0x3d89917d3805420dU, 0xbdecf97fbca439e6U, 0x3d1e00cbbd153430U,
  0x3db7fc73be9d1250U, 0xbf0b7271be2b0b47U, 0xbe8521683d58789fU, 0xbd7323103cdf0c22U,
  0xbf011a5fbd0fa148U, 0xbbcf03d03d0d7e54U, 0xbd269434bdc00362U, 0xbd73c2963e207ab3U,
  0xbb8b3fe9be40c0c2U, 0x3e14d0963d8a0a0cU, 0xbda9e90dbd92ad4bU, 0x3cd1f8d4bc445e69U,
  0x3daa7c903e06e1f1U, 0xbc8e595b3bbb03e6U, 0xbd1566e6bd323986U, 0x3e0c57d1bdcbf35eU,
  0x3cc604ed3d94e249U, 0xbd8e1317bdd6a40dU, 0x3e262cf7bd84031bU, 0x3d287a5abc324dcfU,
  0xbd626409bd8c2f37U, 0x3e66261e3e273d17U, 0xbe035f4abd82217aU, 0xbd8a892ebab6e3e3U,
  0xbe1892443ca535d2U, 0xbd85da703c919c6cU, 0x3e2066d0be0de659U, 0x3d77d388bddea914U,
  0xbd8a7252bd53a1d9U, 0xbb98a5563da86cd3U, 0x3d9d5a3fbe76d6f5U, 0x3d67b58dbcea3fafU,
  0xbdac9d5d3d726e1cU, 0x3dd0882a3d166594U, 0xbdc37bee3d0df92dU, 0xbc87d4ecbcbbb6a0U,
  0x3d838fe63d490d6cU, 0xbe32594abd557161U, 0x3e53e329bd9c63c3U, 0x3dafe20fbe169f5eU,
  0xbdee7a7fbdfbf2d6U, 0xbe8b68f13e0b3a8bU, 0xbdd18eadbdc71dcfU, 0xbe5f075f3e1fe327U,
  0xbe83133d3e18fd52U, 0x3cdae57abe328201U, 0x3ca2b4583ca9a3a2U, 0x3e0dceb6bd41cbecU,
  0x3e5eebcb3d20deaaU, 0x3cf5302dbd68b139U, 0x3c3401e03dc8a652U, 0x3a266a803da083a3U,
  0x3d8de9ac3d49dbe0U, 0xbd481e08bba26706U, 0xbdf31785bd596e55U, 0xbd4b2876be444248U,
  0x3e45dfca3d0d9e60U, 0x3e9b4177be0d59fcU, 0xbc5004ebbc436228U, 0x3d75fb47bd361542U,
  0x3d85ad533e55db27U, 0x3e093752bd94ce28U, 0xbdbe8a41bd941ea8U, 0x3e850fc2bd75ace2U,
  0xbdeaaec8bdcb1b1fU, 0xbdc664443d9dca50U, 0x3e40f34b3e3533b8U, 0xbd5dd5e03de2b267U,
  0xbe694451bbe8d0daU, 0x3e5065fd3cd18685U, 0xbd60fe86be472dccU, 0x3ce4303c3d975726U,
  0x3e3bebc5bd92a4e3U, 0x3e5de9f73e0cd702U, 0x3d9f67733da3a88dU, 0xbd3e6f493cd03c9bU,
  0xbd80288cbdb8ae79U, 0x3dd7f9f9bc6a227fU, 0xbb9feea4be1c239cU, 0xbe1725d0be332d25U,
  0x3d4728563c703aeeU, 0x3df766c8bd72c6e4U, 0xbcf669523df52e9fU, 0xbc9207b43d9e45d4U,
  0x3dd912243dd33429U, 0xbe3c89133c19df02U, 0xbde82ae4be7bd0b7U, 0xbdec4bce3d37c6f5U,
  0xbc8610bfbdfc6916U, 0x3d00f20fbd8b9191U, 0xbe7175313e8be025U, 0xbc9809f4bce5f6c7U,
  0xbe243141bce222e7U, 0xbd427655bde69985U, 0xbe7ba793be0a7c01U, 0xbe5a1b08bd8d5113U,
  0x3dc51dba3dcc925fU, 0x3db2e589be4b298dU, 0xbd552601be7d48fbU, 0x3d2c1666be6eadfaU,
  0xbcd56f91bcf7f9f0U, 0xbe647a21be0cccd1U, 0xbe42ed76bd2a56d6U, 0xbe2d740e3e1b4664U,
  0xbe70751d3d7676a9U, 0xbd0c197cbd82eba5U, 0xbe66e8a9bc19ebe9U, 0xbe7f7c783e1cfb7dU,
  0xbdaa2aabbc91cf81U, 0xbe279ab1bde90b30U, 0xbe80ac8f3dabbca3U, 0xbd7a5453be359535U,
  0xbda80d19bcbebda5U, 0xbe3ea306be561cf5U, 0x3b27af233dda35a3U, 0x3d4b84623da4da68U,
  0xbd2de19d3d1dd5c8U, 0x3e8a68883e097209U, 0xbe665ebdbdffa466U, 0xbea06913bda8e1f7U,
  0xbdf4e6ddbe2f957dU, 0xbb85a8e5bd12995dU, 0xbe3a67513d678715U, 0xbe90b39f3dcc0724U,
  0xbe887e62be33fb76U, 0xbe070379be4c6054U, 0xbdd75827be35459dU, 0xbe2dfee43d2c3de4U,
  0xbd95d3083be5f8aaU, 0x3d022879be778134U, 0xbdb4457abd814abdU, 0x3d80092dba8bd692U,
  0x3dc41c6bbdf0006eU, 0xbbef708cbd11d713U, 0xbdc54169bd034375U, 0xbe0f5be13ddb7a5aU,
  0xbd935c7dbc9c5f44U, 0xbea2d0c53e29d141U, 0x3d488e1dbdc76240U, 0xbdc948233d73e585U,
  0xbb8e27d6bc52cccaU, 0x3db319b1bdfafe11U, 0xbe5f9cb13d9d5bfeU, 0xbdc9a1833e85d163U,
  0x3e7b0d5cbd0fbb7dU, 0xbe2f0d803ea970bcU, 0xbcb9c5b3bcac45d4U, 0x3da36ff93ca789b9U,
  0xbe2b0950bdf656cbU, 0x3d8cf180bd779b0fU, 0xbe149e643ea4d5adU, 0xbd246120bef28aceU,
  0xbe29d0683d8f1fadU, 0xbd757f2e3ddd00dcU, 0x3dc4557d3c6a9102U, 0x3dc5a562bd801f61U,
  0x3d08907fbe128d1aU, 0x3d60a7893e3c846fU, 0x3dc2e983bdb7fec0U, 0xbe07a255bd675654U,
  0x3e2b4e9e3e0f70bfU, 0x3de068fd3e1c42f7U, 0x3e932db9bc4a8f73U, 0x3d9975e3bd313370U,
  0x3e317fc83dfb0730U, 0xbde591243e1d8263U, 0x3debf84b3d29a8c3U, 0x3b82c7c2be05616bU,
  0xbdac3ed2bdff1270U, 0xbe86fcd7bd3e700cU, 0xbd3a8825be19564dU, 0xbdb231433d77d2a1U,
  0xbe01b2a9bc9f1bcfU, 0x3cbd0da1be48564eU, 0x3d336971be1dfc70U, 0xbe8490b33c7ab02cU,
  0x3e04dfabba539b06U, 0x3e0ec0c4be239a59U, 0x3e22c7e6bd0c5b24U, 0xbd5bcf86bdff6ef1U,
  0x3dc91023bc6f137aU, 0xbe362a4fbc97e0bbU, 0x3dc664353e0e6f6bU, 0xbdcc46f7be3428f6U,
  0x3d07136dbdffead1U, 0xbe10cdeabeb35a64U, 0xbe097a763d1b12c6U, 0xbcc5b874be2972fdU,
  0xbdcfa923bc1d2cbaU, 0xbdfda902bdee41aeU, 0xbdb6311abddf511eU, 0x3ce5926ebe48acc5U,
  0x3da22439be1cdd15U, 0xbe0fe642be1680c3U, 0xbd19c3bebdc4994bU, 0x3da9b495be4030c1U,
  0xbdc05da6bd9a3910U, 0xbeafd8c1bdd7dfceU, 0xbd3077e73d9d17e5U, 0xbd231ebfbd34dd8bU,
  0xbe9cb29f3c972dc5U, 0xbee7f0e13e501c22U, 0xbbe61406bebf2558U, 0xbdc15b393d947bbfU,
  0xbd8e12d8be657056U, 0xbe279e39bd9e51afU, 0x3d36553bbd76993eU, 0xbe94b06a3e3ae2c0U,
  0x3e5878173c74c011U, 0x3dadd979be0a7597U, 0x3d85a699be79bfc5U, 0x3ccd2a40bdb6316aU,
  0x3e13768a3dca070eU, 0x3d87eedc3d90a6afU, 0xbc48b8353c9992ccU, 0x3cea6458be88c29cU,
  0xbe590e5cbca9cf4dU, 0xbe78bf8fbe10cad9U, 0x3df3b59abe97a12dU, 0xbdc01d46bddc57c3U,
  0xbd92f245bdba8687U, 0xbd90f60dbe16bac5U, 0xbd4febbc3afaaac3U, 0x3d134cd9bd869308U,
  0x3e0120653d095b1eU, 0xbd061961bd761eaaU, 0x3d914aadbdebe3e2U, 0xbd97a4debe62ec24U,
  0x3c942b6abd86a9a0U, 0xbe292993be3b6905U, 0x3e02f54c3d651f4dU, 0x3cb736acbea13214U,
  0xbd5c61a13c84b93cU, 0x3dbbd332bd8f335bU, 0x3d71e035bd1dcf0fU, 0xbcfb4e7fbd6a94e6U,
  0xbd6362d63c0e6dcbU, 0xbe74e7febdbabc91U, 0x3defd5cabd22f97aU, 0xbdc82513bb0304f5U,
  0x3db4f78c3d68ad9cU, 0xbc223886be4a3678U, 0x3d689e4ebd52c1c3U, 0x3da27de53a8a66d0U,
  0xbda79d1b3d01c4afU, 0x3d58b3b33cec1d2fU, 0xbdac290bbc76b9ebU, 0xbe6e42e1bc394933U,
  0xbe0c0eaebe227a7aU, 0xbe7bd8603d7bd9d2U, 0xbd1e0073bd911d0dU, 0xbda4ac403e0b0669U,
  0xbe5bf4c8be7f07abU, 0x3de49769be1230a2U, 0xbe89c8ffbd8a4902U, 0xbe8bd532bdc21d88U,
  0x3d26c5febe2dab40U, 0xbd8601a83d972fb6U, 0xbc8de4293e5665a3U, 0x3cd9cbd43dc25884U,
  0xbdb44ebbbd90c181U, 0x3da2384e3e683048U, 0x3dae3ccc3d562d30U, 0xbe09245fbe79dd29U,
  0xbb2211b23df04a9eU, 0xbe194e323dde9e9fU, 0xbd738888be71c87eU, 0xbe40d641bd977fc5U,
  0xbd34c6e2bdd27575U, 0x3d2a79edbd8e118dU, 0xbe4fefb23c4524d5U, 0x3e20e539bd0f4810U,
  0xbe017829bd63458dU, 0xbb404bfbbe0e61c2U, 0xbd024297bc76a975U, 0x3d278d403c353312U,
  0xbd7366fcbde34397U, 0xbcd1bee33d8b192fU, 0xbe55a1bbbbe7503eU, 0xbc3fe8f0be8d2755U,
  0xbd4c561dbcc7d798U, 0xbc5e3461bd988f4dU, 0xbde67084bd5af9c6U, 0x3b9173083d07c3a4U,
  0xbd74760bbd9f1b13U, 0xbc964cc3bc6e8d1fU, 0x3cbcaba0bb037006U, 0xbde4e2c13c0609f9U,
  0x3e118c1dbdbf871bU, 0x3d280fafbc370c79U, 0x3a836e6a3dc5a9e5U, 0x3da52b5d3e10c8cfU,
  0xbc676afabcbf1616U, 0xbcc8994abe4bf112U, 0xbe5dfca7be5dfbceU, 0xbddac28ebc3df017U,
  0x3e2066b23e28d3a5U, 0xbe3c2809be15e26bU, 0x3b7757b8be46b496U, 0xbc9ca66cbe94103cU,
  0xbd1cd5cf3da9e6bdU, 0xbd9c65873ce2420aU, 0xbdae39bf3e82e5e5U, 0x3da4dee8bd074275U,
  0xbc18850bbcf0e644U, 0xbd243ee0bc74681eU, 0xbcc1ff94bd82b5afU, 0xbd84ecb0bcfe95c6U,
  0xbe64e28dbd62687bU, 0xbe193a15be3c3db9U, 0x3e3ae877bdd26c4cU, 0x3da3d17ebdf761aeU,
  0xbe0be373be1c78b8U, 0xbcd16ded3e0fe923U, 0x3e27395dbcfd9d4dU, 0x3d1393053dd052a8U,
  0xbd418fb0bda3f134U, 0xbe27a1733ba2df71U, 0x3d641cf7bdc9a04dU, 0x3dd59ddbbe041f3dU,
  0xbe02ab853dd369a0U, 0x3e5024373d42f82aU, 0x3d02db183d998bf7U, 0xbda031763e427562U,
  0xbd14b887bd043ea5U, 0x3cfe2c243d6c6712U, 0x3db7aa833d00f1b4U, 0x3cac5ea2be216307U,
  0xbe00149dbc1a4e92U, 0xbe8bd959be1f18ddU, 0x3cfa76883d9c4165U, 0x3ccb494f3e5aaad4U,
  0xbdaa19b0bdb59bfaU, 0xbe6c4e8b3d557914U, 0xbd622ca5bd22f4a5U, 0xbde935dc3db74ab1U,
  0xbd49b3fa3dd5d9c2U, 0x3c7d2592bdbdd1fdU, 0xbc6a522ebdd14dc4U, 0xbc15ab98bdbb4607U,
  0x3d616560bd8016a2U, 0xbe6d5a11bcaa3741U, 0x3d742a613d9be7dcU, 0x3d8004b4bd8a7dd3U,
  0xbe16669cbd801563U, 0xbe6de2163d54b77fU, 0x3d4a74f83cb22f7eU, 0x3d9511d2bda0a6e8U,
  0xbe23e9e2be918edeU, 0xbe215205bbd9c429U, 0xbce42e36bdcbbb9eU, 0xbed53621bd72d0c7U,
  0xbdcddc863c9e680aU, 0x3e0829f9bd95c8a3U, 0xbd112558beaa3eeeU, 0x3d9c9c89be132246U,
  0xbdd139603d14a256U, 0xbf11c052be6bf9d6U, 0x3da26efebe1dd13dU, 0xbd4b3a15bd81365fU,
  0x3dc17c2bbd429c05U, 0xbd99b879bcd57d26U, 0xbbacfe7cbda1ffd6U, 0x3dcf64b1bddded8cU,
  0x3d48351f3d180513U, 0x3cd174013d44c48bU, 0xbd1f3d6abddcfd01U, 0xbcba5c9bb91eb3a3U,
  0x3b74dce2bdbf4c3aU, 0xbd6a016ebe2601f9U, 0x3d4c8d43bd3c0d3eU, 0xbd6aa406be46332aU,
  0xbdaed5a73c382ecbU, 0xbdcaa1ee3d7dbc21U, 0xbc8eafaebe3e2222U, 0x3cf74eab3d6a5221U,
  0x3cc3c99ebcbcb614U, 0x3e1f8a9e3dfcb862U, 0x3dd2eff03e4ab9caU, 0x3d342aa2bd300ff7U,
  0xbd0936c7be280d1fU, 0xbd8a43333dab5ba6U, 0x3da3ea36bcda4e81U, 0xbe8d8ee9bdde0ab5U,
  0xbd9c27763dfee11eU, 0x3cc62513bd286c86U, 0xbe170783bce909a4U, 0xbc7acb683dbedfd3U,
  0x3e3e089ebd98d64bU, 0xbdfb73b7bd3d59b8U, 0x3cc1c8693e194c50U, 0x3dbd20c0bd35c5daU,
  0xbde992913ce41fc4U, 0xbdb4e646bd15d1f5U, 0xbd8759dabe17af2fU, 0x3cd79320bbce8ed3U,
  0xbdb0b9a0be3abe94U, 0x3dfe03d8bd8687b2U, 0xbe6231613d8eaea2U, 0xbe1d4c003e0f211dU,
  0xbd941a81bd6b6d09U, 0x3c54e0463d5a9cf1U, 0xbe0f27d43e17ff77U, 0xbd17a4063e671d6bU,
  0xbc79afacbca31573U, 0x3c9b6c5fbd74d824U, 0xbb698d513d9d8381U, 0xbd815066bd7a75f9U,
  0x3df4126bbe21ce23U, 0xbe3cddf73d6d2179U, 0x3e36915b3cf1e81cU, 0xbb2bbf833e12e8c9U,
  0xbe0f88d53c372d81U, 0x3d4a565cbdf95cfeU, 0x3d054d113e0760e4U, 0xbe599655bda2ac08U,
  0xbd49ce073d1e4c55U, 0xbdb478443e06279aU, 0xbc0915313e653193U, 0xbc2157183e87330eU,
  0xbdb500b2be000431U, 0x3df89d0abdad4bc4U, 0x3cb34b783dfc9f17U, 0xbd3378a13ce7b4d6U,
  0x3d2784443e0d7e23U, 0xbc9b9b523e5f6427U, 0xbe0601783e0f60b1U, 0xbd8249ba3e6d4690U,
  0xbe2d2382bdbb8ca7U, 0x3e5503d3be218578U, 0x3cc132333dadbb81U, 0xbebdd16dbd860396U,
  0xbd5ff243bd08c518U, 0x3e240669bda1ec3fU, 0xbe4f5e6b3e466191U, 0x3b11ff603dff6fb1U,
  0x3c9300b4bdcd9bb0U, 0x3deac4693ddc5866U, 0xbdeb66aa3e4bffdeU, 0xbdb9dcd43cf3c241U,
  0xbe219daebd9491daU, 0xbd32725fbebf75b3U, 0xbede8c3e3b95ceb8U, 0xbe234c8fbccd58e3U,
  0x3a7a7bc5bbd01245U, 0xbdabdab4bdc3109aU, 0xbdf9ff7bbdf19189U, 0x3d05be75be64a421U,
  0x3e0c7e38bdbad54dU, 0xbe30bad43d0573bdU, 0x3e4d0bf1be73e0cfU, 0x3c88b1d4beb2cd90U,
  0xbde82440bd926645U, 0xbda17902bd0f8202U, 0xbe85e3a2be7a4c0dU, 0xbe48e62abcbf1846U,
  0xbdaa497f3e62e385U, 0x3c98ea45be4b4876U, 0x3dfa03003cb25739U, 0xbd858509be24e2d0U,
  0x3deccbc43ddd9e91U, 0x3ce5727bbd8c7fbbU, 0x3cb944323c03a77aU, 0x3d9a2342be301921U,
  0x3e735c39bccf7c90U, 0xbe7930053e768713U, 0xbd5d650bbc21fc5aU, 0xbd39cdcbbd14b650U,
  0xbe3782e73d73f349U, 0xbcc40defbdc233e1U, 0xbd4e4addbc1c98c4U, 0xbde5ec95bd6fe56cU,
  0xbe712c4fbd306a2dU, 0xbeb810ed3e00dd5cU, 0xbe13fec3be850e6eU, 0xbdfc51f0be39e199U,
  0xbdc367ed3c457abbU, 0x3da5aaa7bc628fd5U, 0xbdfb8842bd7b5e93U, 0xbdc9493b3d5dab87U,
  0x3e27adc4be9f778dU, 0xbe659a673e81b079U, 0x3daa76ef3dfe67f2U, 0x3d63d056bc10f4bdU,
  0xbd274e96bd22526cU, 0xbdfe3f9c3dbc60d8U, 0xbd9217123dec39daU, 0xbdcef913bea2c6a2U,
  0xbcf1acbebefc7919U, 0x3e75a734be789bd7U, 0xbea770f53dfcea05U, 0xbdd471efbe6c6f83U,
  0xbd585435be816cc5U, 0xbe042658bdce4b1cU, 0xbd67fc68bd5dbcc5U, 0xbe380b313b3dfa8fU,
  0x3d114353be352864U, 0xbeaac6b6bc8f88a8U, 0xbda5d47ebd6a33fdU, 0xbc44ab683dbd0c07U,
  0xbd9cff30bdb3f0fcU, 0x3d032153bdc72728U, 0xbdcb76fb3cd6dea8U, 0xbdaa6fd73d1f63efU,
  0x3dbe271e3c75527dU, 0x3eb6ebdb3bb09fecU, 0xbdc149d13dbacfc6U, 0xbbd209c7bd47d045U,
  0x3db65639bc97ec39U, 0x3d6a32c2bca8e52cU, 0xbcab9f973cc503f1U, 0x3dfd985dbd99d22aU,
  0x3d92321abe2ddf16U, 0xbe897300be56ed6fU, 0x3d916d523dd75155U, 0x3cd9b30c3ef1407cU,
  0xbe235254bdcc835eU, 0x3ea5e5f63dc59fdbU, 0xbc026c843e2ecf4dU, 0x3c796ee03e1493eeU,
  0x3d95a65f3e0b9ffdU, 0x3de3f0c23dfa02e6U, 0xbd6a16c53e0ee618U, 0x3d40cb66bcde071bU,
  0x3d6be937bd8cf817U, 0xbd3c165f3d6e37ddU, 0xbe57ef993d32e741U, 0xbdb534643cb9c699U,
  0x3e4bcf47bdf8842cU, 0xbe5c687bbddbfb82U, 0xbbe9fab73ddcb2ecU, 0x3cd825c03ba6d464U,
  0xbe20f4283c31c2ecU, 0x3e006f053d48c37aU, 0xbe524af13c4940b0U, 0xbd7e9c443e661d4bU,
  0x3d0956b0bc96f886U, 0x3de871eebe726397U, 0xbe5039ad3c93b753U, 0x3cb82f6a3b38819dU,
  0x3dd23f1a3b5b5390U, 0xbe363ab53d8c886cU, 0xbd63c72cbd7ee168U, 0x3e4b7f0dbd6ea77dU,
  0xbdfe974c3d0f0513U, 0xbe375fc8be7ce8a5U, 0x3eb47fa2be97afbcU, 0xbcf2176cbe6850aaU,
  0xbe120879bc97065fU, 0x3dee20d13e74fe75U, 0x3dd3070fbdee4322U, 0xbdb473243c8f1dc9U,
  0x3df76c9a3e330043U, 0x3e5a4d773e05114dU, 0x3dfea6e6bd7b87c2U, 0x3d8447f93cdb3243U,
  0x3d287000be324597U, 0x3cb7dee33ac89312U, 0x3de678f8be2a33ccU, 0xba98fefe3da2d399U,
  0xba8d61cdbacdc8e1U, 0xbe9184d63dcb3a2cU, 0x3dd2d2473dca4746U, 0xbce717763d7ad2a9U,
  0xbd852d3c3de811d2U, 0x3e091875be45a16aU, 0x3d013d7f3e362caeU, 0x3d9007df3d797c5eU,
  0x3e36ad533e1b94d5U, 0x3e0c8e28be8d48e0U, 0xbe9df9d33e024addU, 0x3d994dce3de832d3U,
  0x3dad6845be800c65U, 0x3e04d51d3da255fcU, 0xbe99b0cebdb4eb1fU, 0xbe62688b3e225b70U,
  0xbdc629c7be135f4eU, 0xbe7552733d7cb3b9U, 0xbec506db3c1c64a6U, 0xbc121728bd95343dU,
  0xbe4b5607bd1d1d20U, 0x3d8a09583e368eebU, 0xbcd3eb093d2b6763U, 0x3d337e3a3e53b545U,
  0x3bab8278bd0d3cd1U, 0xbdcb23d93d6e099dU, 0x3d36b9a13e2e7155U, 0x3b88bb983c033ec8U,
  0xbd6a258b3db72474U, 0x3d42a1653deb66b5U, 0xbd89534ebd9f4322U, 0x3e44c7523ca0544eU,
  0x3eb1deec3cc5e6f8U, 0xbd456b623d20399cU, 0xbd5215ddbb430636U, 0x3cb8eef43db94837U,
  0xbd84a1463b878d8dU, 0x3d0ed3d6bd15fe26U, 0x3d11c2183bc32b33U, 0x3dacdad0bbbd9c04U,
  0x3d5343633da3ea57U, 0x3d8ffb17beb43716U, 0xbea6d40f3ca26e00U, 0x3d46ca61bc8ece94U,
  0x3d50377c3ca496b4U, 0x3e18c42d3c529d93U, 0xbc8d2e093e0bc5ffU, 0xbdb191173cc8172dU,
  0xbc33aef4bc7ebce8U, 0x3dedcdc53b918f42U, 0xbc9261463d2b1759U, 0x3d404e62be0b731cU,
  0x3cf194913dcf8cd6U, 0x3c531371bc159ae6U, 0x3cfb4e033dde710bU, 0x3bbec120bcdfbe7dU,
  0xbd91eb37be90710bU, 0xbd2ef6ffbf11f86fU, 0xbdbe91db3d330cfbU, 0x3dff419dbeb2464fU,
  0x3baef7a1be1d9145U, 0xbd03cae03de41533U, 0x3dd94609be25bdffU, 0xbe31911c3d70a0aeU,
  0xbe12386bbd305c5fU, 0x3db7d94e3dde730aU, 0xbe1e2d5fbdc4b7b9U, 0xbd8c25d6be246df5U,
  0x3d6aa15cbdaeb685U, 0xbe948c60bdbb7103U, 0x3cd6ebd03e5ba66dU, 0x3e7349003e7d180bU,
  0x3c118b9abd627b7cU, 0xbe335229be3b00b3U, 0xbdffcaddbcc1047aU, 0x3d1f46e73d5f3434U,
  0x3c2a5e813e123d6fU, 0x3e25bbc73bda4fe3U, 0xbde517a23d2e77cdU, 0x3dfa3224bda0fa76U,
  0x3d752f1bbe1ebcc8U, 0xbe49e13d3e0c6c0aU, 0x3bcd3f6c3d8e5671U, 0x3cf2322c3e3775afU,
  0xbe73b2ccbde6ce6eU, 0x3e1469503d746299U, 0xbd94ea48bd3d052dU, 0x3dd1e7e6be697aa6U,
  0x3cdcb874bd0d080bU, 0xbe323444bf0fddbfU, 0xbe447ba6be1c5afdU, 0x3d9b3cafbe07fd4fU,
  0x3cf169aa3d94500eU, 0x3dfa7ecd3dd2976aU, 0xbd0456743cdc798dU, 0x3d57619ebd73cf8dU,
  0xbdbde2b6bc31c005U, 0x3d1e0214be429c49U, 0xbe620fd33c53ac8dU, 0xbd5c034bbe5c8c86U,
  0xbb7efddd3d891b47U, 0x3dc417f63c8108f3U, 0xbd8e32bcbd96499bU, 0x3dbcdbf8be5447fcU,
  0xbd701234beb1891aU, 0xbda21670bea464f6U, 0xbd0804d53d56c0e7U, 0x3da69f19bdcb7ce1U,
  0xbd71ba903dcaa4a0U, 0x3bc6214f3df9b54eU, 0x3db00d71be1c8428U, 0xbd5784b9bdcbcbf3U,
  0xbe8c49b23d3a0350U, 0x3e09b08dbe43921bU, 0xbea9d932bc9026b3U, 0xbd7cb7e63dca6c71U,
  0x3e1cb73f3da9b6b7U, 0xbe221003be885d24U, 0xbccc4e7a3ba1d8fdU, 0x3e53f6af3dcfad78U,
  0x3e0719743d932bf1U, 0x3cd460d3bed62bf8U, 0xbed8409c3d98b44dU, 0x3e1f421d3db693a3U,
  0x3d60ef093e17da9aU, 0xbe8b98d73e03238eU, 0xbeb94b86bda5aaf5U, 0x3dd3b008be461aa1U,
  0x3d5834f5be5d4a39U, 0xbead1fd3beb31b90U, 0xbd7711e8be3c9639U, 0x3d24826a3d0cf05dU,
  0xbe1c2a83bcb462abU, 0x3e1c6c4e3c6195f7U, 0xbc71ce25bebfb5e5U, 0x3d4595cd3e46b45dU,
  0xbdc470193d3172c1U, 0xbd4bd9a8be60a100U, 0x3e4d48edbe791548U, 0x3e416baabe8f81efU,
  0x3d91004f3e078018U, 0xbe5092663e15ddfcU, 0xbbf2cef8bd3e03ebU, 0x3b35aebe3d9b4840U,
  0xbb4246b23c7ac123U, 0x3c5b1240bb233fccU, 0xbe6e0802bd397065U, 0xbd381b26be51d4aaU,
  0xbcf758553d855136U, 0xbe1b0fdebe895590U, 0x3daff79ebde1be40U, 0x3e634f05bdca72c2U,
  0x3da1f110be651416U, 0x3d87ff943c3769dcU, 0xbdeaabb4beb7be9dU, 0x3e21186fbea4467bU,
  0x3dd4cffd3deceefdU, 0xbdf842183e0bc0baU, 0x3e258acebd9f488aU, 0x3e2729e6be407e71U,
  0xbdd3b27e3cdeca01U, 0x3e50138abde19969U, 0xbe4a3806be1e3a47U, 0xbd8bbcdbbdbdc51aU,
  0x3df36f0cbd04f5b7U, 0xbf1c9db7bde53bbdU, 0x3c9a95bdbe0c922bU, 0x3e24ad5f3b6e8221U,
  0xbe73262c3ca5eb99U, 0xbe934251be87ba1fU, 0x3cb9b954bea4465aU, 0xbc0e24d9be5309beU,
  0xbd926720be3a60adU, 0x3c3b91dfbce4c129U, 0xbd246df43c81cd3fU, 0xbe7d0889be0de0deU,
  0xbe4c3f96bde65db1U, 0xbdee40f2be4d9b3dU, 0xbe96e0913e07fc30U, 0xbc9a72543d130a1cU,
  0xbd506d11bdbc8adaU, 0xbdeefe77be035c64U, 0xbdb3c344bd5a30a7U, 0xbdd48667bdef68d8U,
  0xbe5a2fc8bcbbd1f3U, 0xbf2a36f5bf083fc4U, 0xbe753b1bbe751ee4U, 0xbd7134c33cdad275U,
  0x3b26929dbd9fa9e8U, 0x3d5f1ea43cf1d0ecU, 0xbd8b755c3dafefc6U, 0xbd6d36a83b82c915U,
  0x3cb5eb21be071abeU, 0xbab2b32bbe62fae0U, 0xbe3610ef3c323b65U, 0xbd0d2bf63e00cbb7U,
  0x3dc43cbdbc8a334fU, 0xbe29f331bedc7cdeU, 0xbca067e4bc3e6022U, 0xbd9d347cbe2e91d5U,
  0xbe97dbfbbe118cdcU, 0xbf21516abda27848U, 0xbd85a00bbdcba7b6U, 0xbe6b51253da67195U,
  0xbe50c4bc3c96eff1U, 0x3d5d1249bbf777f7U, 0x3d70cadf3e1610faU, 0xbf0a8c81bd2c32edU,
  0x3dffa338bc2a6f00U, 0xbd8aa1e23de222d6U, 0x3e59a19e3e1c7800U, 0x3c74f580bca56a46U,
  0xbe17d030bd35fdcfU, 0x3dae34e9be85bee7U, 0xbb031284bd0787b1U, 0xbe1183c6be358e02U,
  0xbd366a8cbc9e963fU, 0xbd97d1d73d23d777U, 0x3deaa8e9bdf55bd7U, 0x3e0d5a6c3e2d2c06U,
  0x3d2b84083e1028a3U, 0xbdb9387bbc77018bU, 0xbda212bfbc56b78dU, 0x3d510c91be3a5a2bU,
  0xbd616ec9bdb5aac0U, 0xbdab8417be467a7aU, 0xbdf7331ebdc964e1U, 0x3d490f2abdaba112U,
  0xbced94af3b0e0d7aU, 0x3d327743bd330b00U, 0xbd07fdc53dc7a71bU, 0xbc52fe933c20e044U,
  0x3c0b89793e8549abU, 0xbd8987febe2e171cU, 0xbe07b32dbc160616U, 0x3d3c0d233deff527U,
  0x3dea94e33dc0fa0dU, 0x3dc637f83c9a9899U, 0x3d7e7e813dd5faaaU, 0x3df6f3fc3dede4c5U,
  0x3d3cb146bd11f38cU, 0x3d82a01dbe233a4eU, 0x3e965247be9ed372U, 0xbd212e70be506426U,
  0xbcb61dc93d417a29U, 0x3e238024bdbcc78bU, 0xbc750b203dca6a16U, 0x3de58e353df88886U,
  0xbe9575b0bd876aa4U, 0xbef921393db33a40U, 0xbcf858373dad13deU, 0xbe0885e33de7586dU,
  0xbeb86ebe3e69c091U, 0x3c843965be05b07aU, 0x3e509db0bd894577U, 0xbe3e8679bd2d48d1U,
  0x3ea571413c83737dU, 0x3de71153bd485fceU, 0x3ee23d90be0973a4U, 0xbd8047e6bcadac74U,
  0x3db1ecb7bd6e3bbbU, 0xbe909bf0bf0befbaU, 0xbe6e9d3cbd86b0eeU, 0xbe2350803dad697cU,
  0xbda3477e3d3196e3U, 0xbd569ae0bdcb4a64U, 0xbd0e033dbd1bcb2cU, 0x3d4c2085bcbb672fU,
  0xbd5d0a833e4c7625U, 0x3d22071abd04149cU, 0x3cd3c4873dcbc044U, 0x3e2e72e6bd43f92bU,
  0x3e32929fbe312527U, 0x3bc7636dbc174d05U, 0x3d5214033d5ead50U, 0xbd945a733d6e51f5U,
  0xbb8c20e53e07b297U, 0x3c82852b3d87ac80U, 0xbd322249be55edf6U, 0x3e0cd4c5be7f21c0U,
  0xbb98215e3e3b2c84U, 0xbe4f1e8fbe3f3b5eU, 0x3cdf9e153e7edba1U, 0x3e07ac103e058951U,
  0x3e11fc083e860323U, 0xbd2ff18e3d9e79eeU, 0x3c2d50b03dadc2a4U, 0x3dbad9303dcb8a4aU,
  0x3e08f5653dd46fb5U, 0x3d03f2103d8e69c2U, 0x3eaacf5d3d3b4e7dU, 0xbccb97003dd4e66cU,
  0x3d0a6f3c3e10c0f8U, 0xbe21cae1bdad2966U, 0xbc61f1edbe579629U, 0x3e2c7c5cbd6e1da3U,
  0xbdab82debe36c207U, 0x3afd28aa3d0fcc6dU, 0x3db576aebd929b52U, 0xbdad27cebc44a0bfU,
  0xbd9365ddbe3064a0U, 0xbd9a18d13d80305bU, 0xbdaeb3703e2fc751U, 0x3d27f96abe31f49fU,
  0x3e644ee33979f7f3U, 0x3dd8e361bdf307edU, 0x3ea3bd80be82e7efU, 0xbbcd6f80be90cd06U,
  0xbdec523bbd96ae19U, 0xbe142226be6aa85fU, 0xbe5981ddbcf7f739U, 0xbd4ef4163c937bbbU,
  0xbd3ae0fabe8f15f5U, 0xbcbb2b1bbab97740U, 0xbe40dea1be4418beU, 0x3c99ec8e3d5e2119U,
  0xbd30d027bd9b7b9bU, 0xbe734eb2bd87ec81U, 0x3c060492be4e1b7cU, 0x3b325ba2bd995481U,
  0xbe4500e6be034ae5U, 0xbd60b0bbbec09587U, 0xbd12cc62bec4e566U, 0x38d9c000be94be27U,
  0xbbbdf755be0672daU, 0x3cc6515b3d6f4941U, 0xbe0e96c53d422b65U, 0xbd4e9debbdffe391U,
  0xbd0ae3d4bd8f82fbU, 0xbd912758bd8e883aU, 0x3e09f4e6be550661U, 0xbd0392babe046cecU,
  0xbe0fe36b3d5c5a3eU, 0xbdb230d13cfa2befU, 0xbdd2e74dbdd1852eU, 0xbdbfb6313c842d1eU,
  0xbda18e4b3d4b445aU, 0x3ce323c4bd4b2a9aU, 0xbdc8e26fbdf2b05fU, 0x3d3bb45abdb88eb3U,
  0xbdb152cc3d5634b3U, 0xbcd90b1bbe2205c5U, 0xbcf853e23ded1401U, 0x3d857452be38b218U,
  0xbd976211bd7cc8dbU, 0xbd03b3cb3d9ba708U, 0x3d170ca2be9d899fU, 0x3d221f813d9f220fU,
  0xbdea73bdbdaa76b9U, 0x3cf3b4afbd79e4fbU, 0x3df3c75fbd8cb83bU, 0x3bdce6093d08e453U,
  0x3d8df8463db92f8fU, 0x3d4104b53dc9ed56U, 0xbdcc29af3ccd8c9aU, 0xba836000bd128ca7U,
  0x3e10b760be0c3122U, 0xbc1a57433d713759U, 0x3c2057ca3d942041U, 0x3d6acbf3be26fec4U,
  0xbe2fd0d8bdaa3f79U, 0x3de60bb03eae4dedU, 0x3d7b16c7be143446U, 0x3d528ac23d82b05dU,
  0x3c8ec2d63d8d596fU, 0x3e3f4b55bd31d8b9U, 0xbde0a3b2bd1cefb0U, 0x3df507813dcf97f7U,
  0x3df74a92bd458fe2U, 0xbd3d0d673e141ee3U, 0x3e9802943e8f81c7U, 0x3d01a2f03d61624fU,
  0x3dedba57bdeab02bU, 0x3e9e327a3ea3904dU, 0xbe15a6c43e957134U, 0x3c9f3c2fbe0b1e74U,
  0x3e044de9bdb93bd8U, 0x3d9b11823e9eb444U, 0x3d1d41b5bd8bafc8U, 0xbd47bb5a3e34b1ffU,
  0xbd998107be2f18ffU, 0x3dad7dd93d4b347bU, 0x3ca6c3213d018f5fU, 0xbc1e16c73e3130f4U,
  0xbd14e9d93d11cf23U, 0xbd57d8233df639b5U, 0xbe6522243e5e9b17U, 0xbd43f0763e0e0095U,
  0xbe3588f83dda6e1cU, 0x3dc7127c3e5f0b86U, 0x3d9071dc3e942032U, 0x3d8d95413d3c1c93U,
  0xbdd35ad23c96464bU, 0xbe34a4f33d7c01aeU, 0x3d818a7a3d851adfU, 0xbdfc4a003d66e710U,
  0x3d0f899fbce0e6f4U, 0x3c9550a2bc4d0b18U, 0x3e20db103b14ec58U, 0xbcbc71313d9e9d50U,
  0xbd0f82423c7c3d20U, 0x3ddf3c88be1ba1d6U, 0xbdb4d8633d98c785U, 0x39aa63003dc4ecc8U,
  0x3dc9563a3c84750bU, 0x3d068a6d3e497af1U, 0x3d7c59163cccb56dU, 0xbd86f5a23bf6022cU,
  0xbe300a60bdc1a517U, 0xbda7f712bd00ecd7U, 0x3db8c7093de3d776U, 0xbe9a0b5b3e4b9be2U,
  0xbdf9049e3e12c75fU, 0x3cddab65be1ff171U, 0x3d376f3b3e82ae8bU, 0xbdf0b0f73b6c06cbU,
  0x3e8890cdbdc41a8eU, 0xbe633ac9bd624692U, 0x3d6975363e26ec9dU, 0x3d6a08b63deffaa0U,
  0xbcc4a59abd8c6366U, 0x3eab673ebe402b05U, 0xbe6aa5683da2f173U, 0xbe16f87ebe4ab6c0U,
  0xbe167f643d07c08cU, 0x3c3aa90fbc8da533U, 0xbdd19889bd0b882cU, 0xbd8ac9063e6458b4U,
  0xbd68dd273afe0cbbU, 0xbe22b801be29bd4aU, 0xbe0e434e3cbbc230U, 0x3db69e49be1d5ff6U,
  0x3d5a0038bd42f91bU, 0xbe5fb427bcdc326dU, 0x3d5ae8a33ca742ebU, 0x3d9e8add3dbd5b53U,
  0xbda5cff63dcb53c3U, 0x3e8875b83e36b2d1U, 0xbbf63689bcd79fdcU, 0xbe0cf2debc50ea57U,
  0x3e0f48b73e23e281U, 0xbd089fffbccd81a3U, 0x3e5145a43dc23852U, 0xbd8125673d9b4425U,
  0xbc824ccc3d862674U, 0xbe3e829a3cd9af33U, 0xbdbb1750bd27029bU, 0x3dee998c3dacc101U,
  0xbe168e343dcd8272U, 0x3e474f9d3e3fc284U, 0x3dda74cebe44deb9U, 0xbb3e2200be0a433fU,
  0x3bd191babc00ed43U, 0x3d6b309e3e0d49c6U, 0xbd97633ebdcb7856U, 0xbd467eaf3d7b894fU,
  0x3eb505093df5c114U, 0x3e27eb19be117241U, 0xbecbd0f63e7465e2U, 0xbc6179fcbdc160d6U,
  0xbd9f03d8be42ece1U, 0x3e0907ae3ab23ff3U, 0xbd8c21bdbd1592c7U, 0xbd6928efbe34d2d0U,
  0xbdbd92a2bd8baceaU, 0xbe24d8c53e8f60c5U, 0xbda99dee3e44ec9dU, 0xbc2d14e83e00f421U,
  0xbe3b74b23da6324cU, 0xbd4ec170bd89177bU, 0x3d958e663de836c8U, 0x3da4c8873e88e540U,
  0x3dfb2abd3a60c643U, 0x3db597863c865cf1U, 0xbd803d213e52e6eaU, 0x3d92bb463e4cb0dfU,
  0x3d733129bc00bab0U, 0x3d66a5d53bca736cU, 0xbdc405ba3ca80a19U, 0xbe01f1c8bd8e19a3U,
  0xbd7dabe13d9bd2b7U, 0xbcb5710dbd55fc25U, 0xbd21690d3de56ff3U, 0xbd7bf1563e28919eU,
  0x3cd75703bd8c00b0U, 0xbebed037bdf22ef7U, 0x3c2deecbbdb99eaaU, 0x3cf350fd3e33e93aU,
  0xbe5319f2bd94d969U, 0xbe8948de3e432e52U, 0x3e218e323e061b62U, 0xbdf22060bcc80efdU,
  0xbeb4da33bd43fc3fU, 0xbe64e9d5bbec5099U, 0x3d9e75b6bdb5cc60U, 0xbe4d567dbe39a21cU,
  0x3e2749153ca6c282U, 0x3d8420653cfa2b5bU, 0x3ec81692beafcc78U, 0xbc8a552cbeb77398U,
  0x3d8f6da13d466164U, 0xbec1069dbd8c6f10U, 0xbe7272f13bffc508U, 0xbe2530973d66cea5U,
  0xbe2227bfbe811ee3U, 0xbe8f8005bed9c3a9U, 0xbe09e88fbe4bbc27U, 0xbd841ea3be5e1045U,
  0xbdf205f8be841eb2U, 0xbe3160853bc7c263U, 0xbe786b47be546fa5U, 0xbe18e7d0bde8ba24U,
  0xbd2096a73db72574U, 0x3ca59c83beae467fU, 0xbe3a3464bd2a7e89U, 0xbd2c2aa0be5e6520U,
  0xbbfb3caa3d470cebU, 0x3c5b40c8bda1675dU, 0xbda5d4bbbdbcdf67U, 0xbd81ef5dbea61499U,
  0xbe1d6714bb7ae943U, 0xbe2b0fe9bdf199dcU, 0xbcb143dc3dcd4986U, 0x3dae1e2dbd33ace3U,
  0x3c0a963cbd39c10dU, 0xbc9963ef3c0b8fefU, 0xbe1e2d7dbe0b4d77U, 0x3d2f35183e31b89dU,
  0xbdb3bfabbbc765d3U, 0xbd17780ebbac75c3U, 0xbd9de8ccbd5a9c23U, 0x3c5d1b00bd62e583U,
  0x3c3d30633d5fbdaaU, 0xbe5d2595bd9a1aa1U, 0xbc9400213d8f0c49U, 0xbc90fe713d1c44d1U,
  0xbec60e36bdfa959fU, 0xbef38fac3ea9e8a4U, 0x3e96748e3e5c5bc7U, 0xbe303abb3da556e6U,
  0xbdd4bb90bb112a31U, 0xbe400820bcd244b8U, 0x3e45f1443dfafb79U, 0xbd39c7733c117687U,
  0x3ea86f273d47232eU, 0x3c3fc4e83d989c87U, 0x3f006912be6ca6b8U, 0xbd241c0bbe53178bU,
  0x3c5e2d003d357b1cU, 0xbe8409f3bda5efc0U, 0xbe0751413e462926U, 0xbe1a96a53ce88d9cU,
  0x3cef90d6be856c7fU, 0xbd4eaa1fbd0bd7c2U, 0xbcb46957bd3d9621U, 0xbcc6969cbdc2744dU,
  0xbd8e8fa5bdd53633U, 0xbe4559a4bd84f0a6U, 0xbc8f2cc5bcf0d730U, 0xbb9e64fbbe086a36U,
  0xbe2ab2173b4a52d2U, 0xbcaa8324be385544U, 0xbe359180be554badU, 0xbd8e9538be05e220U,
  0x3deaafc2bddbfdc5U, 0xbd547ec8bb39685bU, 0x3ddbd83a3c9957edU, 0xbcd9fe51bd95c63aU,
  0x3d2dc1c03cd9d840U, 0xbe3c27fabc00f1edU, 0xbe629041bc0f8630U, 0x3cc77f2c3ddaeb54U,
  0xbd26b008bd48c980U, 0xbdcd5ed4bd42e497U, 0xbe473aacbe60bffbU, 0x3d1520c43dabc2daU,
  0xbe167d71bdd399daU, 0xbdda31b7bded71ddU, 0xbd870065bd8d832dU, 0xbd9060b8be058ae2U,
  0xbd7bc0b33df3809cU, 0x3a9779cebc1741a8U, 0x3dddc0f3be56b3edU, 0x3c3b6cafbd121e31U,
  0xbdacefa5bcf6aa51U, 0xbe31ee2f3e223b45U, 0x3e001b853dfe1401U, 0xbe1b78f33df51a7fU,
  0xbe839615bde70674U, 0xbde08d093db68c7fU, 0xbdd874a5be32cef2U, 0x3d53e795bd22b60eU,
  0x3e0d079abd92c575U, 0x3d825f2d3e145373U, 0x3e92eb5abdae79c0U, 0xbd82838bbc6d2642U,
  0x3cf4c8a8bdb89352U, 0x3ace8c62be0ac559U, 0xbebffa523cc5ec0eU, 0xbe013e9ebe051077U,
  0xbf039a913d42c734U, 0xbf35b9b1be861412U, 0xbd5c1de7bd462ab3U, 0xbe73cb40bdf428dcU,
  0xbc9afa263e517ad0U, 0xbb21f57bbdfc2937U, 0x3bf7723f3e21b484U, 0x3c01c845bd1f1bc1U,
  0x3d8b2cae3d141519U, 0xbd3b7cc13d896941U, 0xbd2431593da0b39aU, 0xbce5e16cbd493c55U,
  0x38e85843bd7be689U, 0xbdb9c380be2b534cU, 0xbe6dcf50bce54002U, 0xbd3a1cc8be6fab68U,
  0xbe3b17f03e5ffd30U, 0xbd82e8dcbe57bebdU, 0x3dc384e3bdff6c76U, 0x3ddee9713cf622d3U,
  0x3e4979253e0a7293U, 0x3e254a483dd13004U, 0xbdef8b453e38880cU, 0x3d1708423d2dcf8eU,
  0x3dd869303d21e8ecU, 0x3d2f937a3d7a2b0eU, 0xbd1a82043e4db171U, 0x3bc3d1b03e46ad36U,
  0xbcd29c613ceaadc0U, 0x3e0895083d00f3e7U, 0xbde9cc3e3d8682e5U, 0x3d4392c2bd8124b6U,
  0x3da3d9f43d0868eaU, 0x3d56358f3e1aa6b4U, 0xbd891bdebd4f319dU, 0x3d98b76e3e5e73dbU,
  0x3d776660bda036daU, 0x3e0f0cdf3d94e711U, 0x3d0267bebda5018bU, 0xbdc2f9683d64f075U,
  0x3e0b86b23d7bb3dcU, 0x3e47efe83e12043dU, 0x3e19983ebd201a8bU, 0xbd4cd67bbd60d40cU,
  0x3e1c69e0bc680b21U, 0xbb03af603dd588eaU, 0xbdcdea8bbd769ad9U, 0x3d7263cc3d9988c1U,
  0xbea72e18bc59a420U, 0xbe8d99bebd95e881U, 0xbe302b87bd8e555aU, 0xbe44dd42bec50f54U,
  0xbe8800523df8f870U, 0xbe2e1d093c6dda63U, 0x3dc1b389be94fd12U, 0xbcee4272bdc0849eU,
  0xbe3a1da93ca54f03U, 0x3d05c28abdb977a5U, 0x3ccc97a0be93dd8cU, 0xbced08a0be81a096U,
  0x3db99730bcfeb435U, 0xbed13eeabe6fdff8U, 0xbe3b3ad8be43191cU, 0xbe3e44e3bd3ce827U,
  0xbe391e673db6d411U, 0xbe858351bebf8d39U, 0xbd7fbf8fbe087856U, 0xbda6b017be4f0453U,
  0xbc104ff33e456e89U, 0xbca9651ebdcc44ceU, 0xbe5191da3c64dcd6U, 0xbdb59981be025030U,
  0xbdd229c73c220b1eU, 0x3c3a381d3d48bd67U, 0xbd2446de3de5ae05U, 0xbcac5b2c3dafe5b4U,
  0x3d9814d7bd86a01cU, 0xbd030e1ebe7c05a6U, 0xbe2cf4dfbebf70bfU, 0xbdb854c1bea9e7fcU,
  0x3e27941bbd7b20caU, 0xbe7b97ebbcd1b55dU, 0x3d8d26b8be6b57b5U, 0xbc9d20b63d584e19U,
  0x3cbf5c80bd4bf6a4U, 0x3d901425be1a591dU, 0x3e22c1f23cb347bfU, 0xbe8934133d483e11U,
  0x3d332c9f3e0dd46eU, 0x3db59cd03c5d291fU, 0x3de3579d3e2c7036U, 0xbd771ab6bd08f92eU,
  0x3d96f8903d8eca3eU, 0x3d092199bbfb3ddfU, 0xbd8bc1463cf58666U, 0xbdaa6f8dbdc49e79U,
  0xbe68b82fbd46634cU, 0xbd69f0d2bd5b3c7cU, 0xbdd6f4aa3e05d447U, 0xbdc2da23bd6c3b8fU,
  0xbe98e3d8bc92c768U, 0xbd7ccf633d9ca692U, 0x3e1edbe7be8ba890U, 0xbe6267a1bd8037b8U,
  0x3d59575a3e1f0836U, 0x3d418701bdbac4f3U, 0x3e025d33be2a75cdU, 0x3daa0d5dbe248c8eU,
  0x3e4e93c3bdcfdb86U, 0xbf04c6e8be4db035U, 0xbe847143bd78bb1aU, 0xbdaceb9e3e410b95U,
  0xbeceb1923e58d6bcU, 0xbe2c38a2be2a6518U, 0x3d0385953da087fbU, 0xbedcd0cb3dbf90e9U,
  0xbeb803483d3a41a9U, 0x3e0792d3be3e3decU, 0xbb85dc343d85e946U, 0xbee7498ebe64da8aU,
  0xbd03d359bca2bdc7U, 0x3ba8d71b3e756f08U, 0xbdcf2da03dd0cb04U, 0xbd9b13183e0d19aaU,
  0x3d12ef51bde96adfU, 0x3de424d2be3c1276U, 0xbe54ce2cbeace52fU, 0xbe8362e43e02bbb4U,
  0xbe9ceb7dbd5d91e5U, 0xbe4154d53e9345dcU, 0x3c3377c93d79d96dU, 0xbef570e13e91c608U,
  0xbe2a9993be5cab14U, 0x3bf12cb1be8db886U, 0xbee37da6bcbc3fa9U, 0xbe4da056be9ae5b1U,
  0xbe4b8ce4bd89fe26U, 0x3d2fe71cbe0f5364U, 0xbe999bf7bd92276fU, 0xbd787abbbd854472U,
  0xbdbdf910be3243cfU, 0xbcb13f793e25b75eU, 0xbf02b7113dd4baedU, 0xbedcbbad3d961dc5U,
  0xbdc8e33d3d962a97U, 0xbe40ab67be83ced4U, 0xbbecc3d1be25aa2dU, 0x3d3e03b8bd9f445dU,
  0x3daf653f3dfe1260U, 0xbdf091a73c502334U, 0xbe1c4d3fbdc2d288U, 0xbd87c306bd3b0e5dU,
  0xbe548ef6bcdfd4c2U, 0x3ca9efabbe0954ddU, 0xbe8fd42bbe777edeU, 0x3d2b693abe8a51e5U,
  0x3dbe5df83dbf4164U, 0xbdc0d34bbe4b4d7aU, 0x3dc52546bd470f08U, 0x3d2bb0cdbd8bf65eU,
  0xbd6252a1bd0690fcU, 0xbde291a83e8030deU, 0x3d523fa4bc87e075U, 0xbe662b403e26ae41U,
  0xbe57c9d2bd9c9d2cU, 0xbdf27becbdda38a1U, 0x3d50bd2abe551ec1U, 0xbdd6f1b0bddc8427U,
  0x3e5a8ce6bc31c745U, 0x3e27425a3dd08870U, 0x3e8cb1f0bd8a0d03U, 0x3d91c061be52179eU,
  0x3deae2cb3dc2b69cU, 0xbe69f7f5bd1734ffU, 0xbb55c5c03d6b2103U, 0xbd87a9ea3cde0ddaU,
  0x3d5b35213cc78a1bU, 0x3e55193fbe9005ffU, 0xbe1045bcbe4f63a0U, 0x3dbadd3cbe113f89U,
  0xbbc99ccf3dd3a831U, 0xbafd768ebd674b7cU, 0xbe117791bcd9a580U, 0x3ced1442bcec198bU,
  0x3e0758bbbe4205caU, 0xbe341c373d2c8ae9U, 0x3c895bbabe2827e4U, 0xbda213aebe2a6bbcU,
  0xbe31ca27bd919c0dU, 0xbc83b7833d27b133U, 0x3d7cdc6db99713f7U, 0xbd97de81baadae84U,
  0x3d230334bcbc1dd8U, 0xbdbde4a83ec58ed3U, 0x3e322282bea2e14eU, 0x3c10a7fdbe312083U,
  0xbd636441bb7c3c5bU, 0xbe821d5dba74bbb4U, 0x3d968858be193948U, 0x3cfc4cb03d7eea64U,
  0xbc00f5693cdfa66aU, 0x3dc192c23dbe67a5U, 0xbe071bbbbdc5b098U, 0x3d87f661be0fd89fU,
  0x3d72b406bcef7c62U, 0xbe86145bbd1fab25U, 0x3d88a5b3bca78730U, 0x3dc6f920be8b462fU,
  0x3bae8aa73cfc4be1U, 0xbe9abf3b3d7c26baU, 0x3da7ca3bbe8ce3e1U, 0xbe089d6fbd080ac5U,
  0xbdcea5723ccc913fU, 0xbda4f435be56ffcdU, 0xbe73a7403b8fda97U, 0xbdaa06cfbd03d699U,
  0x3e7d735cbd04752bU, 0x3cc428a73e09cd76U, 0x3dcde4a5be05cfdcU, 0x3cfc7a00bd9a9301U,
  0x3cc0e1543ca68a43U, 0xbe4e1d263dd27867U, 0xbe11f63f3e2451c0U, 0xbe2a64e3bedf3e8eU,
  0xbb0763ffbcd125ceU, 0xbc336fecbe3c552dU, 0x3d47bc5abe0438f3U, 0xbe36cde8be8e3c9fU,
  0xbdc3aa26bc86c417U, 0xbe1871ed3ca930e7U, 0x3dbf5dc3bd96b83bU, 0xbd8115c73d154743U,
  0x3e13d7773cd9ade6U, 0xbe0ebf0b3d3c9f78U, 0xbe5248903dae7b9bU, 0xbd4c1c5b3dd7a86dU,
  0xbe9b559a3d862aafU, 0xbe84b137be0f5c2eU, 0x3d6fa388be281555U, 0xbd98bfec3d9de1dfU,
  0xbddd44b1be14d116U, 0xbdae55ce3ea20379U, 0x3db76c71bb65f0bdU, 0xbdbfcadd3dc38baeU,
  0xbe49f5d0be4d5782U, 0xbe0d7b4ebe2eff0fU, 0xbb8009debe50f64bU, 0xbb442f24bdc520f7U,
  0x3e9898c03dc97cb3U, 0xbd9fe2abbc026a6fU, 0x3d4918503e00a099U, 0x3d6a7e323e4322d6U,
  0x3dbd7a24bdc2443eU, 0x3d144b6e3e58c6cfU, 0xbcf0dbd53c9b36cdU, 0xbe2aea2abddf398aU,
  0xbe4052a3bd2ea6baU, 0xbdd30aa8be6cb5cdU, 0xbd967730bdbabf21U, 0xbe0c38573dae9cceU,
  0xbe02eb703b24ed3bU, 0xbe262563be40d32bU, 0xbe1b607ebc5ef6a2U, 0x3d9ad32bbdc56f63U,
  0xbdb6d2ccbdd6981fU, 0xbdfa46b2bc056393U, 0xbcd374dbbdd47937U, 0xbd6730cbbe2df34aU,
  0xbe23e4aa3d6bea1eU, 0xbd5a9f98bd824d37U, 0xbcc42663bd2e0df6U, 0xbddaaa4cbe2b1461U,
  0xbe265e7abe1b2bb7U, 0x3d1deb1cbc71b774U, 0xbd421558be37ca50U, 0x3d2eb2213d3a8f35U,
  0x3e1051edbd94c12bU, 0xbd8e82eebc0be020U, 0xbb630d4a3d8d912cU, 0x3df507e0bdb547afU,
  0xbe1bc20f3d2ebd7aU, 0xbe39d11e3c33d9f2U, 0xbd287b16be4a7531U, 0xbd92b878be2db0eaU,
  0xbd896e823cac1cc3U, 0x3e1b887f3e63c415U, 0xbcdd00c63d26612aU, 0xbdf2d82abc90f474U,
  0x3bfb45983d879a67U, 0x3e4453013dd4ed59U, 0xbc71e1d7be095d2cU, 0x3db56e63be180856U,
  0x3d820e193de977abU, 0x3d0c80073caa41feU, 0x3e8ffd3dbcfadec1U, 0x3e9f0379bd9df303U,
  0x3ecbb8a3be044b1cU, 0xbd9aae623e85f87cU, 0x3ea16f5ebd8c38d8U, 0x3cdd11ec3e2128a7U,
  0xbde336083d776c82U, 0x3f13bbea3f015771U, 0x3ae1f0babccde00fU, 0xbd5a44d2bd0daffcU,
  0x3d4015c63e22059bU, 0xbc8374783d16a49cU, 0xbcf38642be8acc15U, 0xbc0257b23d09102fU,
  0x3da4bb4bbde66f85U, 0x3d05eb043e146470U, 0xbe035a0f3d52f812U, 0x3d8887b63d43c893U,
  0x3b2135cb3d420770U, 0x3c59632a3d7bd1bcU, 0xbdb8a92cbdd4018cU, 0x3da9afb93d8b5189U,
  0xbd43e0213dcddac1U, 0x3e1e68df3e2559d0U, 0x3d493b333b3636dcU, 0x3d4a0936be2685e3U,
  0x3dcb66c23db51ea5U, 0xbbea27073e36dea1U, 0x3e57948ebe65b945U, 0x3e111c093ceaa558U,
  0x3dc3513bbde5267bU, 0x3e342e4ebc8ec3a0U, 0xbd673b703e313243U, 0xbd8dd74e3eba7288U,
  0x3e16b16d3e2bb137U, 0x3e1e61593e89c9f4U, 0x3ddf29f1bd4f8f88U, 0x3d8e3a793c8fe880U,
  0x3e17ea933a56a20fU, 0x3e18707a3e285e5fU, 0xbd173d0d3e66edebU, 0x3dba3674be6789ffU,
  0x3c50ce38bd024475U, 0x3e1be6263e493831U, 0x3e5c1d3fbe23c2c1U, 0xbc331f9ebe2e2c88U,
  0x3d68387a3d0116c8U, 0x3d2424473d45c183U, 0xbe028279bd5f1ed9U, 0x3e93e245bdb8e505U,
  0x3e0b72b5bdd281b4U, 0xbd06fcfe3b76d25eU, 0x3de998f8bd8df3b8U, 0xbc93e6ccbbf50d3fU,
  0x3d1b53113dcdfc61U, 0x3e9bf77c3d5b22baU, 0xbcc7f4d13e3a14c6U, 0x3dae9ecdbe666857U,
  0xbbaab30f3e08c658U, 0x3e678d973ea7fcf7U, 0x3e5f370fbe8964e4U, 0xbdc516123de28c69U,
  0xbd77f5a3be84de64U, 0x3e55b2033d839698U, 0xbdd5adfe3d85274fU, 0x3dc7a2d23be3f717U,
  0x3da9e8f23d05cc46U, 0xbd2da4533e35595bU, 0x3c62d7ebbc9d96a0U, 0xbd86599e3c251458U,
  0x3d173ca83d8af6dfU, 0x3e971a023ea2ad61U, 0x3dbb46223e335eddU, 0x3b5b5ce2be866c5fU,
  0xbd878a84be099e46U, 0xbd9816a83ee2061eU, 0x3eb4fce9be907942U, 0x3ab91f283e201b3eU,
  0x3d683426be47a133U, 0x3e5604203cc42180U, 0x3cdae0503d8c0370U, 0x3d7ae7b83cf73988U,
  0x3ea39b693d34a1e6U, 0x3d9dd9853dc6e033U, 0xbe19552f3e1c1ddcU, 0x3d5c89a63e50a8d0U,
  0x3d8d92f23db9d0f5U, 0x3e82fa193debc5f2U, 0x3e5806313e88f70fU, 0x3dc76378bea31ad8U,
  0x3c2a53903e050aa4U, 0x3e8428303eaf5577U, 0x3e7ea757bd4a6133U, 0x3df892cdbacbc061U,
  0x3d98a8cebd49db40U, 0x3e2465233c0f2213U, 0x3d939abcbd1fbe23U, 0xbdba59f13c67a9dbU,
  0x3dcf621abd11b379U, 0x3d6983d13e003effU, 0x3de2eee93d8863b9U, 0x3d265f1a3d547a18U,
  0xbbbba3453cd62693U, 0x3e1c3d383e13e0efU, 0x3d4166953e96b6e4U, 0x3d942ebbbe2ee5beU,
  0xbc2e79e6bdc9eebbU, 0xbd935e803ed9b351U, 0x3eaebeda3cdae8f7U, 0x3cf45e5f3e739dbbU,
  0x3d01f14ebe4d59a0U, 0x3e6130753d4a7bb2U, 0x3ded98cabd7b903fU, 0xbd06712d3db0504cU,
  0x3e47c65c3d4ce4abU, 0x3bebc81b3dd29d29U, 0x3db9f1963e3fb696U, 0x3d84751b3e694ef2U,
  0xbcc84dfa3c3df9c6U, 0x3e9e8ed83e05179bU, 0x3dd74cdf3e85ae9fU, 0x3d2dbc843ca1790fU,
  0xbdead0ebbdda0f3bU, 0xbcc6d7533ed636bdU, 0x3e939bf139ce6b76U, 0x3e0eae223e79eda8U,
  0xb86fcc433dee5f36U, 0xbe5802323db472acU, 0x3e9bbe353d41fda9U, 0x3e8bde3abd27cf6eU,
  0x3e8627f73dfc610cU, 0x3e0c88b6bde44f35U, 0x3df85e9fbe0fed84U, 0x3d8005833d00e1a0U,
  0x3d6d8e8e3d69e34dU, 0x3e5e22773ec569f7U, 0x3e655cab3de41946U, 0xbc8ac510bde56406U,
  0x3e4eaab53d41e236U, 0x3eae7428be8e0115U, 0x3d986b79bdb0c997U, 0x3de98d64be773606U,
  0x3d45f7073e2f1ce5U, 0x3d644d48bd97984fU, 0xbc9636263c0ced05U, 0x3e948eb43e043217U,
  0x3d58355abe0b7278U, 0xbdef98063d16d45fU, 0x3dba73ab3db390a9U, 0x3da509813e09ddfdU,
  0xbd8a1a7fbb976bbaU, 0x3e91bfb8ba0fc47eU, 0xbe408fe73d3c36e0U, 0xbd1cc49d3d4c19fcU,
  0x3ea019e53dd819edU, 0xbdc51e443d33b410U, 0x3e170e293ca17dbcU, 0x3d224a3cbda6a4abU,
  0xbce05773bedd4587U, 0x3e1c0cfa3d164035U, 0x3d8493efbe249a39U, 0xbdf0c3d43d10bfaeU,
  0xbe8ee0dd3dc012c7U, 0x3d18c4643d5c8c44U, 0xbf640d733da5d888U, 0x3c6933e83e05a287U,
  0xbda8d98bbc2e7595U, 0xbe65adffbe2b0706U, 0x3c25739d3d70bc64U, 0x3dcb66723e652726U,
  0x3e5367f43e376f0eU, 0xbe22a4f73dbc01ecU, 0xbd5afa5b3e3b3baeU, 0x3c0cc3fa3d3928afU,
  0xbc8bdeabbdac0807U, 0xbd9b7e8b3cef1688U, 0x3e837cbdbce682a6U, 0x3d37c803be509856U,
  0x3ea045eb3c975728U, 0x3e21d90cbdd4708fU, 0x3ef0016fbdf5e0c0U, 0xbc66f298bd9e67e3U,
  0x3d752c5f3d940590U, 0x3e119df13ea71373U, 0xbd09bb0bbd436e85U, 0xbd64bf8a3d342d80U,
  0x3d2f9fc33d52f710U, 0xbd87d2c2bd7e0b44U, 0xbbddac5cbe2866faU, 0xbe21f6083dabc3b8U,
  0xbe4820853e1b2861U, 0x3d0b4081bcfc7166U, 0xb834229e3d9c4a97U, 0xbdb74fccbdda0f9dU,
  0x3e0c44c23d15d5e6U, 0x3b46461bbe0f6a3fU, 0x3d9169063df27aceU, 0x3d0590ba3d190db2U,
  0xbdb6a82739ed25b9U, 0x3e1dcd42bdbb64cdU, 0xbdef67e2bbb2c235U, 0xbdec5c49be03beb1U,
  0xbe688bf1bdf90d09U, 0xbf6de2f83c01ebbaU, 0xbdf86d23bd87857cU, 0xbe12d8cb3dd5bf97U,
  0xbe2e7808be963397U, 0xbdfc4bfcbdb3aa92U, 0xbd21dfe2bd80bd92U, 0xbe76018bbdc878d7U,
  0xbd96eb34bd384449U, 0xbcef50e6bd91335fU, 0xbf4b0af93de0b949U, 0xb90400003db8b36bU,
  0x3c9600dcbcade2d8U, 0xbe536851be890069U, 0xbdcf112cbd9d4977U, 0xbd956993be386fb0U,
  0xbe0651313ecaa275U, 0xbe0fcb68bded778cU, 0xbe4697e7bd355baaU, 0xbd1cb8d3be06262aU,
  0x3d880f4f3c8d2795U, 0xbda480423cbf3a9eU, 0xbd4de1503e401889U, 0x3c8dc3983dabf417U,
  0x3e9f77f1bb6c148fU, 0xbd8ed230bce5ecd6U, 0x3ec81eeabd74a9e7U, 0x3cf1de803db2d26eU,
  0xbdd5eccc3e30f6a7U, 0x3dce65e43e963f5cU, 0x3e539a763e985775U, 0xbcc6c672be1adb5bU,
  0x3ce4b97e3b8e85e2U, 0x3dbfef9abe874152U, 0xbe3c99b33e583df5U, 0x3d675b0abd3906d7U,
  0xbd5773dcbd9c0e98U, 0xbe7944aa3c93527dU, 0xbe3864bdbc481e10U, 0xbe4030a3bc9d59a8U,
  0x3c8c5df83d09d158U, 0xbd66dea8be8a3e07U, 0xbe09aef2bc1b9c96U, 0x3c324018bdb97f15U,
  0xbdda291fbd99aa9bU, 0xbe34e621be57fb52U, 0xbdf6fcadbe02c95eU, 0x3c69e2443e1ed9c5U,
  0xbdec9090be25a8faU, 0xbe85385dbe30c264U, 0xbe34a35f3e3e2d12U, 0xbc028b233d4a196cU,
  0xbe9ccd61beac11c2U, 0xbe833c25bd07cf8bU, 0xbbd120c13d522fb9U, 0xbe68d7b7be4a7fe7U,
  0xbe9dbf4b3d85bbd3U, 0xbd46ca02be83095eU, 0xbeb24b3abccbe273U, 0x3da66899bce2bad2U,
  0xbd50c826bd3eea24U, 0xbc17197abe887828U, 0xbd22f37abe84eee4U, 0x3ccb021f3e88b1d4U,
  0xbec609223e126c74U, 0xbedc57c7bec0a1adU, 0x3d950c023d25a71bU, 0xbe1ca1323e24e261U,
